<pad>	0
<unk>	0
,	-2.12026
▁	-2.887
。	-3.33485
:	-4.16223
▁"	-4.30805
▁○	-4.31228
、	-4.37868
。"	-4.4563
之	-4.96464
以	-5.31206
/	-5.39382
▁而	-5.43421
者	-5.47302
也	-5.5365
爲	-5.59806
?	-5.61742
於	-5.71434
曰	-5.72545
事	-5.72827
▁則	-5.92222
▁以	-6.00222
等	-6.09087
矣	-6.1307
有	-6.18668
而	-6.22708
時	-6.25207
人	-6.28088
其	-6.28955
乎	-6.29234
及	-6.30611
則	-6.51142
▁其	-6.54992
不	-6.55044
▁‘	-6.56583
?"	-6.57087
▁傳曰	-6.60899
一	-6.65247
▁請	-6.67744
無	-6.68735
于	-6.6985
命	-6.71358
▁答曰	-6.71579
啓曰	-6.75585
▁故	-6.7587
所	-6.77321
與	-6.77714
後	-6.7782
▁且	-6.78025
行	-6.78134
▁上曰	-6.78852
中	-6.79737
李	-6.83113
自	-6.85024
金	-6.85961
之事	-6.87637
上	-6.88896
大	-6.89708
言	-6.93076
云	-6.97118
啓	-6.99663
▁【	-7.00357
。’	-7.0141
臣	-7.02277
前	-7.02751
在	-7.04961
下	-7.06848
當	-7.08967
出	-7.097
處	-7.10007
請	-7.12356
亦	-7.14295
▁今	-7.14693
官	-7.15201
之意	-7.16276
《	-7.16302
傳曰	-7.16618
至	-7.19088
日	-7.19864
可	-7.20364
▁從之	-7.20768
此	-7.2405
ᆞ	-7.2435
▁然	-7.24849
》	-7.24878
▁命	-7.24932
用	-7.25226
。】	-7.25691
議	-7.25883
文	-7.27491
(	-7.2777
▁又	-7.30504
▁上	-7.31655
入	-7.32337
▁若	-7.33214
成	-7.33552
來	-7.34718
內	-7.35159
見	-7.35411
生	-7.35589
正	-7.35681
已	-7.36825
同	-7.37097
三	-7.37396
▁亦	-7.37698
〕	-7.38491
得	-7.38997
之人	-7.39223
;	-7.40205
家	-7.40308
將	-7.40717
使	-7.41092
非	-7.41205
禮	-7.41482
令	-7.42038
欲	-7.42425
名	-7.427
書	-7.4362
年	-7.44342
▁雖	-7.45769
相	-7.45856
安	-7.48787
知	-7.49621
山	-7.50171
加	-7.50527
何如	-7.52635
外	-7.5299
大臣	-7.53038
重	-7.53457
明	-7.54327
▁有	-7.54554
如	-7.54724
進	-7.54889
多	-7.55243
未	-7.55445
不可	-7.55719
辭	-7.57311
罪	-7.57674
從	-7.58898
▁但	-7.59153
道	-7.59932
民	-7.60055
)〔	-7.60066
如此	-7.60095
▁不可	-7.6022
雖	-7.60356
子	-7.60442
是	-7.60456
皆	-7.60466
▁自	-7.61684
今	-7.63129
▁或	-7.63603
以爲	-7.6434
▁使	-7.64561
▁皆	-7.64635
▁令	-7.64813
例	-7.65176
德	-7.66888
若	-7.66895
朴	-7.68035
守	-7.68068
▁當	-7.69064
▁臣	-7.69226
定	-7.70368
必	-7.70791
▁不允	-7.71092
論	-7.7124
之罪	-7.71387
焉	-7.71895
臺諫	-7.71946
兩	-7.72256
受	-7.72813
聞	-7.72816
守令	-7.73898
兵	-7.74182
復	-7.7497
心	-7.75052
數	-7.75531
還	-7.76126
予	-7.76259
可也	-7.76513
之時	-7.7692
▁況	-7.7753
甚	-7.77712
鄭	-7.7787
二	-7.78173
國	-7.78728
▁乃	-7.79317
又	-7.79329
尹	-7.79471
善	-7.80008
元	-7.80173
石	-7.8033
▁至於	-7.80451
世	-7.80549
之後	-7.80552
因	-7.80887
義	-7.8105
給	-7.8223
▁與	-7.82346
耳	-7.82896
馬	-7.82936
居	-7.82972
先	-7.83247
立	-7.83822
或	-7.84031
發	-7.84472
▁仍	-7.84721
許	-7.85292
地	-7.85412
天	-7.85795
▁此	-7.85935
作	-7.86158
之言	-7.867
仁	-7.87005
權	-7.87269
▁非	-7.87294
遣	-7.87407
軍	-7.88289
法	-7.88314
意	-7.88394
旣	-7.88447
各	-7.88732
然	-7.88822
哉	-7.88842
▁不	-7.8988
▁竝	-7.90086
乃	-7.90187
職	-7.91013
分	-7.91198
往	-7.91234
間	-7.91333
▁臣等	-7.91529
賊	-7.92154
卿	-7.92792
任	-7.93023
上疏	-7.93297
長	-7.93594
賜	-7.93595
過	-7.93869
問	-7.94101
死	-7.94755
送	-7.94792
五	-7.94854
卽	-7.94875
盡	-7.9648
直	-7.96663
實	-7.96681
初	-7.96828
陳	-7.96853
公	-7.97112
病	-7.97204
洪	-7.97734
何	-7.9789
去	-7.97974
四	-7.9859
致	-7.99161
設	-7.99375
▁宜	-7.99465
應	-7.9947
諸	-7.99534
親	-7.99639
趙	-7.99819
望	-8.00324
難	-8.00903
▁一	-8.015
朝	-8.01686
柳	-8.01843
允	-8.02359
王	-8.02393
門	-8.0257
)	-8.03156
▁爲	-8.03886
稱	-8.04029
▁卽	-8.05381
之地	-8.05851
治	-8.06035
諭	-8.06395
▁必	-8.06561
不能	-8.06713
竝	-8.06975
▁上從之	-8.07135
服	-8.07271
爲之	-8.07856
新	-8.07911
我	-8.08201
小	-8.08293
經	-8.08928
宗	-8.09358
而已	-8.09505
改	-8.09566
本	-8.10227
更	-8.10369
擧	-8.10507
申	-8.10785
鎭	-8.109
罷	-8.10968
君	-8.11107
之命	-8.11217
白	-8.11274
通	-8.115
耶	-8.1176
’	-8.11886
孫	-8.12303
南	-8.12403
方	-8.1303
益	-8.13155
以啓	-8.13185
▁李	-8.13262
▁使之	-8.13574
▁只	-8.13834
崔	-8.14397
私	-8.14515
▁欲	-8.14758
▁如	-8.14824
待	-8.14891
尙	-8.14979
興	-8.15218
臣等	-8.15611
承旨	-8.15677
告	-8.15809
▁因	-8.16038
▁至	-8.16099
平	-8.16304
除	-8.16308
慶	-8.16543
老	-8.17122
承	-8.17313
依啓	-8.17926
海	-8.18308
▁無	-8.18435
差	-8.1849
主	-8.18756
信	-8.18855
朔	-8.18916
敬	-8.19109
持平	-8.19157
之道	-8.19746
忠	-8.20153
遠	-8.20229
別	-8.20642
▁予	-8.20647
被	-8.20884
取	-8.20933
疏	-8.2128
水	-8.21774
府	-8.22006
東	-8.22173
城	-8.22224
失	-8.2235
不得	-8.22737
能	-8.22992
之弊	-8.23256
學	-8.23587
身	-8.23659
達	-8.23868
報	-8.24238
故	-8.24405
宜	-8.2459
勿	-8.2491
處置	-8.25262
今日	-8.25733
張	-8.25826
歸	-8.26052
始	-8.26202
正言	-8.2625
奉	-8.26729
置	-8.26891
漢	-8.27225
觀	-8.27434
常	-8.27455
賢	-8.27549
龍	-8.27706
依	-8.28026
卒	-8.28395
田	-8.28867
▁依	-8.29876
夜	-8.29916
孝	-8.30407
罪人	-8.30966
黃	-8.31118
等事	-8.3112
之日	-8.31375
禁	-8.31904
到	-8.31918
備	-8.32248
遞	-8.32344
役	-8.32466
深	-8.32718
米	-8.32784
之際	-8.33081
施	-8.33775
掌令	-8.33784
敎	-8.33998
以下	-8.34061
徵	-8.34189
▁(	-8.34568
擧行	-8.34819
授	-8.34871
春	-8.3488
物	-8.35415
言之	-8.35499
儒生	-8.36101
傳	-8.36153
右議政	-8.36505
永	-8.36548
節	-8.36616
極	-8.37083
退	-8.37318
字	-8.3759
堂上	-8.37618
變	-8.37632
朝廷	-8.37693
邑	-8.38044
嚴	-8.38165
合	-8.38334
萬	-8.38457
兼	-8.38607
納	-8.38694
殿	-8.38976
謂	-8.39066
具	-8.39205
和	-8.39221
移	-8.39339
▁旣	-8.39544
祭	-8.39913
▁已	-8.40327
思	-8.4034
之擧	-8.40468
殿下	-8.4051
起	-8.40639
犯	-8.41902
罷職	-8.42046
好	-8.42127
!	-8.42141
西	-8.42261
大司憲	-8.42356
推	-8.42577
考	-8.42907
良	-8.43047
韓	-8.43317
壽	-8.43436
錄	-8.43535
順	-8.43546
沈	-8.43575
聽	-8.43858
源	-8.44045
近	-8.44058
結	-8.44079
▁蓋	-8.4428
▁至是	-8.44341
妻	-8.44447
政	-8.44465
計	-8.44876
風	-8.45039
前日	-8.45155
陵	-8.45428
六	-8.45576
養	-8.45677
之心	-8.45732
▁以爲	-8.46007
久	-8.46086
就	-8.46375
少	-8.46753
歲	-8.46881
誠	-8.47096
坐	-8.47281
率	-8.47611
樂	-8.47747
▁凡	-8.47775
食	-8.47858
屬	-8.47862
聖	-8.47966
淸	-8.4808
布	-8.48253
施行	-8.48488
凡	-8.48517
次	-8.48598
▁上命	-8.48725
終	-8.48743
語	-8.48846
囚	-8.49107
不知	-8.49366
輕	-8.49552
船	-8.49574
推考	-8.49861
殺	-8.50054
縣	-8.50123
世子	-8.5019
減	-8.50206
色	-8.5066
▁是	-8.50721
▁豈	-8.5083
左議政	-8.50975
力	-8.51001
氣	-8.51187
勿辭	-8.51252
高	-8.51332
載	-8.51441
參	-8.51782
代	-8.51834
厚	-8.52068
戶	-8.52249
他	-8.52453
奴婢	-8.52483
營	-8.52781
縣監	-8.5279
爲持平	-8.52836
爲正言	-8.52887
之法	-8.52891
▁敎曰	-8.52911
路	-8.5344
爲掌令	-8.53474
口	-8.53765
律	-8.54245
召	-8.54421
▁遂	-8.54433
▁云	-8.54543
如是	-8.54715
功	-8.54814
拜	-8.54986
兵曹	-8.55499
幸	-8.55516
講	-8.55528
▁不可不	-8.56228
古	-8.56424
吏	-8.56929
惡	-8.57316
試	-8.57392
吉	-8.57427
全	-8.57451
只	-8.57647
停	-8.57676
憲府	-8.57686
連	-8.57827
監司	-8.57856
修	-8.5827
士	-8.58297
國家	-8.58673
星	-8.58974
回	-8.59227
造	-8.59273
御	-8.59437
》,	-8.59495
易	-8.59553
▁將	-8.59635
留	-8.59717
位	-8.59726
絶	-8.59943
放	-8.59998
七	-8.6001
▁行	-8.60295
我國	-8.60307
邊	-8.60343
使臣	-8.60371
異	-8.6065
之說	-8.60699
大司諫	-8.61103
宋	-8.61354
理	-8.61398
曾	-8.61423
入侍	-8.61442
女	-8.61598
再	-8.61652
獻	-8.61878
度	-8.62115
陽	-8.62197
廢	-8.62207
傷	-8.62527
運	-8.6259
土	-8.62727
▁時	-8.62903
十	-8.62941
▁批曰	-8.62957
爾	-8.63029
封	-8.63451
者也	-8.63549
敎曰	-8.63755
收	-8.64007
薦	-8.64068
亂	-8.64186
九	-8.64273
容	-8.64283
舊	-8.64351
之所	-8.6443
木	-8.64517
流	-8.64615
疾	-8.64633
司	-8.64683
雨	-8.64705
師	-8.64862
喪	-8.64999
說	-8.65082
章	-8.65643
汝	-8.65705
答	-8.65826
昌	-8.66018
軍士	-8.66185
制	-8.66568
一人	-8.66722
求	-8.66913
八	-8.66925
▁幷	-8.66993
月	-8.67
解	-8.67083
提調	-8.67105
草	-8.67257
▁殿下	-8.67392
未安	-8.67454
福	-8.67506
免	-8.67547
爲承旨	-8.67577
禮曹	-8.67582
衣	-8.67587
寧	-8.67618
▁金	-8.67738
引	-8.67785
母	-8.67803
史臣曰	-8.67867
奏	-8.67927
兩司	-8.67934
顯	-8.68127
開	-8.68355
政院	-8.68418
繼	-8.68603
光	-8.68971
之狀	-8.69288
虛	-8.69337
周	-8.69512
▁各	-8.69518
父	-8.6955
慮	-8.69851
情	-8.69903
之任	-8.69949
郡守	-8.70285
貴	-8.70327
惟	-8.70352
出於	-8.70486
林	-8.70575
廣	-8.70675
夏	-8.70749
示	-8.70887
招	-8.70999
之間	-8.7102
首	-8.71093
穀	-8.71289
吾	-8.71453
懷	-8.71608
都	-8.72046
倭	-8.72578
幷	-8.7273
▁以此	-8.72816
念	-8.72839
科	-8.72976
宮	-8.73263
執義	-8.73437
面	-8.73558
雲	-8.73597
功臣	-8.73754
保	-8.74243
關	-8.74529
狀啓	-8.74627
會	-8.74774
疑	-8.75013
加資	-8.75068
對	-8.75092
號	-8.75164
利	-8.75222
▁在	-8.75229
堂	-8.75239
夫	-8.75475
獨	-8.757
玉	-8.75711
臨	-8.75908
仍	-8.75939
期	-8.76014
之計	-8.76144
本道	-8.76159
司諫	-8.7623
▁何	-8.76305
平安道	-8.76603
獻納	-8.76621
▁從	-8.76791
餘	-8.76897
來啓曰	-8.77115
似	-8.77176
付	-8.77188
武	-8.77297
恩	-8.77315
條	-8.77514
之敎	-8.776
蒙	-8.77839
諸臣	-8.78149
避	-8.78379
頭	-8.78391
己	-8.78402
決	-8.78429
察	-8.78594
痛	-8.78628
遇	-8.78629
責	-8.78785
不足	-8.789
指	-8.78925
傳于政院曰	-8.79037
▁大臣	-8.79038
不爲	-8.79048
止	-8.79108
圖	-8.79263
微	-8.79419
謙	-8.7948
▁不得	-8.79785
奴	-8.79834
▁初	-8.80063
以此	-8.80146
▁賜	-8.80166
都監	-8.80356
之禮	-8.80542
知道	-8.80552
愼	-8.80694
擇	-8.80733
持	-8.80864
吳	-8.80968
奸	-8.81273
體	-8.81404
刑	-8.8141
丁	-8.81496
▁實	-8.81714
强	-8.8185
手	-8.81867
銀	-8.83008
英	-8.83045
之典	-8.83225
太	-8.83236
之論	-8.83351
貞	-8.83426
火	-8.83446
▁大	-8.83496
濟	-8.83526
翼	-8.83532
逆	-8.83605
昨日	-8.83652
由	-8.8377
百	-8.83815
▁可	-8.83844
原	-8.83913
故也	-8.84186
島	-8.84245
斷	-8.8427
典	-8.84358
▁每	-8.84653
向	-8.84664
盛	-8.84703
固	-8.84788
獄	-8.84861
刑曹	-8.8502
▁《	-8.85086
果	-8.85179
姜	-8.85358
監	-8.85521
▁今者	-8.85676
領	-8.85719
追	-8.85976
▁恐	-8.86231
降	-8.86328
所啓	-8.86543
秋	-8.8706
彦	-8.87089
業	-8.87096
捕	-8.87103
京畿	-8.87234
喜	-8.87611
恭	-8.87628
之物	-8.87724
錫	-8.87769
上來	-8.87785
里	-8.87883
僧	-8.8797
馳啓	-8.88047
闕	-8.88065
廳	-8.88076
今年	-8.88128
"	-8.88423
才	-8.88491
書啓	-8.88673
閔	-8.88718
急	-8.8887
▁更	-8.88882
▁不能	-8.88942
習	-8.89062
執	-8.89258
廟	-8.89265
江	-8.89484
志	-8.8957
▁今後	-8.89595
接	-8.89626
之患	-8.89963
▁多	-8.90293
存	-8.90324
省	-8.90423
革	-8.9044
不允	-8.90475
公事	-8.90511
郡	-8.90521
州	-8.90768
北	-8.91001
恐	-8.91191
河	-8.91379
對曰	-8.91381
據	-8.91549
輔	-8.9156
弊	-8.91656
詣	-8.91696
交	-8.91736
政院啓曰	-8.91954
戊申	-8.92071
弘文館	-8.92072
狀	-8.92097
御史	-8.92123
至此	-8.92365
速	-8.92453
近來	-8.92558
京	-8.9276
▁今日	-8.9294
郞廳	-8.93088
祖	-8.9332
種	-8.93419
辨	-8.93432
之義	-8.93651
神	-8.93675
衆	-8.93815
▁然後	-8.93825
切	-8.93876
▁前	-8.94005
禮曹啓曰	-8.94029
尊	-8.94065
院	-8.94116
捧	-8.94147
入啓	-8.94212
徐	-8.94216
啓辭	-8.94374
寺	-8.94418
患	-8.94453
精	-8.94471
都承旨	-8.94532
補	-8.94619
▁不聽	-8.94629
特	-8.94703
榮	-8.94798
之數	-8.95005
憲府啓曰	-8.95022
勢	-8.95116
而不	-8.95122
衛	-8.95258
怨	-8.95264
▁自上	-8.95265
供	-8.95384
▁○(	-8.95516
輩	-8.95565
射	-8.95635
漸	-8.95659
慶尙道	-8.95837
左	-8.96011
宰相	-8.96026
▁及	-8.96066
之中	-8.96106
鄕	-8.96131
男	-8.96132
論啓	-8.96243
謀	-8.96329
畢	-8.96454
祿	-8.96533
赴	-8.96587
賞	-8.96609
▁請令	-8.96679
且	-8.9679
天使	-8.96797
議政府	-8.96806
爲大司諫	-8.96929
羅	-8.9714
杖	-8.97263
領議政	-8.9728
錢	-8.97368
吏曹	-8.97386
俱	-8.97596
眞	-8.97688
臺	-8.97933
不敢	-8.97997
性	-8.98038
爲獻納	-8.98162
往來	-8.98219
右	-8.98323
館	-8.98395
累	-8.98477
帶	-8.9868
都事	-8.98811
散	-8.98826
斥	-8.9891
▁豈可	-8.98917
煩	-8.99068
稟	-8.99078
專	-8.99196
靑	-8.99259
完	-8.99291
庭	-8.99319
▁惟	-8.99438
▁臺諫	-8.99455
務	-8.99476
儀	-8.99863
動	-8.99982
▁先	-9.0005
以上	-9.00107
便	-9.0015
防	-9.00157
着	-9.00311
不當	-9.00422
吏曹判書	-9.0055
彼	-9.00614
大典	-9.00622
基	-9.0067
?’	-9.00689
▁略曰	-9.00862
推鞫	-9.00949
幾	-9.00968
▁下	-9.01154
之語	-9.0116
前後	-9.0141
選	-9.01428
泰	-9.01448
酒	-9.01502
違	-9.01636
宣	-9.01637
出入	-9.01705
害	-9.01781
惠	-9.01786
事體	-9.01944
目	-9.01976
諫院	-9.02164
亨	-9.02188
弘	-9.02352
一時	-9.02448
爲司諫	-9.02606
薄	-9.02609
隨	-9.02688
紙	-9.02698
簡	-9.02823
政府	-9.02881
壬辰	-9.0298
聲	-9.02981
遞差	-9.03159
戒	-9.03249
諸道	-9.03502
引避	-9.03537
救	-9.03563
謝	-9.03711
足	-9.03747
之失	-9.03914
有所	-9.04005
知之	-9.04053
宴	-9.04261
呈	-9.04273
遂	-9.04337
資	-9.04451
鞫	-9.04497
兵曹判書	-9.04613
行之	-9.04658
寒	-9.04708
奪	-9.04747
。"】	-9.04932
猶	-9.04993
爲執義	-9.05031
近日	-9.05104
貢	-9.05253
雜	-9.05279
外方	-9.05293
器	-9.05629
華	-9.0567
備邊司啓曰	-9.05766
限	-9.05953
俊	-9.06019
棄	-9.0628
▁特	-9.06667
全羅道	-9.06692
擬	-9.06823
爲大司憲	-9.0696
徒	-9.06963
之行	-9.06999
啓請	-9.07421
爲修撰	-9.07426
陞	-9.07634
美	-9.07695
景	-9.07788
每	-9.07823
戊午	-9.07994
視	-9.08065
糧	-9.0809
百官	-9.08156
▁其餘	-9.08164
斗	-9.08239
素	-9.08443
憲	-9.08461
寶	-9.08461
下敎	-9.08636
各道	-9.08861
黨	-9.08916
遺	-9.09063
▁承旨	-9.09512
溫	-9.09608
▁今此	-9.09763
儒	-9.09773
房	-9.10157
效	-9.10285
怒	-9.10443
之疏	-9.10674
誤	-9.10737
負	-9.10849
郞	-9.10852
密	-9.10862
▁政院	-9.10862
備局	-9.11097
判	-9.11217
▁尙	-9.11241
癸丑	-9.11392
二人	-9.11414
問安	-9.11455
▁卿	-9.11491
弼	-9.11536
之變	-9.1197
等啓曰	-9.11988
上言	-9.1206
勞	-9.12174
庚申	-9.12201
著	-9.12206
讀	-9.12325
壬子	-9.12377
尤	-9.12413
三司	-9.12539
本府	-9.12652
伊	-9.1276
己酉	-9.12912
▁猶	-9.13052
官員	-9.13073
釋	-9.13145
傳敎	-9.1336
庚戌	-9.13497
建	-9.13498
戶曹	-9.13536
▁終	-9.13578
贈	-9.13701
乙卯	-9.13724
梁	-9.13795
磨鍊	-9.13875
慰	-9.13902
崇	-9.14079
希	-9.14151
記	-9.14214
▁俾	-9.14311
玉堂	-9.14496
判官	-9.14511
▁所當	-9.14521
▁始	-9.14565
室	-9.14574
齊	-9.14821
▁大抵	-9.14952
於此	-9.14999
兵使	-9.15015
敗	-9.15046
反	-9.15049
之例	-9.15056
藥	-9.15099
▁則其	-9.15148
史	-9.15149
勸	-9.15165
憂	-9.15196
要	-9.15266
▁講	-9.1535
感	-9.15513
以聞	-9.1557
克	-9.15601
甲寅	-9.15652
▁自今	-9.15673
此事	-9.15722
嘗	-9.15889
禮曹啓	-9.15923
末	-9.15952
出來	-9.16043
延	-9.16084
祥	-9.16181
▁今若	-9.16235
碩	-9.16296
甲	-9.16394
官吏	-9.1643
▁須	-9.16445
戰	-9.16485
義禁府	-9.16695
築	-9.16791
爲當	-9.16905
比	-9.1696
之臣	-9.16984
辛亥	-9.17092
以來	-9.17206
介	-9.1726
遽	-9.17319
出仕	-9.17419
準	-9.17433
之民	-9.17468
丁巳	-9.17517
▁誠	-9.17582
誣	-9.17604
藏	-9.17639
丙辰	-9.17798
詩	-9.17834
之請	-9.17902
人心	-9.17949
遷	-9.18098
製	-9.18143
壬戌	-9.18318
寢	-9.18346
辛酉	-9.18366
削	-9.18503
野人	-9.18519
國事	-9.18592
▁勿	-9.18629
豈	-9.18686
享	-9.18846
之故	-9.18925
御經筵	-9.18934
純	-9.18993
▁願	-9.19148
以後	-9.19224
傳旨	-9.1925
表	-9.19308
恒	-9.19311
詳	-9.19371
當初	-9.19372
證	-9.19403
所謂	-9.19442
▁如有	-9.19457
稍	-9.19473
王世子	-9.19502
▁以致	-9.19554
乙巳	-9.19659
牌	-9.19662
印	-9.19749
爲校理	-9.19799
寬	-9.19948
空	-9.19995
價	-9.20192
毁	-9.20387
點	-9.20395
貿	-9.20415
已諭	-9.2043
仕	-9.20467
史官	-9.20548
端	-9.2056
最	-9.20592
産	-9.20716
量	-9.20816
啓聞	-9.20871
卿等	-9.20878
禮曹判書	-9.20909
香	-9.20934
▁不敢	-9.20982
議啓	-9.21006
▁反	-9.21094
諫院啓曰	-9.21101
辛丑	-9.2121
己未	-9.21319
配	-9.2136
尤甚	-9.21472
半	-9.21716
略	-9.21769
澤	-9.21822
而來	-9.21859
該曹	-9.22115
府使	-9.22152
已久	-9.22166
根	-9.22171
▁尤	-9.2223
勤	-9.22268
處分	-9.22456
聚	-9.2247
公論	-9.22475
願	-9.23088
丙子	-9.23093
己卯	-9.2319
集	-9.23192
品	-9.23254
▁敢啓	-9.23283
唐	-9.23525
甲子	-9.23537
祀	-9.23602
凶	-9.23651
胡	-9.23779
▁或有	-9.23795
窮	-9.23963
葬	-9.24104
休	-9.24174
未便	-9.24254
侍	-9.24306
副	-9.24372
與否	-9.24579
千	-9.24761
仲	-9.24774
廷	-9.24807
▁今則	-9.2494
庚子	-9.24954
松	-9.25022
▁朝廷	-9.25123
。")	-9.25218
第	-9.25224
處之	-9.25284
癸亥	-9.25352
愚	-9.2542
愛	-9.25571
敍用	-9.25639
堅	-9.25788
己丑	-9.25805
壬寅	-9.25812
之啓	-9.25889
各官	-9.26243
赦	-9.2628
▁請遞	-9.26325
丁未	-9.26328
▁上以	-9.26345
兒	-9.26354
濫	-9.26361
啓之	-9.26418
甲戌	-9.26429
畏	-9.26472
屢	-9.26475
等處	-9.26586
災	-9.26589
▁王	-9.26597
案	-9.26646
軍官	-9.2668
節目	-9.26687
禁府	-9.26748
秀	-9.26761
冊	-9.26762
丁酉	-9.26842
部	-9.26895
可矣	-9.26958
某	-9.27004
忠淸道	-9.27068
啓言	-9.27094
之子	-9.271
自上	-9.27175
辭職	-9.27176
▁雖有	-9.27191
▁不從	-9.27208
辛卯	-9.27256
己巳	-9.27262
損	-9.27296
丙申	-9.27312
▁近來	-9.2735
迫	-9.27389
▁不爲	-9.27397
甲辰	-9.27467
庚寅	-9.27672
▁聞	-9.27723
除授	-9.27745
聖上	-9.27804
浦	-9.27847
淳	-9.27863
▁不必	-9.27947
川	-9.27986
査	-9.28106
乙未	-9.28206
登	-9.28304
子孫	-9.28324
文書	-9.28343
▁待	-9.28352
辛巳	-9.28353
勝	-9.28356
牛	-9.28453
父母	-9.28797
丁丑	-9.28827
▁後	-9.28839
推之	-9.28842
▁仍命	-9.28854
審	-9.29051
謹	-9.29112
亦有	-9.29117
氏	-9.29179
觀察使	-9.29227
妄	-9.29231
乙亥	-9.29408
賤	-9.29452
丙午	-9.2962
▁分	-9.29754
各司	-9.2983
▁得	-9.29908
爲副修撰	-9.29966
上箚	-9.3
問之	-9.30023
掌	-9.30064
丁卯	-9.30208
▁卿等	-9.30251
未及	-9.30292
己亥	-9.30316
▁入	-9.3035
涉	-9.30501
二十	-9.30579
亡	-9.30594
甲午	-9.30746
洞	-9.30954
▁乞	-9.30968
威	-9.3098
兪	-9.31066
先朝	-9.31166
伯	-9.31177
乙	-9.31184
戊辰	-9.3139
花	-9.314
宗親	-9.31408
昭	-9.31511
通事	-9.31539
癸卯	-9.31553
智	-9.31624
籍	-9.31882
▁講訖	-9.31943
壬午	-9.31988
須	-9.31998
滿	-9.3207
備邊司	-9.32169
三公	-9.32185
庚午	-9.32206
辱	-9.32338
戊戌	-9.32424
不許	-9.3244
愈	-9.32472
破	-9.32572
盜	-9.32627
農	-9.3264
中外	-9.32678
戊子	-9.32702
▁而今	-9.3271
其罪	-9.32773
癸巳	-9.32807
乙酉	-9.32808
員	-9.32849
瑞	-9.32907
》。	-9.33101
之職	-9.33176
戊寅	-9.33193
淵	-9.33271
▁不宜	-9.33283
忘	-9.3337
輕重	-9.33412
不同	-9.33502
料	-9.33529
宗廟	-9.33541
敢	-9.33565
勉	-9.33595
黃海道	-9.33613
庚辰	-9.33801
箚	-9.33814
歟	-9.33909
公議	-9.33929
增	-9.34004
癸酉	-9.34078
爭	-9.34081
如何	-9.34123
丁亥	-9.34136
修撰	-9.34154
劾	-9.34162
升	-9.34213
癸未	-9.3436
道臣	-9.3436
之類	-9.34387
之議	-9.34433
三年	-9.34475
至於	-9.34526
壬申	-9.34584
早	-9.34686
宿	-9.34713
爵	-9.3475
所言	-9.34838
然後	-9.3488
列	-9.34912
爲副校理	-9.34978
鐵	-9.3502
所以	-9.3502
冒	-9.35103
丙寅	-9.3531
兇	-9.3536
門外	-9.35741
規	-9.35749
丙戌	-9.3576
▁非但	-9.35769
乙丑	-9.35818
內官	-9.3584
▁可以	-9.35913
尺	-9.35931
東宮	-9.35953
承政院	-9.36045
上敎	-9.3611
莫	-9.36221
苦	-9.36387
騎	-9.36534
▁其後	-9.3657
適	-9.36646
左右	-9.36663
護	-9.36682
嘉	-9.36696
伏	-9.36771
稅	-9.36781
先王	-9.36831
所爲	-9.36984
不得已	-9.37032
迎	-9.37107
義州	-9.37158
之策	-9.37169
指揮	-9.37171
胤	-9.37184
用之	-9.37187
之官	-9.37212
耕	-9.37271
墓	-9.37407
濟州	-9.37525
大將	-9.37603
塞	-9.37715
辛未	-9.37811
視事	-9.37824
▁姑	-9.3805
邦	-9.38072
▁固	-9.38112
〔	-9.38258
柱	-9.38279
入直	-9.38312
逃	-9.38419
震	-9.38435
▁必有	-9.3844
▁尹	-9.38487
其時	-9.38501
▁權	-9.38537
馳啓曰	-9.38578
甲申	-9.38608
措置	-9.38631
禍	-9.38632
俗	-9.38719
六曹	-9.38815
優	-9.38846
‘	-9.38968
罰	-9.39059
▁俱	-9.39071
議處	-9.39101
干	-9.39157
▁除	-9.39158
賀	-9.3938
▁其時	-9.39407
附	-9.39579
茂	-9.39581
▁見	-9.39652
嫌	-9.39672
形	-9.39684
爲司諫院大司諫	-9.39794
之理	-9.39841
上疏曰	-9.39878
之辭	-9.3988
駭	-9.39892
積	-9.40012
▁豈不	-9.40037
豐	-9.4007
司憲府	-9.40139
▁何以	-9.40144
康	-9.40206
之處	-9.40211
拿來	-9.40249
童	-9.40303
策	-9.40382
邪	-9.40431
議之	-9.40432
▁不過	-9.40609
。)	-9.40612
卷	-9.40684
格	-9.407
▁前後	-9.40743
市	-9.40749
遼東	-9.40763
代之	-9.40895
晩	-9.41025
憤	-9.41037
飭	-9.41119
從之	-9.41205
文臣	-9.41361
五十	-9.41635
一日	-9.41722
大君	-9.41816
▁而其	-9.41834
一百	-9.41901
陰	-9.41901
式	-9.41959
虎	-9.42018
齋	-9.42085
弟	-9.42094
大小	-9.42116
之役	-9.42256
奇	-9.42285
府院君	-9.42338
日本國	-9.42405
三人	-9.42469
曺	-9.42538
儲	-9.42723
等上疏	-9.42742
化	-9.42759
差出	-9.42841
步	-9.42896
衡	-9.42902
▁敢	-9.42913
邊將	-9.43139
副使	-9.43193
侍衛	-9.43259
淑	-9.43273
不可不	-9.43274
▁則必	-9.43389
入來	-9.43401
席	-9.4344
行禮	-9.43594
▁未	-9.43628
攻	-9.43679
▁請依	-9.43697
宇	-9.43765
匹	-9.43849
孟	-9.44019
魚	-9.44095
鳳	-9.44133
隱	-9.44157
哀	-9.44207
不從	-9.44252
聞之	-9.44268
臺官	-9.44337
奠	-9.44365
本曹	-9.44367
仰	-9.44373
▁今又	-9.44441
曹	-9.44468
一事	-9.44506
助	-9.44596
係	-9.44612
▁勿爲	-9.44627
▁則當	-9.4467
▁極爲	-9.44713
敍	-9.44815
▁當此	-9.44831
郞官	-9.44873
撤	-9.45023
儒臣	-9.45135
之功	-9.45139
萬戶	-9.45144
》、《	-9.45189
倉	-9.45212
大事	-9.45326
▁若不	-9.45336
經筵	-9.45355
明日	-9.45364
緩	-9.45463
▁多有	-9.45493
卜	-9.45562
實錄	-9.45578
▁大槪	-9.45658
照	-9.45665
顧	-9.45681
▁遽	-9.45855
恤	-9.45875
傳于	-9.45921
▁亦有	-9.45959
類	-9.45991
▁夫	-9.46204
遵	-9.46211
兄弟	-9.46211
見之	-9.46417
▁何必	-9.46476
阿	-9.46485
皇帝	-9.46727
侍從	-9.46782
是非	-9.46934
冬	-9.47123
皮	-9.47142
楊	-9.47168
旨	-9.47244
細	-9.47268
辛	-9.47307
階	-9.47311
司憲府啓曰	-9.47335
危	-9.47357
知其	-9.47391
馳	-9.47446
舍	-9.47465
▁果	-9.47638
所在	-9.47667
姑	-9.47697
▁請命罷職	-9.47729
可以	-9.47747
誅	-9.47766
云云	-9.47799
▁上答曰	-9.47845
商	-9.47856
畫	-9.4796
斬	-9.48535
不合	-9.48578
▁常	-9.48652
校理	-9.48669
啓達	-9.48758
治罪	-9.48848
予意	-9.48949
回啓	-9.48968
▁取	-9.49026
雪	-9.49062
軍兵	-9.49063
婢	-9.49088
定配	-9.49132
擊	-9.49151
▁本	-9.49181
烈	-9.49212
▁如此	-9.49233
訓	-9.49404
城君	-9.4941
音	-9.49472
緣	-9.4963
之外	-9.49652
無所	-9.49734
三日	-9.49754
赤	-9.4984
刑訊	-9.49925
▁世子	-9.49931
閑	-9.49974
▁柳	-9.49985
改正	-9.50014
者乎	-9.50033
召見	-9.5014
▁鄭	-9.50154
▁前日	-9.50186
熙	-9.50323
閣	-9.50361
下諭	-9.50383
訖	-9.50399
斤	-9.50403
豆	-9.50404
照律	-9.50426
領相	-9.5047
或有	-9.50484
大提學	-9.50705
約	-9.50718
春秋	-9.50766
▁民	-9.50767
之前	-9.50931
懲	-9.51011
毛	-9.5113
宣傳官	-9.51275
忽	-9.51311
富	-9.51314
▁方	-9.51431
越	-9.51431
無狀	-9.51517
陳疏	-9.51863
質	-9.51892
鞫之	-9.51917
禹	-9.52061
三十	-9.52071
諫	-9.52151
平安	-9.52176
佐	-9.52197
陣	-9.52209
爲司憲府大司憲	-9.52306
循	-9.5238
▁朴	-9.5241
祖宗	-9.52429
勑	-9.52568
露	-9.52618
八十	-9.52643
節度使	-9.52705
車	-9.5279
沙	-9.52792
之誠	-9.52838
▁謂	-9.52853
▁而不	-9.52877
候	-9.52903
共	-9.53
參議	-9.5303
▁不可以	-9.53045
▁已爲	-9.53067
▁同	-9.53121
輸	-9.53146
辦	-9.53208
社稷	-9.53229
怪	-9.53234
息	-9.53235
戶曹判書	-9.5328
甚矣	-9.53283
否	-9.53369
懼	-9.53439
無異	-9.53526
熟	-9.5361
諱	-9.53623
本國	-9.53644
其家	-9.53708
中朝	-9.53749
巡	-9.5376
爲難	-9.53799
武臣	-9.53812
一道	-9.53943
調	-9.53985
飮	-9.54029
▁日	-9.54322
之路	-9.54431
▁又啓	-9.54451
假	-9.54617
署	-9.54621
人物	-9.54631
漢城府	-9.5476
偏	-9.54798
庸	-9.54832
友	-9.54843
就職	-9.54859
▁設	-9.54871
竊	-9.54895
書狀	-9.54958
▁往	-9.55034
他人	-9.55051
▁獨	-9.55099
之內	-9.55237
所見	-9.55253
▁則雖	-9.55319
驛	-9.55344
住	-9.55455
詣闕	-9.5547
▁三	-9.55569
帖	-9.55646
贖	-9.55686
暴	-9.55707
似當	-9.55718
在於	-9.55737
▁不知	-9.55752
虜	-9.55834
▁率	-9.55877
檢	-9.55909
程	-9.55947
▁亦不	-9.55979
落	-9.55982
均	-9.56379
▁不勝	-9.56411
劉	-9.56411
▁國家	-9.56413
▁當初	-9.5645
鼎	-9.56475
▁以其	-9.56525
其人	-9.56615
試官	-9.56642
▁不無	-9.56667
親祭	-9.56671
▁其中	-9.56674
抄	-9.56771
罪之	-9.5678
齡	-9.56808
▁曾	-9.56834
夢	-9.569
誰	-9.57014
採	-9.57105
避嫌	-9.57107
成均館	-9.57125
倭人	-9.57132
驚	-9.57165
咨	-9.57205
所犯	-9.57284
▁而以	-9.57342
乘	-9.57367
▁以示	-9.57373
▁趙	-9.57379
統	-9.57388
司憲府啓	-9.5741
之徒	-9.5745
父子	-9.5751
同僚	-9.57543
刑曹判書	-9.57573
▁上不從	-9.57756
入送	-9.57794
▁未知	-9.57847
▁不許	-9.58029
待罪	-9.5804
不及	-9.5805
】	-9.5808
道內	-9.58097
不服	-9.58107
寵	-9.58163
族	-9.58219
欽	-9.58306
平壤	-9.58389
帝	-9.58514
▁亟	-9.58515
麟	-9.58519
場	-9.58562
覽	-9.58684
懇	-9.59011
▁屢	-9.59014
江原道	-9.5911
冤	-9.59141
侵	-9.59154
伸	-9.59239
訟	-9.59329
唐人	-9.59355
▁非徒	-9.59394
謝恩	-9.59455
妾	-9.59496
黑	-9.59501
▁復	-9.59664
此人	-9.59721
訴	-9.59805
投	-9.59809
▁噫	-9.59848
參判	-9.59864
境	-9.59887
衰	-9.59922
督	-9.59932
謁	-9.59953
水使	-9.60158
廟堂	-9.60186
其父	-9.60218
▁臣之	-9.60401
漏	-9.60458
勳	-9.60517
單子	-9.60517
之方	-9.60594
沒	-9.606
勘	-9.60667
拿問	-9.60758
龜	-9.60776
今此	-9.60791
▁其令	-9.60905
預	-9.60934
費	-9.60947
庶	-9.60976
▁問	-9.60997
▁人皆	-9.61057
司諫院啓曰	-9.61075
▁令該曹	-9.61119
雖有	-9.6118
等曰	-9.61274
刻	-9.6131
哭	-9.61347
▁今聞	-9.61418
妓	-9.61427
▁"《	-9.61467
脫	-9.61498
班	-9.61581
▁似	-9.61672
充	-9.61683
慈殿	-9.61689
▁又以	-9.61722
嶺	-9.61761
▁彼	-9.61844
靈	-9.61881
皇	-9.61929
以李	-9.6201
宥	-9.62072
拿鞫	-9.62086
秩	-9.62293
’,	-9.62352
事目	-9.62395
叔	-9.62562
齎	-9.62591
通政	-9.62613
醫	-9.62782
等物	-9.62812
裕	-9.62872
紀	-9.62892
曲	-9.63125
▁請以	-9.63186
默	-9.63222
荒	-9.63235
生員	-9.63318
背	-9.6332
驅	-9.63404
題	-9.63425
遞之	-9.63557
▁我國	-9.63565
▁王世子	-9.63589
覆	-9.636
兄	-9.63627
甚多	-9.637
爲言	-9.63732
▁決不可	-9.63734
嶺南	-9.63861
陷	-9.6389
爲便	-9.6392
榜	-9.63938
政丞	-9.6412
諸邑	-9.64184
六十	-9.64194
放送	-9.64367
掩	-9.64494
敵	-9.6459
轉	-9.64716
紅	-9.64748
七十	-9.64754
御朝講	-9.64791
倫	-9.64807
險	-9.6486
看	-9.64884
冠	-9.64905
敬差官	-9.64928
爲人	-9.64974
殊	-9.65066
不謹	-9.65097
▁又曰	-9.65137
加刑	-9.65329
三月	-9.65377
乞	-9.65432
敏	-9.65435
討	-9.65444
▁輒	-9.65511
賑	-9.65559
覈	-9.65594
如啓	-9.65598
其子	-9.65675
貪	-9.65752
▁別	-9.6581
接待	-9.6582
肆	-9.65831
之下	-9.65837
▁「	-9.65856
之端	-9.65969
之情	-9.66095
垂	-9.66111
不已	-9.66304
上送	-9.66312
番	-9.66342
舊例	-9.66455
上書	-9.66501
▁一一	-9.66543
所當	-9.66634
臺諫啓前事	-9.66744
頗	-9.66815
▁此則	-9.66846
述	-9.6691
笑	-9.66968
驗	-9.66995
潛	-9.67033
換	-9.67126
渠	-9.67177
▁不得已	-9.67294
佛	-9.67399
答曰	-9.67463
▁安	-9.67498
排	-9.67538
之制	-9.67562
等語	-9.67622
▁可謂	-9.67652
巨	-9.67699
▁徒	-9.67707
之規	-9.67711
惜	-9.67722
▁先是	-9.67727
之律	-9.67742
黜	-9.67743
▁豈有	-9.67854
慢	-9.67902
各邑	-9.67912
工	-9.67916
久矣	-9.6795
弱	-9.67994
賣	-9.67994
駕	-9.68009
援	-9.68096
買	-9.6812
滅	-9.68202
前例	-9.68273
赴京	-9.68277
擅	-9.68319
▁益	-9.6832
不過	-9.68379
同副承旨	-9.68421
廉	-9.68457
。’"	-9.68485
嬪	-9.68518
▁何可	-9.68549
京中	-9.68693
下人	-9.68715
司諫院	-9.68738
象	-9.68795
季	-9.68833
▁亦爲	-9.68924
▁莫不	-9.68945
▁毋	-9.68951
而後	-9.69043
賴	-9.69083
譯官	-9.69147
人之	-9.69165
▁許	-9.69199
骨	-9.69216
▁憲府	-9.69233
奎	-9.69249
操	-9.69251
▁又啓曰	-9.69287
▁出於	-9.69347
玄	-9.69366
分付	-9.69398
▁有若	-9.69447
大王	-9.69468
之至	-9.6947
朝家	-9.69486
爲刑曹判書	-9.69519
人等	-9.69549
申飭	-9.6959
儉	-9.69714
殘	-9.69715
天朝	-9.69753
▁卿其	-9.69763
啓下	-9.69786
哲	-9.69831
軍門	-9.69939
上下	-9.69942
旣已	-9.69942
二百	-9.69949
衙門	-9.70058
故事	-9.70074
悉	-9.7014
差官	-9.70156
▁至爲	-9.70213
激	-9.70225
▁召	-9.70292
觀之	-9.70295
▁上謂	-9.70416
▁自有	-9.7048
請對	-9.70494
論賞	-9.70551
甫	-9.70627
人民	-9.70647
振	-9.70665
▁明	-9.70673
▁近日	-9.70706
單	-9.70765
宜當	-9.70785
▁又有	-9.70842
之士	-9.70872
咸	-9.70922
判書	-9.70969
▁豈無	-9.7099
下送	-9.71027
困	-9.7131
臺閣	-9.71333
但	-9.71355
縣令	-9.71454
昏	-9.71518
庫	-9.71554
遭	-9.71564
▁旣已	-9.71667
毒	-9.71707
▁監司	-9.71783
識	-9.71892
▁論	-9.71894
躬	-9.7192
昔	-9.71958
九月	-9.7196
財	-9.71969
竄	-9.72052
厥	-9.72068
晋	-9.72088
▁言于	-9.72106
慶尙	-9.7214
愧	-9.72195
健	-9.72297
▁適	-9.72416
伏見	-9.7246
李世	-9.72486
牧	-9.72552
王子	-9.72597
咸鏡道	-9.72652
勿爲	-9.7266
兵曹啓	-9.72673
▁於是	-9.72789
後日	-9.72851
▁俾無	-9.72868
湖南	-9.72974
逆賊	-9.73057
無妨	-9.73071
臣之	-9.73083
銓曹	-9.73218
國王	-9.73219
隆	-9.73246
▁皆以	-9.73348
夕	-9.73387
欺	-9.73412
未得	-9.73452
察訪	-9.73517
之輩	-9.73567
▁若以	-9.73625
魯	-9.7375
注書	-9.7379
浮	-9.73863
有異	-9.7395
人也	-9.73989
使之	-9.73995
爲吏曹參議	-9.73997
旱	-9.74076
尋常	-9.74137
人君	-9.74141
▁用	-9.74163
論之	-9.74194
忍	-9.74258
▁其於	-9.74267
乾	-9.74274
貸	-9.74294
綿布	-9.74333
從事官	-9.74361
歷	-9.74369
材	-9.74373
盧	-9.74411
▁玆	-9.74417
之望	-9.74526
走	-9.7481
議定	-9.7489
創	-9.74951
出身	-9.75065
悅	-9.7509
不行	-9.75162
事也	-9.75274
亮	-9.75333
之列	-9.7539
▁唯	-9.75396
▁申	-9.75423
二字	-9.75493
遊	-9.755
構	-9.75591
武士	-9.75644
宋時烈	-9.75673
▁洪	-9.75679
朝鮮	-9.75688
監察	-9.75752
▁各別	-9.7577
鍾	-9.75794
之比	-9.75849
甲士	-9.75864
罔極	-9.7599
▁世	-9.75996
▁限	-9.76043
靖	-9.76122
曉	-9.7619
星下	-9.76202
▁左議政	-9.76216
▁遣	-9.7623
▁右議政	-9.76317
更議	-9.7637
京外	-9.76375
全羅	-9.76405
▁夜	-9.76469
副校理	-9.76609
乏	-9.76645
津	-9.76666
臺諫啓	-9.76666
可知	-9.76757
大禮	-9.76811
快	-9.76864
▁允之	-9.77016
二品以上	-9.77046
▁罪	-9.77296
定罪	-9.77327
下書	-9.77344
宗室	-9.77414
▁一時	-9.7746
▁具	-9.77534
前啓	-9.77555
被罪	-9.7756
防禦	-9.77588
山陵	-9.77632
大人	-9.77692
不必	-9.77764
進上	-9.77838
托	-9.77859
進士	-9.77939
▁苟	-9.78034
▁出	-9.78042
▁受	-9.78205
承命	-9.78205
三百	-9.78239
而止	-9.78253
四十	-9.78257
屈	-9.7832
進退	-9.78337
▁今年	-9.78362
屯	-9.7839
陳賀	-9.78423
植	-9.7844
本司	-9.78485
民間	-9.78573
咸吉道	-9.78659
委	-9.78681
十五	-9.78728
忠淸	-9.78825
▁而至於	-9.78858
推問	-9.7886
▁專	-9.79001
導	-9.79036
舜	-9.79042
抑	-9.79079
連啓	-9.79142
亦不	-9.79166
左相	-9.79286
中國	-9.79321
▁予甚	-9.79404
天下	-9.79431
不出	-9.79437
之名	-9.79479
京城	-9.795
不至	-9.79546
機	-9.79557
合啓	-9.7957
支	-9.79587
北道	-9.79592
纔	-9.79622
致祭	-9.79664
呼	-9.79677
▁直	-9.79745
▁及其	-9.79747
受敎	-9.79768
還宮	-9.79873
宗社	-9.7991
以進	-9.80046
▁盡	-9.80075
▁何敢	-9.80141
▁今當	-9.80173
▁若有	-9.80249
▁久	-9.80302
付處	-9.80463
關西	-9.8047
輿	-9.80589
警	-9.80775
八月	-9.80789
日本	-9.80811
▁此非	-9.80884
承文院	-9.80885
昨	-9.80908
之資	-9.81132
僉使	-9.81159
呈辭	-9.8116
▁請命	-9.8124
▁更爲	-9.81339
左副承旨	-9.81355
右相	-9.81392
疊	-9.81394
有差	-9.81396
請罪	-9.81404
管	-9.81419
一體	-9.81424
▁兼	-9.81452
▁我	-9.81559
雨雹	-9.81579
年少	-9.81611
四月	-9.81666
其所	-9.81799
之政	-9.81844
淫	-9.81921
▁明日	-9.81923
下去	-9.82138
▁爾	-9.82223
築城	-9.82275
賓	-9.82316
▁沈	-9.82326
揚	-9.82345
右副承旨	-9.82372
變通	-9.82426
▁爲人	-9.82493
祝	-9.82569
獲	-9.82614
還收	-9.8264
平安監司	-9.82679
祖宗朝	-9.82753
乖	-9.82801
究	-9.8288
▁不須	-9.82959
又啓曰	-9.83043
啓本	-9.83106
文武	-9.83116
爾等	-9.83154
群臣	-9.83158
▁竟	-9.83186
盡心	-9.83252
▁還	-9.83292
一一	-9.83428
▁爾等	-9.83466
殺人	-9.83525
▁移	-9.83567
爲吏曹參判	-9.8361
之初	-9.83676
▁而又	-9.83807
飢民	-9.8388
言官	-9.83894
之餘	-9.83906
▁固當	-9.83929
傳于承政院曰	-9.84026
壯	-9.841
在外	-9.84187
煥	-9.842
子弟	-9.84254
▁況今	-9.84327
諸將	-9.84328
占	-9.84345
▁守令	-9.84399
▁永	-9.84446
已爲	-9.84461
拔	-9.8453
序	-9.84535
▁亦令	-9.84593
肅	-9.84647
鞫問	-9.8469
赴任	-9.84716
所論	-9.84718
▁其爲	-9.84781
頃日	-9.8483
壇	-9.84929
摠	-9.85061
人情	-9.851
欠	-9.85173
刑曹啓	-9.85234
隨駕	-9.85272
校	-9.85291
之恩	-9.85381
▁再	-9.85406
一二	-9.8544
▁昨日	-9.85448
熱	-9.85588
而去	-9.85612
其言	-9.8562
七月	-9.85753
野	-9.85758
姦	-9.85769
折	-9.85839
苟	-9.85893
嘉善	-9.85911
定式	-9.85973
前此	-9.85995
賦	-9.86033
未知	-9.86192
文字	-9.86244
朱	-9.8627
詐	-9.86362
婚	-9.86379
雖不	-9.86388
安置	-9.86447
差遣	-9.86463
逢	-9.86514
一員	-9.86522
▁汝	-9.86535
鑑	-9.86539
▁其所	-9.86609
行公	-9.86641
慈	-9.8665
小人	-9.86684
剛	-9.86687
篤	-9.86827
之習	-9.8684
十二	-9.86851
勿論	-9.86873
其職	-9.86873
伐	-9.86879
添	-9.86883
臣子	-9.86889
仍任	-9.86893
▁特命	-9.86903
五禮儀	-9.86925
燒	-9.86928
公主	-9.86959
陪	-9.86999
▁連	-9.87004
謂之	-9.87021
講武	-9.87038
有弊	-9.87161
▁又命	-9.87296
王曰	-9.87313
不用	-9.87366
讓	-9.87446
軍器	-9.87457
矢	-9.87462
雄	-9.87466
遠竄	-9.87498
謬	-9.87524
封進	-9.87578
緊	-9.87595
活	-9.87723
▁百官	-9.87748
▁深	-9.87754
贊	-9.87763
▁雖不	-9.8782
副提學	-9.87859
堡	-9.87908
履	-9.8802
▁則是	-9.88129
▁天	-9.88144
編	-9.88174
不宜	-9.88179
▁請勿	-9.883
不言	-9.88303
五百	-9.88315
顚倒	-9.88324
明白	-9.88393
咎	-9.88429
論罪	-9.88433
悶	-9.88462
同議	-9.88472
可乎	-9.88587
▁所以	-9.88734
大義	-9.8874
臺臣	-9.88771
▁隨	-9.88793
擧動	-9.88838
句	-9.88841
所聞	-9.88852
改之	-9.88853
▁更加	-9.88856
未盡	-9.88942
禧	-9.88969
筆	-9.89036
惑	-9.89063
▁未及	-9.89256
謝恩使	-9.89441
飾	-9.89496
逸	-9.89518
圍	-9.89543
波	-9.89575
▁何以爲之	-9.89697
妖	-9.89727
▁竝令	-9.89733
淺	-9.89751
毋	-9.89779
短	-9.8984
浩	-9.89845
▁此後	-9.89875
▁此豈	-9.89909
左承旨	-9.89929
▁歷	-9.89946
按	-9.89984
還給	-9.90038
忝	-9.90054
親行	-9.90275
寒心	-9.90331
▁所謂	-9.90349
之家	-9.90442
洙	-9.9045
▁請竝	-9.90504
重臣	-9.90513
悖	-9.90523
弓	-9.90524
孤	-9.90532
吏曹參判	-9.90555
何以	-9.9061
寫	-9.90614
▁庶	-9.90684
▁第	-9.90701
▁掌令	-9.9075
二月	-9.90754
雷	-9.90766
徽	-9.90787
聖明	-9.90832
褒	-9.90836
▁必欲	-9.90896
▁大司憲	-9.90915
潤	-9.90916
闕內	-9.90958
奏曰	-9.90963
盧思愼	-9.91033
▁重	-9.91043
已定	-9.91156
協	-9.91161
緜布	-9.91189
幼學	-9.91223
詳察	-9.91232
壞	-9.91314
他道	-9.91549
有司	-9.91584
四百	-9.91685
扶	-9.91702
▁今已	-9.91706
御晝講	-9.9173
者多	-9.91794
鹽	-9.91916
判府事	-9.91917
件	-9.91928
▁上引見	-9.91977
引見	-9.92075
▁則恐	-9.92077
▁人心	-9.92141
奉審	-9.92193
頒	-9.92241
一年	-9.92279
書契	-9.92316
題給	-9.92327
右承旨	-9.92365
刑推	-9.9238
許之	-9.92413
貿易	-9.9244
批	-9.92556
標	-9.92606
節制使	-9.92616
旬	-9.92703
族親	-9.92706
圭	-9.92712
蘇	-9.92755
戲	-9.92891
峻	-9.92904
未久	-9.92913
▁物情	-9.92927
▁領事	-9.92963
▁上下	-9.9299
八道	-9.93048
▁今見	-9.93091
饋	-9.93108
▁進	-9.93179
亟	-9.93222
祚	-9.93223
之意也	-9.93228
禮官	-9.93233
十月	-9.93253
寇	-9.93276
內需司	-9.93329
貫	-9.93424
齒	-9.93521
畜	-9.93555
等邑	-9.93562
▁此亦	-9.93625
朝官	-9.9369
挾	-9.93694
大司成	-9.93736
群	-9.93801
▁無不	-9.9384
珍	-9.93916
閱	-9.93982
六月	-9.94002
之責	-9.94088
所陳	-9.94096
▁長	-9.94219
的	-9.94243
改差	-9.94259
▁是日	-9.94315
數日	-9.94359
績	-9.94369
地震	-9.94379
之勢	-9.94514
之不	-9.94597
本院	-9.94602
板	-9.94634
人言	-9.94691
逐	-9.94693
之節	-9.94701
京畿監司	-9.94703
術	-9.9473
副修撰	-9.94904
▁近	-9.94943
▁勿令	-9.94962
置之	-9.95102
懸	-9.95102
經略	-9.95142
大夫	-9.95143
啓稟	-9.95207
▁色赤	-9.95256
移御	-9.95259
必有	-9.95295
遊擊	-9.95323
之致	-9.9533
値	-9.95448
懿	-9.95451
輒	-9.9548
寅	-9.95495
答之	-9.95558
▁請自今	-9.95575
至重	-9.95596
方物	-9.95888
來啓	-9.95934
▁上不許	-9.96008
秉	-9.96014
平時	-9.96031
救荒	-9.96091
明年	-9.96113
工曹判書	-9.96125
刊	-9.96236
尋	-9.96267
穆	-9.96284
▁實是	-9.96288
爲國	-9.96328
稟處	-9.96344
上命	-9.96372
告身	-9.96374
▁其在	-9.96424
可否	-9.96471
不參	-9.96483
五月	-9.96535
橫	-9.96543
▁而但	-9.96548
▁任	-9.96566
俟	-9.96595
隻	-9.966
▁必須	-9.96635
徑	-9.96698
郭	-9.96706
幹	-9.96726
巧	-9.96748
維	-9.96825
製述	-9.96874
該	-9.96893
▁昔	-9.96893
▁此乃	-9.96907
側	-9.96913
諸事	-9.96927
▁引見	-9.96937
▁別無	-9.96994
諡	-9.9701
便否	-9.97051
軍卒	-9.97097
打	-9.97118
▁無乃	-9.9716
▁改	-9.97162
▁速爲	-9.97213
▁似當	-9.97229
▁何如	-9.97309
引嫌	-9.97309
而然也	-9.97312
災變	-9.97527
▁流星出	-9.97627
▁今以	-9.97631
不嚴	-9.9768
消	-9.97789
科擧	-9.97796
死者	-9.97813
臣民	-9.97832
水軍	-9.98122
箭	-9.98165
踰	-9.98255
▁持平	-9.98269
無可	-9.98289
列邑	-9.98389
偸	-9.98394
呂	-9.98481
敦	-9.98518
歎	-9.98573
韓明澮	-9.98666
現	-9.98729
罷黜	-9.98734
▁不合	-9.98789
太廟	-9.98818
宰	-9.9884
試取	-9.98881
大妃	-9.98987
焚	-9.98988
而還	-9.99015
其任	-9.99028
銓	-9.99105
池	-9.99156
事勢	-9.99198
斯	-9.99242
▁兩司	-9.99275
水原	-9.99288
井	-9.99291
▁上許之	-9.99309
奉行	-9.99332
▁有何	-9.99385
上詣	-9.99396
再啓	-9.9942
若是	-9.99473
左參贊	-9.99515
可慮	-9.99519
試射	-9.99565
黃海	-9.99595
尾	-9.99606
▁累	-9.99618
差送	-9.99654
宰臣	-9.99659
▁都承旨	-9.99706
▁旋	-9.9973
陳達	-9.9973
山城	-9.99787
▁繼	-9.99818
▁以至	-9.99918
護軍	-10.0002
其意	-10.0008
撰	-10.0009
▁正	-10.0012
角	-10.0012
可疑	-10.0013
▁雖曰	-10.0023
▁吾	-10.003
分揀	-10.0033
▁新	-10.0039
南方	-10.0048
諭之	-10.0048
科罪	-10.0054
設行	-10.0057
▁自古	-10.0058
常時	-10.0058
勇	-10.006
▁幸	-10.0065
傍	-10.0066
旋	-10.0067
有罪	-10.0076
饌	-10.0078
居首	-10.0079
而死	-10.008
前者	-10.0083
本職	-10.0093
▁申前啓	-10.0095
▁元	-10.0103
別試	-10.0108
婦	-10.011
無罪	-10.0113
局	-10.0113
移咨	-10.0117
者然	-10.0125
肉	-10.0133
紀綱	-10.0134
▁此實	-10.0143
曠	-10.0147
仇	-10.0159
騷擾	-10.016
收議	-10.0167
一匹	-10.0187
入內	-10.0187
▁來	-10.0188
蓋	-10.0191
等議	-10.0193
▁潛	-10.0194
爲禮曹判書	-10.0195
劇	-10.0196
眷	-10.0201
摘奸	-10.0205
武科	-10.0211
疏中	-10.0212
不見	-10.0213
億	-10.0215
鳴	-10.0215
▁實爲	-10.0215
東西	-10.0216
受常參	-10.0218
義禁府啓	-10.0224
停之	-10.0247
耳目	-10.0248
禮部	-10.0248
不安	-10.0251
隣	-10.0253
▁皆不允	-10.0253
屋	-10.0256
斂	-10.0261
湖西	-10.0261
彼人	-10.0261
不聽	-10.0263
▁合	-10.0264
先是	-10.0264
庭試	-10.0265
上國	-10.0266
事干	-10.0266
曲折	-10.0266
義理	-10.0268
跡	-10.0274
刷還	-10.028
▁大司諫	-10.0285
言者	-10.0288
倍	-10.0297
趨	-10.0302
膺	-10.0303
捉	-10.0311
正月	-10.0312
▁事體	-10.0312
▁莫	-10.0317
大矣	-10.0324
以送	-10.033
苟且	-10.0331
領府事	-10.0336
亦當	-10.0348
殷	-10.035
迹	-10.0351
甘	-10.0365
▁至有	-10.0369
▁勢	-10.0372
彌	-10.0379
▁或以	-10.038
▁諫院	-10.0382
二千	-10.0388
▁一依	-10.039
十五日	-10.0394
之爲	-10.0399
軍人	-10.0401
翊	-10.0416
各一	-10.0417
慕	-10.0423
村	-10.0425
九十	-10.0425
▁請罷	-10.0425
爲都承旨	-10.0432
狂	-10.0432
征	-10.0435
疾病	-10.0436
▁以待	-10.0437
道路	-10.0441
夫人	-10.0447
上王	-10.045
額	-10.0457
▁渠	-10.0457
注擬	-10.0458
▁今雖	-10.0461
▁抑	-10.0465
▁至今	-10.0474
合司	-10.0479
右參贊	-10.0481
文科	-10.0482
注	-10.0485
右贊成	-10.0488
符	-10.049
▁給	-10.0495
▁無所	-10.0495
宜矣	-10.0499
▁此意	-10.0503
流星出	-10.0504
不卽	-10.0508
減死	-10.051
▁竊	-10.0511
姪	-10.0512
副正	-10.0515
內外	-10.0522
擇差	-10.0525
鑄	-10.0525
▁賊	-10.0526
所用	-10.0528
詔使	-10.0529
聖敎	-10.053
拿	-10.0531
踈	-10.0536
命招	-10.0539
王后	-10.0539
借	-10.0548
江都	-10.0557
贓	-10.0562
▁終不	-10.0563
陸	-10.057
移文	-10.0574
遣人	-10.0575
議于大臣	-10.0578
謄錄	-10.0585
筵	-10.0589
玆	-10.0591
詢	-10.0591
撫	-10.0595
巖	-10.0595
園	-10.0596
驚駭	-10.0599
屍	-10.0606
未能	-10.0607
▁亦當	-10.0613
▁前者	-10.0614
開諭	-10.0616
續	-10.0616
累日	-10.0619
待之	-10.0626
皆以爲	-10.0626
特命	-10.0628
博	-10.0632
上下敎曰	-10.0633
▁有所	-10.065
復命	-10.0651
▁因此	-10.0657
廣州	-10.0662
宦官	-10.0663
柄	-10.0664
▁而無	-10.067
墻	-10.0672
上以	-10.0673
應敎	-10.0678
西北	-10.0679
靡	-10.068
耗	-10.0691
醫官	-10.0695
奔	-10.0708
▁兩	-10.0712
悔	-10.0712
不來	-10.0713
措	-10.0714
弄	-10.0724
攝	-10.0728
座	-10.0731
充軍	-10.0735
捕捉	-10.0735
索	-10.0736
兩司合啓	-10.0739
治之	-10.0743
一千	-10.0746
長官	-10.0747
近處	-10.0749
▁乃是	-10.0753
客	-10.0755
妻子	-10.0757
開城府	-10.0758
百姓	-10.0759
忌	-10.0764
承傳	-10.0765
台	-10.0766
而爲之	-10.0778
其事	-10.0779
官爵	-10.0781
妃	-10.0782
民力	-10.0783
▁就	-10.0784
極矣	-10.0791
樣	-10.0791
回啓曰	-10.0794
艱	-10.0813
誦	-10.0815
十分	-10.0816
居民	-10.0816
慶尙道觀察使	-10.082
坤	-10.0825
捧入	-10.0831
▁只以	-10.0832
二十日	-10.0836
恕	-10.084
接見	-10.0843
▁卽爲	-10.0844
之文	-10.0847
參酌	-10.0851
備堂	-10.0853
立法	-10.0855
不忍	-10.0855
士大夫	-10.086
▁積	-10.0863
退行	-10.0864
▁無以	-10.087
嗣	-10.087
之於	-10.0871
▁全	-10.0875
一等	-10.0875
▁亦非	-10.0875
太宗	-10.0878
替	-10.0882
海州	-10.0884
洪應	-10.0885
之來	-10.0886
等啓	-10.0893
作弊	-10.0896
▁然則	-10.0901
▁未免	-10.0902
經理	-10.091
平日	-10.0912
酷	-10.0919
佑	-10.092
可謂	-10.0929
田稅	-10.0932
遠接使	-10.0932
兀良哈	-10.0938
都節制使	-10.0943
哈	-10.095
▁又言	-10.0953
▁以備	-10.0954
諫官	-10.0954
藝文館	-10.0955
人家	-10.0955
分給	-10.0964
混	-10.0966
▁有此	-10.0968
探	-10.0977
慘	-10.0979
緣坐	-10.098
擧子	-10.0981
禮文	-10.0982
兩界	-10.0985
譯	-10.099
銜	-10.0993
入參	-10.0997
逼	-10.1003
中軍	-10.1005
離	-10.101
昧	-10.1011
▁比	-10.1012
亭	-10.1015
革罷	-10.1015
告廟	-10.1016
▁召見	-10.1026
恨	-10.1027
▁似爲	-10.1033
言于	-10.1036
瞻	-10.1037
不受	-10.1037
▁擇	-10.1044
吏曹啓	-10.1044
▁在於	-10.1048
寓	-10.1049
靜	-10.1055
▁亦皆	-10.1055
擬望	-10.1058
云者	-10.106
備忘記	-10.1061
甚重	-10.1064
丹	-10.1068
▁未得	-10.1069
▁亦無	-10.1074
問于	-10.1075
杖一百	-10.1083
爲應敎	-10.1085
▁勢難	-10.1088
年老	-10.1089
錯	-10.1093
遍	-10.1094
貽	-10.1097
讀書	-10.1098
▁尤爲	-10.1101
▁南	-10.1102
今番	-10.1107
▁親	-10.1111
▁亦可	-10.112
得情	-10.1126
不然	-10.1127
李貴	-10.113
遣承旨	-10.1139
世道	-10.1146
▁亦不可	-10.1148
咨文	-10.1149
祈雨	-10.1151
澄	-10.1154
縱	-10.1155
停啓	-10.1168
討逆	-10.1169
大同	-10.117
四人	-10.1175
綱	-10.1175
斃	-10.1178
▁追	-10.1179
不欲	-10.118
恃	-10.1186
司憲府大司憲	-10.1191
爲副應敎	-10.1195
祠	-10.12
有功	-10.1203
▁不卽	-10.1204
▁上可之	-10.1208
三千	-10.1213
隔	-10.1214
拒	-10.122
李德馨	-10.1222
全羅監司	-10.1222
不勝	-10.1226
蕃	-10.1231
君父	-10.1231
▁餘	-10.1237
發送	-10.1238
此言	-10.1253
多少	-10.1254
給之	-10.1254
▁觀	-10.1256
▁頃者	-10.1259
卑	-10.1268
重事	-10.1269
朝臣	-10.1269
▁侍讀官	-10.127
無益	-10.1272
▁作	-10.1273
覺	-10.1278
慶尙監司	-10.128
▁無非	-10.1283
主簿	-10.1283
人主	-10.129
莫甚	-10.1293
竭	-10.1299
壁	-10.1305
浚	-10.1305
暗	-10.1306
則以	-10.1311
爲副提學	-10.1319
孔	-10.1324
醉	-10.1325
兀狄哈	-10.1329
臥	-10.1329
貴國	-10.1329
行祭	-10.1331
部將	-10.1332
蔡	-10.1339
海西	-10.1341
▁黃	-10.1342
藩	-10.1348
屛	-10.1351
狀聞	-10.1355
揆	-10.1356
若此	-10.1362
雜物	-10.1362
洽	-10.1369
▁韓	-10.1371
囚禁	-10.1374
臺啓	-10.1377
飛	-10.1378
獻官	-10.1389
遲	-10.14
儀註	-10.1405
之喪	-10.1405
其實	-10.1407
天地	-10.1413
進獻	-10.1414
▁自是	-10.1419
夷	-10.1425
方伯	-10.1432
▁小	-10.1433
院相	-10.1436
晝	-10.1437
蕩	-10.1439
繁	-10.144
入於	-10.1445
頭目	-10.1446
燕	-10.1446
禦	-10.1454
提	-10.1455
▁文	-10.1457
方在	-10.146
襲	-10.1468
君臣	-10.1474
安州	-10.1478
削職	-10.148
界	-10.1482
窠	-10.1489
太祖	-10.1489
調理	-10.1489
▁敢稟	-10.1497
失農	-10.1513
劍	-10.1514
▁予意	-10.152
及於	-10.1523
錦	-10.153
上御	-10.1536
▁少	-10.154
晦	-10.1543
晏然	-10.1545
停止	-10.1548
枝	-10.1552
周旋	-10.1567
江華	-10.1568
鬱	-10.1572
跪	-10.1578
▁年	-10.158
▁宋	-10.1582
可爲	-10.1582
▁伏望	-10.1583
▁崔	-10.1583
僞	-10.1588
▁此時	-10.1591
冬至	-10.1592
去官	-10.1595
如前	-10.1596
憑	-10.1604
書之	-10.1606
今月	-10.1614
過矣	-10.1617
終始	-10.1622
紬	-10.1626
左贊成	-10.1628
爲非	-10.163
礪	-10.1631
▁指	-10.1631
諒	-10.1633
▁請亟	-10.1637
失火	-10.164
稽	-10.1643
可駭	-10.1654
遣使	-10.166
血	-10.1662
註	-10.1664
顔	-10.1669
後世	-10.1671
一路	-10.1679
閏	-10.1679
爲敎	-10.168
▁持	-10.1681
聞見	-10.1682
▁請罷職	-10.1689
承服	-10.1691
卞	-10.1692
擧措	-10.1692
學問	-10.1697
湯	-10.1701
普	-10.1703
▁依前	-10.1703
異於	-10.1704
小臣	-10.1705
戎	-10.1707
一萬	-10.1707
恥	-10.1709
掌令李	-10.1709
超	-10.172
姓名	-10.1722
經筵官	-10.1723
郊	-10.1727
卿之	-10.1731
檢察	-10.1731
獵	-10.1734
天兵	-10.1735
風俗	-10.1742
▁臣亦	-10.1747
試才	-10.1748
不明	-10.1751
歡	-10.1752
江原	-10.1752
內禁衛	-10.1759
▁已有	-10.1759
相見	-10.176
▁甚	-10.1762
▁一切	-10.1763
幕	-10.1765
不堪	-10.1769
▁嘗	-10.1771
▁尋	-10.1771
▁諸	-10.1772
形勢	-10.1776
可用	-10.1781
物議	-10.1783
膳	-10.1783
貢物	-10.1788
家舍	-10.1788
閉	-10.1789
留守	-10.1791
國之	-10.1798
▁竝皆	-10.18
掠	-10.1804
書吏	-10.1804
奇自獻	-10.1806
有無	-10.1811
諸生	-10.1811
虞	-10.1813
多有	-10.1815
▁此事	-10.1815
一款	-10.1828
飢	-10.1828
▁豈非	-10.1829
▁至以	-10.183
無據	-10.1831
該司	-10.1832
岳	-10.1832
範	-10.1833
衍	-10.1833
都提調	-10.184
沮	-10.1843
▁上問	-10.185
▁吏曹	-10.1854
▁尙未	-10.1855
書狀官	-10.1861
僚	-10.1865
▁該曹	-10.1865
江邊	-10.1876
是日	-10.1879
尹弼商	-10.1884
奉安	-10.1886
亦多	-10.189
▁心	-10.189
調用	-10.1891
娶	-10.1902
▁奉	-10.1904
委官	-10.1906
取稟	-10.1906
別無	-10.1906
命召	-10.1909
必欲	-10.1911
侮	-10.1912
▁勿辭	-10.1916
抵	-10.1917
駁	-10.1924
因此	-10.1926
不法	-10.193
▁且以	-10.193
誣告	-10.1932
繫	-10.1937
滯	-10.1945
思之	-10.1945
平安道觀察使	-10.1948
不實	-10.1955
召對	-10.1958
衣服	-10.1958
不肯	-10.1962
厭	-10.1964
渡	-10.1966
▁請還收	-10.197
▁則以	-10.1973
祐	-10.1976
叱	-10.1976
相議	-10.198
燭	-10.1988
▁不但	-10.1998
屯田	-10.2012
勵	-10.2014
職事	-10.2015
君上	-10.2028
▁予亦	-10.2031
蔑	-10.2032
別監	-10.2033
上年	-10.2041
▁其他	-10.2051
對馬島	-10.2052
▁正言	-10.2055
措語	-10.2059
匠	-10.2066
鼓	-10.2067
更爲	-10.2069
▁加	-10.2069
▁而臣	-10.2072
爲吏曹判書	-10.2072
麻	-10.2095
▁禮曹	-10.2101
▁贈	-10.2104
江界	-10.2106
至誠	-10.2106
節次	-10.2108
尉	-10.2108
中宮	-10.2115
金吾	-10.2116
▁臣竊	-10.2118
罷之	-10.2118
彭	-10.2121
謗	-10.2121
▁退待物論	-10.2122
按律	-10.2127
▁去	-10.213
之禍	-10.2133
有何	-10.2136
▁對曰	-10.2142
出納	-10.2146
京畿觀察使	-10.2149
之重	-10.215
阻	-10.2151
亦可	-10.2151
爲工曹判書	-10.2155
禮曹參判	-10.2156
職牒	-10.2157
歇	-10.2177
鍊	-10.218
▁前此	-10.2183
杜	-10.2183
束	-10.2187
弛	-10.2187
▁請速	-10.2187
翰	-10.2187
▁應	-10.2192
賓廳	-10.2199
重任	-10.2199
旗	-10.2201
潔	-10.2203
議于	-10.2213
卽位	-10.2214
底	-10.2215
▁廣	-10.2218
貨	-10.2219
何事	-10.2219
▁加以	-10.2222
將士	-10.2224
至今	-10.2228
裵	-10.2228
豪	-10.223
本月	-10.2236
物故	-10.2237
▁例	-10.224
樓	-10.2241
咸鏡監司	-10.2243
染	-10.2244
出去	-10.2251
已盡	-10.2254
招辭	-10.2257
頃者	-10.2264
▁〔	-10.2266
六百	-10.227
云矣	-10.2276
非常	-10.2277
蒙允	-10.2277
次對	-10.2282
欺罔	-10.2285
▁則不可	-10.2285
進講	-10.2287
▁顧	-10.2295
▁使臣	-10.2301
▁略	-10.2302
▁予欲	-10.2306
不免	-10.2309
牧使	-10.2309
款	-10.231
上京	-10.2311
奏請	-10.2311
反覆	-10.232
算	-10.2322
義州府尹	-10.2323
▁急急	-10.2325
式年	-10.2334
人臣	-10.2336
▁擧	-10.2338
如儀	-10.2338
十三	-10.2339
此意	-10.234
▁其意	-10.234
擢	-10.2342
脈	-10.2343
而退	-10.2345
▁今不可	-10.2349
藥房	-10.2349
之由	-10.2352
成俊	-10.2357
楊州	-10.2358
本意	-10.2361
一言	-10.2364
由於	-10.2364
二品	-10.2368
卓	-10.237
下吏	-10.2376
見其	-10.2377
展拜	-10.2378
六品	-10.238
辰	-10.2382
司僕寺	-10.2384
鞫廳	-10.2385
髮	-10.2387
▁退待	-10.2389
諸司	-10.2389
酌	-10.2397
李爾瞻	-10.2397
獄事	-10.2401
而出	-10.2404
不正	-10.2405
軫	-10.2415
▁外方	-10.2415
憫	-10.2418
司僕	-10.2427
准	-10.243
▁兵曹	-10.2432
讎	-10.2432
之憂	-10.2437
參奉	-10.244
有此	-10.244
泉	-10.2444
言路	-10.2456
其心	-10.2462
不幸	-10.2464
若不	-10.2467
▁其間	-10.2472
全州	-10.2474
推刷	-10.2477
幼	-10.2483
用人	-10.2485
箇	-10.2485
搜	-10.2486
十年	-10.2487
各別	-10.2496
埋	-10.2499
猝	-10.251
兵曹啓曰	-10.2512
徹	-10.2514
爲大司成	-10.2518
贊成	-10.252
穴	-10.2527
矯	-10.2542
定奪	-10.2543
自今	-10.2545
押	-10.2552
劃	-10.2555
蔭	-10.2556
姓	-10.2558
▁次	-10.2558
王妃	-10.2562
禁軍	-10.2563
氷	-10.2567
初一日	-10.2567
▁雖以	-10.2567
頃	-10.2568
除職	-10.257
之用	-10.2571
材木	-10.2572
裁	-10.2574
【	-10.2581
搆	-10.2583
宋浚吉	-10.2584
泊	-10.2584
▁勿論	-10.2586
爲重	-10.2588
今觀	-10.2588
倭賊	-10.259
取才	-10.259
行幸	-10.2594
朝士	-10.2596
拘	-10.2598
此時	-10.2599
歉	-10.2608
▁齎	-10.2611
之風	-10.2612
表裏	-10.2615
▁仍傳曰	-10.2616
獻議	-10.2618
依律	-10.262
言語	-10.2624
演	-10.2634
更啓	-10.2635
米豆	-10.2636
輦	-10.2644
▁領議政	-10.2645
▁百	-10.2657
李克培	-10.2661
金壽恒	-10.2663
募	-10.2667
綱常	-10.2673
其弊	-10.2674
削黜	-10.2674
判中樞府事	-10.2678
惶恐	-10.268
受之	-10.2686
親臨	-10.269
直宿	-10.2691
解弛	-10.2697
壓	-10.2703
會寧	-10.2707
▁則亦	-10.2715
都城	-10.2717
李壽	-10.2718
閭閻	-10.2723
所失	-10.2726
后	-10.2726
環	-10.2735
▁再啓	-10.2738
民生	-10.274
▁執義	-10.2742
▁請於	-10.2743
▁而反	-10.2744
庸劣	-10.2752
看審	-10.2755
爲未安	-10.2755
相繼	-10.2757
諸大臣	-10.2758
當此	-10.2759
以金	-10.276
▁致	-10.2767
慰諭	-10.2767
一家	-10.2769
▁亦以	-10.277
較	-10.2773
僧徒	-10.2775
一番	-10.2776
之令	-10.2782
▁試	-10.2784
漂	-10.2784
沿海	-10.2784
嚴飭	-10.2789
孽	-10.2789
京師	-10.2791
▁故有是命	-10.2805
堂上官	-10.2807
堪	-10.281
都元帥	-10.281
循例	-10.281
盜賊	-10.2811
初試	-10.2812
朝夕	-10.2812
▁視	-10.2814
後弊	-10.2817
今見	-10.2823
播	-10.2829
奉使	-10.283
之賊	-10.2831
議政府啓	-10.2831
君子	-10.2836
三道	-10.2836
發於	-10.2839
缺	-10.284
▁爲先	-10.2842
奬	-10.2848
臨時	-10.2849
箕	-10.2849
▁人物	-10.285
明矣	-10.2853
之事也	-10.2853
南袞	-10.2854
樹	-10.2854
未免	-10.2865
主上	-10.2871
此非	-10.2874
項	-10.2875
李恒福	-10.2876
▁人君	-10.2879
觸	-10.288
頑	-10.288
文學	-10.288
十一	-10.288
量田	-10.289
牧場	-10.289
不遠	-10.2895
。)"	-10.2898
▁請命遞差	-10.2901
止之	-10.2902
▁司諫	-10.2906
洛	-10.2908
・	-10.2909
緩急	-10.2911
國體	-10.2914
翁主	-10.2916
糧餉	-10.2922
彬	-10.2923
鄭仁弘	-10.2926
▁問于	-10.2927
島主	-10.2928
却	-10.2936
人員	-10.2938
聖德	-10.294
▁古	-10.2944
稷	-10.2952
之可也	-10.2952
民之	-10.2952
▁更議	-10.2954
上幸	-10.2955
兩道	-10.2959
▁而只	-10.2959
往見	-10.2964
牢	-10.2966
自願	-10.2966
莊	-10.2966
訊	-10.2975
▁欲爲	-10.2978
迪	-10.298
倡	-10.2981
先罷後推	-10.2982
秘密	-10.2982
未嘗	-10.2994
紛紜	-10.2995
此輩	-10.2995
貪汚	-10.2996
率百官	-10.2996
退去	-10.3005
▁臣於	-10.3005
兵曹參判	-10.3006
萬世	-10.301
牽	-10.301
同參	-10.301
▁色白	-10.3011
商量	-10.3014
入京	-10.3015
▁殆	-10.3017
詞	-10.3017
▁玉堂	-10.3024
衙	-10.3026
會議	-10.3029
▁難以	-10.3038
貶	-10.3038
其情	-10.3043
▁其罪	-10.3049
虛實	-10.305
舟	-10.3051
▁頃	-10.3056
六卿	-10.3059
▁四	-10.3059
監軍	-10.306
於民	-10.3062
法司	-10.3067
詳知	-10.3075
不測	-10.3076
而處之	-10.3082
▁本府	-10.3085
未有	-10.3089
▁使不得	-10.3091
覆啓	-10.31
軍民	-10.3102
莫重	-10.3107
文昭殿	-10.3113
亦以	-10.3114
爲辭	-10.3122
不察	-10.3124
執事	-10.3133
棄之	-10.3133
加罪	-10.3134
掘	-10.3141
大體	-10.3143
經歷	-10.315
元子	-10.3151
▁克	-10.3157
山君	-10.3159
站	-10.316
宣慰使	-10.3162
其母	-10.3164
無他	-10.3168
)。"	-10.3169
僧人	-10.3172
戶曹啓	-10.3185
善處	-10.3191
至嚴	-10.3194
上疏言	-10.3199
脅	-10.3203
日記	-10.3204
暮	-10.321
▁一以	-10.3212
鶴	-10.3221
譏	-10.3229
▁翌日	-10.3236
論列	-10.3241
▁豈可以	-10.3242
幣	-10.3245
駭愕	-10.3245
。」	-10.3251
臣以	-10.3252
羞	-10.3255
民弊	-10.3263
練	-10.3265
署經	-10.3266
則已	-10.3267
號令	-10.3268
衛將	-10.3276
蠲減	-10.3277
各衙門	-10.3278
▁務	-10.3281
湖	-10.3286
詰	-10.3286
麤	-10.3289
藝	-10.3293
▁不可無	-10.3294
於其間	-10.3295
隷	-10.3296
傾	-10.3297
▁十分	-10.33
▁乃以	-10.3301
星上	-10.3302
許積	-10.3303
繩	-10.3305
忠州	-10.3307
▁定	-10.3311
把	-10.3312
有餘	-10.3317
暑	-10.3318
書院	-10.332
直提學	-10.332
▁然其	-10.3323
無故	-10.3323
草記	-10.3327
斟酌	-10.3328
羽	-10.3333
寄	-10.3337
接伴使	-10.3339
倚	-10.3344
城外	-10.3348
之長	-10.3352
頹	-10.3354
罪名	-10.3356
城中	-10.3359
▁且有	-10.3366
謫	-10.3366
?"】	-10.3379
祈	-10.3385
所載	-10.3385
合於	-10.3386
▁又令	-10.3386
李光	-10.3387
十三日	-10.3389
▁況此	-10.3405
▁頃日	-10.3408
扈衛	-10.3411
被論	-10.3411
▁身	-10.3419
請罷	-10.342
得罪	-10.3423
上意	-10.3423
▁能	-10.3424
徐當發落	-10.3425
瀆	-10.3426
縮	-10.3434
丘	-10.3434
匡	-10.3438
怠	-10.3438
然矣	-10.344
▁仍令	-10.3443
嫡	-10.3445
有故	-10.3448
使人	-10.3456
在家	-10.3457
謚	-10.3459
公私	-10.346
▁又請	-10.3471
於今日	-10.3475
殿試	-10.3479
▁餘不允	-10.3488
▁政府	-10.3489
足以	-10.3491
急急	-10.3497
造成	-10.3497
勅	-10.3507
不止	-10.3509
嚴鞫	-10.3518
令該曹	-10.3519
請遞	-10.3523
本道監司	-10.3523
▁未嘗	-10.3525
餉	-10.3531
頓	-10.3534
製進	-10.3535
冬至使	-10.3536
行移	-10.354
以入	-10.354
論事	-10.3544
嫁	-10.3545
慶源	-10.3548
不緊	-10.355
不進	-10.3551
寡	-10.3556
僅	-10.3559
盤	-10.3566
言曰	-10.357
▁萬	-10.3571
▁未有	-10.3581
其中	-10.3587
味	-10.3593
傑	-10.3596
▁備	-10.3598
▁皆是	-10.3603
▁諸臣	-10.3607
削奪官爵	-10.3608
問於	-10.3608
▁臣以	-10.3612
何敢	-10.3613
吏曹參議	-10.3614
詔	-10.3614
▁其可	-10.3615
彈	-10.3615
予之	-10.3616
在職	-10.3617
內侍	-10.3617
設宴	-10.3618
今後	-10.3621
回還	-10.3622
▁一體	-10.3624
▁咸	-10.3631
祔廟	-10.3631
整	-10.3636
▁濫	-10.3636
聖意	-10.3637
强盜	-10.364
宅	-10.3642
倣	-10.3645
錄事	-10.365
正使	-10.3652
烏	-10.3652
千戶	-10.3653
緖	-10.3655
誘	-10.3657
罪犯	-10.3658
以待	-10.3659
游	-10.366
二員	-10.3661
遠近	-10.3665
汚	-10.3665
▁今乃	-10.3672
舍人	-10.3677
推官	-10.3677
舞	-10.368
而行	-10.3681
今者	-10.3681
含	-10.3684
工曹	-10.3684
歌	-10.3685
午時	-10.3685
▁雖在	-10.3685
簡通	-10.3686
小民	-10.3688
級	-10.3691
來言	-10.3691
上箚曰	-10.3693
春秋館	-10.3695
不無	-10.3695
▁白	-10.3698
所居	-10.3699
堯	-10.3701
鄭光弼	-10.3703
本邑	-10.3713
▁知	-10.3715
途	-10.3715
爲成均館大司成	-10.3717
都摠府	-10.3717
成均	-10.3721
十六	-10.3725
爲漢城府判尹	-10.3729
東方	-10.373
領中樞府事	-10.3748
熾	-10.3751
不須	-10.3753
▁其言	-10.3756
▁閔	-10.3759
一國	-10.376
舟師	-10.3766
雅	-10.3767
世祖	-10.3774
爲弼善	-10.3775
豈可	-10.3779
▁如是	-10.3783
▁天使	-10.3786
全羅道觀察使	-10.3787
災異	-10.3789
藥院	-10.3791
五人	-10.3796
篇	-10.3799
▁上王	-10.3803
人才	-10.3803
所知	-10.3805
無事	-10.3806
以前	-10.3806
言於	-10.3806
泣	-10.3807
之矣	-10.3807
蔽	-10.381
之實	-10.381
莫不	-10.3812
別將	-10.3812
將官	-10.3813
船軍	-10.3815
牌招	-10.3816
犯罪	-10.3819
南道	-10.3822
進宴	-10.3824
抱	-10.3825
橋	-10.3825
申明	-10.3826
蔘	-10.383
唯	-10.3832
十六日	-10.3835
銅	-10.384
藉	-10.3842
師傅	-10.3844
隊	-10.3849
十一月	-10.3855
得免	-10.3855
▁不得不	-10.3858
畿甸	-10.3861
▁致令	-10.3862
▁出入	-10.3862
▁傳敎矣	-10.3862
古人	-10.3866
▁宜令	-10.3867
大王大妃	-10.3872
狼藉	-10.3874
判義禁	-10.3875
自明	-10.3875
之書	-10.3876
誕日	-10.3881
擧哀	-10.389
鉉	-10.389
渾	-10.389
償	-10.389
▁毋得	-10.3891
今聞	-10.3895
重地	-10.3901
持平李	-10.3903
▁今方	-10.3904
床	-10.3906
▁而乃	-10.3907
不識	-10.3908
然則	-10.3908
▁請改正	-10.391
推案	-10.3913
日月	-10.3919
牒	-10.3921
敦諭	-10.3922
軍資	-10.3927
風聞	-10.3936
誼	-10.3937
臣僚	-10.3938
重大	-10.394
▁上允之	-10.3941
瓦	-10.3945
祭文	-10.3947
等三人	-10.395
縣監李	-10.395
拿推	-10.3953
悲	-10.3953
凶歉	-10.3958
▁而近來	-10.3965
永慶	-10.3966
豈有	-10.397
之有	-10.397
修改	-10.3972
鷹	-10.3973
▁固不可	-10.3976
七百	-10.3982
其道	-10.3983
秘	-10.3984
侈	-10.3985
言也	-10.3986
貧	-10.3986
又曰	-10.3986
▁雖非	-10.4001
▁詣	-10.4004
之志	-10.4011
竹	-10.4015
輪	-10.4018
禁之	-10.4019
▁殊無	-10.4024
陞堂上	-10.4024
▁當以	-10.4031
粟	-10.4035
▁孰不	-10.4036
柳永慶	-10.4039
▁吳	-10.4041
都督	-10.4041
訓鍊都監	-10.4046
叨	-10.4049
小邦	-10.4053
暫	-10.4061
▁予當	-10.4067
糾察	-10.4068
至矣	-10.4068
又以	-10.4077
文廟	-10.4078
爲先	-10.4079
▁而亦	-10.408
祗迎	-10.4085
僉正	-10.4088
所可	-10.4088
相避	-10.4088
致死	-10.409
笠	-10.4094
事理	-10.4095
睦	-10.4098
都體察使	-10.4099
先正	-10.4101
死於	-10.4102
金宗瑞	-10.4104
輝	-10.411
曆	-10.411
一切	-10.4112
人皆	-10.4121
分定	-10.4122
鏡城	-10.4126
槪	-10.4129
發遣	-10.4132
戚	-10.4132
樞	-10.4134
戶曹啓曰	-10.4139
而無	-10.414
物論	-10.4143
▁臣實	-10.4143
之也	-10.4143
所懷	-10.4144
閔鼎重	-10.4148
可合	-10.4149
李元翼	-10.4155
頒敎	-10.4158
弘文館上箚	-10.4161
濕	-10.4163
暇	-10.4171
▁有違	-10.4175
賑救	-10.4176
抄啓	-10.4177
食物	-10.418
展謁	-10.418
咸興	-10.4181
境內	-10.4183
捨	-10.4189
則當	-10.4189
耆	-10.4205
曾經	-10.4208
尙衣院	-10.4212
非一	-10.4213
川君	-10.4214
枉	-10.422
▁旣有	-10.4222
無一言	-10.4226
▁要	-10.423
四千	-10.4232
旱災	-10.4235
▁轉	-10.4238
▁故欲	-10.4239
擇日	-10.4241
多士	-10.4243
之招	-10.4246
等官	-10.425
考啓	-10.4255
▁伏願	-10.4256
中原	-10.4258
與之	-10.4261
爲吏曹佐郞	-10.4262
以謂	-10.4262
酌處	-10.4266
▁蓋以	-10.4268
相臣	-10.427
▁到	-10.4277
各處	-10.4284
豈不	-10.4286
未寧	-10.4286
▁上令	-10.4287
當矣	-10.4289
▁必不	-10.429
郡事	-10.4296
首相	-10.4297
大殿	-10.4302
摘發	-10.4304
救療	-10.4311
修理	-10.4311
▁急速	-10.4321
料理	-10.4322
遼	-10.4323
傅	-10.4324
守直	-10.4332
大護軍	-10.4333
▁雖無	-10.4335
▁而殿下	-10.4342
圓	-10.4342
國家之	-10.4342
有病	-10.4343
上納	-10.4344
奉常寺	-10.4345
之慮	-10.4349
敎書	-10.4354
▁甚爲	-10.4358
猥濫	-10.4362
是矣	-10.4364
申叔舟	-10.4366
▁悉	-10.4366
▁竝爲	-10.4371
割	-10.4371
殺之	-10.4372
之勞	-10.4374
杖八十	-10.4378
憐	-10.4378
國法	-10.4383
陞敍	-10.4388
▁目今	-10.4391
疎	-10.4391
▁引	-10.4391
數月	-10.4391
原君	-10.4393
柳洵	-10.4393
▁由	-10.4396
▁到今	-10.4398
▁亦宜	-10.44
▁則似	-10.4405
殯	-10.4409
商確	-10.4411
賜給	-10.4412
淸使	-10.4415
▁發	-10.4416
李廷龜	-10.4416
不便	-10.4417
詆	-10.442
十二月	-10.4421
▁依啓	-10.4426
▁極爲駭愕	-10.4428
段	-10.4432
嚴禁	-10.4437
蘊	-10.4437
上裁	-10.4437
恢	-10.4437
爲判義禁府事	-10.4438
佐郞	-10.4443
士類	-10.4443
罵	-10.4444
▁中外	-10.4445
▁此必	-10.4445
罕	-10.4447
憲府啓	-10.4449
行於	-10.445
酬	-10.4456
▁過	-10.4457
元老	-10.4461
本館	-10.4463
淸州	-10.4464
第一	-10.4465
在京	-10.4465
其身	-10.4465
▁本以	-10.4466
▁是豈	-10.4468
毅	-10.4469
技	-10.4477
▁多至	-10.4479
御製	-10.448
勿待罪	-10.4481
不納	-10.4483
許多	-10.4484
天子	-10.4488
碑	-10.4491
冊封	-10.4493
蘭	-10.4495
▁常時	-10.4496
罪狀	-10.4498
固辭	-10.4507
論執	-10.451
祭享	-10.451
浪	-10.4511
奴子	-10.4514
之子也	-10.4517
▁招	-10.4522
下問	-10.4524
爲司書	-10.4525
汗	-10.4526
送于	-10.4529
汲汲	-10.453
臣於	-10.4532
若有	-10.4532
身死	-10.4534
嚴刑	-10.4539
老病	-10.4543
觀象監	-10.4544
不治	-10.4545
士夫	-10.4545
閤	-10.4546
律文	-10.455
▁不服	-10.455
爲此	-10.4552
昌德宮	-10.4553
麥	-10.4553
宗宰	-10.4553
法典	-10.4559
退待	-10.456
赴防	-10.4562
之才	-10.4567
無餘	-10.4573
以病	-10.4574
太過	-10.4576
▁議于大臣	-10.4576
用於	-10.4576
年前	-10.4582
措備	-10.4583
▁以正	-10.4585
以此意	-10.4586
禁斷	-10.4591
▁今亦	-10.4598
御夕講	-10.46
▁不可不懲	-10.4601
晋州	-10.4601
男女	-10.461
霜	-10.4612
憾	-10.4612
悼	-10.4613
營將	-10.4616
服色	-10.4621
▁許令	-10.4622
忌辰	-10.4627
拜陵	-10.463
輟	-10.463
虞候	-10.4631
聖節使	-10.4632
▁又於	-10.4634
侍講院	-10.4637
久任	-10.4639
年例	-10.464
鎭撫	-10.4642
因循	-10.4644
太甚	-10.4645
淡	-10.4647
詳定	-10.4654
此法	-10.4657
下三道	-10.4658
南九萬	-10.466
▁至如	-10.4663
㼁	-10.4664
正言李	-10.4665
▁以補	-10.4668
諸人	-10.4672
▁今番	-10.4676
不如	-10.4681
非輕	-10.4684
蠲	-10.4688
減膳	-10.4689
陳戒	-10.469
沈喜壽	-10.4694
▁雖或	-10.4698
所儲	-10.4698
▁云云	-10.4701
唱	-10.4704
▁京畿	-10.4706
▁臣謂	-10.4708
例也	-10.4709
輸送	-10.4712
陳箚	-10.4714
謨	-10.4716
差使員	-10.4717
▁實出於	-10.4717
▁必以	-10.472
不通	-10.4721
▁今之	-10.4724
經費	-10.4725
山川	-10.4727
年間	-10.4728
入居	-10.473
褒貶	-10.4734
初十日	-10.4739
呈告	-10.474
▁終始	-10.4744
魁	-10.4746
▁昨	-10.4746
麗	-10.4746
査覈	-10.4753
忠淸監司	-10.4754
十餘	-10.4756
李芑	-10.4758
王法	-10.4762
近者	-10.4764
本州	-10.4771
▁反覆	-10.4771
宗簿寺	-10.4772
▁思	-10.4777
▁本道	-10.4781
直長	-10.4781
商議	-10.4782
荷	-10.4785
朴弼	-10.4791
近於	-10.4795
▁引避	-10.4795
之事乎	-10.4799
上敎允當	-10.4806
御春塘臺	-10.4811
不一	-10.4814
其妻	-10.4815
以此爲	-10.4815
▁頗	-10.4817
塡	-10.4819
陪臣	-10.482
戴	-10.483
歸一	-10.484
牛馬	-10.484
雖曰	-10.4845
司憲府持平	-10.4845
眼	-10.4845
停擧	-10.4852
戶曹參判	-10.4852
遣之	-10.4852
促	-10.4854
姑停	-10.4859
▁陳	-10.4861
▁且其	-10.4861
▁徐	-10.4868
▁只有	-10.4869
喆	-10.4872
彩	-10.4873
奉朝賀	-10.4874
賓客	-10.4874
三南	-10.4874
論議	-10.4875
爲同副承旨	-10.4876
丁寧	-10.4881
如有	-10.4883
他日	-10.4884
李克均	-10.4885
巳時	-10.4885
李宗	-10.4888
爭之	-10.4889
曩	-10.489
攝行	-10.4891
桑	-10.4897
坊	-10.4898
更加	-10.49
偉	-10.4902
香祝	-10.4906
葉	-10.4907
不相	-10.4919
▁不當	-10.4921
欣	-10.4925
買賣	-10.4926
之多	-10.4927
今日之	-10.4928
景福宮	-10.4931
天將	-10.4932
此弊	-10.4938
三品	-10.4939
大槪	-10.4944
罔	-10.4945
死亡	-10.4949
自古	-10.495
▁謹	-10.4957
民情	-10.496
金應箕	-10.4963
溥	-10.4964
所奏	-10.4965
▁乘	-10.4965
奔走	-10.497
十匹	-10.4971
上號	-10.4971
依前	-10.4972
▁近者	-10.4972
枯	-10.4978
金壽興	-10.4979
成宗朝	-10.4979
感激	-10.498
歸於	-10.4981
言事	-10.4983
國用	-10.4984
爲輔德	-10.4984
得其	-10.4986
不多	-10.4989
事情	-10.499
▁回啓曰	-10.499
▁傳	-10.499
兩殿	-10.4992
大內	-10.4994
受刑	-10.4996
午	-10.4997
已行	-10.4999
老人	-10.5004
護送	-10.5007
睿	-10.5012
▁誠爲	-10.5015
賞加	-10.5017
一節	-10.5021
▁已令	-10.5022
追崇	-10.5023
上護軍	-10.5023
再三	-10.5025
▁仍爲	-10.5026
飯	-10.503
▁請命罷斥臣職	-10.5031
收拾	-10.5033
勉從	-10.5038
谷	-10.504
燁	-10.5041
駐	-10.5053
閣臣	-10.5053
▁本曹	-10.5053
亦爲	-10.5055
書筵	-10.5057
幸甚	-10.5058
宣醞	-10.5058
若干	-10.5061
▁公然	-10.5063
未滿	-10.5063
峴	-10.5067
等地	-10.507
之體	-10.5071
凶荒	-10.5075
挺	-10.5084
▁嗚呼	-10.5084
駙馬	-10.5084
聖旨	-10.5088
所關	-10.5097
▁孰	-10.5099
耉	-10.5101
決杖	-10.5112
一身	-10.5112
遣史官	-10.5113
廩	-10.5115
四方	-10.5115
未時	-10.5115
醫員	-10.5116
意外	-10.5118
竢	-10.512
近侍	-10.513
▁一日	-10.5132
禮葬	-10.5132
賂	-10.5133
弓矢	-10.5139
▁上答以	-10.514
文官	-10.5141
▁顯	-10.5142
陳啓	-10.5142
▁此人	-10.5145
何妨	-10.5145
汰	-10.5152
得宜	-10.5155
冕服	-10.5159
十一日	-10.5159
▁陰	-10.516
防備	-10.5165
仍舊	-10.5165
許遞	-10.5174
前朝	-10.5186
十二日	-10.5186
速爲	-10.5188
癘疫	-10.5192
粹	-10.5192
▁狀如拳	-10.5192
翰林	-10.5195
禾穀	-10.5197
平君	-10.5205
賜酒	-10.5208
都廳	-10.5208
打圍	-10.5211
▁寧	-10.5211
民家	-10.5222
司諫院連啓	-10.523
正布	-10.5232
日後	-10.5234
疏辭	-10.5235
醜	-10.5244
洗	-10.5245
粗	-10.5247
尹子雲	-10.5247
司憲府連啓	-10.5249
察爲	-10.5251
東班	-10.5255
輪對	-10.5257
日暈	-10.526
正刑	-10.5261
▁如或	-10.5261
▁宜有	-10.5262
懋	-10.5265
囑	-10.5266
東萊	-10.5269
之期	-10.5274
謀逆	-10.5278
入城	-10.5278
▁故臣	-10.528
鬼	-10.5281
墨	-10.5282
李弘	-10.5283
旣以	-10.5286
▁承	-10.5288
所屬	-10.5289
▁一則	-10.529
▁以重	-10.5293
殿最	-10.5294
天之	-10.5295
大雨	-10.5297
死罪	-10.5297
一分	-10.5298
躋	-10.5301
統制使	-10.5301
講定	-10.5304
都下	-10.5304
▁且曰	-10.5311
上疏辭職	-10.5311
旅	-10.5312
二十七日	-10.5318
宮中	-10.5319
無窮	-10.532
參贊	-10.5324
漢江	-10.5324
做	-10.5324
四品	-10.5325
箚子	-10.5326
提督	-10.5328
▁幾	-10.533
之穀	-10.5331
▁事甚	-10.5334
▁實非	-10.5336
揭	-10.5337
汝等	-10.5339
兵判	-10.5339
▁自前	-10.5342
大論	-10.5343
知悉	-10.5344
▁以慰	-10.5345
同知	-10.5347
串	-10.5356
訪	-10.5363
陵寢	-10.5364
一次	-10.5364
米布	-10.5366
李德	-10.5367
刑曹參判	-10.5367
防禦使	-10.5373
佩	-10.5373
緊急	-10.5374
僭	-10.5375
之一	-10.5375
▁參贊官	-10.5375
收用	-10.5377
金瑬	-10.5379
措辭	-10.5381
無識	-10.5385
農事	-10.5388
未穩	-10.5388
▁則豈	-10.539
特除	-10.5392
▁便	-10.5397
實職	-10.5397
▁侍講官	-10.5398
▁而若	-10.5402
▁速	-10.5405
聖批	-10.5408
拘於	-10.5409
刺	-10.5409
區區	-10.5409
蕩滌	-10.5412
不敬	-10.5412
待命	-10.5415
恤典	-10.5419
孚	-10.5422
僉	-10.5423
辟	-10.5424
刀	-10.5424
▁啓請	-10.5428
數年	-10.5432
尹鳳	-10.5436
妨	-10.5437
內殿	-10.5437
放釋	-10.5437
之道也	-10.5443
古例	-10.5445
講經	-10.5446
責之	-10.5446
纉	-10.5448
句管	-10.545
二萬	-10.545
咸鏡	-10.5452
判尹	-10.5453
三等	-10.5453
▁姜	-10.5455
時事	-10.5457
其數	-10.546
考察	-10.5462
申前啓	-10.5462
黃州	-10.5462
▁分付	-10.5463
靴	-10.5463
用心	-10.5463
巡察使	-10.5466
油	-10.5467
旣有	-10.5472
誕	-10.5482
此賊	-10.5485
坡	-10.5485
過重	-10.549
▁前爲	-10.5493
廷臣	-10.5499
之德	-10.5501
▁許之	-10.5512
釐正	-10.5513
▁但以	-10.5514
爲文學	-10.5515
取人	-10.5516
忠淸道觀察使	-10.5522
司諫院正言	-10.5522
▁啓下	-10.5525
二匹	-10.5525
安心	-10.5529
之女	-10.5529
八百	-10.5533
十日	-10.5537
而然	-10.554
循私	-10.5543
冀	-10.5547
已甚	-10.5547
弔	-10.5549
趙顯命	-10.5555
▁是以	-10.5555
士林	-10.5558
無知	-10.5558
爲兵曹判書	-10.556
狹	-10.556
自己	-10.556
▁僉曰	-10.5562
放之	-10.5563
▁卽令	-10.5564
非但	-10.5565
司憲府掌令	-10.5567
又啓	-10.5567
撓	-10.5568
▁恐有	-10.5571
修築	-10.5577
裏	-10.5577
妹	-10.5577
臺諫之言	-10.5579
自當	-10.5581
未聞	-10.5582
觀此	-10.5584
▁斷	-10.5584
泛	-10.5584
支待	-10.5592
▁通	-10.5594
銓官	-10.5594
▁廟堂	-10.5596
祛	-10.5598
▁請令該曹	-10.5605
藥房入診	-10.5607
古今	-10.5608
渡江	-10.5608
賑恤	-10.5616
捷	-10.5617
▁鄭昌孫	-10.562
吉州	-10.5625
當否	-10.5627
李元	-10.5628
都司	-10.5629
馨	-10.5629
兼司僕	-10.563
▁高	-10.5632
來到	-10.5634
▁聖上	-10.5635
徙	-10.5637
奏聞	-10.5639
者甚多	-10.5643
▁亦甚	-10.5643
不可以	-10.5644
設酌	-10.5646
▁決難	-10.5647
必不	-10.5648
之父	-10.5649
群議	-10.565
▁相繼	-10.5652
馬匹	-10.5652
上御晝講	-10.5656
▁如此之人	-10.5656
賜宴	-10.5664
辭免	-10.5665
不下	-10.5667
▁未能	-10.5667
其疏	-10.5671
金國光	-10.5678
▁而況	-10.5679
梟示	-10.568
見於	-10.569
箚辭	-10.5691
政事	-10.5692
知事	-10.5693
拜辭	-10.5694
分明	-10.5695
傳播	-10.5701
處斬	-10.5702
北京	-10.5706
小學	-10.5706
▁此外	-10.5716
▁極其	-10.5718
於經筵	-10.5719
大妃殿	-10.5719
謁聖	-10.5723
朝講	-10.5723
加設	-10.5723
▁決	-10.5729
壻	-10.5729
亦然	-10.573
館伴	-10.5731
▁無所不至	-10.5737
四拜	-10.5746
有一	-10.5747
▁故敢啓	-10.5749
五千	-10.5751
營建	-10.5751
宮禁	-10.5762
▁亦多	-10.5768
匿	-10.5768
司饔院	-10.5769
甚當	-10.577
▁謂之	-10.5771
▁又敎曰	-10.5779
群下	-10.578
庭請	-10.5786
供辭	-10.5789
黃喜	-10.5789
▁私	-10.5791
▁則臣	-10.5795
求言	-10.5803
慶州	-10.5804
彰	-10.5805
五品	-10.5806
議大臣	-10.5806
竪	-10.5807
辭朝	-10.581
內人	-10.5818
聲息	-10.582
私奴	-10.5824
▁無一	-10.5825
旌	-10.5832
曉諭	-10.5832
至當	-10.5834
馳報	-10.5839
久留	-10.5839
引咎	-10.5839
于義禁府	-10.5844
邀	-10.5845
紫	-10.5846
其功	-10.5846
皇甫仁	-10.5847
聖人	-10.5848
承宣	-10.5849
卽爲	-10.5858
▁其子	-10.586
不問	-10.5866
▁僅	-10.5869
肅拜	-10.5869
文衡	-10.5872
叛	-10.5874
▁尙不	-10.5874
言其	-10.5875
羅州	-10.5875
大朝	-10.5878
慨然	-10.5881
洋	-10.5884
往復	-10.5885
體面	-10.5886
不顧	-10.5886
模	-10.5892
發行	-10.5894
二十五日	-10.5901
朝啓	-10.5901
▁臣等以爲	-10.5903
塗	-10.5903
扈從	-10.5907
隙	-10.5909
一行	-10.591
梓宮	-10.591
好矣	-10.5911
李景	-10.5917
頻	-10.5917
十四	-10.5917
▁命下	-10.5918
▁則非	-10.5918
平復	-10.592
安東	-10.5923
初四日	-10.5926
徐有	-10.5926
▁上又	-10.5929
▁仰	-10.593
餞	-10.5938
慙	-10.5942
僉知中樞院事	-10.5943
百僚	-10.5947
爭執	-10.5949
摠制	-10.5953
守令之	-10.5956
欲爲	-10.5956
三次	-10.596
効	-10.596
▁莫此爲甚	-10.5962
登第	-10.5968
都目	-10.597
簿	-10.5973
李彦	-10.5973
▁載在	-10.5974
還上	-10.5976
等四人	-10.5976
司諫院啓	-10.5977
掃	-10.5977
於人	-10.5981
▁不待	-10.5981
嘆	-10.5981
曺錫文	-10.5983
上曰	-10.5985
▁特進官	-10.5985
未畢	-10.5987
經年	-10.5988
二三	-10.5989
致仕	-10.599
一世	-10.5992
之嫌	-10.5995
起復	-10.5996
更啓曰	-10.5997
爲一	-10.5999
更問	-10.5999
▁臣等不勝	-10.6007
湜	-10.6007
▁請遞臣職	-10.6008
▁故臣等	-10.6011
▁被	-10.6014
之不暇	-10.6017
遐	-10.6017
以其	-10.6023
▁無異	-10.6023
逃亡	-10.6025
十人	-10.6026
寸	-10.6026
▁致有	-10.6027
予心	-10.603
▁冒	-10.6035
資憲	-10.6036
▁物議	-10.6037
內地	-10.6041
▁不顧	-10.6042
乞免	-10.6042
工曹參判	-10.6048
人馬	-10.6049
▁景	-10.6051
於卿	-10.6052
罪惡	-10.6054
上御集慶堂	-10.606
憚	-10.6066
受命	-10.6067
▁東	-10.6067
去年	-10.607
則必	-10.6074
▁置	-10.6074
已過	-10.6076
了	-10.6084
爾瞻	-10.6089
!"	-10.6091
本朝	-10.6092
觀射	-10.6092
▁姑待	-10.6099
▁備局	-10.61
有才	-10.6104
一處	-10.6105
此也	-10.6106
司直	-10.6108
▁以懲	-10.611
至於此	-10.6118
袖	-10.6119
▁坐	-10.612
正郞	-10.612
▁都提調	-10.6122
▁莫如	-10.6124
李顯	-10.6127
之災	-10.6129
▁祖宗朝	-10.6132
添入	-10.6133
▁陞	-10.6134
右道	-10.6134
▁又啓言	-10.6135
左道	-10.6137
等上箚子	-10.6138
洪命夏	-10.6139
春坊	-10.6142
於前	-10.6144
優容	-10.6145
▁求	-10.6148
五六	-10.6151
▁禁府	-10.6152
西路	-10.6155
民事	-10.6156
於上	-10.6157
五日	-10.6172
▁授	-10.6174
聽聞	-10.6176
糾	-10.6179
廉恥	-10.618
雷動	-10.6181
還入	-10.6184
三啓	-10.6189
爵賞	-10.6192
譽	-10.6198
又有	-10.6199
稟定	-10.6203
▁似無	-10.6204
殿下之	-10.6214
采	-10.6216
終不	-10.6216
以爲不可	-10.6217
楨	-10.6218
▁仍請	-10.6219
給馬	-10.6219
▁情	-10.6221
▁太宗	-10.6222
主將	-10.6223
軍務	-10.6224
有間	-10.623
昨年	-10.6233
在此	-10.6233
之妻	-10.6235
不忠	-10.6238
斫	-10.6238
▁皆有	-10.6238
洪允成	-10.6241
許稠	-10.6241
之理乎	-10.6244
收稅	-10.6246
兩人	-10.6248
墜	-10.6256
▁法	-10.6258
讒	-10.6259
問曰	-10.626
竟	-10.626
大抵	-10.6261
粧	-10.6263
西宮	-10.6268
▁公議	-10.6271
▁其勿	-10.6272
五部	-10.6273
一百五十	-10.6277
物膳	-10.6277
豈無	-10.6278
儀仗	-10.628
猥	-10.6285
請推	-10.629
不入	-10.6291
何不	-10.6295
洪鳳漢	-10.6298
呈狀	-10.6298
依施	-10.6298
忠勳府	-10.63
韓致亨	-10.63
則可	-10.6309
戍	-10.6313
臣等之職	-10.6313
▁殊	-10.6314
義禁府啓曰	-10.6315
之科	-10.6318
胎	-10.6318
不仕	-10.632
無疑	-10.632
總	-10.6321
成服	-10.6322
▁國	-10.6324
恤民	-10.6327
宰樞	-10.6331
傳諭	-10.6333
南原	-10.6334
不論	-10.6334
黃海監司	-10.6336
忱	-10.6336
琦	-10.634
泮	-10.6341
等第	-10.6344
李仁	-10.6355
急速	-10.6356
惶	-10.6365
▁而猶	-10.6371
檢閱	-10.6374
蟲	-10.6374
一品	-10.6374
突	-10.6374
亂後	-10.6377
賀禮	-10.6383
有政	-10.6383
黃海道觀察使	-10.6385
▁而自	-10.6385
又言	-10.6385
者頗多	-10.6387
辰時	-10.6388
逆獄	-10.6389
綿	-10.6394
皆以	-10.6397
朴宗	-10.6405
▁左右	-10.6405
敎之	-10.6405
▁臣意	-10.6409
溢	-10.6418
斡朶里	-10.6421
▁收	-10.6422
元帥	-10.6423
悌	-10.6424
▁予之	-10.6431
其弟	-10.6433
茶	-10.6436
驕	-10.6439
羊	-10.644
玩	-10.6441
逞	-10.6441
楮貨	-10.6442
遞兒	-10.6445
下批	-10.6446
非矣	-10.6446
▁開	-10.6451
橫行	-10.6458
霖	-10.6458
▁而遽	-10.646
尊號	-10.6461
被擄	-10.6461
垣	-10.6462
正兵	-10.6462
▁皆不	-10.6463
軍器寺	-10.6465
士習	-10.6466
▁安有	-10.6466
▁眞	-10.6468
▁妄	-10.6468
入診	-10.6469
二十五	-10.647
想	-10.6475
▁首	-10.648
▁下諭	-10.6483
朴承宗	-10.6485
特旨	-10.6491
李景奭	-10.6491
受職	-10.6492
宿衛	-10.6493
▁視事	-10.6501
滿浦	-10.6503
飢饉	-10.6503
弘文館副提學	-10.6505
初六日	-10.6505
日甚	-10.6508
作賊	-10.6508
揀擇	-10.6518
越江	-10.6522
臺諫所啓	-10.6524
▁雖欲	-10.6527
訪問	-10.6529
士族	-10.6529
可嘉	-10.6529
▁知事	-10.6531
不待	-10.6535
之迹	-10.6537
盈	-10.6538
展	-10.6541
鮮	-10.6543
重罪	-10.6544
不稱	-10.6545
▁聽	-10.6546
訓導	-10.6546
許琮	-10.6547
國勢	-10.6548
之大	-10.6549
用樂	-10.6551
卜相	-10.6551
則無	-10.6553
所請	-10.6554
久廢	-10.6554
侯	-10.6554
▁又論	-10.6558
知中樞府事	-10.656
張順孫	-10.6566
▁大小	-10.6566
副司直	-10.6567
爲吏曹正郞	-10.6571
神主	-10.6571
李珥	-10.6572
不道	-10.6572
上召見	-10.6574
▁向	-10.6577
奮	-10.658
女子	-10.658
皷	-10.6585
勦	-10.6585
甲山	-10.6586
之本	-10.6586
▁若無	-10.6587
謹按	-10.659
▁卒	-10.6594
子光	-10.6603
▁予心	-10.6605
別坐	-10.6605
大明	-10.6606
宦	-10.6611
當爲	-10.6612
敷	-10.6612
柔	-10.6616
遁	-10.6627
距	-10.6629
初九日	-10.6631
歐	-10.6632
之言也	-10.6632
▁歲	-10.6633
率爾	-10.6634
所生	-10.6635
交通	-10.6638
供饋	-10.6639
▁擢	-10.664
摘	-10.6641
之批	-10.6646
▁誰	-10.6647
陋	-10.6647
集賢殿	-10.6648
菜	-10.6648
▁則有	-10.6652
初二日	-10.6653
保放	-10.6654
亦無	-10.6658
本宮	-10.6661
外人	-10.6662
▁而獨	-10.6662
禁府堂上	-10.6664
三四	-10.6666
辭避	-10.667
詳問	-10.667
▁而至	-10.6673
▁盡爲	-10.6675
聞知	-10.6676
錄用	-10.6678
固當	-10.6679
愆	-10.6679
銀子	-10.668
取服	-10.6681
群情	-10.6683
無人	-10.6683
三軍	-10.6687
靳	-10.669
婦女	-10.6692
▁稱以	-10.6697
則不	-10.6699
二日	-10.67
兵船	-10.6702
▁亦是	-10.6702
有是	-10.6702
邊事	-10.6703
中路	-10.6704
▁頗有	-10.6705
地方	-10.6708
脩	-10.6709
▁恐或	-10.6711
太白晝見	-10.6711
驛路	-10.6712
副應敎	-10.6713
進酒	-10.6721
爲不可	-10.6726
▁當該	-10.6727
議政	-10.6728
稀	-10.6731
自前	-10.6732
迭	-10.6732
守護	-10.6733
施賞	-10.6733
▁不以	-10.6733
相當	-10.6734
軍功	-10.6735
金礩	-10.6735
米穀	-10.6736
▁雖不可	-10.674
琛	-10.674
進香	-10.6744
民怨	-10.6745
▁意	-10.6749
不暇	-10.675
育	-10.6751
帽	-10.6753
疏陳	-10.6754
百餘	-10.6756
裹	-10.6756
傳旨戶曹	-10.6758
府尹	-10.6759
捕廳	-10.6762
將帥	-10.6765
移送	-10.6766
之漸	-10.6768
士卒	-10.6772
名器	-10.6774
▁縱	-10.6782
國有	-10.6784
惕	-10.6787
辜	-10.6788
依例	-10.679
飮酒	-10.679
皇朝	-10.6793
浹	-10.6796
頌	-10.6796
京兆	-10.6798
▁何不	-10.68
勑使	-10.6801
船隻	-10.6805
此乃	-10.6807
▁亟命	-10.6808
明春	-10.6811
沿邊	-10.6812
公道	-10.6817
至親	-10.6819
本官	-10.6824
鹿	-10.6825
聯箚	-10.6826
判付	-10.6826
稱號	-10.6827
粥	-10.6831
磨勘	-10.6839
取招	-10.6841
▁性	-10.6842
▁不如	-10.6843
▁戶曹	-10.6851
賞格	-10.6854
▁臨	-10.6856
與大臣	-10.6856
社	-10.6857
禎	-10.6858
燮	-10.6858
漁	-10.6858
墳	-10.6858
東萊府使	-10.6861
▁然此	-10.6862
其名	-10.6862
高下	-10.6868
參鞫	-10.687
彼此	-10.687
中官	-10.6872
爲判尹	-10.6873
直赴殿試	-10.6877
▁提調	-10.6878
諉以	-10.6879
中樞院副使	-10.6881
來朝	-10.6881
▁遞	-10.6883
臣職	-10.6886
▁强	-10.6889
▁刑曹	-10.6897
▁又無	-10.6898
譴	-10.6899
珪	-10.6902
何人	-10.6903
改造	-10.6903
河崙	-10.6904
不以	-10.6907
所供	-10.6908
往審	-10.6911
▁卽今	-10.6912
祿俸	-10.6912
情狀	-10.6913
擾	-10.6914
十七日	-10.6916
定州	-10.6917
廬	-10.692
▁傳于政院曰	-10.6922
凌	-10.6922
租	-10.6923
片	-10.6923
告于	-10.6924
論以	-10.6928
截	-10.6928
賢否	-10.6932
▁識者	-10.6932
▁稱	-10.6936
冑	-10.6941
城內	-10.6942
岐	-10.6944
瑜	-10.6945
勒	-10.6946
未妥	-10.6949
御仁政殿	-10.695
情禮	-10.6952
代言	-10.6953
何可	-10.6955
從重推考	-10.6955
二十一日	-10.6958
四字	-10.6958
擬議	-10.6958
聖心	-10.6961
▁檢討官	-10.6963
鞍馬	-10.6964
進曰	-10.6968
時烈	-10.6973
累月	-10.6974
終身	-10.6977
同生	-10.6981
▁傳于	-10.6984
袍	-10.6985
請以	-10.6987
稟旨	-10.6987
察任	-10.6988
受賀	-10.6988
▁共	-10.6997
停罷	-10.6998
▁獻納	-10.6998
朱子	-10.7
遣官	-10.7
面質	-10.7001
朴楗	-10.7003
撤去	-10.7005
爲民	-10.7009
必多	-10.701
大罪	-10.7014
文案	-10.7015
御思政殿	-10.7016
▁入啓	-10.702
之上	-10.702
二十二日	-10.7021
絞	-10.7022
收職牒	-10.7023
別遣	-10.7031
虧	-10.7032
館學儒生	-10.7034
▁先王	-10.7038
李義	-10.7039
溪	-10.704
所無	-10.704
刷	-10.7042
請之	-10.7043
依所啓	-10.7045
一部	-10.7046
十八	-10.7046
人口	-10.7047
之獄	-10.7049
兵馬	-10.7051
崔恒	-10.7053
所納	-10.7055
▁斯速	-10.7059
庭鞫	-10.7059
▁朝家	-10.7061
雖欲	-10.7063
三省	-10.7067
誓	-10.7072
▁量	-10.7073
▁尤極	-10.7074
▁此等	-10.7074
▁卿宜	-10.7075
是也	-10.7076
賞罰	-10.7076
之禁	-10.7077
情理	-10.7078
行宮	-10.7083
下敎曰	-10.7088
四寸	-10.7089
▁而或	-10.7091
晝講	-10.7093
而後已	-10.7094
▁人臣	-10.7097
豫	-10.71
四館	-10.7102
▁欲以	-10.7103
▁國事	-10.7103
▁臣恐	-10.7106
色郞廳	-10.7109
一向	-10.711
培	-10.7113
翌日	-10.7113
殯殿	-10.7115
等五人	-10.7118
遏	-10.7119
凡事	-10.712
不絶	-10.7121
中殿	-10.7121
之術	-10.7123
▁則無	-10.7126
先王朝	-10.7126
及第	-10.7127
悰	-10.7131
太平館	-10.7132
漆	-10.7133
乞遞	-10.7134
金安老	-10.7134
債	-10.7135
之邑	-10.7138
止於	-10.7139
不公	-10.7141
拂	-10.7141
▁則此	-10.7141
鄕吏	-10.7143
試之	-10.7143
▁亦必	-10.7144
俯伏	-10.7145
▁放	-10.7152
引入	-10.7157
趁	-10.7159
▁只令	-10.716
獸	-10.716
無忌	-10.716
匠人	-10.7161
談	-10.7163
丕	-10.7163
▁纔	-10.7164
遷轉	-10.7166
▁置之	-10.7167
後苑	-10.7169
沆	-10.7172
一名	-10.7172
▁語	-10.7172
鍾城	-10.7173
更思之	-10.7174
之歸	-10.7175
有如此	-10.7176
數百	-10.7179
啓本啓	-10.718
覓	-10.7183
迷	-10.7184
泂	-10.7185
領議政鄭太和	-10.7188
譏察	-10.7189
巨濟	-10.7189
宮人	-10.719
箋	-10.7191
▁罷	-10.7198
累年	-10.7202
移配	-10.7202
▁而有	-10.7206
悌男	-10.7206
行會	-10.7208
關東	-10.7209
許赴	-10.7209
曾爲	-10.7211
黃愼	-10.7213
司諫院大司諫	-10.7214
極爲	-10.7217
則不可	-10.7219
原任大臣	-10.7219
▁此皆	-10.722
▁特爲	-10.7223
又請	-10.7224
沈澮	-10.7225
事機	-10.7229
喩	-10.7229
▁似難	-10.7231
諸宰	-10.7235
上聞	-10.7236
貳	-10.7249
一件	-10.725
催促	-10.7252
足矣	-10.7254
罷其職	-10.7254
悶迫	-10.7254
雖無	-10.7255
私意	-10.7257
此擧	-10.7261
差人	-10.7265
沃	-10.7266
來告	-10.7266
▁道臣	-10.7267
親鞫	-10.7267
于外	-10.7269
鄙	-10.727
圈	-10.727
相通	-10.7271
▁惟在	-10.7273
工匠	-10.7278
沈貞	-10.7279
疏決	-10.7279
柳子光	-10.7281
非之	-10.7282
▁世祖	-10.7283
域	-10.7284
之譏	-10.7289
▁而且	-10.7289
▁有同	-10.729
▁推	-10.7292
剌	-10.7292
天聽	-10.7292
推覈	-10.7295
宏	-10.7296
柳順汀	-10.7297
於心	-10.7298
▁參酌	-10.7299
之分	-10.7302
士子	-10.7303
砲	-10.7304
▁未幾	-10.7305
係干	-10.7305
濡	-10.7306
日暮	-10.7307
卿言	-10.7311
▁密	-10.7312
影	-10.7312
遠方	-10.7317
偕	-10.7317
高麗	-10.7317
萬一	-10.7319
▁言于該曹	-10.7321
不能自	-10.7322
僞造	-10.7324
▁依例	-10.7325
二十四日	-10.7325
號牌	-10.7326
之效	-10.7332
絶島	-10.7333
帳	-10.7335
在逃	-10.7336
觀其	-10.7338
縛	-10.7338
▁不亦	-10.7343
放還	-10.7346
過中	-10.7347
亦以爲	-10.7348
李廷	-10.7348
謄	-10.7355
▁豈敢	-10.736
曳	-10.7362
宋軼	-10.7364
滋	-10.7364
及此	-10.7371
者有之	-10.7374
腹	-10.7374
如京師	-10.7375
閭	-10.7376
蓄	-10.7381
尙州	-10.7382
之所以	-10.7382
▁京外	-10.7383
謹愼	-10.7383
人所	-10.7384
▁從速	-10.7385
銘	-10.7385
利害	-10.7386
而罷	-10.739
▁先朝	-10.739
軍律	-10.7391
議曰	-10.7393
侵虐	-10.7395
江原道觀察使	-10.7397
不成	-10.7399
古制	-10.7399
▁念	-10.7399
折受	-10.74
陰陽	-10.74
▁故不	-10.74
重治	-10.7401
爲嫌	-10.7403
▁卽命	-10.7407
失其	-10.7407
韓應寅	-10.7408
世孫	-10.741
暗行御史	-10.7412
旁	-10.7412
▁則可	-10.7414
六千	-10.7416
之美	-10.7418
十七	-10.742
發明	-10.7421
爲是	-10.7426
之員	-10.7426
饑	-10.743
忤	-10.743
景慕宮	-10.743
襄	-10.7432
平生	-10.7433
缺望	-10.7435
水災	-10.7435
傳旨義禁府	-10.7436
▁不覺	-10.7438
付標	-10.7439
昌城	-10.744
疏曰	-10.7441
綾	-10.7442
罷職不敍	-10.7446
慕華館	-10.745
呈文	-10.7451
批答	-10.7452
職名	-10.7452
曖昧	-10.7453
民心	-10.7455
▁諭	-10.7457
物力	-10.746
零	-10.7461
▁而旣	-10.7463
幽	-10.747
則雖	-10.7471
莅	-10.7476
考之	-10.7478
極重	-10.7483
▁稍	-10.7483
缺然	-10.7487
煩瀆	-10.7489
江陵	-10.7493
▁累日	-10.7496
脚	-10.7498
大學	-10.7498
遮	-10.7498
淸國	-10.75
詆斥	-10.75
▁孝	-10.7501
大變	-10.7502
鎭定	-10.7504
關係	-10.7504
孰	-10.7505
▁不啻	-10.751
▁期於	-10.7512
拿致	-10.7515
有之	-10.7515
▁人多	-10.7516
▁以杜	-10.7516
北方	-10.7518
蹈	-10.7521
器械	-10.7525
端川	-10.7526
逮	-10.7526
▁尤不可	-10.7526
匿名書	-10.7528
萬萬	-10.753
復戶	-10.753
承旨等	-10.7532
張晩	-10.7533
復設	-10.7534
▁皆令	-10.7536
之如何	-10.7537
所達	-10.7538
永寧殿	-10.7544
黜陟	-10.7544
申用漑	-10.7545
幾何	-10.7545
諸處	-10.7551
造作	-10.7554
▁早	-10.7557
之軍	-10.7561
魂	-10.7561
不少	-10.7563
領敦寧	-10.7566
芳	-10.7566
軒	-10.7567
▁議政府	-10.7568
▁幾至	-10.757
西班	-10.7574
▁例也	-10.7574
▁三司	-10.7575
入番	-10.7577
還送	-10.7582
將來	-10.7582
答以	-10.7583
美事	-10.7584
不均	-10.7585
進言	-10.7587
沐浴	-10.759
被災	-10.7593
江原監司	-10.7593
太學	-10.76
課	-10.7601
窮推	-10.7602
其主	-10.7602
差下	-10.7605
砲手	-10.7609
▁今欲	-10.761
送之	-10.7611
別侍衛	-10.7616
而用之	-10.7618
闕庭	-10.762
入對	-10.7625
議者	-10.7628
四五	-10.7628
▁仁	-10.7629
良人	-10.763
扇	-10.7631
知委	-10.7634
習陣	-10.7634
前縣監	-10.7634
可行	-10.7635
考出	-10.7637
▁喜	-10.7638
及時	-10.7641
引見大臣	-10.7643
傳旨禮曹	-10.7644
不中	-10.7645
二十六日	-10.7646
之號	-10.7651
尼	-10.7654
樑	-10.7655
▁歸	-10.7655
▁右	-10.7656
催	-10.7656
柳成龍	-10.7659
兩西	-10.766
難處	-10.7665
俺	-10.7675
頒赦	-10.7676
今以	-10.7678
成宗	-10.7678
引接	-10.7678
▁居	-10.7679
錄勳	-10.7681
▁而第	-10.7682
世宗朝	-10.7685
前事	-10.7686
近因	-10.7687
偕來	-10.7689
▁觀其	-10.7693
司譯院	-10.7693
倭奴	-10.7694
不啓	-10.7699
屬公	-10.7699
之冤	-10.7703
▁安心	-10.7703
▁觀察使	-10.7704
潰	-10.7704
巾	-10.7705
▁兵曹判書	-10.7706
▁執	-10.7706
任士洪	-10.771
講究	-10.7714
女壻	-10.7716
抗	-10.7717
留意	-10.7718
釁	-10.772
涼	-10.7724
賜米	-10.7725
檢飭	-10.7726
國忌	-10.7729
▁盡心	-10.7731
▁而臣等	-10.7732
習儀	-10.7732
蕩減	-10.7734
不平	-10.7734
領兵	-10.7734
邸下	-10.7734
之非	-10.7736
裝	-10.7737
▁若是	-10.774
吏判	-10.7742
爲刑曹參判	-10.7744
▁且聞	-10.7744
僻	-10.7752
李承	-10.7755
決杖一百	-10.7761
其兄	-10.7762
▁極	-10.7764
自知	-10.7765
有疾	-10.7766
賊變	-10.7768
日前	-10.7768
劣	-10.777
忠臣	-10.7771
得失	-10.7772
▁少無	-10.7779
冤枉	-10.7786
繕工監	-10.7786
金世	-10.7787
▁恐非	-10.7788
撿	-10.7795
所係	-10.7796
進排	-10.7798
▁嚴	-10.78
可據	-10.7801
出送	-10.7803
三邑	-10.7809
城府院君	-10.7809
▁故以	-10.7812
禮曹參議	-10.7813
▁經筵	-10.7816
引嫌而退	-10.7819
包	-10.782
慝	-10.7822
二等	-10.7823
兵營	-10.7824
兼帶	-10.7824
▁以副	-10.7826
敎旨	-10.7827
口傳	-10.7828
朴弘道	-10.7828
增廣	-10.783
誥	-10.7833
下書于	-10.7836
未見	-10.784
軍籍	-10.7842
▁請命遞斥	-10.7846
濟用監	-10.7846
契	-10.7848
嘉靖	-10.7848
▁十	-10.7857
之儀	-10.7861
媚	-10.7869
槍	-10.7869
公州	-10.787
▁往來	-10.787
▁言于備邊司	-10.7872
軫念	-10.7872
反正	-10.7875
▁當爲	-10.7876
帥	-10.7877
天變	-10.7878
李世佐	-10.7883
▁不至	-10.7884
大祭	-10.7885
其地	-10.7886
▁聖	-10.7886
特加	-10.7891
撥	-10.7893
冊寶	-10.7894
▁伏望殿下	-10.7897
▁以此觀之	-10.7898
▁方在	-10.7899
各異	-10.7907
書入	-10.7907
痛心	-10.7907
察職	-10.7908
▁自今以後	-10.791
▁則何	-10.791
功勞	-10.7911
軍糧	-10.7915
▁忽	-10.7916
病重	-10.7917
二次	-10.7918
爲事	-10.7924
平山	-10.7924
偶	-10.7924
於臣	-10.7925
刑獄	-10.7925
査出	-10.7925
▁韓明澮	-10.7926
意見	-10.7934
生民	-10.7934
劃給	-10.7936
大臣之	-10.7936
▁漢	-10.7946
拿囚	-10.7948
時未	-10.7948
近年	-10.7954
帛	-10.7955
▁將欲	-10.7957
▁拜	-10.7957
賑濟	-10.7957
九百	-10.7959
崙	-10.7963
叵測	-10.7964
等罪	-10.7965
之難	-10.7971
初五日	-10.7971
兩司連啓	-10.7972
▁互相	-10.7972
冠服	-10.7972
博士	-10.7973
▁若使	-10.7973
所得	-10.7976
▁問其	-10.7976
正朝	-10.7978
▁都	-10.798
有闕	-10.7984
臣等伏見	-10.7984
刃	-10.7988
▁擅	-10.7988
水軍節度使	-10.799
論劾	-10.7994
▁而自上	-10.7994
事變	-10.7995
賻	-10.7996
▁仍敎曰	-10.7999
召還	-10.7999
執法	-10.8002
往還	-10.8002
▁三啓	-10.8003
▁誠極	-10.8004
差備	-10.8005
廢朝	-10.8007
▁且令	-10.8007
動駕	-10.8009
▁臣等亦	-10.801
南漢	-10.8011
▁責	-10.8012
層	-10.8012
慶德宮	-10.8012
非徒	-10.8012
▁請推	-10.8013
▁厥後	-10.8014
▁伏願殿下	-10.8015
冊禮	-10.8018
更請	-10.8021
▁而此	-10.8023
言責	-10.8024
移置	-10.8027
大段	-10.8027
別樣	-10.8028
▁光	-10.8029
列聖	-10.8031
確	-10.8032
赴役	-10.8035
不雨	-10.8037
互	-10.8038
成希顔	-10.8039
綱目	-10.804
▁前頭	-10.8041
祈禱	-10.8042
一樣	-10.8042
不與	-10.8042
▁載	-10.8045
丞	-10.8045
▁顯有	-10.8048
爲禮曹參判	-10.8053
闊	-10.8058
貼	-10.806
致賻	-10.8061
爲可	-10.8061
見遞	-10.8062
暈	-10.8063
捧承傳	-10.8065
上引見大臣	-10.8067
者外	-10.8067
已極	-10.8068
金氏	-10.8068
▁今宜	-10.8069
分義	-10.8071
太監	-10.8073
▁西	-10.8074
蔡濟恭	-10.8078
都正	-10.8081
物件	-10.8081
請還收	-10.8082
原州	-10.8083
體察使	-10.8083
之歎	-10.8084
專掌	-10.8084
拙	-10.8084
痛憤	-10.8085
虛疎	-10.8087
數少	-10.8092
六鎭	-10.8093
何時	-10.8093
金錫冑	-10.8094
亦不可	-10.8094
爲宜	-10.8095
▁有是命	-10.8103
釜山	-10.8103
巳	-10.8108
區別	-10.811
▁民生	-10.811
李荇	-10.8111
告者	-10.8111
▁伏	-10.8112
初不	-10.8114
中有	-10.8116
入朝	-10.812
不善	-10.812
分遣	-10.8121
雙	-10.8122
而爲	-10.8122
不忘	-10.8124
哨	-10.8125
有識	-10.8126
▁恣行	-10.8126
爲戶曹判書	-10.8127
得人	-10.8129
▁非如	-10.8129
織	-10.8131
▁謀	-10.8132
▁又不	-10.8132
孟子	-10.8133
愁	-10.8136
李沆	-10.8139
前年	-10.8143
▁而不爲	-10.8147
朝參	-10.8154
踏	-10.8156
氓	-10.8157
抄出	-10.8157
瀋陽	-10.8158
淨	-10.8161
無情	-10.8163
自有	-10.8167
▁弘文館	-10.8168
誥命	-10.817
成命	-10.817
置諸	-10.8179
▁固非	-10.818
狗	-10.8181
瀆擾	-10.8182
于政院曰	-10.8182
囚人	-10.8185
得中	-10.8186
水陸	-10.8187
聖朝	-10.8188
州郡	-10.819
▁義	-10.8191
中間	-10.8192
▁遂命	-10.8193
則曰	-10.8195
六典	-10.8196
傳說	-10.82
受其	-10.82
良久	-10.8201
議論	-10.8201
筵臣	-10.8202
疲	-10.8203
軍餉	-10.8205
舡	-10.8206
▁竝不允	-10.8208
進參	-10.8209
以私	-10.821
防戍	-10.8212
禮曹以	-10.8213
▁則不	-10.8213
悟	-10.8217
木綿	-10.8218
齎去	-10.8219
當然	-10.8219
知經筵	-10.8222
歸順	-10.8222
▁則自	-10.8224
之耳	-10.8225
▁考	-10.8227
踐	-10.8229
腰	-10.823
金佐明	-10.823
駭然	-10.8236
向化	-10.8238
批旨	-10.8239
之病	-10.8239
▁輪對	-10.8244
自新	-10.8248
諫院啓	-10.8249
兵曹據	-10.825
依此	-10.825
帝王	-10.825
冕	-10.8251
肥	-10.8253
供上	-10.8253
綏	-10.8253
裔	-10.8254
經幄	-10.8256
無辜	-10.8258
不貲	-10.8259
臺論	-10.826
臣罪	-10.8261
不容	-10.8265
▁三公	-10.8268
疏請	-10.8269
▁計	-10.827
大風	-10.8274
官奴	-10.8276
虹	-10.8279
漫	-10.8279
不至於	-10.8281
討賊	-10.8281
腹心	-10.8284
僉知	-10.8285
秋曹	-10.8286
不美	-10.8286
在前	-10.8288
辭緣	-10.829
▁古人	-10.8291
李光佐	-10.8291
▁吏曹判書	-10.8291
慄	-10.8292
欲以	-10.8297
一邑	-10.8297
▁此言	-10.8298
厲	-10.8299
釋之	-10.8301
踵	-10.8304
▁依律	-10.8306
售	-10.8307
仍冒	-10.8308
捕獲	-10.8311
▁施以	-10.8313
承傳色	-10.8314
▁遇	-10.8319
▁倘	-10.8319
物情	-10.8322
痛禁	-10.8328
秦	-10.8328
鏡	-10.833
賊勢	-10.8331
配所	-10.8333
泛然	-10.8335
藥房提調	-10.8338
次第	-10.834
我朝	-10.834
然也	-10.8341
勿煩	-10.8345
所致	-10.8348
自處	-10.8348
令廟堂稟處	-10.8348
臣聞	-10.8349
學生	-10.8349
衷	-10.835
祔	-10.8351
▁量宜	-10.8351
禪	-10.8352
預爲	-10.8352
▁臣與	-10.8352
鼠	-10.8352
▁參	-10.8353
五十匹	-10.8355
目見	-10.8357
一時之	-10.8361
堂下	-10.8365
除拜	-10.8366
爲司憲府持平	-10.8367
士洪	-10.8368
臣父	-10.8371
董	-10.8373
搜捕	-10.8374
殿庭	-10.8374
▁隨其	-10.8376
桂	-10.8378
楚	-10.8378
歿	-10.8378
挽	-10.8378
海靑	-10.8378
昔年	-10.838
當日	-10.8381
伏閤	-10.8381
▁此雖	-10.8382
一也	-10.8383
▁而今則	-10.8385
守禦	-10.8387
衰服	-10.8388
李重	-10.8391
▁凡干	-10.8393
不復	-10.8394
無不	-10.8396
▁不足	-10.8397
▁有曰	-10.8399
相持	-10.84
不信	-10.8403
郊外	-10.8406
庶人	-10.8406
聯名	-10.8408
▁副使	-10.8408
雷電	-10.841
苟簡	-10.841
監試	-10.8411
過擧	-10.8413
異同	-10.8414
無實	-10.8415
伏聞	-10.8416
爲始	-10.8416
相會	-10.8416
▁論以	-10.8418
▁最	-10.8419
今方	-10.842
▁臣等之意	-10.8422
鴻	-10.8422
歷代	-10.8427
南北	-10.8428
宦寺	-10.8429
元勳	-10.8431
▁申飭	-10.8432
二年	-10.8432
命停	-10.8436
誠心	-10.8436
晝停	-10.8437
告變	-10.8443
▁末	-10.8443
之門	-10.8444
▁有難	-10.8447
上箚辭職	-10.8449
爲政	-10.845
應行	-10.845
疏語	-10.8452
爲奴	-10.8452
韻	-10.8453
尹殷輔	-10.8453
寡昧	-10.8453
陵上	-10.8454
需	-10.8457
大行	-10.8459
營繕	-10.8459
金銀	-10.8461
嘉禮	-10.8461
交結	-10.8462
士人	-10.8462
不得不	-10.8463
▁宗親	-10.8464
之力	-10.8466
擇遣	-10.8466
急務	-10.8466
之具	-10.8469
孝子	-10.8469
鬪	-10.847
▁自此	-10.847
文義	-10.8473
臺諫合司	-10.8474
規例	-10.8475
千里	-10.8475
▁欲使	-10.8475
其餘	-10.8475
▁禁	-10.8476
鄭麟趾	-10.8476
栗	-10.8477
尙在	-10.848
▁差	-10.8481
▁御	-10.8483
諸承旨	-10.8485
▁則或	-10.8486
判下	-10.8486
可惜	-10.8487
不肖	-10.8489
遣大臣	-10.8497
▁移文	-10.8497
亦必	-10.8497
一心	-10.8499
收納	-10.8499
▁凡有	-10.8503
鑿	-10.8503
▁庶幾	-10.8504
徐必遠	-10.8504
▁依前例	-10.8506
魂殿	-10.8507
王大妃	-10.8508
而有	-10.8508
▁仍詣	-10.8508
區處	-10.8509
闕門	-10.8509
別單	-10.851
與同僚	-10.8511
放榜	-10.8511
▁伏見	-10.8514
日氣	-10.8516
世宗	-10.8517
覆奏	-10.8517
先後	-10.8518
▁安知	-10.8522
▁平安道	-10.8523
大駕	-10.8525
▁不可輕	-10.8525
死囚	-10.8526
不合於	-10.8531
迎勑	-10.8532
投疏	-10.8533
褒賞	-10.8533
▁自當	-10.8538
文具	-10.8539
▁固無	-10.8543
勑書	-10.8545
軍額	-10.8546
受由	-10.8548
▁然而	-10.855
▁深用	-10.8552
筵中	-10.8553
余	-10.8553
濟州牧使	-10.8555
▁已極	-10.8557
赴試	-10.8559
不知其	-10.8559
山郡	-10.8561
所進	-10.8562
刑問	-10.8566
本廳	-10.8573
其夫	-10.8575
各人	-10.8578
▁竝命	-10.8579
稽緩	-10.858
書傳	-10.8582
▁判書	-10.8582
治道	-10.8582
▁左相	-10.8583
▁聚	-10.8583
善爲	-10.8584
未曉	-10.8587
▁而終	-10.8588
擇送	-10.8588
聞其	-10.859
可知矣	-10.859
陽君	-10.8593
容貸	-10.8598
之跡	-10.86
喧	-10.8601
故相	-10.8603
▁宣	-10.8605
可矜	-10.8606
蔚山	-10.8606
遣人來獻土宜	-10.8607
久不	-10.8612
防守	-10.8612
李原	-10.8613
▁另加	-10.8617
還宮時	-10.8619
▁素	-10.862
番上	-10.862
▁預	-10.8621
▁宗	-10.8623
不孝	-10.8625
今當	-10.8627
▁禮曹判書	-10.8628
三十日	-10.8629
悍	-10.863
雉	-10.863
金在魯	-10.863
狂妄	-10.8632
鄭致和	-10.8632
加給	-10.8632
重試	-10.8633
倭船	-10.8634
得以	-10.8635
▁其心	-10.8636
夕講	-10.8637
訓鍊	-10.8638
十九	-10.8641
始役	-10.8643
寧邊	-10.8644
內司	-10.8644
入學	-10.8649
處女	-10.8652
禾	-10.8652
僥倖	-10.8655
灘	-10.8655
苑	-10.8659
議啓曰	-10.866
有是命	-10.8664
宴享	-10.8665
不自	-10.8666
禮物	-10.8668
笞	-10.8672
雖非	-10.8674
頗多	-10.8676
未蒙	-10.8676
晟	-10.8681
影幀	-10.8681
知申事	-10.8681
捕盜廳	-10.8682
莫大	-10.8684
七八	-10.8686
諭于	-10.8688
入格	-10.8691
副提調	-10.8691
倉卒	-10.8691
百餘人	-10.8691
主之	-10.8692
▁其弊	-10.8697
民人	-10.8698
行刑	-10.87
兩南	-10.8701
金海	-10.8702
冗	-10.8704
胸	-10.8706
掌隷院	-10.8706
泥	-10.8706
請留	-10.8707
▁而使	-10.8708
犯禁	-10.8708
二名	-10.871
閱武	-10.8711
頻數	-10.8712
之設	-10.8712
殿講	-10.8714
檢擧	-10.8715
金尙憲	-10.8716
吉日	-10.8716
進賀	-10.8717
閫	-10.8717
依允	-10.8718
量減	-10.8719
▁領相	-10.8721
判事	-10.8721
八千	-10.8721
▁來獻土物	-10.8723
予當	-10.8724
本主	-10.8726
亦難	-10.8727
拜表	-10.8727
尹得	-10.8728
捕盜大將	-10.8731
▁伏惟上裁	-10.8732
將軍	-10.8733
▁未爲不可	-10.8733
尙未	-10.8734
上御熙政堂	-10.8735
未可	-10.8737
▁第念	-10.8737
聖候	-10.8743
校正	-10.8744
禁止	-10.8748
汰去	-10.875
▁罔	-10.8751
▁且今	-10.8756
付之	-10.8758
斛	-10.8758
揖	-10.8758
城上所	-10.8758
而啓之	-10.8758
遲滯	-10.8759
以南	-10.8762
情勢	-10.8764
流移	-10.8764
國恤	-10.8767
更推	-10.8775
濱	-10.8778
中宮殿	-10.8778
推移	-10.8781
▁旣以	-10.8783
璿	-10.8784
李宗城	-10.8788
溺死	-10.8791
倅	-10.8791
▁曾已	-10.8796
遇災	-10.8797
避辭	-10.8799
不滿	-10.88
政院以	-10.88
會試	-10.88
印出	-10.8802
攸	-10.8803
▁而上	-10.8804
私情	-10.8806
駿	-10.8806
則有	-10.8806
前任	-10.8807
蒼	-10.8807
籌	-10.8808
▁今將	-10.8808
認	-10.8809
凡人	-10.881
何以爲之	-10.881
禽獸	-10.8811
親耕	-10.8812
罪囚	-10.8812
修省	-10.8817
元良	-10.8821
夜一更	-10.8822
依前例	-10.8824
弘道	-10.8825
金光	-10.8828
▁令本道	-10.8831
▁慶尙道	-10.8833
箴	-10.8835
訓鍊院	-10.8837
▁此是	-10.884
如彼	-10.8841
夜深	-10.8841
賞之	-10.8842
奉命	-10.8848
固請	-10.8849
一疏	-10.8852
科場	-10.8852
忠義	-10.8854
▁及至	-10.8855
▁何以處之	-10.8856
▁今始	-10.8858
讓寧	-10.8858
聚會	-10.8858
供云	-10.8859
珠	-10.886
李命	-10.8862
▁凡事	-10.8862
穩城	-10.8862
無以	-10.8862
小事	-10.8864
爲右參贊	-10.8865
正法	-10.8865
權鈞	-10.8866
▁人主	-10.8869
之兵	-10.887
收贖	-10.8871
無期	-10.8879
戮	-10.8879
藤	-10.8886
磨	-10.8887
舌	-10.8887
賚	-10.8888
任意	-10.889
歲抄	-10.8893
具致寬	-10.89
▁極爲未安	-10.8902
▁似不	-10.8902
▁或稱	-10.8903
主張	-10.8903
覩	-10.8906
稠	-10.8907
備忘	-10.8909
大逆	-10.8911
處事	-10.8912
摠護使	-10.8914
焦	-10.8914
閭巷	-10.8914
」	-10.8914
堤堰	-10.8914
鐸	-10.8915
崇政	-10.8918
武人	-10.8922
置簿	-10.8923
罷職事	-10.8923
去就	-10.8923
三匹	-10.8927
▁未可	-10.8927
追贈	-10.8928
▁而大臣	-10.8929
在上	-10.893
講論	-10.8931
禫	-10.8934
奈何	-10.8936
▁上不允	-10.8937
▁則皆	-10.8938
綸	-10.8939
長湍	-10.8939
爲司諫院正言	-10.8939
艘	-10.894
鎖	-10.894
閔維重	-10.894
徐居正	-10.8941
之過	-10.8944
宮家	-10.8946
無遺	-10.8947
受鍼	-10.895
上尊號	-10.8954
從而	-10.8954
▁各道	-10.8957
常參	-10.8961
猷	-10.8966
此等	-10.8967
敎授	-10.8968
安得	-10.897
此而	-10.8973
進去	-10.8978
崩	-10.898
齋戒	-10.8981
▁儒生	-10.8988
匪	-10.8989
監役官	-10.899
視之	-10.8991
本縣	-10.8992
賜祭	-10.8992
藝文提學	-10.8993
雍	-10.8993
▁全羅道	-10.8994
尙震	-10.8995
論其	-10.8995
尹元衡	-10.8997
▁亦豈	-10.9001
▁不忍	-10.9002
▁詳細	-10.9003
風雨	-10.901
李萬	-10.9012
爲弘文館校理	-10.9013
等七人	-10.9015
▁勉	-10.9017
轎	-10.9018
湛	-10.9019
向日	-10.902
▁不欲	-10.902
伍	-10.9021
來往	-10.9021
▁別爲	-10.9023
馬一匹	-10.9024
不敍	-10.9025
之費	-10.9026
▁姑爲	-10.9032
▁性本	-10.9033
年久	-10.9035
悚	-10.9039
朋	-10.9039
而行之	-10.9041
▁則必有	-10.9041
預備	-10.9042
之所爲	-10.9042
從容	-10.9043
禱	-10.9044
頤	-10.9046
三水	-10.9046
之戒	-10.9047
河演	-10.9048
上引見大臣備堂	-10.9052
之孫	-10.9053
憲司	-10.9056
詳議	-10.906
▁一邊	-10.9061
行事	-10.9063
用意	-10.9063
一月	-10.9064
順天	-10.9068
兩宗	-10.9071
洩	-10.9072
▁惶恐敢啓	-10.9072
咸吉道都節制使	-10.9073
三萬	-10.9073
朴元宗	-10.9073
▁想	-10.9074
禁錮	-10.9076
許筠	-10.9077
疏論	-10.9081
無禮	-10.9083
可見	-10.9083
▁不意	-10.9084
▁戶曹判書	-10.9085
婦人	-10.9085
▁請停	-10.9085
受祿	-10.9087
▁校理	-10.9089
諸君	-10.909
猶未	-10.9092
嗟	-10.9097
星州	-10.9098
仍留	-10.9101
▁請寢	-10.9104
救之	-10.9105
得見	-10.9106
該官	-10.9106
▁後日	-10.9109
勢難	-10.9109
胡人	-10.9111
尺許	-10.9111
▁付	-10.9113
所送	-10.9113
▁仍賜	-10.9115
▁而尙	-10.9115
疋	-10.9116
聘	-10.9117
尹壕	-10.9117
溫陽	-10.9118
不妨	-10.912
寧君	-10.912
▁請推考	-10.9122
之田	-10.9122
兆	-10.9123
洪彦弼	-10.9123
留置	-10.9124
對馬州太守宗貞國	-10.9126
仙	-10.9126
▁是何	-10.9127
訓局	-10.9128
依舊例	-10.9131
突入	-10.9134
利川	-10.9134
分數	-10.9135
事狀	-10.9137
▁特賜	-10.9138
已成	-10.9142
贊善	-10.9142
無嚴	-10.9142
李滉	-10.9142
爀	-10.9142
之私	-10.9143
瑣	-10.9144
失刑	-10.9144
▁臣雖	-10.9145
備忘記曰	-10.9146
朝著	-10.9147
宗臣	-10.9149
網	-10.9151
壓膝	-10.9152
事大	-10.9152
無形	-10.9154
都鎭撫	-10.9159
耆老	-10.9161
病勢	-10.9164
惜之	-10.9164
▁銓曹	-10.9168
麻布	-10.9172
流離	-10.9173
▁亦已	-10.9178
紹	-10.9179
▁道內	-10.918
而遞	-10.9181
再拜	-10.9187
大臣及	-10.9188
聖恩	-10.9188
正字	-10.9188
都摠制	-10.9188
▁送于	-10.9188
數十	-10.9188
▁申叔舟	-10.9191
中庸	-10.9192
定制	-10.9192
窺	-10.9192
學校	-10.9193
▁答以	-10.9195
▁萬萬	-10.9195
▁時未	-10.9198
安邊	-10.92
自別	-10.92
元孫	-10.9202
▁托以	-10.9205
構陷	-10.9211
北兵使	-10.9211
標信	-10.9214
蒙宥	-10.9215
▁故今	-10.9218
▁尙且	-10.9219
諸賊	-10.9221
輕易	-10.9223
▁冀	-10.9225
重推	-10.9226
無賴	-10.9226
秋成	-10.9227
白氣	-10.9229
備局諸臣	-10.9229
宮闕	-10.9229
成渾	-10.923
▁足以	-10.9233
於我	-10.9233
金鍾秀	-10.9233
嫉	-10.9233
逃躱	-10.9233
軍政	-10.9236
留都	-10.9239
殆	-10.9242
私恩	-10.9245
愼重	-10.9245
亞	-10.9248
別設	-10.925
經宿	-10.9251
蔭官	-10.9252
政院曰	-10.9252
親見	-10.9254
島配	-10.9258
薰	-10.926
梅	-10.926
喉舌	-10.9261
大臣之議	-10.9262
箇滿	-10.9262
而歸	-10.9263
趙末生	-10.9264
取用	-10.9269
未蒙允	-10.9271
明澮	-10.9273
不職	-10.9276
安老	-10.9276
田結	-10.9278
爲判義禁	-10.9279
可當	-10.928
有甚於	-10.9281
爾國	-10.9283
像	-10.9283
得聞	-10.9283
殆盡	-10.9284
猾	-10.9286
殫	-10.9288
掌樂院	-10.9288
朔望	-10.9289
之甚	-10.9293
典禮	-10.9293
不擧	-10.9295
過當	-10.9297
鋒	-10.9298
下義禁府	-10.9301
治民	-10.9302
○	-10.9304
溺	-10.9307
▁貴	-10.9307
已迫	-10.9309
等六人	-10.931
訥	-10.9312
文宗	-10.9313
▁有一	-10.9314
皆曰	-10.9314
晴	-10.9315
梓	-10.9315
絲	-10.9315
前郡守	-10.9315
特授	-10.9318
朴文秀	-10.932
撫恤	-10.9321
被推	-10.9322
▁猶不	-10.9323
取考	-10.9326
迎詔	-10.9326
進箋	-10.9329
服制	-10.9334
所出	-10.9334
兩邑	-10.9334
盛德	-10.9334
定數	-10.9335
綠	-10.934
闢	-10.9342
兵馬節度使	-10.9343
所重	-10.9345
際	-10.9345
尹昉	-10.9347
永屬	-10.9347
不在	-10.9351
豹皮	-10.9351
▁由是	-10.9353
宋寅明	-10.9354
▁期	-10.9354
全數	-10.9355
一刻	-10.9356
本無	-10.9359
▁而一	-10.936
▁以除	-10.9361
一度	-10.9365
▁旋卽	-10.9366
夙	-10.9367
糴	-10.9368
騰	-10.9369
上之	-10.937
▁臣聞	-10.9371
下情	-10.9371
▁敢以	-10.9372
賞典	-10.9372
褒奬	-10.9374
之氣	-10.9381
怨咨	-10.9382
度支	-10.9382
賊之	-10.9382
逆謀	-10.9385
金德	-10.9388
海島	-10.9388
自然	-10.9391
▁或以爲	-10.9395
儒生等	-10.9397
峰	-10.9397
急於	-10.9398
七千	-10.94
所報	-10.9401
處決	-10.9403
殞命	-10.9405
姑先	-10.9406
▁預爲	-10.9407
李思	-10.9408
珥	-10.9408
他事	-10.9409
過於	-10.941
王世孫	-10.9411
理山	-10.9411
天災	-10.9411
▁每年	-10.9412
新進	-10.9412
婢子	-10.9414
金尙	-10.9416
▁有司	-10.9416
隨參	-10.9417
逐日	-10.9419
三代	-10.9421
忿	-10.9425
▁餘皆不允	-10.9426
多矣	-10.9427
色承旨	-10.943
▁該	-10.9431
試券	-10.9433
發落	-10.9435
甘心	-10.9435
私賤	-10.9439
之謀	-10.944
▁使人	-10.9441
陛	-10.9441
北靑	-10.9442
來月	-10.9442
兵部	-10.9443
▁隨卽	-10.9445
承召	-10.9445
常規	-10.9445
回答	-10.9446
勿令	-10.9447
祕密	-10.9447
次知	-10.9452
魚世謙	-10.9453
今已	-10.9453
金萬基	-10.9453
▁則可以	-10.9456
漢人	-10.946
煩擾	-10.9462
體貌	-10.9464
▁乃於	-10.9469
庚	-10.9469
▁留	-10.947
六人	-10.947
齎來	-10.9472
恬	-10.9473
他處	-10.9474
營建都監	-10.9475
太平	-10.9476
爲首	-10.9477
甄	-10.948
李惟淸	-10.9481
慈聖	-10.949
同謀	-10.9492
以行	-10.9494
一朔	-10.9494
朝議	-10.9494
▁依允	-10.9494
徵兵	-10.9495
爲司憲府掌令	-10.9496
▁勿以	-10.9499
於外	-10.9503
數人	-10.9506
盧公弼	-10.9508
可堪	-10.9509
李尙眞	-10.9509
甚難	-10.951
落點	-10.9512
驚動	-10.9513
鄭彦	-10.9513
▁予雖	-10.9514
典籍	-10.9515
▁臣等竊	-10.9516
遣宣傳官	-10.9517
爲心	-10.9517
礙	-10.9518
不備	-10.9519
竄配	-10.952
不計	-10.952
痛懲	-10.9522
首倡	-10.9522
流亡	-10.9522
求對	-10.9526
▁張	-10.9527
後宮	-10.9527
人蔘	-10.9529
▁京中	-10.9531
閔鎭遠	-10.9531
蛇	-10.9536
▁今姑	-10.9537
書曰	-10.954
▁初不	-10.9542
分等	-10.9542
▁再三	-10.9544
▁圖	-10.9549
冤抑	-10.9553
詳悉	-10.9556
敢啓	-10.9556
子女	-10.9557
恪	-10.9562
愛民	-10.9563
締結	-10.9564
讓寧大君	-10.9564
以處	-10.9565
回咨	-10.9567
酒肉	-10.9567
兵曹參議	-10.957
許通	-10.957
▁曾爲	-10.9573
宣川	-10.9574
其議	-10.958
▁回	-10.9581
三名	-10.9581
袞	-10.9585
有旨	-10.959
儻	-10.9592
杯	-10.9592
尙書	-10.9592
投畀	-10.9592
政令	-10.9594
守宰	-10.9597
關於	-10.9597
▁卿須	-10.9598
▁且於	-10.96
月初三日	-10.9602
嘉之	-10.9604
思愼	-10.9608
返	-10.9608
▁乃敢	-10.9608
通行	-10.961
奪告身	-10.961
兵器	-10.9611
數多	-10.9612
▁下敎	-10.9614
所經	-10.9615
於其	-10.9616
盟	-10.9616
使令	-10.9617
▁其勢	-10.9619
瘠	-10.962
▁爭	-10.9621
朴世采	-10.9623
慨	-10.9624
流三千里	-10.9627
▁詳	-10.9631
庇	-10.9632
遣御史	-10.9633
傳旨兵曹	-10.9634
令該府	-10.9634
逋	-10.9635
兼行	-10.9636
恣	-10.9636
高陽	-10.9638
啓覆	-10.9638
論斷	-10.9643
一張	-10.9643
遑遑	-10.9648
汎濫	-10.9648
▁故予	-10.9649
加定	-10.9651
▁臨時	-10.9655
聖學	-10.966
渰死	-10.966
違牌	-10.966
渠輩	-10.9665
何處	-10.9666
職者	-10.9667
▁俱以	-10.9667
▁雖未	-10.9668
濬	-10.9668
印信	-10.9669
見聞	-10.967
▁而今者	-10.9672
大行大王	-10.9673
略曰	-10.9673
▁而因	-10.9675
▁東宮	-10.9675
▁敎	-10.968
於事體	-10.9681
之本意	-10.9685
劾之	-10.9686
授之	-10.9687
▁唐	-10.9687
生事	-10.9688
拯	-10.9693
境上	-10.9693
盡言	-10.9693
推劾	-10.9694
王者	-10.9694
失實	-10.9695
於國	-10.9696
何爲	-10.9697
▁慈殿	-10.9698
支供	-10.9699
痼	-10.97
爲兵曹參判	-10.97
太上王	-10.97
前頭	-10.9702
冷	-10.9704
▁肆	-10.9705
▁月暈	-10.9705
天心	-10.971
▁令曰	-10.971
▁輕	-10.971
▁忠	-10.9712
不逮	-10.9712
古者	-10.9713
李克墩	-10.9714
▁物論	-10.9715
處置使	-10.9716
蘇復	-10.9717
被囚	-10.972
勿推	-10.9725
一朝	-10.9726
▁衆	-10.9727
不小	-10.9728
計之	-10.9729
鄭太和	-10.9729
總兵	-10.973
愍	-10.9733
驪州	-10.9733
巽方	-10.9734
職在	-10.9735
劑	-10.9735
國朝	-10.9736
臣身	-10.9736
州牧	-10.9736
李慶全	-10.9737
問于大臣	-10.9741
遜	-10.9743
李希	-10.9745
朝廷之	-10.9746
於國家	-10.9746
慮其	-10.9747
江上	-10.9752
則已矣	-10.9754
▁卿之	-10.9756
有武才	-10.9756
海南	-10.9756
揮	-10.9759
▁特除	-10.9759
▁今因	-10.976
拱	-10.9761
搢紳	-10.9761
此人等	-10.9762
驅逐	-10.9763
▁且言	-10.9764
▁毋庸	-10.9764
諸鎭	-10.9766
▁肆然	-10.9766
無乃	-10.9767
充定	-10.9769
都監堂上	-10.9772
▁其數	-10.9772
追論	-10.9773
陞職	-10.9774
兩湖	-10.9774
▁林	-10.9778
向來	-10.9778
對馬州	-10.9779
獐	-10.978
已著	-10.9781
世昌	-10.9781
太守	-10.9783
犯者	-10.9783
偶然	-10.9784
弼商	-10.9785
可恕	-10.9786
駄	-10.9787
定屬	-10.9788
遙	-10.9788
可畏	-10.9788
▁逐日	-10.9789
西方	-10.979
荐	-10.979
冠禮	-10.9791
閭延	-10.9791
設科	-10.9794
永興	-10.9794
▁諸道	-10.9796
多事	-10.9796
久在	-10.9797
全釋	-10.9797
▁有乖	-10.98
危急	-10.98
▁諭以	-10.9801
定役	-10.9802
▁無論	-10.9804
獄中	-10.9805
到任	-10.9808
▁累啓	-10.9811
何必	-10.9812
赴擧	-10.9812
二十匹	-10.9813
幸矣	-10.9813
聯	-10.9817
暖	-10.9819
而言之	-10.982
李東	-10.982
▁豈宜	-10.9822
不忍聞	-10.9822
故相臣	-10.9824
斥之	-10.9824
眞僞	-10.9827
從事	-10.9827
當今	-10.9827
▁今觀	-10.983
前府使	-10.9831
定限	-10.9835
擔	-10.9837
▁而其中	-10.9837
果川	-10.9838
詳細	-10.9842
▁作爲	-10.9844
二十三日	-10.9845
▁遣史官	-10.9845
補外	-10.9849
▁政	-10.9851
▁然以	-10.9852
禮也	-10.9854
用事	-10.9857
甚大	-10.9858
世祖朝	-10.9858
性本	-10.9858
縣監金	-10.9859
▁野人	-10.9862
吹	-10.9864
▁臣意以爲	-10.9867
妾子	-10.9869
說話	-10.9871
▁姑勿	-10.9875
腐	-10.9876
▁明年	-10.9877
胥	-10.9879
施行何如	-10.9883
已悉	-10.9884
儒賢	-10.9884
奉敎	-10.9886
貽弊	-10.989
不赴	-10.9892
之大者	-10.9893
下番	-10.9893
▁日暈	-10.9893
已死	-10.9897
敢不	-10.9898
▁公論	-10.99
祉	-10.9902
▁而不能	-10.9903
▁許多	-10.9904
朴鼎吉	-10.9905
綢繆	-10.9905
贈職	-10.9905
令禁府	-10.9905
▁勿爲煩論	-10.9906
▁若非	-10.9909
必以	-10.9911
移屬	-10.9918
所管	-10.992
▁問安于	-10.9921
▁請亟命	-10.9924
不答	-10.9926
▁殊甚	-10.9927
書冊	-10.9927
誤決	-10.9928
武夫	-10.9928
懽	-10.9929
驛吏	-10.993
▁罪人	-10.993
滌	-10.9934
崔鳴吉	-10.9934
喬桐	-10.9934
金應	-10.9934
予欲	-10.9935
四書	-10.9937
沿	-10.9937
檢校	-10.9943
損傷	-10.9944
方急	-10.9944
使者	-10.9945
爲大	-10.9947
健元陵	-10.9948
收告身	-10.9949
議于政府	-10.9949
削去仕版	-10.995
而發	-10.9952
不敷	-10.9953
正朝使	-10.9954
共議	-10.9955
知中樞院事	-10.9955
嬪宮	-10.9956
典獄	-10.9956
仗	-10.9958
等皆	-10.9958
軸	-10.996
之親	-10.996
進御	-10.9962
膽	-10.9963
韓纘男	-10.9963
徐宗泰	-10.9964
調攝	-10.9964
之盛	-10.9964
昌君	-10.9964
食肉	-10.9964
柳廷顯	-10.9966
傳旨吏曹	-10.9971
抵罪	-10.9972
伊時	-10.9974
▁朝夕	-10.9977
嚴旨	-10.9979
宦者	-10.998
▁引見大臣備堂	-10.998
從權	-10.9981
立朝	-10.9982
丙	-10.9983
特敎	-10.9987
▁請辭	-10.9989
吐	-10.9989
▁各賜	-10.9989
有前例	-10.9989
▁豈以	-10.999
民戶	-10.9991
迂	-10.9992
佳	-10.9992
慣	-10.9992
逾	-10.9992
酬酢	-10.9992
軍資監	-10.9995
▁今爲	-10.9996
趙絅	-10.9996
議于三公	-10.9997
▁勿復	-10.9997
苟充	-10.9998
十餘人	-10.9998
主人	-11.0005
▁何足	-11.0009
之價	-11.0011
▁停	-11.0013
大慶	-11.0014
三覆	-11.0015
命下	-11.0017
咫尺	-11.0018
雹	-11.0019
凝	-11.0021
翼善冠	-11.0021
夾	-11.0022
▁此何	-11.0022
胡椒	-11.0022
李山海	-11.0023
月臺	-11.0024
陞資	-11.0025
士論	-11.0028
觀勢	-11.0028
無弊	-11.0029
爲左參贊	-11.0032
一字	-11.0035
誠意	-11.0036
省箚	-11.0038
身爲	-11.0039
出給	-11.004
年七十	-11.004
皇上	-11.0041
風憲	-11.0045
之報	-11.0046
保全	-11.0048
自內	-11.0048
霽	-11.0049
▁據	-11.0049
李溟	-11.005
乍	-11.0051
御營大將	-11.0051
訓鍊大將	-11.0052
倍於	-11.0057
從仕	-11.0058
平安道節度使	-11.0059
條件	-11.0063
中樞	-11.0063
▁各司	-11.0064
奉祀	-11.0066
哭臨	-11.0067
軍機	-11.0067
收還	-11.0069
文章	-11.007
賞賜	-11.0073
▁蓋欲	-11.0075
不給	-11.0078
搶	-11.008
穿	-11.008
數千	-11.0081
疑其	-11.0082
聰	-11.0085
援引	-11.0087
千餘	-11.0087
位版	-11.0087
射侯	-11.0087
▁決非	-11.0088
偃然	-11.009
防納	-11.0091
何異	-11.0092
▁以是	-11.0092
▁仍行	-11.0092
副護軍	-11.0093
▁然後可以	-11.0095
▁群情	-11.0097
縱恣	-11.0099
事君	-11.01
明使	-11.01
憂慮	-11.0102
着實	-11.0104
籲	-11.0109
敎官	-11.0109
閫帥	-11.011
飢餓	-11.011
不擇	-11.011
鄭文炯	-11.0112
指嗾	-11.0112
擧論	-11.0114
臣所	-11.0115
▁於戲	-11.0115
良民	-11.0115
▁王世孫	-11.0117
田地	-11.0117
▁會	-11.012
予意已諭	-11.012
黨論	-11.012
等二人	-11.0123
罷榜	-11.0124
何所	-11.0125
之慶	-11.0127
難免	-11.0129
相考	-11.0132
力請	-11.0133
▁全不	-11.0134
非不知	-11.0135
今春	-11.0135
柳輊	-11.014
色吏	-11.014
有言	-11.0141
三度	-11.0142
卽今	-11.0142
姜渾	-11.0143
▁甚不可	-11.0149
無一	-11.015
大王大妃殿	-11.015
問其	-11.0151
定送	-11.0153
▁未必	-11.0154
▁流	-11.0155
善治	-11.0155
▁中朝	-11.0156
七日	-11.0156
之罪也	-11.0158
都監啓曰	-11.0158
依舊	-11.0159
容易	-11.0162
之極	-11.0165
正其罪	-11.0166
直言	-11.0167
猛	-11.0167
罹	-11.0168
聃	-11.0169
灼	-11.0169
洪重普	-11.0169
▁請勿留難	-11.0169
權縉	-11.0171
逃來	-11.0171
難於	-11.0172
日候	-11.0173
時任	-11.0176
結案	-11.0177
摠兵	-11.0178
聖廟	-11.018
坤方	-11.0181
得雨	-11.0181
亂言	-11.0183
▁律該	-11.0183
趙復陽	-11.0183
竊聞	-11.0185
無端	-11.0191
▁禾穀	-11.0192
仁弘	-11.0195
睿宗	-11.0197
之卒	-11.0198
兇謀	-11.0199
老爺	-11.02
快從公論	-11.02
▁不勝幸甚	-11.02
▁極爲寒心	-11.0201
溫井	-11.0202
李弘老	-11.0203
郡縣	-11.0204
爲說書	-11.0204
猶可	-11.0204
▁請幷	-11.0209
▁春	-11.0209
空虛	-11.0209
提學	-11.0211
來獻土物	-11.0211
卯時	-11.0212
▁減	-11.0214
嚴明	-11.0215
迎送	-11.0215
則以爲	-11.0216
之道乎	-11.0217
聖節	-11.0218
舊規	-11.022
以是	-11.0222
▁上使	-11.0223
所藏	-11.0227
浴	-11.0228
丸	-11.0229
灝	-11.0229
金壽童	-11.0229
具由	-11.0229
▁伏願聖明	-11.0229
求請	-11.023
皇壇	-11.0231
前期	-11.0234
錯誤	-11.0235
予聞	-11.0236
不改	-11.0236
朴氏	-11.0239
憲府申前啓	-11.0239
▁陳疏	-11.024
見罷	-11.0241
胥命	-11.0241
禁酒	-11.0247
駭異	-11.0248
濫刑	-11.0249
知會	-11.025
▁或云	-11.025
謂曰	-11.0251
▁忠淸道	-11.0251
作米	-11.0252
原任	-11.0252
▁淸	-11.0254
岡	-11.0256
納之	-11.0257
北路	-11.0258
▁至是卒	-11.0262
伏覩	-11.0263
差定	-11.0271
還御	-11.0271
本寺	-11.0272
被虜	-11.0272
時方	-11.0273
弼善	-11.0273
逃散	-11.0275
▁不可謂	-11.0276
無恥	-11.0276
▁徑先	-11.0279
淮	-11.028
▁備邊司	-11.028
▁待其	-11.0284
仁宗	-11.0286
同知中樞府事	-11.0286
命遞	-11.0288
尹根壽	-11.0288
▁至於此極	-11.0289
皇后	-11.0293
事務	-11.0295
報復	-11.0295
大水	-11.03
出外	-11.0301
新設	-11.0302
獨不	-11.0303
▁皆以爲	-11.0305
▁委	-11.0306
業已	-11.0308
退而	-11.0309
▁以安	-11.0311
節義	-11.0317
豊	-11.0319
修葺	-11.0319
朴元亨	-11.0321
▁請加	-11.0326
注簿	-11.0326
原從	-11.0326
▁非爲	-11.0327
禮單	-11.0328
道理	-11.0331
鄭蘊	-11.0331
▁無意	-11.0332
▁"(	-11.0332
不避	-11.0335
暹	-11.0336
州縣	-11.0337
▁又爲	-11.0337
古之	-11.0339
李文	-11.0343
▁終至	-11.0344
飮食	-11.0347
尤重	-11.0348
▁欽	-11.0349
歛	-11.0349
冒居	-11.0349
素服	-11.0352
▁更無	-11.0353
李季仝	-11.0353
▁亦依	-11.0354
水原府使	-11.0355
輔德	-11.0355
鉤	-11.0356
▁若其	-11.0357
慰悅	-11.0357
大小臣僚	-11.036
李健命	-11.0363
耕種	-11.0364
有可	-11.0368
貌	-11.0369
禁令	-11.0371
▁餘皆	-11.0372
政曹	-11.0373
光弼	-11.0374
解送	-11.0375
薦擧	-11.0375
外間	-11.0376
尹斗壽	-11.0376
熊	-11.0378
嘉納	-11.0379
目今	-11.0379
鷄	-11.0379
李克增	-11.038
▁而今此	-11.0381
▁事極	-11.0386
▁專爲	-11.0386
舊制	-11.0388
賑廳	-11.0391
未知其	-11.0392
追捕	-11.0393
所及	-11.0393
北關	-11.0394
軍馬	-11.0394
▁則非但	-11.0395
俯	-11.0398
▁將何以	-11.0398
昨見	-11.0399
亦非	-11.04
解由	-11.04
供職	-11.0402
請出	-11.0402
之年	-11.0402
者及	-11.0406
畀	-11.0409
還寢	-11.0409
▁以快	-11.0409
疇	-11.041
託	-11.041
不久	-11.041
遑	-11.0411
怠慢	-11.0412
受點	-11.0412
輔導	-11.0414
▁下諭于	-11.0416
恐懼修省	-11.0416
寧海	-11.0416
實狀	-11.0417
▁伏乞	-11.0417
本郡	-11.0418
丈	-11.0419
當時	-11.042
相望	-11.0427
▁猶且	-11.0429
艱難	-11.043
▁國人	-11.0431
旣無	-11.0435
顚	-11.0435
權大運	-11.0436
遵行	-11.0437
予所	-11.0438
渙	-11.0439
狡	-11.0439
朴崇質	-11.044
上御景賢堂	-11.044
粉	-11.044
▁領	-11.0444
爲世子	-11.0447
▁臣何敢	-11.045
聖躬	-11.0455
▁更令	-11.0458
營造	-11.0458
▁太祖	-11.0459
擒	-11.0459
▁曲	-11.0461
追刑	-11.0461
削去	-11.0463
糶	-11.0464
十里	-11.0464
可得	-11.0465
形止	-11.0465
▁固宜	-11.0466
老成	-11.0467
領敦寧府事	-11.0471
啓意	-11.0476
衣冠	-11.0477
同知中樞院事	-11.0479
監董	-11.0481
修治	-11.0483
眩	-11.0489
陞爲	-11.049
羅將	-11.0491
布置	-11.0493
先正臣	-11.0493
舊基	-11.0494
力爭	-11.0495
倒	-11.0497
涕	-11.0497
涵	-11.0498
譎	-11.0498
爛	-11.0501
慟	-11.0501
尹仁鏡	-11.0502
勤慢	-11.0504
康津	-11.0504
▁而予	-11.0505
其由	-11.0507
捕盜	-11.0507
復立	-11.0509
我等	-11.051
煩論	-11.0513
護逆	-11.0513
成憲	-11.0517
敎誨	-11.0518
從便	-11.0519
所宜	-11.052
重論	-11.0524
帥臣	-11.0527
者矣	-11.0528
▁引避遞	-11.053
請停	-11.0531
▁旣無	-11.0531
月二十八日	-11.0531
及諸	-11.0532
商賈	-11.0533
人及	-11.0533
方面	-11.0534
本家	-11.0534
奢侈	-11.0534
爲之事	-11.0535
趙光祖	-11.0535
大明律	-11.0535
二十餘	-11.0538
之死	-11.0538
所望	-11.0539
▁若於	-11.054
齋宿	-11.0541
▁果爲	-11.0544
▁不在	-11.0546
▁一朝	-11.0547
草野	-11.0549
益甚	-11.0549
下鄕	-11.0552
▁尹弼商	-11.0553
之治	-11.0554
▁今於	-11.0554
白衣	-11.0557
武才	-11.0558
▁當時	-11.0558
之害	-11.0559
梨	-11.0563
珽	-11.0563
李好閔	-11.0563
任之	-11.0563
▁猶可	-11.0566
▁投	-11.0567
贓吏	-11.0568
輿情	-11.0569
竊盜	-11.057
再昨	-11.0573
要害	-11.0574
諫臣	-11.0574
臺體	-11.0575
▁處事	-11.0578
李濡	-11.0579
家長	-11.0585
地方官	-11.0585
▁仍以	-11.0586
倖	-11.0586
僕	-11.0586
鈞	-11.0588
別爲	-11.0589
▁而今乃	-11.0592
限年	-11.0592
▁故令	-11.0593
裂	-11.0593
絹	-11.0594
芻	-11.0594
佇	-11.0594
全家徙邊	-11.0594
泄	-11.0594
江華留守	-11.0595
無一人	-11.0595
▁予豈	-11.0596
永安道	-11.0597
上引見	-11.0598
極邊	-11.0598
榻前	-11.0599
其價	-11.06
莫敢	-11.06
下諭于	-11.0602
▁且無	-11.0603
雨澤	-11.0603
▁其一	-11.0605
爲戶曹參判	-11.0605
不可也	-11.0609
▁雖是	-11.061
▁急	-11.061
▁是亦	-11.0611
千萬	-11.0611
戢	-11.0612
不念	-11.0614
退定	-11.0617
▁獲	-11.0618
文武科	-11.0619
▁令廟堂	-11.0621
手書	-11.0622
李時	-11.0622
瑢	-11.0625
含默	-11.0626
李翊	-11.0627
爲慮	-11.0628
戾	-11.0629
▁朝	-11.063
▁今旣	-11.063
▁揆以	-11.0633
命推考	-11.0633
生徒	-11.0634
金堉	-11.0635
我殿下	-11.0637
鄭知和	-11.0637
給價	-11.0637
之斥	-11.0638
駕前	-11.0639
筵席	-11.0641
▁然後可	-11.0644
▁足	-11.0645
直爲	-11.0647
痛駭	-11.0648
軍令	-11.0651
法也	-11.0652
民田	-11.0653
禽	-11.0654
其才	-11.0655
趾	-11.0655
詭	-11.0656
勿施	-11.0657
寺刹	-11.0657
綿紬	-11.0657
國人	-11.066
亦宜	-11.0663
遞職	-11.0665
▁予則	-11.0665
▁周	-11.0666
亦欲	-11.067
前進	-11.0672
其日	-11.0675
凍	-11.0675
八路	-11.0678
人事	-11.0681
審理	-11.0685
▁宜速	-11.0686
瓜	-11.0686
棺	-11.0687
▁苟有	-11.0688
宣惠廳	-11.0689
▁可不	-11.0689
▁斷不可	-11.0691
勸勵	-11.0692
萬石	-11.0692
話	-11.0692
客星	-11.0692
延安	-11.0693
▁請皆	-11.0693
齋室	-11.0693
邦憲	-11.0694
老母	-11.0698
▁或因	-11.07
尹氏	-11.0701
受罪	-11.0701
上候	-11.0701
所産	-11.0707
▁晩	-11.0707
泳	-11.0709
鹿皮	-11.0709
軍國	-11.0712
獄囚	-11.0713
鋪	-11.0715
孝寧大君	-11.0719
特恩	-11.0721
成川	-11.0725
▁不幸	-11.0729
伸救	-11.0729
兇賊	-11.0733
難便	-11.0734
相換	-11.0735
備禦	-11.0735
鄭造	-11.0735
以北	-11.0742
金勘	-11.0744
各道監司	-11.0745
▁專不	-11.0746
巡邊使	-11.075
▁其父	-11.075
漕運	-11.0752
憂國	-11.0752
金尙魯	-11.0753
瑛	-11.0754
▁非特	-11.0754
預知	-11.0754
賊人	-11.0755
方張	-11.0755
▁令兵曹	-11.0756
▁同僚	-11.0756
承政院曰	-11.0758
▁上不答	-11.0758
兪彦	-11.0758
▁奚	-11.0759
收米	-11.076
聞於	-11.076
古禮	-11.076
傳旨刑曹	-11.0762
李鐵堅	-11.0765
侍臣	-11.0771
災傷	-11.0771
各品	-11.0771
英陵	-11.0771
▁雖出於	-11.0772
速出	-11.0779
▁休煩	-11.0779
崔有源	-11.078
兩宮	-11.078
驚愕	-11.0781
似難	-11.0784
詩傳	-11.0785
▁則民	-11.0787
先行	-11.0787
漂流	-11.0789
敢言	-11.0796
移設	-11.0797
之苦	-11.0799
診	-11.08
奏請使	-11.0801
興淸	-11.0801
▁勿許	-11.0801
北征	-11.0806
▁初非	-11.081
啓事	-11.0812
▁率皆	-11.0812
猪	-11.0813
昌慶宮	-11.0813
守門將	-11.0813
三尺	-11.0814
▁上然之	-11.0815
▁只是	-11.0816
未經	-11.0817
▁捧承傳	-11.0819
鄭澈	-11.082
只有	-11.082
取其	-11.0821
再疏	-11.0822
親試	-11.0822
痛惋	-11.0822
弑	-11.0825
交河	-11.0825
臣與	-11.0826
誨	-11.0827
諺	-11.0828
賊兵	-11.0828
大祝	-11.0837
爲主	-11.0837
▁請遞差	-11.0837
▁此誠	-11.0838
押送	-11.084
▁予以	-11.0842
未定	-11.0843
欲使	-11.0844
開城	-11.0844
晨	-11.0845
朽	-11.0845
琴	-11.0845
洪致中	-11.0845
▁遍	-11.0845
公私賤	-11.0845
修補	-11.0845
任元濬	-11.0847
命婦	-11.0848
於法	-11.0849
頃因	-11.0852
古事	-11.0853
第二	-11.0853
垕	-11.0854
段子	-11.0855
皆言	-11.0855
▁封	-11.0855
制度	-11.0855
▁則以爲	-11.0857
鐵山	-11.0857
先爲	-11.0859
▁姑令	-11.0861
行幸時	-11.0864
外任	-11.0864
恩典	-11.0865
之作	-11.0866
五匹	-11.0867
▁他	-11.0868
▁迎	-11.0869
騎馬	-11.0871
本營	-11.0873
之位	-11.0874
怯	-11.0874
低	-11.0875
後悔	-11.0876
棺槨	-11.0877
▁姑停	-11.0878
▁果如	-11.0881
禮曹正郞	-11.0881
逆魁	-11.0882
日字	-11.0882
無功	-11.0883
冊子	-11.0884
騎射	-11.0884
非偶然	-11.0884
上將	-11.089
蒙恩	-11.0891
登對	-11.0894
▁不肯	-11.0897
▁盛	-11.0898
輸情	-11.0899
▁成宗	-11.0902
擢用	-11.0902
旣被	-11.0902
廂	-11.0902
陞授	-11.0903
日期	-11.0906
免罪	-11.0908
鎬	-11.0909
尹承勳	-11.0909
釀	-11.0909
拷訊	-11.0909
徒三年	-11.0909
▁此正	-11.0909
武弁	-11.091
力戰	-11.0911
員役	-11.0915
改定	-11.0916
軍職	-11.0919
李氏	-11.092
君命	-11.0921
調發	-11.0923
孝行	-11.0924
不允批答	-11.0924
不分	-11.0925
▁群臣	-11.0927
掛	-11.0929
南陽	-11.0931
▁一年	-11.0931
妻妾	-11.0932
吉服	-11.0936
登科	-11.0938
棍	-11.0938
收捧	-11.0939
▁士	-11.0939
瓚	-11.0941
諧	-11.0941
▁請命遞斥臣職	-11.0941
實效	-11.0942
▁道臣以聞	-11.0943
卿以	-11.0943
出城	-11.0946
▁黃海道	-11.0946
之人也	-11.0948
弊瘼	-11.0949
▁嶺南	-11.0949
水路	-11.095
趙挺	-11.0952
▁倭人	-11.0952
策應	-11.0954
▁專以	-11.0956
金詮	-11.0958
▁予將	-11.0959
慶興	-11.0962
幾人	-11.0964
金永	-11.0964
▁請更	-11.0965
▁皇帝	-11.0969
他司	-11.097
盡職	-11.0971
籍沒	-11.0972
緯	-11.0973
卽見	-11.0973
雌	-11.0973
疵	-11.0973
讐	-11.0973
妙	-11.0973
溟	-11.0973
三字	-11.0976
▁身爲	-11.0976
旣不	-11.0977
檢詳	-11.0978
考前例	-11.0978
鄕校	-11.0979
使送	-11.098
如許	-11.098
▁本非	-11.0981
下獄	-11.0982
的知	-11.0983
連年	-11.0983
勳臣	-11.0984
卒哭	-11.0987
致此	-11.0989
深重	-11.099
若以	-11.0991
島中	-11.0991
不順	-11.0991
▁諡	-11.0992
之不可	-11.0995
▁大如	-11.0995
引疾	-11.0996
用刑	-11.0997
及其	-11.0999
▁每於	-11.1003
▁則今	-11.1003
頉	-11.1004
穢	-11.1004
門內	-11.1004
鵬	-11.1005
柳慶宗	-11.1005
內閣	-11.1006
李繼孟	-11.1006
便宜	-11.1008
遲延	-11.1008
農民	-11.1009
伏誅	-11.101
刑曹三覆啓	-11.1014
今之	-11.1017
▁告	-11.1017
▁先爲	-11.1019
一資	-11.102
▁或至	-11.102
交章	-11.1021
得罪於	-11.1022
▁日夜	-11.1024
▁苟非	-11.1026
身病	-11.1027
上謂	-11.1027
▁世宗	-11.1027
▁將爲	-11.1037
於大臣	-11.1037
泛濫	-11.1039
▁命賜	-11.1041
配享	-11.1045
箚曰	-11.1045
某人	-11.1046
▁以爲恒式	-11.1047
犯贓	-11.1047
雷震	-11.1047
▁都監	-11.1047
辨誣	-11.1048
一邊	-11.1049
廟社	-11.1049
侍女	-11.1051
疏章	-11.1054
連日	-11.1055
下禁府	-11.1057
漢城府尹	-11.1057
愚民	-11.1065
不急	-11.1066
新舊	-11.1066
淹	-11.1067
▁胡	-11.107
碧潼	-11.107
▁云矣	-11.1078
▁故敢	-11.108
大丘	-11.108
等以爲	-11.1085
之黨	-11.1087
▁嚴加	-11.1088
擅便	-11.1088
當以	-11.1088
兵曹堂上	-11.1089
客人	-11.1091
▁爾其	-11.1093
徽號	-11.1094
前銜	-11.1096
▁似乎	-11.1099
諸執事	-11.11
▁徑	-11.1102
愴	-11.1103
請出仕	-11.1103
試士	-11.1104
六七	-11.1105
雖以	-11.1105
不應	-11.1108
極言	-11.1112
心術	-11.1112
未易	-11.1114
琉球國	-11.1114
不畏	-11.1115
何也	-11.1117
疑之	-11.1124
差之	-11.1124
不可廢也	-11.1125
考諸	-11.1126
嚴加	-11.1126
▁力	-11.1129
下馬	-11.113
品官	-11.1132
屠	-11.1133
士氣	-11.1135
紋	-11.1135
有大	-11.1137
元斗杓	-11.1137
各樣	-11.1139
賜死	-11.1139
大臣議	-11.1141
▁希	-11.1145
回自	-11.1146
乞解	-11.1147
復職	-11.1151
親問	-11.1153
稔	-11.1153
之見	-11.1157
李昌	-11.1158
▁前已	-11.1158
爲名	-11.1162
▁則臣等	-11.1162
▁漸	-11.1162
平安兵使	-11.1163
托以	-11.1165
安集	-11.1165
伴	-11.1167
峯	-11.1167
藝文	-11.1167
症	-11.1167
揀	-11.1168
御書	-11.1168
南公轍	-11.1168
擁	-11.1168
京倉	-11.1172
朝賀	-11.1172
遞其職	-11.1173
長城	-11.1174
▁其不	-11.1174
坦	-11.1176
▁上竝	-11.1177
其黨	-11.1179
▁而必	-11.118
爲檢閱	-11.1181
朴燁	-11.1181
司馬	-11.1182
優批	-11.1185
更鞫	-11.1186
▁下敎曰	-11.1191
授職	-11.1192
可遞	-11.1193
蠶	-11.1193
▁還給	-11.1195
嗾	-11.1196
五年	-11.1196
石零	-11.1197
▁橫	-11.1198
▁倍	-11.1201
矜	-11.1201
金藎國	-11.1201
禮賓寺	-11.1202
洪瑞鳳	-11.1202
▁月	-11.1203
末減	-11.1203
公賤	-11.1207
皆然	-11.1207
之態	-11.1211
留難	-11.1213
死生	-11.1215
雖重	-11.1216
七品	-11.1218
後來	-11.122
賊徒	-11.122
覈實	-11.1222
使命	-11.1224
伏承	-11.1224
李秉模	-11.1228
失當	-11.1228
致齋	-11.123
不可廢	-11.1232
攀	-11.1233
摧折	-11.1235
▁區區	-11.1238
通計	-11.1239
▁快	-11.1241
論也	-11.1242
不直	-11.1243
難矣	-11.1244
的實	-11.1245
亂臣	-11.125
未敢	-11.125
魯山	-11.1252
察之	-11.1252
炳	-11.1253
諉	-11.1254
將何	-11.1255
畢役	-11.1259
▁誠以	-11.1261
女樂	-11.1262
▁各有	-11.1263
情節	-11.1264
人望	-11.1266
入寇	-11.1266
察啓	-11.1267
云爾	-11.1267
▁臣不勝	-11.1267
奔競	-11.1268
回自京師	-11.1268
此心	-11.1269
洪貴達	-11.127
犬	-11.1277
安潤德	-11.1278
爲未便	-11.1279
拔去	-11.128
狀請	-11.1282
近臣	-11.1284
請寢	-11.1284
其法	-11.1286
女人	-11.1288
告之	-11.129
▁以便	-11.129
不審	-11.1292
赫	-11.1294
多寡	-11.1295
痛治	-11.1296
▁恩	-11.1297
恣行	-11.1298
免役	-11.1299
之聲	-11.1299
俺等	-11.13
艮方	-11.13
朴信	-11.13
魚有沼	-11.1301
肇	-11.1302
行茶禮	-11.1306
▁每當	-11.1306
而然耶	-11.1306
存亡	-11.1309
此論	-11.1311
▁皆爲	-11.1311
▁事多	-11.1314
七人	-11.1316
▁寧有	-11.132
不時	-11.1321
聰明	-11.1322
來見	-11.1324
宣諭	-11.1328
▁則所當	-11.1332
▁終無	-11.1334
賜之	-11.1335
▁答	-11.1335
朴訔	-11.1337
衣一襲	-11.1337
允當	-11.1338
成冊	-11.134
親受	-11.134
▁則宜	-11.1341
皆有	-11.1341
▁非他	-11.1342
議藥	-11.1345
冒濫	-11.1347
懲惡	-11.1347
天理	-11.1347
近密	-11.135
▁擧國	-11.1352
遣朝官	-11.1354
瑾	-11.1359
仍存	-11.1359
傳聞	-11.1362
金尙喆	-11.1362
體予	-11.1364
無由	-11.1364
客使	-11.1364
綵	-11.1365
卿宰	-11.1365
蔓	-11.1366
▁宜加	-11.1367
治其罪	-11.1367
塵	-11.1367
派	-11.1367
瘡	-11.1367
籠	-11.1367
停朝市	-11.1368
李德泂	-11.1368
慶尙左道	-11.1368
嚴敎	-11.1368
酋長	-11.1369
金尙容	-11.1369
爲弘文館副提學	-11.137
徑斃	-11.137
從實	-11.1372
▁殊極	-11.1372
所未聞	-11.1374
俱以	-11.1379
▁請改差	-11.1379
▁降	-11.138
月初八日	-11.1383
▁必是	-11.1383
宣廟	-11.1384
失信	-11.1385
勤勞	-11.1386
命罷	-11.1386
▁卽日	-11.1386
▁如此則	-11.1387
侍宴	-11.1388
申時	-11.1389
唐官	-11.1396
之需	-11.1398
濁	-11.1399
碎	-11.14
輯	-11.14
蹙	-11.1401
▁狀如鉢	-11.1401
擬於	-11.1402
忠義衛	-11.1402
居人	-11.1405
待敎	-11.1409
虞祭	-11.1411
▁竝與	-11.1412
▁每一	-11.1414
▁似非	-11.1415
及期	-11.1415
▁是時	-11.1416
起居	-11.1418
大官	-11.1419
一毫	-11.142
▁豈能	-11.142
正卿	-11.142
▁同知事	-11.1421
勿問	-11.1424
朝服	-11.1426
人命	-11.1427
戎服	-11.1427
陪從	-11.1429
詰問	-11.1429
▁假	-11.143
市民	-11.143
上番	-11.1431
逝	-11.1431
▁然今	-11.1431
雨雪	-11.1432
八品	-11.1432
上使	-11.1432
不告	-11.1433
權停	-11.1433
▁乃命	-11.1434
判中樞院事	-11.1434
黃廷彧	-11.1434
金謹思	-11.1434
熟馬一匹	-11.1435
中使	-11.1436
隨後	-11.1437
貪鄙	-11.1437
庶孽	-11.144
▁其意有在	-11.144
都監提調	-11.1444
我國人	-11.1445
▁左	-11.1446
先王之	-11.1446
宮官	-11.1447
隅	-11.1448
尹壕議	-11.1448
仕進	-11.1449
▁是必	-11.1452
遠配	-11.1453
民瘼	-11.1453
以大臣	-11.1454
▁請罷職不敍	-11.1454
陳所懷	-11.1456
▁不知其	-11.146
命罷職	-11.1462
勸農	-11.1462
係於	-11.1463
城底	-11.1464
大學衍義	-11.1468
栢	-11.1468
哥	-11.1468
山林	-11.1469
不恤	-11.1469
▁不勝惶恐	-11.147
處斷	-11.1475
自以爲	-11.1476
▁則乃	-11.1479
上達	-11.148
御筆	-11.1482
減一等	-11.1484
▁右相	-11.1484
西邊	-11.1489
於榻前	-11.149
節制	-11.1494
▁其情	-11.1495
驛馬	-11.1495
澈	-11.1495
坡州	-11.1497
▁毋使	-11.1497
知此意	-11.1498
烟	-11.1499
鄕曲	-11.1499
好惡	-11.15
窘	-11.1501
筒	-11.1502
僉知中樞府事	-11.1503
悖戾	-11.1503
▁以安宗社	-11.1503
判中樞	-11.1503
況	-11.1505
洪州	-11.1506
諭書	-11.1507
日昨	-11.1511
李夏	-11.1512
不可已	-11.1514
▁奪	-11.1516
從二品	-11.1517
求之	-11.1517
所引	-11.1518
賜第	-11.1519
倭寇	-11.152
國綱	-11.152
之手	-11.1521
▁汝等	-11.1521
祗	-11.1522
渴	-11.1525
之發	-11.1525
昌孫	-11.1526
▁殊非	-11.1527
家奴	-11.1529
爲限	-11.1529
▁似有	-11.1531
蓍	-11.1536
咀呪	-11.1536
坪	-11.1536
涕泣	-11.1536
淹滯	-11.1537
韓孝純	-11.1537
▁未知其	-11.1538
應旨	-11.1539
違豫	-11.1539
避嫌之辭	-11.154
於朝	-11.154
洪暹	-11.1543
治事	-11.1543
予非	-11.1543
兼春秋	-11.1543
安瑭	-11.1543
鳳山	-11.1543
蕩平	-11.1544
供招	-11.1544
五更	-11.1545
戶曹參議	-11.1545
肯	-11.1545
載於	-11.1545
之弟	-11.1548
家人	-11.1549
塞責	-11.1551
官職	-11.1552
除之	-11.1552
▁將以	-11.1554
對以	-11.1554
年八十	-11.1555
通書	-11.1559
合辭	-11.1559
奚	-11.156
可考	-11.1561
三十餘	-11.1564
吏曹正郞	-11.1565
系	-11.1567
券	-11.1567
成就	-11.1567
講學	-11.1568
刦	-11.1569
兢	-11.157
趙翼	-11.157
尹士昕	-11.157
岸	-11.157
用情	-11.1571
麤鄙	-11.1572
埋沒	-11.1572
仕版	-11.1573
動搖	-11.1573
艱苦	-11.1573
道伯	-11.1575
▁上優批	-11.1576
聖祖	-11.1584
回禮	-11.1585
堂郞	-11.1588
彼中	-11.1589
亦皆	-11.1589
和平	-11.1589
▁聖明	-11.1593
其間	-11.1593
示之	-11.1595
水營	-11.1595
隨從	-11.1596
▁任意	-11.1597
允之	-11.1598
四匹	-11.1598
從前	-11.1598
月初七日	-11.1602
卵	-11.1604
鴨	-11.1604
鄭經世	-11.1605
仁慶宮	-11.1605
▁誤	-11.1606
無用	-11.1607
詔獄	-11.1608
▁呈	-11.1608
屬於	-11.1609
之稱	-11.161
李浣	-11.161
▁古人云	-11.1611
每年	-11.1615
錄名	-11.1617
九萬	-11.1621
▁願殿下	-11.1622
明政殿	-11.1626
▁萬一	-11.1628
爾言	-11.1628
頒布	-11.1629
▁萬無	-11.1629
財産	-11.1631
之主	-11.1636
禮曹堂上	-11.1636
魏	-11.1636
▁然不可	-11.1637
發怒	-11.1637
詐稱	-11.1638
龍仁	-11.1638
關防	-11.1639
▁以此意	-11.164
尹漑	-11.1642
洪樂	-11.1642
不離	-11.1645
鐵原	-11.1647
議政府據禮曹呈啓	-11.1647
尹訒	-11.1649
安危	-11.1651
上有	-11.1651
究問	-11.1651
軍需	-11.1652
漢城	-11.1653
金相	-11.1654
金石	-11.1654
一二人	-11.1654
月十八日	-11.1655
掌務	-11.1657
▁無一人	-11.1658
審察	-11.1658
供億	-11.1661
京官	-11.1661
此任	-11.1661
優待	-11.1663
還屬	-11.1663
避殿	-11.1664
之念	-11.1665
體予意	-11.1665
陳奏	-11.1667
▁義州	-11.1667
有一毫	-11.1668
▁至于	-11.1668
▁上亦	-11.167
祝文	-11.1673
不可無	-11.1674
姜孟卿	-11.1674
趙泰耉	-11.1675
上章	-11.1676
取士	-11.1677
帶去	-11.1679
之罰	-11.168
進爵	-11.1681
會于	-11.1683
▁古今	-11.1684
▁久不	-11.1689
▁果有	-11.1689
推治	-11.169
焰	-11.1697
於下	-11.1699
酋	-11.17
祭祀	-11.1703
于仁政殿	-11.1705
崔錫鼎	-11.1707
退待物論	-11.1707
霧	-11.1708
〈	-11.1708
苗	-11.1708
奄	-11.1708
卞季良	-11.1708
醜詆	-11.1708
▁而敢	-11.1709
▁爲其	-11.1709
右尹	-11.1709
開城府留守	-11.1709
▁如其	-11.171
巡行	-11.1711
大臣等	-11.1717
立於	-11.172
雜人	-11.172
擔當	-11.1721
而入	-11.1722
此是	-11.1723
出迎	-11.1723
天意	-11.1723
儀節	-11.1724
▁藥房	-11.1725
惻	-11.1725
▁諫院啓	-11.1727
▁道路	-11.1729
聞而	-11.1729
▁上怒	-11.173
不書	-11.1731
▁承政院	-11.1735
▁則將	-11.1735
摠戎使	-11.1737
無前之	-11.1739
▁厚	-11.174
仍置	-11.1741
枳	-11.1743
▁我朝	-11.1743
禮義	-11.1743
李基	-11.1746
▁痛	-11.1746
絶無	-11.1746
▁甚於	-11.1746
▁勿煩	-11.1746
遠地	-11.1748
復舊	-11.1749
無路	-11.1749
常例	-11.175
各營	-11.1753
淸人	-11.1753
▁斯	-11.1754
來者	-11.1754
犯越	-11.1754
上箋	-11.1755
▁脫有	-11.1755
乏人	-11.1758
本以	-11.1758
行酒	-11.1764
京職	-11.1764
內局	-11.1765
反復	-11.1768
疫	-11.1769
▁固已	-11.177
方爲	-11.177
代行	-11.177
招致	-11.1772
旣爲	-11.1773
在朝	-11.1773
賊情	-11.1773
之急	-11.1774
街	-11.1775
苧布	-11.1775
氣力	-11.1776
父兄	-11.1776
伺	-11.1777
應製	-11.1777
其志	-11.1777
〉	-11.1777
拆	-11.1777
崔錫恒	-11.1778
置酒	-11.1778
金命元	-11.1778
領敦寧以上	-11.1779
臣本	-11.178
李明	-11.178
▁曾有	-11.1781
柳灌	-11.1783
▁而今日	-11.1785
▁命召	-11.1786
▁專事	-11.1787
畿內	-11.1787
▁按	-11.1787
殿內	-11.179
之誚	-11.1793
轝	-11.1793
相遞	-11.1794
奏文	-11.1797
有乖於	-11.1798
私用	-11.1802
一依	-11.1802
暉	-11.1803
命放	-11.1808
▁皆用	-11.1809
拾	-11.1809
等八人	-11.1811
▁今玆	-11.1811
賞職	-11.1812
諴	-11.1812
齊會	-11.1814
沿路	-11.1815
孝宗	-11.1816
人畜	-11.1818
▁故不得	-11.1821
武藝	-11.1822
管下	-11.1822
之奴	-11.1822
初欲	-11.1824
酌定	-11.1825
▁內外	-11.1825
▁更勿	-11.1826
▁安心勿辭	-11.1828
辭連	-11.1828
所敢	-11.1829
功役	-11.1829
病死	-11.183
釐	-11.1831
漕	-11.1832
▁況其	-11.1832
太子	-11.1833
▁趁	-11.1834
汲	-11.1835
自首	-11.1837
紳	-11.1837
其狀	-11.1838
虐	-11.1839
吾等	-11.1839
▁又何	-11.184
趁卽	-11.184
寺社	-11.1842
端緖	-11.1843
財物	-11.1843
第三	-11.1843
二百餘	-11.1844
侫	-11.1848
喪制	-11.1848
肅廟	-11.1849
藥房都提調	-11.1852
虛踈	-11.1853
▁與其	-11.1853
依此例	-11.1855
超授	-11.1856
酬應	-11.1856
隱諱	-11.1857
筵奏	-11.1859
趁時	-11.1861
無過	-11.1862
▁以病	-11.1865
▁令禮曹	-11.1869
▁從容	-11.1869
不死	-11.1871
是時	-11.1872
大政	-11.1873
等上箚	-11.1874
裨	-11.1875
近地	-11.1876
誡	-11.1876
▁故不得已	-11.1879
弭	-11.1879
此疏	-11.1881
▁倭	-11.1882
鳥	-11.1882
役使	-11.1882
晉	-11.1883
樸	-11.1883
弘文提學	-11.1883
▁憲府啓	-11.1883
▁其速	-11.1883
奉事	-11.1883
稷山	-11.1885
憑藉	-11.1885
守陵官	-11.1885
▁而欲	-11.1885
頒賜	-11.1888
學士	-11.1888
豈不知	-11.1889
授本職	-11.1893
禮曹據	-11.1894
▁凡在	-11.1895
▁凡所	-11.1896
▁原	-11.1896
南下	-11.1904
▁玉	-11.1905
▁則只	-11.1906
馳往	-11.1908
司正	-11.1909
宗社之	-11.191
白川	-11.1912
▁請速遞	-11.1912
之色	-11.1918
闔	-11.1918
兪拓基	-11.1918
慶尙右道	-11.1919
至意	-11.1919
建州衛	-11.1921
金悌男	-11.1921
直赴	-11.1922
▁本無	-11.1924
▁關係	-11.1924
如舊	-11.1926
李尙	-11.1926
雖已	-11.1926
面諭	-11.1928
朔州	-11.1929
卒哭後	-11.1932
雞	-11.1932
仰體	-11.1933
跟捕	-11.1934
稱之	-11.1934
義倉	-11.1935
地面	-11.1935
▁不思	-11.1942
行護軍	-11.1945
相接	-11.1946
衝	-11.1949
伴人	-11.1952
安國	-11.1952
畿	-11.1954
整齊	-11.1956
饒	-11.1956
密陽	-11.1957
於是	-11.196
▁來獻土宜	-11.196
使行	-11.1963
咸吉	-11.1965
▁敢此	-11.1967
于上	-11.1967
未至	-11.1968
之利	-11.1969
▁若或	-11.1969
▁亦未	-11.1971
量移	-11.1971
▁亦難	-11.1971
賑資	-11.1971
進告	-11.1972
▁讀	-11.1974
疏批	-11.1976
故判書	-11.1976
東北面	-11.1976
其爲人	-11.1978
璧	-11.1981
▁定爲	-11.1982
無隱	-11.1982
東朝	-11.1983
幅	-11.1984
▁時人	-11.1984
金元	-11.1986
薛	-11.1988
刈	-11.1989
狼狽	-11.1989
元景夏	-11.1989
金若魯	-11.1989
與焉	-11.1989
寡躬	-11.1991
柳希奮	-11.1992
▁略無	-11.1992
爲兵曹佐郞	-11.1992
置於	-11.1994
▁摠	-11.1997
▁初以	-11.2001
洪湜	-11.2001
乘馬	-11.2002
爲兵曹參議	-11.2003
行長	-11.2003
噫	-11.2004
稱病	-11.2006
成風	-11.2007
今日之事	-11.2011
權奸	-11.2012
軍器監	-11.2012
中和	-11.2014
開門	-11.2015
之米	-11.2015
不可爲	-11.2016
自少	-11.2017
▁宰相	-11.2019
滯獄	-11.2019
科次	-11.2019
鄭羽良	-11.2025
枕	-11.2025
賄賂	-11.2025
刑官	-11.2026
一岐州	-11.2027
遣承旨敦諭	-11.2028
依律定罪	-11.2029
吏曹佐郞	-11.203
以實	-11.2031
語之曰	-11.2031
過失	-11.2032
自此	-11.2033
詢問	-11.2036
▁憲府又啓	-11.2038
金克成	-11.204
▁弊	-11.2042
▁則予	-11.2043
大臣以下	-11.2044
巫	-11.2044
新造	-11.2045
▁不計	-11.2045
數三	-11.2045
逆變	-11.2047
據此	-11.2047
薦之	-11.2047
其役	-11.2051
▁推鞫	-11.2051
▁不容	-11.2054
▁施賞有差	-11.2054
往年	-11.2054
灰	-11.2056
目之	-11.2058
孝廟	-11.206
臨瀛大君	-11.2061
李浚慶	-11.2061
霑	-11.2061
稍稔	-11.2062
賑恤廳	-11.2063
兩司啓	-11.2064
攸司	-11.2066
懲討	-11.2066
▁則與	-11.2067
▁以防	-11.2067
上率百官	-11.2068
土地	-11.2068
評事	-11.207
種子	-11.2071
擇定	-11.2073
後人	-11.2073
現出	-11.2073
尸	-11.2076
一千五百	-11.2077
邊上	-11.2077
詮	-11.2077
▁分給	-11.2079
金安國	-11.2083
果有	-11.2083
竄逐	-11.2087
昇	-11.2087
學者	-11.2091
▁偃然	-11.2092
▁不可一日	-11.2093
駭憤	-11.2094
少尹	-11.2095
捕之	-11.2096
忙	-11.2097
誇	-11.2097
只以	-11.2097
熊川	-11.2098
帖裏	-11.2098
待變	-11.2099
有曰	-11.21
千石	-11.21
被劾	-11.2101
李坡	-11.2103
▁其日	-11.2103
漸次	-11.2104
富寧	-11.2106
封君	-11.2106
吏文	-11.2107
去夜	-11.2108
令廟堂	-11.2108
便當	-11.2109
從祀	-11.2109
已有	-11.211
甚少	-11.2111
▁公私	-11.2112
推閱	-11.2112
情由	-11.2113
▁雖已	-11.2114
▁非不	-11.2115
圖書	-11.2118
▁延	-11.2118
免稅	-11.2118
特遞	-11.2121
山海	-11.2121
地理	-11.2121
發言	-11.2122
夜對	-11.2124
臣爲	-11.2124
紛	-11.2126
▁無有	-11.2127
取信	-11.2127
軍中	-11.2128
沂	-11.2128
所製	-11.2128
四萬	-11.2128
日寒	-11.2129
販	-11.2129
請囑	-11.2131
▁俄而	-11.2131
燈	-11.2133
堤	-11.2133
逭	-11.2136
匡救	-11.2137
▁令該司	-11.2138
用法	-11.2139
朋黨	-11.214
目覩	-11.214
▁推考	-11.2141
昇平	-11.2142
命令	-11.2143
知情	-11.2143
王府	-11.2144
竊發	-11.2145
▁反爲	-11.2145
▁叔舟	-11.2145
贓汚	-11.2147
否德	-11.2148
其書	-11.2149
被殺	-11.2152
勸奬	-11.2156
殺害	-11.2158
前判書	-11.216
壤	-11.2161
浦萬戶	-11.2164
麟趾	-11.2165
收布	-11.2165
斯文	-11.2167
括	-11.2169
璘	-11.2169
李崇元	-11.2169
乘時	-11.217
黃守身	-11.217
金相福	-11.2171
趙泰采	-11.2171
殘弊	-11.2175
▁請依律	-11.2176
徑先	-11.2176
上變	-11.2177
不遵	-11.2178
三陟	-11.2178
尹鑴	-11.2179
▁不然則	-11.218
左右曰	-11.2182
白上曰	-11.2183
▁太和	-11.2184
都目政	-11.2184
可慮也	-11.2184
隨宜	-11.2188
決不可	-11.2193
洪淑	-11.2193
應變	-11.2195
雖或	-11.2195
拿鞫定罪	-11.2198
雖多	-11.2198
一斗	-11.2199
設鞫	-11.2201
嘗爲	-11.2201
備擬	-11.2201
與他	-11.2202
歲月	-11.2203
牲	-11.2204
女眞	-11.2205
淚	-11.2205
禮房承旨	-11.2205
永不敍用	-11.2205
▁尾長	-11.2206
▁雨雹	-11.2206
洪汝諄	-11.2207
趙泰億	-11.2208
何害	-11.2208
以備忘記	-11.221
駭怪	-11.221
館學	-11.2211
流來	-11.2214
司憲府執義	-11.2214
對馬島主	-11.2214
任其	-11.2215
將臣	-11.2215
致祭于	-11.2216
▁特以	-11.2217
惡之	-11.2218
申晦	-11.2219
臣等聞	-11.222
平安道監司	-11.2222
不有	-11.2223
重典	-11.2223
朴世	-11.2229
爲舍人	-11.2234
▁亦不可不	-11.2237
論語	-11.2237
依法	-11.224
穎	-11.2242
媒	-11.2242
徐命膺	-11.2242
吳始壽	-11.2242
鄭士龍	-11.2242
▁係是	-11.2246
▁此甚	-11.2246
刑曹參議	-11.2247
倫紀	-11.2249
成世昌	-11.225
者多矣	-11.2251
▁莫非	-11.2251
議政府據兵曹呈啓	-11.2255
太半	-11.2256
申晩	-11.2257
珍島	-11.2257
言地	-11.2259
指爲	-11.2259
其君	-11.226
諫長	-11.2261
▁同議	-11.2263
一書	-11.2264
覲	-11.2264
此例	-11.2265
發論	-11.2265
捉囚	-11.2268
厚待	-11.2268
▁則不無	-11.2268
▁當有	-11.2269
叔父	-11.2269
琳	-11.227
假托	-11.227
無名	-11.2271
換差	-11.2273
其能	-11.2273
札	-11.2275
▁四方	-11.2275
二十四	-11.2276
雜穀	-11.2276
洪樂性	-11.2277
疏放	-11.2277
柴	-11.2278
宸	-11.2278
▁不一而足	-11.2278
饑饉	-11.2279
▁非獨	-11.228
者亦多	-11.228
目前	-11.2282
不解	-11.2285
楊根	-11.2287
▁不可使	-11.229
權宜	-11.229
▁杖一百	-11.2291
▁殊失	-11.2292
金炳	-11.2294
驟	-11.2294
而言	-11.2295
負犯	-11.2297
戚里	-11.2302
李稷	-11.2306
禱雨	-11.2307
各一匹	-11.2307
▁從重推考	-11.2308
▁屬	-11.2309
給祿	-11.2311
金載瓚	-11.2311
▁命承旨	-11.2312
李時秀	-11.2312
資級	-11.2312
築之	-11.2314
炭	-11.2315
慾	-11.2315
吳允謙	-11.2315
頂	-11.2315
擊錚	-11.2315
罪也	-11.2317
紛擾	-11.2317
畿邑	-11.2318
過半	-11.2319
巡審	-11.232
笑之	-11.2322
之機	-11.2324
削奪	-11.2326
腸	-11.2327
主事	-11.2328
取之	-11.2329
▁此意言于	-11.2331
東西班	-11.2332
萬世之	-11.2332
蕩然	-11.2333
▁非不知	-11.2333
▁反以	-11.2336
遺敎	-11.2337
參下	-11.2338
物望	-11.2339
糾正	-11.234
▁已盡	-11.2342
王大妃殿	-11.2342
▁近因	-11.2343
從重	-11.2344
▁民間	-11.2346
欺君	-11.2347
時原任大臣	-11.2348
幼學李	-11.235
多端	-11.235
柩	-11.2352
璟	-11.2352
婚姻	-11.2353
聽理	-11.2353
李覮	-11.2354
奉承	-11.2355
水田	-11.2356
獻陵	-11.2356
▁一不	-11.2357
誅之	-11.2359
靈光	-11.2361
開城留守	-11.2364
稍有	-11.2365
▁必待	-11.2366
所告	-11.2367
希望	-11.2368
察其	-11.2369
▁且臣	-11.237
▁捧	-11.2371
他邑	-11.2372
備員	-11.2374
私相	-11.2377
▁太	-11.2378
瑞興	-11.2378
不思	-11.2379
未幾	-11.2381
講書	-11.2383
辭陛也	-11.2383
辭退	-11.2387
謄書	-11.2388
則不然	-11.2388
賈	-11.2388
深入	-11.2389
貂皮	-11.2389
引義	-11.239
驚惶	-11.2391
副司正	-11.2391
▁慮有	-11.2391
親自	-11.2392
追奪	-11.2393
國儲	-11.2394
竟不	-11.2395
非細	-11.2397
遷延	-11.2397
鞫獄	-11.2398
之母	-11.2398
超資	-11.2401
毫	-11.2401
之懷	-11.2403
別諭	-11.2403
深思	-11.2406
議得	-11.2406
▁庶可	-11.2407
慈敎	-11.2408
盡力	-11.2411
實難	-11.2412
子也	-11.2413
其本	-11.2413
可尙	-11.2415
▁是非	-11.2417
元數	-11.2417
亦已	-11.2418
▁夙夜	-11.2419
十餘年	-11.242
臣伏見	-11.2422
工曹參議	-11.2422
▁上聞之	-11.2424
無前例	-11.2424
娼	-11.2426
萬死	-11.2426
邁	-11.2426
韓效元	-11.2426
絡繹	-11.2426
南以恭	-11.2427
僉節制使	-11.2427
▁上覽	-11.2427
被捉	-11.2428
可惡	-11.2428
弊習	-11.2429
四更	-11.243
守城	-11.243
則只	-11.2432
不可勝言	-11.2434
姑息	-11.2434
之旨	-11.244
初喪	-11.244
弊端	-11.2441
▁故其	-11.2442
陵參奉	-11.2443
前規	-11.2444
幕次	-11.2445
人主之	-11.2446
萬里	-11.2446
上御朝講	-11.2446
旣往	-11.2447
▁國之	-11.2449
正憲	-11.245
守令等	-11.2453
減省	-11.2455
一面	-11.2455
也哉	-11.2457
▁造	-11.246
迎接都監	-11.2463
▁請命罷斥	-11.2463
忭	-11.2464
永膺大君	-11.2464
載寧	-11.2464
▁連日	-11.2464
今次	-11.2466
不重	-11.2466
黃赫	-11.2467
義州牧使	-11.2467
額數	-11.2468
輕議	-11.2469
詳考	-11.247
賊倭	-11.2472
▁勿用	-11.2476
初以	-11.2476
晝夜	-11.2476
金孝	-11.2477
樂章	-11.2478
排設	-11.248
天威	-11.2483
士風	-11.2483
肩	-11.2487
該道	-11.2489
南海	-11.2491
▁士林	-11.2492
▁無他	-11.2494
自守	-11.2494
亦嘗	-11.2497
▁奉審	-11.2501
蹟	-11.2501
口子	-11.2501
今來	-11.2501
司宰監	-11.2502
究竟	-11.2502
令本道	-11.2505
輪次	-11.2506
牙山	-11.2506
勿禁	-11.2508
情迹	-11.251
▁而實	-11.2512
王言	-11.2514
連續	-11.2514
李海	-11.2517
覆試	-11.2517
其後	-11.2519
或以	-11.252
一石	-11.2521
臺諫論	-11.2522
倉庫	-11.2522
▁伏聞	-11.2524
喪禮	-11.2524
▁親傳	-11.2525
更論	-11.2527
得之	-11.2528
一國之	-11.2529
▁不復	-11.2531
委任	-11.2531
已令	-11.2532
捕賊	-11.2534
渭	-11.2537
薪	-11.2539
▁上優批不許	-11.254
艱虞	-11.254
不獲已	-11.2544
柳根	-11.2545
使喚	-11.2545
遷陵	-11.2545
改正事	-11.2546
以禮	-11.2547
金昌集	-11.2548
徇	-11.2549
罪重	-11.2549
▁史官	-11.255
諺書	-11.2551
辭意	-11.2553
▁故命	-11.2555
代點	-11.2555
▁至若	-11.2557
筠	-11.2557
平康	-11.2561
可言	-11.2562
▁未便	-11.2563
恐懼	-11.2563
裁減	-11.2564
控	-11.2566
▁又賜	-11.2568
▁則又	-11.257
價布	-11.2571
城尉	-11.2572
九千	-11.2574
腫	-11.2576
敺	-11.2576
書于	-11.2576
畝	-11.2576
喘	-11.2576
夬	-11.2576
稻	-11.2576
馴	-11.2576
摠管	-11.2577
吳挺緯	-11.2577
二十人	-11.2577
收敍	-11.2579
捕告	-11.258
於我國	-11.258
此書	-11.258
▁而如	-11.2581
惻然	-11.2583
僉議	-11.2584
▁聞者	-11.2587
中止	-11.2588
尹拯	-11.259
▁多般	-11.2591
亦令	-11.2594
▁率多	-11.2594
洞燭	-11.2594
主管	-11.2595
陪祭	-11.2596
辨明	-11.2596
▁古者	-11.2596
不聞	-11.2597
尹淳	-11.2597
謀殺	-11.2597
欲見	-11.2597
▁卿何	-11.2598
出處	-11.2601
窮問	-11.2602
變服	-11.2602
不易	-11.2603
▁凡係	-11.2609
▁予已	-11.2609
怡	-11.2609
拿處	-11.2611
昆	-11.2613
祠宇	-11.2613
▁上疏請	-11.2614
關白	-11.2614
忌晨	-11.2614
]	-11.2614
鈍	-11.2614
▁甚非	-11.2614
幡然	-11.2616
高靈君	-11.2616
百戶	-11.2617
申欽	-11.2619
苟冒	-11.262
▁他日	-11.262
定配罪人	-11.2621
春宮	-11.2623
▁無復	-11.2623
君德	-11.2625
伊川	-11.2626
李端夏	-11.2627
▁侵	-11.2628
大臣之意	-11.2628
其奴	-11.2628
例擧行	-11.2629
兩使	-11.2629
銓郞	-11.263
雖在	-11.2631
月二十九日	-11.2632
允從	-11.2634
回天	-11.2634
度日	-11.2635
▁而徒	-11.2635
禮曹啓言	-11.2636
于京	-11.2639
閔德男	-11.2641
規避	-11.2644
此後	-11.2645
御醫	-11.2645
盡爲	-11.2648
濂	-11.2648
墩	-11.2649
邊方	-11.2649
▁臣旣	-11.265
旱乾	-11.2652
聳動	-11.2653
高荊山	-11.2653
宥之	-11.2654
靈巖	-11.2655
稱以	-11.2657
塡差	-11.2659
李樑	-11.2659
不虞	-11.2659
▁措辭	-11.2661
推鞫廳啓曰	-11.2662
無所失	-11.2663
陳慰	-11.2664
城門	-11.2665
▁大失	-11.267
前監司	-11.267
祖宗之	-11.267
▁藥房入診	-11.2673
未下	-11.2675
▁代	-11.2676
▁乞依	-11.2677
張皇	-11.2678
沖	-11.2679
秩高	-11.2679
▁事覺	-11.268
無前	-11.2683
土官	-11.2683
修正	-11.2684
三員	-11.2685
未果	-11.2686
▁親鞫	-11.2688
減等	-11.2688
竹山	-11.2689
所能	-11.269
藍	-11.269
陳請	-11.269
銃筒	-11.2691
吳道一	-11.2691
論思	-11.2691
之境	-11.2693
遲速	-11.2695
都堂	-11.2695
續錄	-11.2698
都民	-11.2699
藥物	-11.27
▁而終不	-11.2703
一遵	-11.2703
玉體	-11.2703
▁平壤	-11.2704
允成	-11.2708
▁此輩	-11.2709
屬之	-11.271
▁其略曰	-11.2712
貿來	-11.2712
竝爲	-11.2717
都官	-11.2718
▁本國	-11.2722
▁非所以	-11.2723
▁誠可	-11.2726
金履	-11.2727
桓	-11.2729
承政院奉旨馳書于	-11.2729
綃	-11.2729
▁何其	-11.2729
酌獻禮	-11.273
▁實有	-11.2732
▁秋	-11.2733
陷於	-11.2736
無私	-11.2737
▁賜批	-11.2738
有妨	-11.274
▁竊恐	-11.2741
臣嘗	-11.2742
考講	-11.2744
▁啓聞	-11.2746
尹弼商議	-11.2746
▁予實	-11.2748
▁其勿辭	-11.275
迫於	-11.275
經書	-11.275
開坐	-11.2751
炯	-11.2751
▁必無	-11.2752
免賤	-11.2752
誤國	-11.2754
▁皆已	-11.2758
外官	-11.2758
兩麥	-11.2759
猶不	-11.2761
囚之	-11.2761
曙	-11.2761
緝	-11.2761
▁擧措	-11.2762
▁上年	-11.2763
苦心	-11.2765
宵	-11.2767
澍	-11.2767
!"】	-11.2769
揭帖	-11.2769
侵漁	-11.277
則可矣	-11.2771
史局	-11.2771
領議政李元翼	-11.2772
等三	-11.2772
危亡	-11.2773
▁以嚴	-11.2773
於朝廷	-11.2773
犯法	-11.2773
他餘	-11.2774
▁鄭麟趾	-11.2775
▁則非徒	-11.2776
附近	-11.2777
▁予不	-11.2778
防塞	-11.278
元情	-11.2781
處絞	-11.2781
▁此人等	-11.2782
直招	-11.2784
▁請令廟堂	-11.2785
無咎	-11.2787
久遠	-11.2787
爲工曹參判	-11.2793
▁退	-11.2794
▁璆	-11.2796
▁旣不	-11.2797
待秋	-11.2798
再避	-11.2799
▁臺閣	-11.2799
擎	-11.2801
之請也	-11.2804
無忌憚	-11.2804
何哉	-11.2804
未收	-11.2805
優給	-11.2805
葛	-11.2806
藥院入診	-11.2807
都摠管	-11.2808
衰耗	-11.2808
爲司憲府執義	-11.2808
培養	-11.281
持難	-11.281
▁入南方	-11.281
近觀	-11.2811
誓戒	-11.2812
▁則彼	-11.2812
拘留	-11.2814
輸運	-11.2814
▁皆曰	-11.2815
各二	-11.2815
大計	-11.2816
啓前事	-11.2817
諸侯	-11.2817
不加	-11.2818
妄言	-11.2818
天使時	-11.2819
給糧	-11.2823
舅	-11.2824
問答	-11.2825
孝孫	-11.2825
次于	-11.2825
襦衣	-11.2825
▁考其	-11.2825
每月	-11.2826
▁申明	-11.2826
樂工	-11.2827
政院啓	-11.283
▁其妻	-11.2831
不禁	-11.2831
除出	-11.2832
邸	-11.2835
之慘	-11.2838
▁上召	-11.284
上司	-11.2842
▁欲其	-11.2846
吳斗寅	-11.2846
三殿	-11.2846
▁特令	-11.2847
浚吉	-11.2847
着實擧行	-11.2848
其失	-11.2849
厭避	-11.285
李濟	-11.285
皇恩	-11.2852
從良	-11.2855
都萬戶	-11.2856
九品	-11.2858
宋昌	-11.2858
卯	-11.2859
權軫	-11.286
▁亦不得	-11.2864
請依	-11.2866
物貨	-11.2868
邇	-11.287
▁則尤	-11.2871
無倫	-11.2873
而設	-11.2874
訟者	-11.2874
三賊	-11.2875
未遑	-11.2877
競	-11.2879
▁已經	-11.2879
書員	-11.288
瑗	-11.288
▁又出	-11.2882
泯	-11.2883
閔鎭厚	-11.2883
卽日	-11.2883
抽	-11.2884
𥙷	-11.2884
李敬輿	-11.2884
傳之	-11.2885
校書館	-11.2885
▁一如	-11.2888
▁則庶	-11.2888
堪任	-11.2888
營護	-11.289
蔡壽	-11.2891
當之	-11.2894
孔子	-11.2898
已知	-11.2898
▁使無	-11.2899
請令	-11.2899
四啓	-11.29
爲左副承旨	-11.2901
末端	-11.2902
▁難於	-11.2903
月十九日	-11.2905
▁安敢	-11.2906
請上尊號	-11.2907
▁有何不可	-11.2908
有司堂上	-11.2909
六年	-11.2909
▁實出	-11.291
▁到處	-11.2912
兩臣	-11.2915
▁何等	-11.292
請勿	-11.2922
泓	-11.2922
▁動	-11.2922
而起	-11.2923
司憲掌令	-11.2923
典獄署	-11.2924
無異同	-11.2924
許頊	-11.2925
日益	-11.2926
都護府使	-11.2927
行私	-11.2929
呂聖齊	-11.293
莫同	-11.293
谷山	-11.293
掃地	-11.293
▁時烈	-11.2931
點馬	-11.2933
法外	-11.2933
相距	-11.2933
▁令禮官	-11.2934
惠廳	-11.2935
自安	-11.2937
不報	-11.2938
▁未可知也	-11.2938
之爲人	-11.2941
行次	-11.2942
▁一向	-11.2945
▁上箚	-11.2947
掩置	-11.2949
答云	-11.295
做出	-11.2951
相職	-11.2951
開政	-11.2951
同知經筵	-11.2951
居住	-11.2952
▁以次	-11.2953
▁欲令	-11.2954
良女	-11.2954
鄭昌孫	-11.2956
族屬	-11.2957
▁予所	-11.2957
來復命	-11.2957
搖	-11.2958
二十七	-11.296
劫	-11.2962
廡	-11.2962
開市	-11.2964
臣曾	-11.2965
所行	-11.2966
▁切勿	-11.2967
母病	-11.297
▁各以	-11.297
査問	-11.2971
廢之	-11.2972
國之大事	-11.2974
者哉	-11.2976
無可避之嫌	-11.2977
▁此固	-11.2977
停退	-11.2978
國舅	-11.2983
至三	-11.2984
昌盛	-11.2986
▁事涉	-11.2987
參於	-11.2992
獻壽	-11.2992
刑罰	-11.2993
▁臣子	-11.2999
庄	-11.2999
▁使民	-11.2999
淸風	-11.3001
金升卿	-11.3001
沈之源	-11.3002
▁輿情	-11.3002
斫伐	-11.3002
外戚	-11.3004
勉諭	-11.3005
恩命	-11.3006
非禮	-11.3006
更改	-11.3007
李忠	-11.3008
機務	-11.3008
各鎭	-11.3009
回報	-11.3013
▁恐不	-11.3013
兩司長官	-11.3014
迄	-11.3016
所欲	-11.3018
▁少有	-11.3018
通信使	-11.3019
金致仁	-11.302
會計	-11.3022
盡其	-11.3022
▁命遞	-11.3024
▁死亡	-11.3024
强請	-11.3027
▁多行	-11.3027
公文	-11.303
灌	-11.303
▁必有所	-11.3031
而得	-11.3032
▁無遺	-11.3032
兇書	-11.3036
▁晝夜	-11.3036
▁請先	-11.3038
所掌	-11.3039
摧	-11.304
留後司	-11.3041
保首領	-11.3041
▁罔有紀極	-11.3041
圓點	-11.3043
▁擇其	-11.3046
備給	-11.3046
等上言	-11.3046
自謂	-11.3047
知卿	-11.3047
忝在	-11.3048
尹暉	-11.3049
路傍	-11.305
宗親及	-11.305
誌	-11.3052
特遣	-11.3053
渰	-11.3054
狂悖	-11.3056
庇護	-11.3056
廢棄	-11.3057
松都	-11.3057
仰稟	-11.306
事及	-11.3063
在先朝	-11.3064
甁	-11.3068
拿問定罪	-11.3071
聽政	-11.3073
不義	-11.3073
設立	-11.3073
各陵	-11.3073
赦之	-11.3073
▁上松浦	-11.3073
淸正	-11.3074
親戚	-11.3075
切迫	-11.3075
捧招	-11.3075
工役	-11.3078
捏	-11.308
南龍翼	-11.308
▁托	-11.3081
參考	-11.3081
▁弘	-11.3081
漂沒	-11.3082
答書	-11.3083
遲緩	-11.3083
爲右副承旨	-11.3085
趙珩	-11.3086
▁以答	-11.3088
何心	-11.3091
學術	-11.3091
▁祭	-11.3091
通鑑	-11.3093
軍丁	-11.3095
保護	-11.3095
已例	-11.3096
當體念	-11.3096
命遞差	-11.3098
前席	-11.31
▁甚至	-11.3101
分配	-11.3101
亦知	-11.3102
陳告	-11.3102
何故	-11.3103
先發	-11.3106
失禮	-11.3111
賑政	-11.3111
決罪	-11.3112
▁相與	-11.3113
鎭將	-11.3113
伊日	-11.3113
軾	-11.3114
緘	-11.3115
▁寔	-11.3115
年歲	-11.3116
載錄	-11.3116
權知	-11.3116
積年	-11.3117
嶺東	-11.3118
屑	-11.3119
朔祭	-11.3119
郁	-11.312
于熙政堂	-11.3123
萬餘	-11.3124
▁而惟	-11.3125
今雖	-11.3126
捕將	-11.313
本土	-11.313
窮民	-11.3133
大獄	-11.3137
世子嬪	-11.3139
別立	-11.3139
獄體	-11.314
是職	-11.3141
切隣	-11.3144
不可用	-11.3145
根本	-11.3146
昌寧	-11.3146
爲右尹	-11.3147
徙民	-11.315
之異	-11.315
事係	-11.3151
諭之曰	-11.3153
某事	-11.3157
設置	-11.3158
通于	-11.3158
金萬	-11.316
寡人	-11.316
彙	-11.316
薺浦	-11.316
勿復	-11.3161
▁只爲	-11.3164
宋瑛	-11.3164
積滯	-11.3165
問諸	-11.3166
置於法	-11.3168
兇逆	-11.3171
李畬	-11.3172
兵曹正郞	-11.3173
玉候	-11.3173
意以爲	-11.3175
其官	-11.3175
之源	-11.3177
▁某	-11.3178
至情	-11.3178
爲僧	-11.3182
立異	-11.3184
吏典	-11.3186
省疏	-11.3187
難測	-11.3189
雇	-11.319
牙	-11.319
凶逆	-11.3192
之至意	-11.3194
閑良	-11.3196
處所	-11.3199
上食	-11.32
捐	-11.32
瘦	-11.32
瑠	-11.32
一十	-11.3201
踈虞	-11.3202
▁在前	-11.3202
具宬	-11.3202
鄭佸	-11.3202
赤子	-11.3202
鄭同	-11.3205
柳潚	-11.3205
中樞院使	-11.3205
壓死	-11.3205
龍川	-11.3206
勸懲	-11.3207
金大來	-11.3207
仰達	-11.3207
全然	-11.3208
失稔	-11.321
控辭	-11.3211
藥材	-11.3212
營救	-11.3213
鄙之	-11.3214
之量	-11.3215
爲京畿觀察使	-11.3215
▁速令	-11.3215
可知也	-11.3216
異端	-11.3216
▁時方	-11.3217
姑勿	-11.3217
遞臣職	-11.3218
風水	-11.3221
移安	-11.3222
鎭江	-11.3223
曾以	-11.3223
下旨	-11.3224
定額	-11.3224
之亂	-11.3227
▁地震	-11.3228
累次	-11.3229
李惺	-11.323
十九日	-11.3231
▁具由	-11.3234
建白	-11.3234
朝鮮國王	-11.3236
特拜	-11.3236
之疾	-11.3236
鄭昌衍	-11.3236
恂	-11.3237
▁久未	-11.3237
某某	-11.3238
小子	-11.3238
錄案	-11.3238
虧損	-11.3239
政丞等	-11.3239
奉常	-11.3241
迷劣	-11.3241
醫女	-11.3241
黽勉	-11.3241
而復	-11.3243
嘉山	-11.3243
抱川	-11.3243
閭里	-11.3243
必須	-11.3244
▁朝野	-11.3246
國初	-11.3246
竝推考	-11.3247
邪說	-11.3253
乘輿	-11.3256
▁聖敎	-11.3256
囚繫	-11.3258
▁前年	-11.3264
祗送	-11.3264
所在官	-11.3266
無間	-11.3267
太僕	-11.327
奈	-11.327
渠之	-11.3272
▁天朝	-11.3273
▁審	-11.3275
勿許	-11.3275
盛禮	-11.3275
▁居首	-11.3276
偃	-11.3277
▁則其於	-11.3277
▁以臣	-11.3278
家産	-11.3278
膝	-11.3281
國家多事	-11.3281
刼	-11.3281
李頣命	-11.3281
重加	-11.3281
李敏迪	-11.3282
徭役	-11.3282
▁但其	-11.3285
曾聞	-11.3286
多官	-11.3286
李時白	-11.3287
賢能	-11.3287
將此意	-11.3287
詳定所	-11.3289
八人	-11.3289
渡海	-11.329
赴京使臣	-11.3291
▁請遞之	-11.3292
▁以盡	-11.3293
祭之	-11.3294
李滿住	-11.3294
近年以來	-11.3295
穀物	-11.3295
得病	-11.3295
原從功臣	-11.3296
▁具悉	-11.3298
入格者	-11.33
同入	-11.3302
朴師	-11.3302
▁接見	-11.3305
▁民之	-11.3307
人子	-11.3311
立案	-11.3313
上疏辭	-11.3314
事宜	-11.3317
上項	-11.3317
徐命善	-11.3317
身役	-11.3319
日久	-11.332
武將	-11.3321
人材	-11.3321
路上	-11.3321
流民	-11.3322
正殿	-11.3322
塚	-11.3322
披	-11.3322
鞭	-11.3322
楊汀	-11.3323
折衝	-11.3323
鄭苯	-11.3324
李蓀	-11.3324
取來	-11.3326
加一資	-11.3326
二百年	-11.3327
徒流	-11.3327
白苧布	-11.3327
當先	-11.333
▁而皆	-11.3333
金義	-11.3334
咸陽	-11.3336
陞遷	-11.3337
臣之所	-11.334
金山	-11.3341
誣陷	-11.3342
祖父母	-11.3347
爲急	-11.3347
各官守令	-11.3347
聽之	-11.3348
命以	-11.3349
疏略曰	-11.3349
敎化	-11.3353
莫大之	-11.3353
▁太上王	-11.3354
▁上皆	-11.3355
▁未卽	-11.3355
減半	-11.3355
禁防	-11.3356
▁上從	-11.3357
留在	-11.3357
▁乃所以	-11.3358
生等	-11.3359
舒	-11.3362
陶	-11.3363
倦	-11.3363
肝	-11.3363
鞍	-11.3363
孫舜孝	-11.3364
▁寅明	-11.3364
等以	-11.3365
幾許	-11.3366
往諭	-11.3366
納招	-11.3367
鑴	-11.3367
正二品	-11.3369
李明德	-11.3369
觀武才	-11.3369
▁故雖	-11.3371
侍郞	-11.3372
二更	-11.3372
處義	-11.3373
科田	-11.3374
太濫	-11.3375
亦以此	-11.3375
仍爲	-11.3375
各殿	-11.3375
長興	-11.3376
宮闈	-11.3377
▁監	-11.3379
失於	-11.3379
之盛意	-11.3381
鐫	-11.3381
訛	-11.3383
彈劾	-11.3384
直講	-11.3384
故耳	-11.3387
憑考	-11.3389
法官	-11.3392
頃年	-11.3399
驪	-11.34
爲兵曹參知	-11.34
▁滿	-11.3401
爲慶尙道觀察使	-11.3402
·	-11.3404
賊中	-11.3404
▁請當該	-11.3406
請於	-11.3407
擇人	-11.3408
▁一從	-11.3413
備局堂上	-11.3414
金允	-11.3416
▁慮	-11.3417
少有	-11.3418
▁江原道	-11.3418
每以	-11.3419
人倫	-11.3424
如之何	-11.3424
臨海	-11.3426
今秋	-11.3429
▁不可仍冒	-11.3436
是月	-11.3436
極擇	-11.3439
饋之	-11.344
亦豈無	-11.344
下令	-11.3441
四日	-11.3442
而置之	-11.3444
月山大君	-11.3445
判漢城府事	-11.3445
兵馬都節制使	-11.3446
▁上乃	-11.3446
淮陽	-11.3446
長淵	-11.3448
之箚	-11.3449
國喪	-11.3449
司諫院獻納	-11.345
誠孝	-11.345
監役	-11.3453
所由	-11.3456
別祭	-11.3456
金自點	-11.3457
倂	-11.3458
各有	-11.3461
似可	-11.3462
把守	-11.3463
通津	-11.3464
痛哭	-11.3466
涉於	-11.3466
任事	-11.3467
應龍	-11.3467
意也	-11.3468
所答	-11.3469
入歸	-11.3474
成習	-11.3476
玉堂處置	-11.3479
妥	-11.3479
身居	-11.3479
闕下	-11.3479
在鄕	-11.348
臘	-11.3481
隨事	-11.3482
戶判	-11.3482
璋	-11.3486
詬辱	-11.3487
李觀命	-11.3487
疏斥	-11.3488
還朝	-11.3495
▁國家之	-11.3496
穩	-11.3496
宣陵	-11.3496
▁莫若	-11.3498
▁予用	-11.3499
見上	-11.3501
兼官	-11.3501
孝源	-11.3501
無常	-11.3501
違召	-11.3503
遂安	-11.3503
還本	-11.3504
上體	-11.3504
原府院君	-11.3506
到京	-11.351
▁俯	-11.351
加階	-11.3515
等亦	-11.3515
元氣	-11.3516
因緣	-11.3516
韓翼謩	-11.3519
扶安	-11.3519
▁毋令	-11.3519
千餘石	-11.3519
孝元	-11.3521
正論	-11.3521
阜	-11.3522
有意	-11.3523
賜諡	-11.3523
內乘	-11.3523
乳	-11.3523
于此	-11.3524
▁今不	-11.3526
萌	-11.3528
逈	-11.3528
▁太白見於巳地	-11.3528
助防將	-11.3528
爲議政府右參贊	-11.3528
來詣	-11.3528
▁賞	-11.3528
格例	-11.3528
運平	-11.353
不辨	-11.353
進豐呈	-11.3531
魚鹽	-11.3531
不甚	-11.3533
其代	-11.3533
▁至爲未便	-11.3537
▁上嘉納之	-11.3537
未詳	-11.3538
守禦使	-11.3539
▁以答天譴	-11.3541
▁不有	-11.3542
堂下官	-11.3542
之謂也	-11.3542
牒呈	-11.3543
神人	-11.3544
▁其以	-11.3545
同然	-11.3545
在下	-11.3546
納于	-11.3546
▁今殿下	-11.3546
▁未聞	-11.3546
▁志	-11.3548
中道	-11.3549
關後弊	-11.355
由此	-11.3551
朝報	-11.3551
一應	-11.3552
泰安	-11.3554
爲副使	-11.3554
濫授	-11.3556
轉輸	-11.3556
諂	-11.3556
交代	-11.3556
他官	-11.3557
▁浚	-11.3559
▁以絶	-11.3561
登筵	-11.3561
銳	-11.3564
新除	-11.3564
庶務	-11.3565
西郊	-11.3565
李慶	-11.3568
䄄	-11.3569
剩	-11.3569
日微暈	-11.3569
侃	-11.3569
囊	-11.3569
傾軋	-11.3569
沈煥之	-11.357
▁直赴殿試	-11.357
姜希孟	-11.3571
親迎	-11.3572
李承召	-11.3572
公家	-11.3572
計其	-11.3573
▁人之	-11.3574
上御仁政殿	-11.3574
▁逮	-11.3575
被誣	-11.3576
敦勉	-11.3577
▁宗社	-11.3579
中批	-11.3581
▁固不足	-11.3581
▁往在	-11.3583
▁而其時	-11.3583
誠謹	-11.3585
出示	-11.3585
尹光	-11.3586
▁故不允	-11.3588
▁良用	-11.3588
改書	-11.3588
仁廟	-11.3588
▁惟以	-11.3588
月十四日	-11.3589
爲兼	-11.359
土田	-11.359
▁選	-11.359
賜物	-11.3591
妻父	-11.3592
酌量	-11.3594
▁請移	-11.3594
臨御	-11.3596
乾方	-11.3597
會同	-11.3599
懲戒	-11.3601
爲全羅道觀察使	-11.3602
三品以下	-11.3603
依議	-11.3605
各穀	-11.3605
▁禔	-11.3606
瓘	-11.3606
儒者	-11.361
瀚	-11.3611
徐命均	-11.3611
鄭維城	-11.3611
鄭民始	-11.3611
得一	-11.3612
成俔	-11.3614
海外	-11.3615
各浦	-11.3615
二十六	-11.3617
斷之	-11.3617
▁爰	-11.3619
我國之	-11.3621
▁勒	-11.3621
臣家	-11.3621
▁令備邊司	-11.3621
給米	-11.3622
諡號	-11.3623
▁其代	-11.3625
▁遣承旨	-11.3626
數遞	-11.3626
▁亦似	-11.3626
皆不	-11.3628
四年	-11.3629
一半	-11.3629
杖六十	-11.363
▁似不可	-11.363
士庶	-11.363
書中	-11.3632
從速	-11.3632
譏之	-11.3634
給牒	-11.3634
權管	-11.3634
知有	-11.3634
第宅	-11.3637
準職	-11.3637
去處	-11.3638
傳于禮曹	-11.364
軍法	-11.3646
▁肥前州	-11.3648
▁事係	-11.3649
知敦寧府事	-11.3649
遣敬差官	-11.365
當該	-11.3651
六曹堂上	-11.3652
栽	-11.3653
作挐	-11.3655
可憂	-11.3655
天下之	-11.3655
君臣上下	-11.3655
還來	-11.3655
鄭澔	-11.3655
▁上下敎曰	-11.3656
規矩	-11.3656
蒼黃	-11.3657
邑城	-11.3658
有物論	-11.3659
眞殿	-11.3659
▁臺臣	-11.3659
▁恣意	-11.366
淸顯	-11.3661
立功	-11.3662
臨津	-11.3664
專不	-11.3666
疑惑	-11.3668
朝政	-11.367
▁而臺諫	-11.3671
▁撫	-11.3672
七年	-11.3672
於此時	-11.3672
役民	-11.3674
來參	-11.3674
▁專委	-11.3677
▁係	-11.3678
▁況於	-11.3679
賜批	-11.3681
點考	-11.3681
等請	-11.3682
▁聞者莫不	-11.3684
▁及今	-11.3684
却之	-11.3684
違法	-11.3687
詳審	-11.3687
掌之	-11.3688
極論	-11.3691
隨時	-11.3693
所入	-11.3693
來獻土宜	-11.3694
予亦	-11.3695
笠靴	-11.3695
▁請鞫之	-11.3695
逵	-11.3695
怵	-11.3695
慷慨	-11.3695
橘	-11.3695
佯	-11.3695
金陽澤	-11.3695
待令	-11.3696
綸音	-11.3697
忠元	-11.3697
其責	-11.3699
鄭基	-11.37
其位	-11.37
祭香祝	-11.3701
▁可見	-11.3701
浮薄	-11.3702
三朔	-11.3704
究覈	-11.3706
諸宮家	-11.3706
權勢	-11.3707
亦甚	-11.3708
▁使其	-11.3711
臣意	-11.3713
▁沈澮	-11.3713
不但	-11.3713
相容	-11.3713
豈敢	-11.3713
一領	-11.3714
過限	-11.3714
憲府論	-11.3715
▁批	-11.3716
▁臣等雖	-11.3716
不干	-11.3716
內醫院	-11.3717
四十餘	-11.3717
其處	-11.3723
上行	-11.3723
陟	-11.3724
▁門外黜送	-11.3725
詹	-11.3727
非如	-11.3731
▁曷	-11.3732
不勤	-11.3732
體統	-11.3732
二十八	-11.3734
金克	-11.3734
正軍	-11.3737
适	-11.3738
貪婪	-11.3738
愼承善	-11.3738
鄭廣成	-11.3738
兪棨	-11.3738
保障	-11.3739
李挺元	-11.374
履歷	-11.374
▁大妃	-11.3741
遲晩	-11.3742
播種	-11.3742
予以	-11.3742
都會	-11.3744
憂悶	-11.3746
十四人	-11.3746
持身	-11.3746
從自願	-11.3751
勉副	-11.3752
參將	-11.3753
等上箚曰	-11.3755
請托	-11.3757
禁府都事	-11.3759
千秋使	-11.3759
許其	-11.3761
疑懼	-11.3761
於彼	-11.3762
▁而不知	-11.3762
▁暫	-11.3766
▁距	-11.3766
洪重	-11.3767
陷人	-11.3772
書於	-11.3772
轍	-11.3773
其說	-11.3773
剛明	-11.3774
電光	-11.3775
顒	-11.3777
▁司憲府	-11.3777
▁恒	-11.3778
儒疏	-11.3779
李春	-11.3779
輸入	-11.3779
▁本院	-11.3779
喬	-11.378
融	-11.378
涯	-11.378
凋弊	-11.3781
被駁	-11.3781
弓箭	-11.3782
按覈	-11.3786
都觀察使	-11.3786
▁抄	-11.3786
兪音	-11.3786
▁實爲未便	-11.3786
奸人	-11.3787
可虞	-11.3789
▁許積	-11.3792
盆	-11.3792
沿江	-11.3793
▁一倂	-11.3793
斷以	-11.3795
失所	-11.3795
特賜	-11.3796
二所	-11.3798
憂懼	-11.3798
皆是	-11.3798
錢穀	-11.3799
領經筵	-11.3799
廉謹	-11.38
內醫	-11.3802
昌原	-11.3804
朴說	-11.3805
▁則爲	-11.3805
救活	-11.3805
▁雖然	-11.3808
韓氏	-11.3809
遣禮官	-11.3811
司果	-11.3813
安崇善	-11.3816
之服	-11.3817
向者	-11.3818
宮城	-11.3818
李繼	-11.3819
望祭	-11.382
郡邑	-11.3822
▁何用	-11.3822
仁川	-11.3822
探問	-11.3822
未必	-11.3823
尹趾善	-11.3823
人吏	-11.3823
時御所	-11.3824
銅鐵	-11.3825
革之	-11.3827
黃海兵使	-11.3827
爲刑曹參議	-11.3828
▁一皆	-11.3829
對辨	-11.383
▁旣而	-11.383
我軍	-11.383
李寅	-11.3831
請改	-11.3831
卓異	-11.3832
李時發	-11.3833
延燒	-11.3835
田畓	-11.3835
漕船	-11.3839
▁邊將	-11.384
▁才	-11.384
▁則固	-11.384
▁武	-11.3841
之要	-11.3844
永柔	-11.3846
八九	-11.3848
珩	-11.3851
散官	-11.3851
▁故有是	-11.3853
毋得	-11.3854
之罪大矣	-11.3857
其邑	-11.3858
梗	-11.386
絅	-11.386
有所失	-11.386
獻土宜	-11.386
邈	-11.3862
▁旣爲	-11.3862
毛將	-11.3862
遞易	-11.3863
▁湖南	-11.3863
句語	-11.3864
廊	-11.3865
寐	-11.3865
琚	-11.3866
醮	-11.3866
昭格署	-11.3866
賜物有差	-11.3867
嚴鞫得情	-11.3867
無謂	-11.3869
市井	-11.3869
上敎至當	-11.387
▁設使	-11.3872
領議政申叔舟	-11.3872
之忱	-11.3872
受賂	-11.3874
以上者	-11.3875
納粟	-11.3876
申槪	-11.3879
▁以充	-11.3879
受朝參	-11.3879
僚屬	-11.388
▁稱爲	-11.3881
▁且此	-11.3881
▁特許	-11.3881
賑恤使	-11.3882
▁以濟	-11.3882
雖未	-11.3882
嚴覈	-11.3883
陳章	-11.3884
▁非以	-11.3887
所任	-11.3888
不用心	-11.3888
如常	-11.3888
▁贊	-11.3889
典刑	-11.3893
於筵中	-11.3894
▁古之	-11.3894
推考治罪	-11.3895
左議政李恒福	-11.3895
▁非有	-11.3895
出沒	-11.3897
諸島	-11.39
以次	-11.39
非不	-11.3901
尤爲	-11.3902
告訴	-11.3902
▁言念	-11.3902
▁壽	-11.3903
▁向者	-11.3903
師儒	-11.3905
失宜	-11.3906
永安	-11.3906
戀	-11.3908
臂	-11.3909
沈象奎	-11.3909
疲軟	-11.3909
衿川	-11.3909
罔措	-11.391
開國	-11.391
部落	-11.3911
克均	-11.3911
月令	-11.3912
甚嚴	-11.3913
大王大妃敎曰	-11.3914
▁下詢	-11.3917
倉穀	-11.3918
許琛	-11.392
尹汲	-11.392
姑爲	-11.3921
嘉尙	-11.3922
隨行	-11.3922
此禮	-11.3923
▁縷縷	-11.3924
有他	-11.3925
▁以副予	-11.3927
▁臣不敢	-11.3928
左右相	-11.3928
▁請削去仕版	-11.3929
給料	-11.3929
赦宥	-11.393
緣臣	-11.3931
▁論議	-11.3931
▁逐	-11.3931
▁但當	-11.3932
百司	-11.3932
黃豆	-11.3932
十六人	-11.3935
請鞫	-11.3936
勘定	-11.3937
庶幾	-11.3939
至爲	-11.3939
施以	-11.3941
▁越	-11.3942
時論	-11.3943
獨免	-11.3944
擊鼓	-11.3944
禮判	-11.3947
爲右承旨	-11.3948
語曰	-11.3948
爲弘文館修撰	-11.3951
親製	-11.3952
叙	-11.3952
尹蓍東	-11.3952
澟	-11.3952
玷	-11.3952
盃	-11.3952
盧守愼	-11.3952
李台佐	-11.3952
蘇世讓	-11.3952
李敬	-11.3953
所獲	-11.3953
應之	-11.3953
▁不可改也	-11.3955
伸冤	-11.3955
爲司諫院獻納	-11.3955
博川	-11.3956
柵	-11.3956
不學	-11.3958
離宮	-11.396
金壽	-11.3963
各驛	-11.3964
寬典	-11.3965
嚴批	-11.3967
怨苦	-11.3968
仍用	-11.397
胡書	-11.3971
成給	-11.3974
罷推	-11.3975
得體	-11.3976
之妾	-11.3977
▁又聞	-11.3979
與同	-11.3982
與聞	-11.3983
加於	-11.3984
玉冊	-11.3984
量宜	-11.3984
至再	-11.3984
領軍	-11.3985
▁亦且	-11.3985
無疾	-11.399
▁爲國	-11.3991
李玄	-11.3991
拳	-11.3996
俶	-11.3996
三十匹	-11.3996
洪啓禧	-11.3996
▁請命罷斥臣等之職	-11.3996
許硡	-11.3997
黑麻布	-11.3997
痼弊	-11.3998
司鑰	-11.3998
消息	-11.3999
▁尤當	-11.3999
柳赫然	-11.4
▁均	-11.4001
領議政李德馨	-11.4004
元宗	-11.4005
決訟	-11.4006
已下	-11.4006
▁楊	-11.4007
▁照	-11.4007
遞改	-11.4008
訃	-11.4009
奏聞使	-11.4012
還收成命	-11.4014
不可爲也	-11.4017
李震	-11.4019
治亂	-11.4019
官軍	-11.4022
東南	-11.4024
各一員	-11.4024
▁唯在	-11.4024
承政院啓	-11.4025
▁若欲	-11.4025
發引	-11.4027
不敢言	-11.4027
造家	-11.4028
爲司諫院司諫	-11.4029
永川	-11.403
天道	-11.4032
孟思誠	-11.4033
固城	-11.4033
遣重臣	-11.4034
判決事	-11.4034
平民	-11.4034
移轉	-11.4036
仁政殿	-11.4038
▁帝	-11.4039
方有	-11.4039
羸	-11.404
桃	-11.404
偁	-11.404
徐渻	-11.404
爲黃海道觀察使	-11.404
巡撫	-11.404
▁尙有	-11.404
板蕩	-11.4041
勸課	-11.4042
詞訟	-11.4042
扈駕	-11.4042
邊報	-11.4045
漢語	-11.4046
多數	-11.4046
不忍言	-11.4047
宗簿	-11.4047
兩使臣	-11.4047
康純	-11.4047
以定	-11.4048
挾私	-11.4049
建州	-11.405
▁私自	-11.405
不食	-11.405
引避之辭	-11.4051
通訓	-11.4058
將行	-11.4059
校生	-11.406
光陵	-11.406
闕門外	-11.4061
都政	-11.4063
發兵	-11.4063
奪其	-11.4064
者少	-11.4065
因山	-11.4067
府啓	-11.407
慶會樓	-11.407
光海	-11.4074
進膳	-11.4074
興陽	-11.4075
▁何能	-11.4077
四面	-11.4077
已到	-11.4077
藏之	-11.4077
之章	-11.408
慶科	-11.4081
李孝	-11.4082
▁位至	-11.4083
▁第以	-11.4083
▁承政院啓	-11.4083
墀	-11.4083
嵩	-11.4083
疹	-11.4083
申琓	-11.4085
爲禮曹參議	-11.4085
廟號	-11.4088
姑待	-11.4088
不近	-11.4089
▁宜以	-11.4089
大內殿	-11.409
末孫	-11.409
陵夷	-11.4091
所率	-11.4092
大功	-11.4093
陳其	-11.4093
▁臣以爲	-11.4096
提擧	-11.4096
强爲	-11.4097
出榜	-11.4097
▁命饋	-11.4097
年月	-11.4098
奉公	-11.4098
爲同知中樞府事	-11.4098
金致	-11.4101
事言之	-11.4102
▁不念	-11.4103
▁亦何	-11.4103
到今	-11.4103
博考	-11.4104
▁每以	-11.4106
郊迎	-11.4108
于政院	-11.4109
公除	-11.4109
獄訟	-11.4111
▁上欲	-11.4114
馬島	-11.4115
▁惟卿	-11.4115
殞	-11.4115
▁蓋出於	-11.4116
▁是乃	-11.4116
不覺	-11.4117
通官	-11.4117
因其	-11.4118
擬之	-11.4119
之兄	-11.4119
昉	-11.4119
招集	-11.4119
例爲之	-11.412
者皆	-11.412
論功	-11.4122
致仁	-11.4127
蝗	-11.4127
殲	-11.4127
塔	-11.4127
金質幹	-11.4127
好生之德	-11.4128
▁最爲	-11.4128
詳覈	-11.4128
有限	-11.4128
祖母	-11.4129
未決	-11.4129
考官	-11.413
海中	-11.4132
尹善道	-11.4133
丁字閣	-11.4134
鑄錢	-11.4134
事實	-11.4135
▁功	-11.4136
年凶	-11.4139
全家	-11.4141
▁而今又	-11.4143
有傷	-11.4145
朴淳	-11.4145
▁猥	-11.4147
▁以紓	-11.4147
漂到	-11.4148
訛言	-11.415
鄭孝	-11.415
一念	-11.415
如是也	-11.4153
諸具	-11.4155
敢以	-11.4156
▁李克培	-11.4158
親審	-11.416
切於	-11.4161
亦言	-11.4161
全不	-11.4162
該府	-11.4162
兩司啓曰	-11.4164
朞	-11.4166
勿遞	-11.4167
典翰	-11.4168
▁此所以	-11.4168
代納	-11.4168
此地	-11.417
等十人	-11.4171
惇	-11.4172
禿	-11.4172
三處	-11.4172
▁壽恒	-11.4174
乘轎	-11.4174
輔國	-11.4177
衣食	-11.418
▁名曰	-11.4181
李得	-11.4183
科第	-11.4183
▁而不得	-11.4184
兼判	-11.4186
▁俺	-11.4186
爲提調	-11.4188
停論	-11.4188
刪	-11.4188
▁提督	-11.4189
吉凶	-11.4189
淑儀	-11.419
許穆	-11.4195
▁以定	-11.4197
邊境	-11.4197
▁必先	-11.42
先自	-11.4202
▁自祖宗朝	-11.4202
齊陵	-11.4203
進表裏	-11.4205
▁庸	-11.4206
後孫	-11.4206
國無	-11.4206
壬	-11.4206
▁予意以爲	-11.4207
乃爾	-11.4208
朴泰	-11.4208
結陣	-11.4208
▁各自	-11.4209
紏	-11.4213
奢	-11.4213
開筵	-11.4214
一百二十	-11.4215
頣	-11.4215
愷	-11.4216
憎	-11.4216
璿源殿	-11.4216
李晩秀	-11.4216
夤緣	-11.4216
李惟泰	-11.4216
漸不可長	-11.4216
紵絲	-11.4216
圍籬安置	-11.4216
李尙毅	-11.4217
公廨	-11.4217
冬至正使	-11.4217
量給	-11.4221
▁恐未	-11.4224
定於	-11.4225
軍役	-11.4225
而言也	-11.4226
▁爲此	-11.4228
▁故如是	-11.423
廢事	-11.423
官婢	-11.4231
靦然	-11.4234
▁俄	-11.4234
院啓	-11.424
不能盡	-11.4241
▁依律定罪	-11.4242
▁議大臣	-11.4242
▁惟當	-11.4243
▁或爲	-11.4245
大兵	-11.4245
還授	-11.4245
▁鞫廳	-11.4247
辭說	-11.4247
洞口	-11.4248
河東	-11.4248
遞免	-11.4249
闕中	-11.4251
當番	-11.4252
珙	-11.4255
司成	-11.4256
相訟	-11.4257
曺繼商	-11.4261
渥	-11.4261
韓纉男	-11.4261
春川	-11.4261
▁余	-11.4261
査啓	-11.4261
李彦迪	-11.4262
▁另	-11.4262
八方	-11.4262
▁入巽方	-11.4263
▁宗廟	-11.4263
不得爲	-11.4263
旌表	-11.4263
礪山	-11.4264
稱冤	-11.4264
言根	-11.4265
便殿	-11.4265
一百四十	-11.4265
遭此	-11.4265
進見	-11.4266
守僕	-11.4267
?】	-11.4268
▁嚴飭	-11.427
輪回	-11.4271
二十二	-11.4277
計也	-11.4277
▁未見	-11.4277
李永	-11.4278
勞苦	-11.4279
諳	-11.428
百里	-11.428
如臣	-11.4281
以一時	-11.4281
剝	-11.4281
掌令尹	-11.4283
▁則不得	-11.4292
▁恐不可	-11.4293
至大	-11.4293
去之	-11.4293
犯夜	-11.4294
皆知	-11.4295
憂之	-11.4298
▁亦足	-11.4298
辭氣	-11.4302
洪原	-11.4302
失時	-11.4304
紗	-11.4304
廓	-11.4306
瘞	-11.4306
蒸	-11.4306
弘文館連箚	-11.4306
皇太子	-11.4306
更稟	-11.4307
▁次第	-11.4309
尹絳	-11.431
造朝	-11.4311
全羅兵使	-11.4311
▁次次	-11.4313
欲行	-11.4313
謀議	-11.4314
難知	-11.4317
遣史官傳諭	-11.4317
▁其弊不貲	-11.4318
言乎	-11.4319
安知	-11.4319
相傳	-11.432
感動	-11.432
復爲	-11.4321
吾民	-11.4321
親祭時	-11.4322
▁似是	-11.4322
訝	-11.4323
自恣	-11.4323
▁大駕	-11.4324
接濟	-11.4324
喪葬	-11.4324
之權	-11.4324
百年	-11.4325
無理	-11.4326
與知	-11.4326
▁言于都監	-11.4328
此等事	-11.4329
一口	-11.4329
乃罷	-11.4331
發賣	-11.4334
逃避	-11.4335
道觀察使	-11.4335
▁是後	-11.4335
▁理	-11.4336
▁故特	-11.4336
賢者	-11.4337
謀害	-11.4338
巽	-11.4346
▁誣	-11.4348
詗	-11.4348
留宿	-11.4348
不載	-11.4349
條陳	-11.4349
予言	-11.435
稚	-11.435
國是	-11.435
蓮	-11.4351
圓覺寺	-11.4351
塊	-11.4351
金克愊	-11.4351
貪饕	-11.4351
先大王	-11.4351
靜攝	-11.4351
政廳	-11.4351
徐有隣	-11.4352
豐壤	-11.4352
▁聖人	-11.4352
自取	-11.4352
備局諸宰	-11.4353
徑出	-11.4355
亟收成命	-11.4357
近以	-11.436
▁呼	-11.4361
封爵	-11.4362
▁意謂	-11.4363
昨夜	-11.4366
從此	-11.4366
議薦	-11.4366
微勞	-11.4366
官事	-11.4367
▁御書	-11.4368
來會	-11.437
▁仍言	-11.4371
於予	-11.4371
▁上疏辭職	-11.4372
草草	-11.4373
▁依舊	-11.4374
▁請從	-11.4376
御書曰	-11.4378
咸鏡道觀察使	-11.4379
三寸	-11.4379
霈	-11.4381
▁極擇	-11.4382
安岳	-11.4384
▁安可	-11.4386
赦前	-11.4387
▁命議于領敦寧以上	-11.4388
拿入	-11.4389
著作	-11.439
火藥	-11.439
審視	-11.4391
堅守	-11.4392
不以實	-11.4392
李天輔	-11.4393
親閱	-11.4394
聖明之	-11.4395
痕	-11.4395
隘	-11.4396
▁良可	-11.4396
懍	-11.4396
李敏叙	-11.4396
皇太后	-11.4396
旌閭	-11.4396
▁鳳漢	-11.4397
▁行酌獻禮	-11.4399
如是乎	-11.4399
丘史	-11.4399
無厭	-11.44
▁請改	-11.44
取舍	-11.44
素膳	-11.44
▁命以	-11.4401
出而	-11.4401
翔	-11.4401
專擅	-11.4403
▁彼此	-11.4404
▁憲司	-11.4404
傷人	-11.4405
▁死者	-11.4405
李長坤	-11.441
報恩	-11.441
推戴	-11.441
禮記	-11.4411
等說	-11.4411
爲之矣	-11.4411
失業	-11.4412
分屬	-11.4413
饋酒	-11.4413
▁在所	-11.4414
重矣	-11.4414
李植	-11.4416
天怒	-11.4416
而不得	-11.4416
于禮曹	-11.4418
▁奔走	-11.4418
先儒	-11.4422
禮堂	-11.4422
昏朝	-11.4422
爲江原道觀察使	-11.4425
步兵	-11.4428
爲己	-11.4429
之一端	-11.443
私第	-11.443
尹東	-11.4431
之故也	-11.4432
▁亦在	-11.4436
親享	-11.4438
詠	-11.4438
營門	-11.444
▁愼	-11.4441
瑩	-11.4441
慶運宮	-11.4441
朴東亮	-11.4442
儀軌	-11.4442
▁將至	-11.4443
李顯英	-11.4445
掌令朴	-11.4446
接伴官	-11.4446
動靜	-11.4447
▁當依	-11.4449
上疏乞免	-11.4449
究其	-11.4449
其論	-11.4449
亂逆	-11.4449
提起	-11.445
十萬	-11.445
之務	-11.445
農時	-11.4452
亞卿	-11.4452
宗戚	-11.4452
▁則實	-11.4455
久曠	-11.4456
有違	-11.4457
裳	-11.4457
宗貞盛	-11.4458
氣候	-11.4463
金彦	-11.4463
名號	-11.4464
▁臣等意	-11.4465
鍼	-11.4466
甲冑	-11.4466
北郊	-11.4467
▁皆在	-11.4467
之月	-11.4468
議諸大臣	-11.4469
▁若曰	-11.4469
仕路	-11.4471
講官	-11.4471
再箚	-11.4471
貿穀	-11.4472
安業	-11.4473
登聞	-11.4473
荒唐	-11.4474
命還給	-11.4474
禁中	-11.4474
心經	-11.4476
鄕里	-11.4477
見輕	-11.4477
率來	-11.448
必至	-11.448
特進官	-11.448
辨之	-11.4481
凌遲處死	-11.4487
揷	-11.4487
姿	-11.4487
櫃	-11.4487
李志完	-11.4487
原情	-11.4487
職分	-11.4488
金慶	-11.4489
▁至爲駭愕	-11.4489
▁狀如	-11.4491
凶言	-11.4491
百人	-11.4492
虛僞	-11.4493
鄭眉壽	-11.4493
名分	-11.4494
勤政殿	-11.4495
▁色承旨	-11.4497
親屬	-11.4498
場屋	-11.4498
▁兩珥	-11.4501
▁左承旨	-11.4501
祈雨祭	-11.4502
▁群	-11.4503
松木	-11.4503
▁廢	-11.4504
▁物情莫不	-11.4506
難掩	-11.4507
李鼎	-11.4508
▁雖不得	-11.4508
▁皆由	-11.4512
誤矣	-11.4514
明陵	-11.4514
天文	-11.4515
等對曰	-11.4516
版	-11.4517
李允	-11.4517
而罪之	-11.4518
廢主	-11.4519
差等	-11.4521
▁上優答之	-11.4521
毓祥宮	-11.4522
無所妨	-11.4523
同居	-11.4525
勿復言	-11.4527
生靈	-11.4527
▁精神	-11.4527
柳尙運	-11.4529
親傳	-11.4531
珒	-11.4531
膏	-11.4532
窄	-11.4533
軟	-11.4533
叚	-11.4533
𥙿	-11.4533
▁其所以	-11.4533
鳥銃	-11.4533
▁判府事	-11.4534
新授	-11.4534
廉隅	-11.4534
漕轉	-11.4534
禦敵	-11.4536
儀賓	-11.4537
魂宮	-11.4538
施恤典	-11.4539
焚香	-11.454
金浦	-11.4541
予於	-11.4542
佛堂	-11.4542
隄防	-11.4544
▁但今	-11.4545
光州	-11.4546
殘邑	-11.4546
尙方	-11.4547
付諸	-11.4549
李墪	-11.4551
未解	-11.4552
▁竝勿	-11.4554
不決	-11.4556
襦	-11.4556
▁奉安	-11.4559
刷出	-11.4559
議大臣定奪	-11.456
前臺諫	-11.456
歸養	-11.4562
▁而至今	-11.4563
難支	-11.4563
兼輔德	-11.4566
自祖宗朝	-11.4568
▁親臨	-11.457
可從之事	-11.4571
東北	-11.4572
▁以謝	-11.4573
亥	-11.4573
▁親自	-11.4574
▁混	-11.4576
監營	-11.4577
安城	-11.4577
狼	-11.4578
▁王法	-11.4579
騫	-11.4579
豐海道	-11.4579
孝禮	-11.458
叩頭	-11.458
守護軍	-11.458
踏驗	-11.458
堅執	-11.4581
王室	-11.4582
▁寧不	-11.4582
何能	-11.4582
邊釁	-11.4583
自便	-11.4583
金德遠	-11.4584
相應	-11.4585
宣慰	-11.459
儀注	-11.4593
山谷	-11.4593
隨班	-11.4593
其父母	-11.4595
臺省	-11.4595
▁請須	-11.4597
陳疏辭職	-11.4599
得參	-11.4599
捕得	-11.4601
何由	-11.4602
▁臣未知	-11.4602
沈悅	-11.4603
必遠	-11.4603
▁伏以	-11.4606
所帶	-11.4606
還歸	-11.4607
▁分遣	-11.461
書寫官	-11.4611
▁今可	-11.4611
兩處	-11.4611
猶在	-11.4612
不廢	-11.4612
畢推	-11.4612
而遣之	-11.4613
▁先自	-11.4614
千古	-11.4615
李守	-11.4616
防牌	-11.4619
何等	-11.4619
▁已過	-11.4622
矩	-11.4622
長子	-11.4622
臆	-11.4622
▁參判	-11.4623
尊賢	-11.4623
足下	-11.4624
戌	-11.4624
和氣	-11.4624
請討	-11.4624
▁恐無	-11.4624
啓辭中	-11.4625
塾	-11.4625
張善澂	-11.4625
韓浚謙	-11.4625
爲議政府左參贊	-11.4625
鍮	-11.4625
金履素	-11.4627
▁仍舊	-11.4627
蕩竭	-11.4627
其子孫	-11.4627
▁乃曰	-11.4627
柳澗	-11.4628
二十一	-11.4628
權擥	-11.4628
慈旨	-11.4629
法例	-11.463
黃孝源	-11.463
▁意在	-11.4631
都監都提調	-11.4631
發程	-11.4633
▁莫大於	-11.4633
水旱	-11.4636
不失	-11.4637
三分	-11.4639
爲右議政	-11.464
安心調理	-11.4641
爲定	-11.4642
傳于吏曹	-11.4647
久滯	-11.4648
▁異於	-11.4651
所遣	-11.4651
▁其人	-11.4652
▁雖似	-11.4653
爲說	-11.4654
節用	-11.4655
一方	-11.4655
之出	-11.4657
之義也	-11.4657
▁不報	-11.4658
之久	-11.4659
▁年少	-11.466
臺諫合司啓	-11.4661
變怪	-11.4662
不可輕	-11.4663
還下	-11.4663
▁予嘗	-11.4667
難容	-11.4668
不齒	-11.4668
勝於	-11.4669
知之矣	-11.467
▁未易	-11.467
淸明	-11.4672
捄	-11.4672
榦	-11.4672
斧	-11.4672
知製敎	-11.4672
輅	-11.4672
脯	-11.4672
剝割	-11.4672
▁隱然	-11.4673
司饔	-11.4675
銓衡	-11.4675
▁伏惟	-11.4675
面對	-11.4676
情外	-11.4677
忠淸兵使	-11.4678
友愛	-11.4678
▁莫重	-11.4678
問啓	-11.4679
莫知	-11.4679
自服	-11.4679
精兵	-11.4679
不及於	-11.4679
▁勿使	-11.4681
賦役	-11.4684
斯速	-11.4684
挺身	-11.4685
仰請	-11.4685
作亂	-11.4686
早晩	-11.4687
悶鬱	-11.4688
臨機	-11.4689
不以爲	-11.4689
司謁	-11.4689
不錄	-11.469
錄啓	-11.469
加減	-11.4691
於世	-11.4693
穆陵	-11.4694
▁對馬州	-11.4694
只令	-11.4695
▁已至	-11.4695
▁當於	-11.4696
能文	-11.4699
亦不敢	-11.4699
文記	-11.4702
致疑	-11.4702
▁摘發	-11.4703
▁其亦	-11.4704
勒令	-11.4704
隕	-11.4705
一百三十	-11.4707
刑政	-11.4707
目下	-11.4708
報于	-11.4712
▁而適	-11.4712
▁良	-11.4714
罪案	-11.4714
別加	-11.4714
▁管押	-11.4715
濯	-11.4719
股肱	-11.4719
迨	-11.4719
韓用龜	-11.4719
祜	-11.4719
鄭蘭宗	-11.4719
金東弼	-11.4719
當死	-11.4719
素有	-11.4719
要衝	-11.4722
行上護軍	-11.4722
雖是	-11.4723
補充軍	-11.4726
而致	-11.4726
李茁	-11.4729
十五匹	-11.473
憤鬱	-11.4732
▁準	-11.4732
遵守	-11.4732
先務	-11.4733
金睟	-11.4734
李應	-11.4735
還自	-11.4736
其死	-11.4736
淸朝	-11.4737
差倭	-11.4738
▁曾無	-11.4739
豈偶然	-11.474
救解	-11.474
啓目	-11.4742
永昌	-11.4744
營建都監啓	-11.4745
無可據	-11.4747
▁亦或	-11.4747
西向	-11.4747
一司	-11.4748
▁只在	-11.4751
出宮	-11.4751
▁近年以來	-11.4752
仁孫	-11.4752
百世	-11.4754
聞此	-11.4756
日次	-11.4757
法令	-11.4758
白丁	-11.4758
李柙	-11.4758
于宗廟	-11.4758
南宮	-11.4759
察處	-11.4759
奸詐	-11.4759
▁古云	-11.4759
▁未知何	-11.4759
嚴處	-11.4761
何益	-11.4761
貧民	-11.4761
書筵官	-11.4761
許令	-11.4762
得請	-11.4762
戶曹據	-11.4762
▁奸	-11.4764
▁崇	-11.4764
窟	-11.4765
鈴	-11.4765
斁	-11.4765
廁	-11.4765
檜	-11.4765
聒	-11.4765
謟	-11.4765
飽	-11.4765
臧獲	-11.4766
糜費	-11.4766
▁書狀官	-11.4766
今朝	-11.4766
▁已成	-11.4768
▁則不可不	-11.4768
副司果	-11.4768
偸竊	-11.4769
訴冤	-11.4771
▁恐爲	-11.4772
遐方	-11.4773
▁驟	-11.4774
之所在	-11.4775
▁素無	-11.4775
▁祗	-11.4775
儀物	-11.4775
母子	-11.4775
折給	-11.4777
端午	-11.4779
弭災	-11.478
領事	-11.478
哨官	-11.4781
此職	-11.4782
辭陛	-11.4783
縱恣無忌	-11.4784
文籍	-11.4785
能否	-11.4787
遣醫	-11.4787
巫女	-11.4788
自辨	-11.4788
開言路	-11.4789
百歲	-11.4791
兵曹佐郞	-11.4794
▁只欲	-11.4796
雜役	-11.4796
年正月	-11.4797
自言	-11.48
▁得以	-11.4801
周公	-11.4802
敬天	-11.4802
大關	-11.4803
▁連續	-11.4807
隨現	-11.4807
▁遣人來獻土宜	-11.4808
所受	-11.4808
覆逆	-11.4809
景禧	-11.4812
蔡𥙿後	-11.4813
昕	-11.4813
金思穆	-11.4813
官家	-11.4813
設祭	-11.4813
狹窄	-11.4813
文正公	-11.4813
扶植	-11.4815
十石	-11.4816
李一相	-11.4816
溫泉	-11.4817
昌集	-11.4817
㺚子	-11.4818
▁試官	-11.4821
不精	-11.4821
如此之人	-11.4822
學官	-11.4823
通信	-11.4823
藥餌	-11.4823
人心之	-11.4823
▁感	-11.4825
祀典	-11.4826
李慶億	-11.4827
依律處斷	-11.4827
此敎	-11.4827
刑杖	-11.4828
銀兩	-11.4828
可論	-11.4829
▁上特命	-11.4829
雖小	-11.483
▁換	-11.4833
何難	-11.4833
侍坐	-11.4834
難繼	-11.4835
庶官	-11.4838
▁副提學	-11.4839
憲長	-11.4839
之族	-11.484
乘機	-11.4842
禮經	-11.4843
薦望	-11.4848
德意	-11.4849
▁非欲	-11.4851
發還	-11.4853
陳勉	-11.4854
丑	-11.4855
一百六十	-11.4855
同姓	-11.4856
內官金	-11.4856
▁事勢	-11.4856
▁兩使	-11.4856
李䎘	-11.4859
壅	-11.486
纘	-11.486
蹇	-11.486
鉅	-11.486
套	-11.486
瑕	-11.486
具義剛	-11.486
削版	-11.4861
登時	-11.4863
爲守令者	-11.4864
等入侍	-11.4866
▁依舊例	-11.4867
繡	-11.4869
金萬重	-11.487
▁比前	-11.487
按獄	-11.4872
▁何也	-11.4872
門外黜送	-11.4875
政官	-11.4877
領中樞	-11.4878
設賑	-11.4879
已畢	-11.4881
亦豈	-11.4881
▁則豈不	-11.4882
勞動	-11.4885
一百匹	-11.4888
譴罷	-11.4888
變亂	-11.4892
高山	-11.4893
石乙	-11.4895
輕遞	-11.4896
置于	-11.4897
唐將	-11.4899
推鞫廳	-11.49
▁其何以	-11.4903
棘	-11.4904
必無	-11.4904
癘	-11.4905
▁御經筵	-11.4906
崔天健	-11.4908
仕滿	-11.4908
論駁	-11.491
尹任	-11.491
肥己	-11.491
▁積曰	-11.4913
▁亦不無	-11.4913
淸白	-11.4914
不關	-11.4914
賜馬	-11.4915
▁偶	-11.4915
之馬	-11.4916
金繼	-11.4916
靑松	-11.4916
平安道都節制使	-11.4916
苟同	-11.4917
帳殿	-11.4917
胡差	-11.4917
▁仍問	-11.4918
未成	-11.4919
矜惻	-11.4921
公然	-11.4921
追慕	-11.4922
米豆幷	-11.4922
▁照律	-11.4922
行晝講	-11.4927
▁如臣	-11.4928
▁竝加資	-11.4928
吏曹堂上	-11.4929
田土	-11.493
湯劑	-11.493
翁	-11.4931
▁惶恐	-11.4932
▁是何等	-11.4933
▁北	-11.4934
甚急	-11.4935
迎勅	-11.4935
百餘石	-11.4936
未行	-11.4936
如一	-11.4937
爲國家	-11.4938
▁專在	-11.4938
給事	-11.494
邊警	-11.494
前導	-11.4941
上御宣政殿	-11.4942
邊民	-11.4944
▁則不必	-11.4947
左尹	-11.4948
瑚	-11.4948
製述官	-11.4948
申商	-11.4948
冒處	-11.495
▁不然	-11.4951
大臣之言	-11.4951
異議	-11.4952
何以處之	-11.4953
御慶會樓下	-11.4953
紊	-11.4954
礎	-11.4956
▁臺官	-11.4956
司贍寺	-11.4956
▁常懷	-11.4957
墓所	-11.4957
已經	-11.4957
漏洩	-11.4957
勿遣	-11.4957
爲上	-11.4958
▁請遞臣等之職	-11.4958
弘文錄	-11.4958
艱危	-11.4959
咸吉道觀察使	-11.4961
外孫	-11.4961
招問	-11.4961
母后	-11.4962
奸僞	-11.4963
▁問于大臣	-11.4963
罔赦	-11.4963
▁諫院申前啓	-11.4966
之意乎	-11.4967
縣人	-11.4968
金澄	-11.4968
十八日	-11.4969
隨便	-11.4969
▁旣不能	-11.4971
悶慮	-11.4971
姜栢年	-11.4975
三百餘	-11.4975
常事	-11.4976
李澤	-11.4977
牒報	-11.4977
▁朕	-11.4978
酉	-11.4979
▁明澮	-11.4979
大興	-11.4981
席上	-11.4982
我境	-11.4982
等書	-11.4983
同日	-11.4985
宰列	-11.4986
入去	-11.4987
▁宜勿	-11.4987
生存	-11.4987
兼弼善	-11.499
先后	-11.4992
▁然若	-11.4993
錦山	-11.4994
痛革	-11.4994
天安	-11.4994
大怒	-11.4996
賊路	-11.4996
墾	-11.4997
昵	-11.4997
按法	-11.4998
復官	-11.4999
善道	-11.5001
眉	-11.5001
爲書狀官	-11.5002
弘濟	-11.5003
炎	-11.5004
瘳	-11.5004
胄	-11.5004
茅	-11.5004
爲戶曹參議	-11.5004
▁請鞫	-11.5004
▁已曾	-11.5004
吏民	-11.5005
說書	-11.5007
御札	-11.501
頒祿	-11.501
所不忍	-11.5011
廢閣	-11.5011
得矣	-11.5013
逃匿	-11.5013
不自安	-11.5016
自來	-11.5016
視學	-11.5016
亡命	-11.5016
大軍	-11.5017
又爲	-11.5019
▁如是而	-11.502
柳溥	-11.502
固守	-11.5021
于議政府	-11.5022
▁士大夫	-11.5026
通諭	-11.5027
▁其母	-11.5028
賑穀	-11.5032
人君之	-11.5033
規模	-11.5033
致斃	-11.5033
祭物	-11.5035
諸臺	-11.5037
三更	-11.5038
▁毋或	-11.5039
▁固難	-11.5039
三使臣	-11.504
題主	-11.5041
咸吉道監司	-11.5041
司書	-11.5041
敎訓	-11.5041
▁而仍	-11.5042
設於	-11.5043
體念	-11.5043
祥原	-11.5043
五十餘	-11.5045
見此	-11.5048
火星	-11.5048
李士	-11.505
▁登	-11.5051
於他	-11.5051
貯	-11.5052
李命植	-11.5053
▁設令	-11.5057
安君	-11.5058
▁遂以	-11.5059
廬次	-11.5059
▁後世	-11.506
難之	-11.506
迎慰	-11.5061
原疏	-11.5062
同心	-11.5064
▁向來	-11.5064
李正英	-11.5064
▁豈但	-11.5064
田野	-11.5065
▁示	-11.5066
限三年	-11.5068
▁皆出於	-11.5069
前月	-11.507
不意	-11.5074
▁一應	-11.5076
朕	-11.5078
陵所	-11.5078
區	-11.5078
▁任其	-11.5079
▁依法	-11.508
▁進退	-11.5082
▁而先	-11.5084
私婢	-11.5085
自盡	-11.5086
同知事	-11.5086
弔祭	-11.5088
▁命罷	-11.5089
不輕	-11.5089
▁待秋	-11.5091
▁武科	-11.5093
賜賻	-11.5093
▁卽當	-11.5096
▁不可以此	-11.5098
時刻	-11.5098
則非	-11.5098
廣寧	-11.51
▁宜當	-11.51
固然	-11.51
趙明鼎	-11.51
黃景源	-11.51
重律	-11.5101
顚錯	-11.5101
笞五十	-11.5102
▁其次	-11.5104
魚箭	-11.5104
決棍	-11.5104
仍囚	-11.5104
諳練	-11.5105
臨民	-11.5105
慘酷	-11.5105
自獻	-11.5106
梁山	-11.5108
上親行	-11.5109
飮福	-11.511
尹孝孫	-11.511
捉致	-11.5111
▁至使	-11.5112
▁設有	-11.5113
▁在所當	-11.5114
擧動時	-11.5115
▁欲於	-11.5116
▁予以爲	-11.5116
懲艾	-11.5118
李殷相	-11.5122
成群	-11.5123
間事	-11.5123
▁棄	-11.5124
▁杖	-11.5125
復有	-11.5126
據法	-11.5127
元肅	-11.5129
▁而後	-11.5129
杖九十	-11.513
領議政金在魯	-11.5131
▁同參	-11.5132
會盟	-11.5134
另加	-11.5134
王氏	-11.5136
▁又使	-11.5139
▁預先	-11.5139
卿等之言	-11.514
諸醫	-11.5141
▁卿可	-11.5141
命囚	-11.5143
元衡	-11.5143
聊	-11.5143
凡干	-11.5143
本島	-11.5145
任權	-11.5146
上書曰	-11.5146
彗星	-11.5146
▁方今	-11.5147
牟	-11.5147
褻	-11.5148
臻	-11.5149
淺淡服	-11.5149
職秩	-11.515
貪虐	-11.515
政體	-11.5151
申光漢	-11.5152
尤大	-11.5152
傳習	-11.5152
受針	-11.5152
驟陞	-11.5153
置重典	-11.5153
卒逝	-11.5154
▁徒以	-11.5155
領議政鄭光弼	-11.5156
彌留	-11.5157
傳旨司憲府	-11.5158
臣民之望	-11.5158
飢寒	-11.5159
如法	-11.516
自初	-11.5161
文券	-11.5161
筵敎	-11.5162
▁何至	-11.5165
在官	-11.5167
二事	-11.5168
藩臣	-11.5169
道里	-11.517
修擧	-11.5171
陞六	-11.5172
乘船	-11.5172
官物	-11.5174
十名	-11.5174
李昌臣	-11.5176
▁鞫	-11.5179
興德	-11.5179
▁是則	-11.5179
叔舟	-11.518
採取	-11.518
俄	-11.5181
縷縷	-11.5181
復請	-11.5182
供曰	-11.5182
私自	-11.5183
▁豈不知	-11.5184
考其	-11.5186
左右道	-11.5189
晳	-11.5189
▁故只	-11.519
▁始爲	-11.5191
▁或曰	-11.5191
父老	-11.5192
▁而乃敢	-11.5192
告官	-11.5192
枚	-11.5192
酒禁	-11.5193
文秀	-11.5194
晏	-11.5194
襄陽	-11.5195
敎云	-11.5196
督運	-11.5196
知經筵事	-11.5196
宋諄	-11.5198
錄於	-11.5198
▁良久乃滅	-11.5198
崔閏德	-11.5198
徐龍輔	-11.5198
李懿信	-11.5198
爲弘文館副校理	-11.5198
槐院	-11.5199
不可不慮	-11.5199
不果	-11.5199
永安道觀察使	-11.52
▁將有	-11.5201
分辨	-11.5201
▁極爲可慮	-11.5202
當遞	-11.5202
韓確	-11.5205
▁斬	-11.5206
一罪	-11.5206
。」’	-11.5208
武擧	-11.5209
▁無端	-11.5209
休戚	-11.5212
▁各其	-11.5213
醞	-11.5213
及今	-11.5215
輸納	-11.5215
不盡	-11.5215
永平	-11.5219
黨習	-11.5219
爲妾	-11.522
▁請出	-11.5222
▁上問左右	-11.5222
地勢	-11.5222
之目	-11.5222
▁頃年	-11.5223
曾有	-11.5224
之形	-11.5225
以文官	-11.523
之別	-11.5232
敦寧府	-11.5235
▁琰	-11.5235
善事	-11.5235
顧忌	-11.5236
尊崇	-11.5237
手足	-11.5238
安有	-11.5239
減其	-11.5239
所執	-11.5239
農務	-11.5239
繕	-11.524
盡信	-11.5243
於前日	-11.5244
二斗	-11.5245
瀋	-11.5246
▁彗星	-11.5247
抹	-11.5247
貞熹王后	-11.5247
抃	-11.5247
陽德	-11.5248
▁尙無	-11.5248
搜括	-11.5248
▁後因	-11.525
▁而每	-11.525
婚嫁	-11.5251
四時	-11.5251
推擇	-11.5251
上旨	-11.5254
▁而卿	-11.5259
領議政許積	-11.5259
所爲之事	-11.5259
上行晝講	-11.5259
禁標	-11.5261
老弱	-11.5265
李世白	-11.5266
申請	-11.5266
於殿下	-11.527
托病	-11.527
得實	-11.5274
天際	-11.5274
熟馬	-11.5279
之樂	-11.5279
▁憲府申前啓	-11.5279
誣罔	-11.528
不軌	-11.5283
風化	-11.5283
聽納	-11.5285
▁當用	-11.529
朝鮮國	-11.5292
▁汲汲	-11.5292
富平	-11.5293
闕外	-11.5294
倭變	-11.5294
致書	-11.5296
彝	-11.5296
成石璘	-11.5297
墮	-11.5297
鄭弘淳	-11.5297
闡	-11.5297
鞋	-11.5297
韓光會	-11.5297
上黨府院君	-11.5297
▁律該斬不待時	-11.5297
梁誠之	-11.5297
▁以備不虞	-11.5298
賞賜有差	-11.5298
搖動	-11.5299
姜弘立	-11.5299
矇然	-11.5299
已多	-11.53
再請	-11.5304
儺禮	-11.5305
▁光佐	-11.5306
沈梓	-11.5306
到此	-11.5311
諫院申前啓	-11.5314
幸慕華館	-11.5315
圈點	-11.5315
廷議	-11.5316
▁各加一資	-11.5316
每每	-11.5316
下詢	-11.5317
▁難免	-11.5317
箚中	-11.5323
無論	-11.5325
潤德	-11.5325
未備	-11.5325
語及	-11.5326
同罪	-11.5327
▁必多	-11.5328
▁張皇	-11.5328
所持	-11.5329
慢不	-11.533
李敏	-11.5331
四名	-11.5331
度僧	-11.5332
誤事	-11.5332
柳活	-11.5332
一疋	-11.5332
曾已	-11.5333
贈諡	-11.5334
之口	-11.5336
何足	-11.5337
逆黨	-11.5338
兩司合啓曰	-11.5338
資窮	-11.5343
▁承旨等	-11.5344
黯	-11.5344
亏	-11.5346
將何以	-11.5346
恊	-11.5347
惹	-11.5347
沾	-11.5347
潝	-11.5347
尹宣擧	-11.5347
柳希春	-11.5347
玩愒	-11.5347
▁監察	-11.5347
幼沖	-11.5347
▁一切勿	-11.5347
糾檢	-11.5349
▁尾長三四尺許	-11.5349
書雲觀	-11.5349
誕辰	-11.5349
內隱	-11.535
祭官	-11.535
相位	-11.535
耳目之官	-11.5351
▁自知	-11.5351
勤幹	-11.5351
九人	-11.5353
爲答	-11.5353
輔養	-11.5354
更考	-11.5355
三十石	-11.5355
有別	-11.5355
勉出	-11.5357
▁予何	-11.5358
隱匿	-11.5358
府夫人	-11.5359
▁勿拘	-11.5359
李施愛	-11.5359
一所	-11.5359
▁雖或有	-11.5361
重難	-11.5363
賤人	-11.5364
將校	-11.5366
緘問	-11.5366
聖體	-11.5366
▁非惟	-11.5368
最多	-11.5371
舊臣	-11.5371
▁相議	-11.5373
▁掌	-11.5376
海邊	-11.5376
▁徒爲	-11.5377
無君	-11.5377
之備	-11.5379
禮貌	-11.5381
行廊	-11.5384
神明	-11.5385
若無	-11.5388
豐川	-11.5389
▁曾在	-11.5391
針	-11.5391
此數	-11.5391
下雨	-11.5392
兼察	-11.5393
國本	-11.5393
▁終日	-11.5394
相同	-11.5395
初仕	-11.5395
四邑	-11.5396
▁義禁府	-11.5397
儐	-11.5397
帷	-11.5397
瑋	-11.5397
藪	-11.5397
吳命恒	-11.5397
置而不問	-11.5397
鼎重	-11.5397
▁入艮方	-11.5399
李茂	-11.5399
啓聞後	-11.5399
▁中宮	-11.54
▁則豈可	-11.54
▁有不可	-11.5402
火砲	-11.5404
過激	-11.5405
繕修都監	-11.5407
金應瑞	-11.5407
之仁	-11.5409
江華府	-11.541
今始	-11.5411
爲忠淸道觀察使	-11.5412
順安	-11.5412
四學	-11.5412
繼述	-11.5414
之惡	-11.5415
▁至爲未安	-11.542
試講	-11.542
射殺	-11.5422
朝見	-11.5423
避亂	-11.5425
退在	-11.5429
依律科罪	-11.5429
諸道監司	-11.543
下陸	-11.543
亟停	-11.5431
之道矣	-11.5431
擧劾	-11.5432
以臣爲	-11.5432
數外	-11.5432
嚴問	-11.5433
雨水	-11.5433
二十三	-11.5438
▁不料	-11.5438
三浦	-11.544
所撰	-11.5441
熙川	-11.5442
▁且請	-11.5444
南兵使	-11.5444
▁還宮	-11.5445
蹤	-11.5446
楫	-11.5447
圍籬	-11.5447
眇	-11.5447
叫	-11.5447
徐志修	-11.5447
捍	-11.5447
許施	-11.5448
申晸	-11.5449
賜酒樂	-11.5453
李伯	-11.5453
二十石	-11.5455
書送	-11.5455
▁舊	-11.5455
參知	-11.5456
金得	-11.5456
不省	-11.5457
五名	-11.5458
▁又非	-11.5459
樹木	-11.5459
女妓	-11.546
李翊相	-11.5461
▁似爲未安	-11.5461
滉	-11.5462
經史	-11.5463
江西	-11.5465
之宜	-11.5466
其親	-11.5467
譴責	-11.5467
▁而朝廷	-11.5468
▁錫	-11.5468
▁請竝命	-11.547
自是	-11.5473
良役	-11.5473
▁他無	-11.5473
還家	-11.5474
愕	-11.5475
年滿	-11.5475
無比	-11.5475
而除	-11.5477
兩朝	-11.5477
快從	-11.5478
誌文	-11.5479
宗瑞	-11.5481
依禮文	-11.5482
知印	-11.5483
▁還收	-11.5483
▁皆非	-11.5483
籍田	-11.5484
珣	-11.5485
未著	-11.5485
▁令道臣	-11.5485
盡矣	-11.5487
妹夫	-11.5488
▁久而	-11.5488
㺚	-11.5491
帝王之	-11.5492
年六十	-11.5492
亢	-11.5492
可取	-11.5493
▁右承旨	-11.5494
▁使得	-11.5494
寶城	-11.5494
▁無以爲	-11.5495
▁則令	-11.5496
▁以開	-11.5497
灑	-11.5497
揣	-11.5497
那	-11.5497
黎	-11.5497
晝茶禮	-11.5498
回鑾	-11.5498
取見	-11.5499
▁獨於	-11.55
擧事	-11.55
陰嗾	-11.5501
忠孝	-11.5504
刺字	-11.5504
謹悉	-11.5504
▁于今	-11.5505
承旨等入侍	-11.5508
戰亡	-11.5508
▁待罪	-11.5508
態	-11.5509
于中	-11.5509
卿意	-11.5509
聖慮	-11.5511
致詞	-11.5513
北向	-11.5513
神位	-11.5514
竝令	-11.5515
▁臣等未知	-11.5516
金汝	-11.5518
其門	-11.5519
當直	-11.5519
希顔	-11.5519
餓死	-11.552
力辭	-11.552
其妻子	-11.552
直啓	-11.5521
病未	-11.5521
之證	-11.5522
便益	-11.5522
▁而非	-11.5523
鄭道	-11.5525
由於此	-11.5527
淸議	-11.5529
次次	-11.5534
本心	-11.5534
皇明	-11.5534
聽從	-11.5535
從祀文廟	-11.5538
司憲執義	-11.554
駕至	-11.5544
椒	-11.5544
不是	-11.5544
畏忌	-11.5547
現告	-11.5548
▁下至	-11.5548
大節	-11.5548
曁	-11.5548
孝敬殿	-11.5548
鄭元容	-11.5548
耘	-11.5548
南以俊	-11.5549
陜川	-11.5549
▁備局回啓	-11.555
遣內官	-11.555
黃儼	-11.5551
爲兵曹正郞	-11.5551
▁故已	-11.5552
▁以實	-11.5552
逢迎	-11.5553
奉先	-11.5554
門下	-11.5555
▁將無以	-11.5555
▁言于禮曹	-11.5556
坐於	-11.5557
宴禮	-11.556
田民	-11.5561
千餘人	-11.5562
閭家	-11.5562
▁亦將	-11.5565
被人	-11.5566
郞中	-11.5566
五萬	-11.5567
▁不與	-11.5567
疑似	-11.5568
將至	-11.5568
驛丞	-11.5568
欲得	-11.5569
分送	-11.557
竝行	-11.557
▁漸至	-11.557
自引	-11.5571
天地之	-11.5571
陽川	-11.5572
無子	-11.5572
例施行	-11.5572
當該承旨	-11.5572
▁晝講	-11.5573
▁竝命罷職	-11.5578
▁擧皆	-11.5578
土兵	-11.558
▁請罷其職	-11.5581
別薦	-11.5581
予病	-11.5582
朝綱	-11.5583
不可輕議	-11.5584
▁或於	-11.5586
五十石	-11.5586
以他	-11.559
▁貽弊	-11.5591
孝文	-11.5592
越邊	-11.5592
邊地	-11.5593
▁未敢	-11.5593
東郊	-11.5593
▁臣誠	-11.5593
祿官	-11.5594
奭	-11.5595
雖云	-11.5595
八十餘	-11.5597
諛	-11.5598
諸子	-11.5599
上御養心閤	-11.5599
坰	-11.5599
瞿然	-11.56
▁情狀	-11.56
抱冤	-11.5602
難得	-11.5603
▁至爲非矣	-11.5603
爲公事	-11.5603
謀叛	-11.5604
見在	-11.5604
左代言	-11.5604
勳舊	-11.5605
三十餘人	-11.5609
住持	-11.561
▁旣非	-11.5611
▁爾瞻	-11.5611
權格	-11.5611
異姓	-11.5612
言辭	-11.5613
天日	-11.5615
希孟	-11.5619
船運	-11.5619
不諒	-11.5619
▁非謂	-11.5621
舊習	-11.5623
衰老	-11.5629
鄭遵	-11.5631
可恃	-11.5631
巡禁司	-11.5632
君父之	-11.5632
祖父	-11.5632
固執	-11.5635
可觀	-11.5636
▁安能	-11.5636
大擧	-11.5637
加之	-11.5638
以爲非	-11.5638
微細	-11.564
當律	-11.5643
▁亦不能	-11.5646
海路	-11.5647
▁實由於	-11.5647
放遣	-11.5649
承順	-11.5649
貂	-11.565
▁卿亦	-11.565
宋世珩	-11.5651
剪	-11.5651
歆	-11.5651
爕	-11.5651
溝壑	-11.5651
三分之一	-11.5651
亦重	-11.5651
藉藉	-11.5652
憲臣	-11.5652
楊州牧使	-11.5652
予觀	-11.5652
邪正	-11.5655
各該司	-11.5656
申嚴	-11.5657
肆行	-11.5657
闌入	-11.566
可稱	-11.566
對揚	-11.5661
莫大之慶	-11.5662
領議政黃喜	-11.5662
大國	-11.5663
盡誠	-11.5663
專意	-11.5665
祭于	-11.5666
▁日昨	-11.5667
傳旨議政府	-11.5668
▁引見大臣	-11.5668
帶行	-11.5668
不動	-11.567
憤惋	-11.567
▁更無可	-11.5671
▁遽爾	-11.5671
還穀	-11.5672
▁則在	-11.5673
▁不足以	-11.5675
稱慶	-11.5677
所求	-11.5678
僧軍	-11.5678
之祭	-11.568
將領	-11.5681
安民	-11.5682
擇其	-11.5684
▁而其所	-11.5685
刷馬	-11.5686
擧國	-11.5687
可任	-11.5689
親往	-11.5691
甚好	-11.5691
不取	-11.5692
特下	-11.5693
繡衣	-11.5693
瞻聆	-11.5695
不快	-11.5696
都護府	-11.5696
三十年	-11.5696
儆	-11.5696
同辭	-11.5696
▁以警	-11.5697
圖報	-11.57
相知	-11.5701
熹	-11.5702
痘	-11.5702
敝	-11.5702
濤	-11.5702
雀	-11.5702
當行	-11.5703
全州府尹	-11.5703
日暈兩珥	-11.5703
箭串	-11.5703
▁累次	-11.5703
任兗	-11.5703
▁體	-11.5704
二十年	-11.5704
奴酋	-11.5705
▁幸賴	-11.5706
李聖求	-11.5706
匪輕	-11.5706
憲府以	-11.5708
▁命給	-11.5709
▁故不敢	-11.5712
得此	-11.5713
逃走	-11.5714
之學	-11.5714
▁令戶曹	-11.5716
爲請	-11.5716
末生	-11.5716
李興	-11.5718
自備	-11.5721
▁又從而	-11.5721
嘉奬	-11.5721
重建	-11.5722
圖畫	-11.5722
弓馬	-11.5723
都監郞廳	-11.5725
憚於	-11.5727
特放	-11.5727
▁因其	-11.5729
虎皮	-11.5729
金宗	-11.573
行査	-11.5731
▁違者	-11.5732
之君	-11.5732
家屬	-11.5733
嚴重	-11.5736
宗盛	-11.5741
之次	-11.5744
改擇日	-11.5746
今因	-11.5746
廣取	-11.575
正直	-11.5752
狐	-11.5753
惰	-11.5754
傲	-11.5754
再辭	-11.5754
朴弘耉	-11.5754
鄭維岳	-11.5754
朴彛叙	-11.5754
洪景舟	-11.5754
兩銓	-11.5754
偃息	-11.5755
勿辭察職	-11.5756
更審	-11.5756
經營	-11.5757
亦以爲然	-11.5757
▁臣等竊謂	-11.5758
煩啓	-11.5759
伏念	-11.5759
▁僉議	-11.5762
南瑾	-11.5763
草木	-11.5763
以疾	-11.5763
沒官	-11.5764
惕然	-11.5765
館所	-11.5767
書籍	-11.5768
安世	-11.5768
于禁府	-11.5768
▁臣等聞	-11.5769
過多	-11.5769
繕工	-11.577
令有司	-11.5771
▁甚爲不可	-11.5773
居官	-11.5773
在喪	-11.578
承宗	-11.5782
旱甚	-11.5782
▁固是	-11.5783
飭敎	-11.5783
在彼	-11.5784
已爲推考	-11.5787
平海	-11.5787
潛邸	-11.5787
莫能	-11.579
釜	-11.5793
▁而近日	-11.5795
▁實由	-11.5796
之吏	-11.5797
相詰	-11.5797
沓	-11.5799
稼	-11.58
▁此其	-11.58
黜之	-11.58
太上	-11.5801
眉壽	-11.5801
伏兵	-11.5802
▁允合	-11.5803
▁郞廳	-11.5803
▁略不	-11.5804
困於	-11.5804
聽訟	-11.5804
苛	-11.5805
懦	-11.5806
訐	-11.5806
潜	-11.5806
犢	-11.5806
兀	-11.5806
司憲持平	-11.5806
▁竝以	-11.5806
之有無	-11.5807
牢拒	-11.5807
詳盡	-11.5808
所薦	-11.5809
▁況以	-11.581
取旨	-11.581
肅川	-11.581
推諉	-11.5811
李承孫	-11.5813
霜降	-11.5814
文王	-11.5816
兩年	-11.5816
無一毫	-11.5816
爲嘉善	-11.582
前承旨	-11.582
▁固爲	-11.5821
▁又問	-11.5822
判敦寧	-11.5823
李克	-11.5823
歐打	-11.5823
鎰	-11.5824
何顔	-11.5824
▁領議政洪鳳漢	-11.5825
開閉	-11.5825
生進	-11.5825
銀臺	-11.5825
治績	-11.5826
用度	-11.5827
▁初無	-11.5828
▁溥	-11.5829
時羅	-11.583
實惠	-11.5831
元額	-11.5831
▁明白	-11.5833
徒配	-11.5833
▁雖使	-11.5834
立役	-11.5834
京都	-11.5836
相顧	-11.5837
尹行	-11.5838
▁實合	-11.5838
告狀	-11.5839
無策	-11.5839
孟孫	-11.5841
之會	-11.5841
禁府啓曰	-11.5845
全義	-11.5847
差誤	-11.5847
金淨	-11.5848
私家	-11.585
祭器	-11.5854
爲左承旨	-11.5854
土宜	-11.5855
拭	-11.5857
聳	-11.5857
夔	-11.5858
崔奎瑞	-11.5858
昇遐	-11.5859
斷以大義	-11.5859
廣議	-11.5859
▁恭惟	-11.586
亦是	-11.586
不可改	-11.5861
考例	-11.5861
申瀞	-11.5861
惕念	-11.5862
不識事體	-11.5862
本事	-11.5863
所恃	-11.5863
相對	-11.5865
假注書	-11.5866
昔日	-11.5867
▁上項	-11.5868
▁以資	-11.5869
▁而昨日	-11.587
▁一道	-11.587
爲任	-11.5871
曾任	-11.5871
事發	-11.5873
規畫	-11.5875
會飮	-11.5878
與大臣議	-11.5878
碩輔	-11.5879
▁專在於	-11.5879
一律	-11.5884
啓下矣	-11.5884
▁元無	-11.5885
李秞	-11.5885
▁若此	-11.5885
除服	-11.5886
事覺	-11.5886
測	-11.5887
▁此不過	-11.5887
激勸	-11.5889
有罪者	-11.589
比來	-11.589
▁幷令	-11.589
禁亂	-11.589
書寫	-11.5891
▁實無	-11.5891
佛事	-11.5892
發配	-11.5892
祭酒	-11.5894
申光	-11.5895
▁政院以	-11.5898
明知	-11.5898
托故	-11.59
玉堂上箚	-11.59
十五人	-11.59
進前	-11.5901
所共	-11.5901
供稱	-11.5904
月課	-11.5904
令該司	-11.5905
李翔	-11.5905
▁予於	-11.5905
依所啓施行	-11.5906
仍在	-11.5908
纂	-11.5909
違端	-11.591
携	-11.5911
炬	-11.5911
姜龜孫	-11.5911
貰	-11.5911
鄭顯祖	-11.5911
盛事	-11.5912
羅州牧使	-11.5912
淸洪道	-11.5913
▁急於	-11.5913
彼賊	-11.5915
不敏	-11.5915
打量	-11.5916
趙師錫	-11.5916
申渫	-11.5917
枚擧	-11.5917
爲守令	-11.5918
歸咎	-11.5918
崇政殿	-11.5918
兩陵	-11.592
一歲	-11.5921
李益	-11.5921
其勢	-11.5923
十餘日	-11.5924
還都	-11.5926
直請	-11.5926
前牧使	-11.5926
左議政宋寅明	-11.5926
戰船	-11.5927
武班	-11.5929
西北面	-11.5929
爲之乎	-11.593
鄭氏	-11.5931
聖鑑	-11.5932
近例	-11.5933
五寸	-11.5938
者非一	-11.5943
降號	-11.5943
▁日月	-11.5944
面目	-11.5945
高城	-11.5946
天氣	-11.5947
▁尙今	-11.5947
而不能	-11.5947
大祥	-11.5949
減數	-11.5949
▁然當	-11.595
特陞	-11.5951
結末	-11.5951
交隣	-11.5951
之誅	-11.5952
等九人	-11.5954
愛君	-11.5956
宣政殿	-11.5956
煎	-11.5957
功德	-11.5957
竝遞	-11.5958
▁如啓	-11.5958
檀	-11.5958
不可不嚴	-11.5959
李仲	-11.5959
纔經	-11.596
郭山	-11.596
于慕華館	-11.596
▁擬	-11.5961
申前達	-11.5961
致傷	-11.5962
檄	-11.5963
仝	-11.5963
▁不問	-11.5964
函	-11.5964
芝	-11.5964
李福源	-11.5964
禾稼	-11.5964
▁一日爲急	-11.5964
今若	-11.5964
金南重	-11.5964
趙文命	-11.5964
▁勿爲更煩	-11.5964
慶州府尹	-11.5965
改量	-11.5966
可用者	-11.5967
曾在	-11.5967
南別宮	-11.5967
罔測	-11.5969
南行	-11.597
危懼	-11.597
密符	-11.5972
亂賊	-11.5974
侍藥	-11.5975
留防	-11.5977
宣廟朝	-11.5978
火災	-11.5979
獨爲	-11.598
▁隨事	-11.598
有失	-11.5981
誕生	-11.5982
尙宮	-11.5983
書下	-11.5986
救民	-11.5992
久未	-11.5994
大小人員	-11.5995
留中	-11.5996
令兵曹	-11.5996
飢困	-11.5998
▁不可輕易	-11.5998
役事	-11.6
誠是	-11.6001
不齊	-11.6001
▁有以	-11.6002
別賜	-11.6003
太多	-11.6005
未可知	-11.6006
石城	-11.6008
咸安	-11.6009
逃還	-11.601
令攸司	-11.6011
固有	-11.6012
關重	-11.6012
行狀	-11.6013
未晩也	-11.6013
金澍	-11.6013
王政	-11.6014
解事	-11.6014
沈連源	-11.6015
非其人	-11.6016
廛	-11.6016
絡	-11.6017
妬	-11.6017
耀	-11.6017
李端錫	-11.6018
浮言	-11.6019
▁入坤方	-11.6019
先聖	-11.602
於斯	-11.602
經席	-11.602
繼後	-11.602
秩卑	-11.6021
包容	-11.6021
▁昌	-11.6022
四學儒生	-11.6023
鄭岦	-11.6023
古阜	-11.6025
刑曹佐郞	-11.6026
其利	-11.6027
▁殿下之	-11.6028
▁一至於此	-11.6028
成泳	-11.6028
旌義	-11.6028
崔漢	-11.603
廷弼	-11.603
新及第	-11.603
奴僕	-11.603
點檢	-11.6031
▁斥	-11.6031
▁具致寬	-11.6032
隨之	-11.6033
例批	-11.6033
▁皆無	-11.6033
尹讓	-11.6034
議以爲	-11.6034
評	-11.6035
▁從長	-11.6036
世子宮	-11.6036
▁在我	-11.6036
▁而政院	-11.6039
▁而未及	-11.6039
▁領議政金在魯	-11.604
首尾	-11.6041
還京	-11.6042
絶島定配	-11.6043
歸之於	-11.6043
定平	-11.6043
時月	-11.6045
特爲	-11.6047
倭使	-11.6048
▁令攸司	-11.6049
本鎭	-11.6049
運糧	-11.6052
地部	-11.6052
▁凡於	-11.6053
講筵	-11.6053
▁上不聽	-11.6053
辱國	-11.6056
安敢	-11.6056
不寧	-11.6059
權健	-11.606
進賀使	-11.6064
所無之事	-11.6067
▁不拘	-11.6068
奉足	-11.6068
鳳城	-11.6069
漂流人	-11.6069
▁自內	-11.607
陵君	-11.607
.	-11.6071
三省交坐	-11.6071
判敦寧府事	-11.6071
瀛	-11.6071
韓亨允	-11.6071
篆	-11.6071
泗川	-11.6071
▁請命遞臣職	-11.6071
成籍	-11.6071
身犯	-11.6072
姜澂	-11.6073
下雪	-11.6073
千秋	-11.6073
未暇	-11.6074
舊章	-11.6074
鄭淵	-11.6075
調度	-11.6076
捉來	-11.6078
薦新	-11.6079
撤毁	-11.6079
表表	-11.6079
伐木	-11.6081
造給	-11.6082
▁伏乞亟	-11.6083
預先	-11.6084
除弊	-11.6084
通淸	-11.6085
責其	-11.6086
以爲未便	-11.6087
▁請還收成命	-11.6088
事面	-11.6088
生理	-11.6088
重究	-11.6088
固不可	-11.6089
入往	-11.6091
分授	-11.6091
閔熙	-11.6092
貴賤	-11.6092
▁宜卽	-11.6093
哈等	-11.6094
請免	-11.6096
▁不使	-11.6096
受賞	-11.6097
前古所無	-11.61
施罰	-11.61
凶年	-11.61
誠敬	-11.6102
西南	-11.6103
黃衡	-11.6104
黃延	-11.6105
收養	-11.6105
箇月	-11.6108
重於	-11.6112
米太	-11.6112
傳旨于	-11.6112
自外	-11.6115
上送事	-11.6117
慶尙道監司	-11.6119
具悉	-11.6121
史草	-11.6121
構誣	-11.6122
恙	-11.6123
勘罪	-11.6123
▁猶有	-11.6124
巢	-11.6124
壙	-11.6124
擯	-11.6124
潦	-11.6124
撕捱	-11.6124
敕	-11.6124
▁未蒙兪允	-11.6124
宋相琦	-11.6124
朴安性	-11.6124
繼宗	-11.6124
省疏具悉	-11.6124
李偉卿	-11.6125
些少	-11.6125
役軍	-11.6126
杆城	-11.6126
有輕重	-11.6127
閔宗道	-11.6127
▁臣等恐	-11.6128
綾城君	-11.6128
行首	-11.6128
安玹	-11.6131
善山	-11.6131
鷹犬	-11.6132
嗣位	-11.6133
濟世	-11.6134
李師	-11.6138
不恭	-11.6139
▁民多	-11.6139
漢城府判尹	-11.614
▁不可不慮	-11.614
司諫院上疏	-11.614
崔有	-11.6143
張維	-11.6143
放火	-11.6143
左遷	-11.6143
銑	-11.6144
奉承傳	-11.6147
遠道	-11.6147
▁曾經	-11.6149
▁而亦不	-11.615
居中	-11.615
正典刑	-11.6151
竝罷職	-11.6152
所不容	-11.6155
▁故有此	-11.6157
承款	-11.6157
娶妻	-11.6159
隣里	-11.616
之時乎	-11.6162
形迹	-11.6163
罔上	-11.6164
到泊	-11.6167
繕修	-11.617
方略	-11.6171
姻	-11.6171
則皆	-11.6171
瑊	-11.6172
▁揆之	-11.6172
上御思政殿	-11.6173
後爲之	-11.6173
密啓	-11.6173
王旨	-11.6174
其祖	-11.6174
賊黨	-11.6175
爐	-11.6175
經赦	-11.6176
懇請	-11.6178
則似	-11.6178
油芚	-11.6179
李元禎	-11.6179
給分	-11.618
吳億齡	-11.6181
▁分爲	-11.6183
復以	-11.6184
等職	-11.6185
不靖	-11.6186
爲典翰	-11.6187
操鍊	-11.6188
歲首	-11.6188
▁竝命出仕	-11.6191
之刑	-11.6192
流竄	-11.6193
▁則何以	-11.6195
鎭川	-11.6197
昭著	-11.6197
拒之	-11.6199
今玆	-11.62
▁而我國	-11.6203
所難免	-11.6205
需用	-11.6205
上箚子	-11.6205
欽賜	-11.6206
相續	-11.6206
諫院論	-11.6207
▁亦出於	-11.6209
農桑	-11.6209
▁豈意	-11.6211
金自	-11.6213
三年內	-11.6215
▁往往	-11.6216
別宮	-11.6217
四道	-11.6218
▁終不得	-11.6219
▁當與	-11.6219
達于	-11.6219
▁一國	-11.6219
▁引避退待	-11.6219
旣久	-11.6219
▁取考	-11.622
慶昌	-11.622
奏本	-11.6221
大路	-11.6225
審其	-11.6225
所推	-11.6228
黃憲	-11.6228
城子	-11.623
開錄	-11.6231
▁各官	-11.6231
石物	-11.6231
遞來	-11.6232
垠	-11.6233
鴉靑	-11.6233
摯	-11.6233
樂天亭	-11.6233
諾	-11.6233
永順君	-11.6233
李憲國	-11.6233
李奎齡	-11.6233
疎虞	-11.6234
尹東度	-11.6235
所願	-11.6235
▁莫甚於此	-11.6235
侍講	-11.6236
朴榟	-11.6237
未納	-11.6238
李曙	-11.6239
久居	-11.6242
兵曹參知	-11.6242
兇徒	-11.6243
其術	-11.6243
有名	-11.6244
陳奏使	-11.6244
所云	-11.6246
備邊司回啓曰	-11.6246
國典	-11.6248
闕失	-11.6248
有所聞	-11.6249
節度	-11.6249
▁猶爲	-11.6249
無是理	-11.625
職掌	-11.625
父王	-11.6251
貪黷	-11.6253
戶籍	-11.6253
昭陵	-11.6254
司藝	-11.6255
不好	-11.6255
未安之敎	-11.6259
上晝講	-11.626
人器	-11.626
俸	-11.626
一從	-11.6261
知其非	-11.6262
北門	-11.6262
互相	-11.6263
以對	-11.6264
李季男	-11.6265
希載	-11.6265
應天	-11.6266
乃已	-11.6268
悖慢	-11.6273
不喜	-11.6275
竭力	-11.6276
成健	-11.6277
行司直	-11.628
交差	-11.6282
保人	-11.6283
賛	-11.6283
▁姑以	-11.6285
撰出	-11.6286
▁外方則	-11.6286
▁罔知攸	-11.6287
弦	-11.6287
成奉祖	-11.6287
猜	-11.6287
萃	-11.6287
申命圭	-11.6287
孥籍	-11.6288
饋餉	-11.6289
李自健	-11.6289
將順	-11.629
申景	-11.629
送西	-11.6292
中樞府	-11.6292
進善	-11.6293
鳳齡	-11.6294
觀稼	-11.6294
領議政李光佐	-11.6295
可悶	-11.6297
於同僚	-11.6297
家在	-11.6298
不出於	-11.6298
充差	-11.6301
▁其問	-11.6301
異常	-11.6302
下御書曰	-11.6302
階上	-11.6303
名目	-11.6307
遽加	-11.6307
亦如之	-11.6308
▁幾盡	-11.6309
部官	-11.631
五十人	-11.6311
▁不可復	-11.6311
▁告于	-11.6311
十斗	-11.6312
義兵	-11.6313
得其人	-11.6314
▁間有	-11.6314
醫藥	-11.6314
墻外	-11.6314
副摠	-11.6315
敦召	-11.6316
卑微	-11.6317
罪目	-11.6317
一經	-11.6319
▁以圖	-11.6319
擬律	-11.6321
救護	-11.6323
竄謫	-11.6324
不救	-11.6325
來京	-11.6325
度牒	-11.6325
▁乃其	-11.6326
爲治	-11.6326
▁然予	-11.6327
專對	-11.6327
聖世	-11.6327
上殿	-11.6328
爲監司	-11.633
▁前例	-11.6331
謀避	-11.6331
謬例	-11.6333
徙邊	-11.6333
茫	-11.6333
罪人李	-11.6333
母喪	-11.6333
二十餘人	-11.6335
緜	-11.6335
軍布	-11.6335
禁戢	-11.6335
購	-11.6337
充數	-11.6338
鍊兵	-11.6341
斜	-11.6342
賄	-11.6342
▁而該曹	-11.6342
三館	-11.6342
▁上顧問左右	-11.6342
騃	-11.6342
柳聃年	-11.6342
朴從愚	-11.6342
無賴之徒	-11.6344
邦本	-11.6344
馬政	-11.6344
▁又欲	-11.6345
弘文館提學	-11.6345
▁殊涉	-11.6345
節日	-11.6346
無所忌憚	-11.6346
感泣	-11.6346
兩班	-11.6347
德源	-11.6349
停役	-11.6349
其女	-11.6349
君臣之間	-11.635
十八人	-11.6351
▁古有	-11.6352
▁多數	-11.6352
下攸司	-11.6352
▁事之	-11.6355
禫祭	-11.6355
▁曾於	-11.6356
勿用	-11.6356
▁假使	-11.6357
李舜臣	-11.6358
呈啓	-11.6359
▁擅自	-11.636
輕囚	-11.6361
類此	-11.6366
司諫院司諫	-11.6366
官敎	-11.6367
反覆思之	-11.6367
之限	-11.637
年號	-11.637
▁一國臣民	-11.637
弘文	-11.6371
專管	-11.6371
留滯	-11.6371
▁乃反	-11.6371
略陳	-11.6373
金堤	-11.6375
三斗	-11.6376
付祿	-11.6376
此一款	-11.6378
春等	-11.6379
安山	-11.638
有妨於	-11.6385
▁極陳	-11.6385
▁故啓之	-11.6385
右獻納	-11.6386
不送	-11.639
二張	-11.639
復位	-11.6391
其司	-11.6393
禮制	-11.6393
幼學金	-11.6393
掖	-11.6393
無逸	-11.6394
服招	-11.6394
兒馬	-11.6395
▁曾以	-11.6395
▁亦勿	-11.6396
行路	-11.6396
正言尹	-11.6397
皐	-11.6398
睡	-11.6398
壺	-11.6398
豐儲倉	-11.6398
耋	-11.6398
權尙夏	-11.6398
趙相愚	-11.6398
一級	-11.6398
李晩成	-11.6398
▁請命削去仕版	-11.6399
片箭	-11.6399
卽位之初	-11.64
潰散	-11.6401
靈座	-11.6401
燕山	-11.6401
糾劾	-11.6402
失誤	-11.6403
督令	-11.6404
出於不得已	-11.6404
勘處	-11.6405
行召對	-11.6405
休息	-11.6406
爲平安道觀察使	-11.6409
妻李氏	-11.6409
金時	-11.641
崇品	-11.6411
生釁	-11.6413
擄	-11.6413
我聖上	-11.6414
相鬪	-11.6415
觀光	-11.6416
義禁府堂上	-11.6416
審定	-11.6417
三朝	-11.6418
不能堪	-11.6419
三十人	-11.6419
罕有	-11.642
所需	-11.6426
成效	-11.6427
芑	-11.6429
追錄	-11.6431
孝友	-11.6431
不可一日	-11.6431
八字	-11.6432
抄選	-11.6434
內庭	-11.6434
廐	-11.6436
法府	-11.6437
誣服	-11.6438
隨其	-11.6438
先送	-11.6439
陽城	-11.6442
世佐	-11.6442
▁代以	-11.6443
▁卿勿	-11.6445
望闕禮	-11.6447
貴達	-11.6447
來歷	-11.6448
虔	-11.6451
陞嘉善	-11.6452
還納	-11.6452
名稱	-11.6452
▁止	-11.6452
毆	-11.6453
憊	-11.6453
狎	-11.6453
金宇杭	-11.6453
帙	-11.6453
柳夢寅	-11.6453
醇	-11.6453
僖	-11.6453
六曹判書	-11.6453
金止男	-11.6453
稽滯	-11.6455
深矣	-11.6455
受任	-11.6456
申鏛	-11.6456
遞代	-11.6458
當該堂上	-11.6458
賜額	-11.6459
淸道	-11.6459
振威	-11.6459
投進	-11.6459
▁此而不	-11.646
鄭誠謹	-11.6461
刀子	-11.6461
傳旨曰	-11.6462
頗有	-11.6463
往參	-11.6464
朴大	-11.6464
東壁	-11.6467
備邊司啓言	-11.6467
月犯	-11.6467
統營	-11.6469
訊杖	-11.6469
擅自	-11.6469
居昌	-11.647
病民	-11.6471
吾君	-11.6471
折半	-11.6472
重賞	-11.6472
▁請竝遞	-11.6473
經學	-11.6474
躬行	-11.6476
不厭	-11.6476
林川	-11.6477
▁則果	-11.6482
多日	-11.6483
而往	-11.6484
趙憲	-11.6485
時勢	-11.6486
國庫	-11.6488
申明擧行	-11.649
廟庭	-11.6491
兪允	-11.6492
不敢擅便	-11.6493
北漢	-11.6494
名字	-11.6495
九州	-11.6499
▁彦	-11.6499
法宮	-11.6499
浣	-11.65
讜	-11.6501
之福也	-11.6502
稱爲	-11.6502
留連	-11.6502
私室	-11.6503
正統	-11.6504
戈	-11.6505
宗親府	-11.6506
同知摠制	-11.6507
章奏	-11.6508
▁民皆	-11.6508
韓忠	-11.6509
光海君日記卷第	-11.6509
趙錫胤	-11.6509
祺	-11.6509
鄭順朋	-11.6509
瓊	-11.6509
團領	-11.6509
遣使來獻土物	-11.651
寢成命	-11.651
李思哲	-11.651
朝會	-11.6511
奴婢身貢	-11.6511
踈漏	-11.6512
副元帥	-11.6513
許詡	-11.6514
宗系	-11.6515
有名望	-11.6515
寺僧	-11.6515
議諡	-11.6516
鄭曄	-11.6517
臣之罪	-11.6518
衆議	-11.6518
耳掩	-11.652
令該曹稟處	-11.6521
可罪	-11.6521
▁疏入	-11.6521
機關	-11.6522
咸從	-11.6523
黨與	-11.6524
金玉	-11.6524
造船	-11.6524
圍置	-11.6525
將至於	-11.6525
▁聞其	-11.6525
衛士	-11.6525
右議政宋寅明	-11.6525
終無	-11.6526
家禮	-11.6526
▁伏願亟	-11.6526
▁猶恐	-11.6527
沈滯	-11.6527
▁京	-11.6527
賊船	-11.6532
光載	-11.6532
降資	-11.6533
申聞	-11.6534
各色	-11.6534
蒙上恩	-11.6537
旣知	-11.6537
初八日	-11.6539
已遞	-11.6539
▁雖云	-11.654
成廟	-11.6541
▁鑴	-11.6543
贈遺	-11.6544
飢荒	-11.6544
▁比之	-11.6545
御供	-11.6546
顧恤	-11.6547
私黨	-11.6548
無失	-11.6549
必以爲	-11.6549
以爲常	-11.6556
奏樂	-11.6558
睦來善	-11.6558
渫	-11.6559
囚徒	-11.6559
飢死	-11.6559
還內	-11.6563
瓔	-11.6565
徴	-11.6565
樵	-11.6565
窓	-11.6565
趙元紀	-11.6565
迤	-11.6565
翻	-11.6565
譜	-11.6565
爲戒	-11.6566
梟首	-11.6566
參外	-11.6568
變故	-11.6568
朝令	-11.6569
會寧府使	-11.6569
移居	-11.6572
曷	-11.6572
肥前州	-11.6572
內帑	-11.6573
密雲	-11.6574
體探	-11.6576
麻田	-11.6576
此律	-11.6577
光明	-11.6578
出題	-11.6581
無疆	-11.6582
五鎭	-11.6583
▁終至於	-11.6584
許接	-11.6585
▁請收	-11.6589
雨勢	-11.6591
精神	-11.6592
▁曾未	-11.6592
無辭	-11.6592
之供	-11.6593
爲左尹	-11.6593
▁是故	-11.6596
己見	-11.6598
▁自今日	-11.6599
農形	-11.6603
▁如欲	-11.6606
果如	-11.6608
從享	-11.6608
陳訴	-11.6611
洵	-11.6613
不悅	-11.6614
禮曹佐郞	-11.6614
紛紛	-11.6616
嫡長	-11.6616
復讎	-11.6617
▁則例	-11.6619
信川	-11.662
峙	-11.6621
慤	-11.6621
冥	-11.6621
臣等俱以無狀	-11.6622
光照地	-11.6622
望拜禮	-11.6622
醴泉	-11.6622
▁上嘉納	-11.6622
耆社	-11.6622
構捏	-11.6623
弊不貲	-11.6624
疲弊	-11.6625
藤原	-11.6625
付軍職	-11.6626
車駕	-11.6626
蕩敗	-11.6627
蔑法	-11.6628
京江	-11.6628
更無	-11.6631
乃止	-11.6633
刻期	-11.6634
封章	-11.6634
百日	-11.6636
童蒙	-11.6636
夙夜	-11.6637
到遼東	-11.6637
臣亦	-11.6638
右議政沈喜壽	-11.6638
竭誠	-11.6638
臣等伏聞	-11.6639
領議政金壽恒	-11.664
之虞	-11.664
陞品	-11.6642
齋殿	-11.6643
停當	-11.6644
二十九	-11.6645
文武百官	-11.6646
寧越	-11.6648
支應	-11.6649
安得不	-11.6651
兩零	-11.6652
尹深	-11.6652
同慶	-11.6653
流散	-11.6654
▁各給	-11.6654
居多	-11.6655
至公	-11.6658
睟	-11.6659
臣見	-11.6661
訊問	-11.6662
所着	-11.6664
▁婷	-11.6664
▁則殿下	-11.6664
不體	-11.6665
異矣	-11.6665
給復	-11.6665
蒙聖恩	-11.6666
古人云	-11.6666
戶口	-11.6668
合坐	-11.6669
田里	-11.667
之壻	-11.6671
鎭安	-11.6674
爲務	-11.6674
留館	-11.6678
逕	-11.6678
未晩	-11.6679
亦不得	-11.6679
逆臣	-11.6679
金守	-11.6679
外議	-11.6679
焚蕩	-11.6681
▁竝推考	-11.6681
賡進	-11.6681
內局入侍	-11.6681
▁以救	-11.6683
▁豈可使	-11.6683
▁勢將	-11.6684
遽下	-11.6684
許浚	-11.6686
敗露	-11.6688
立後	-11.6689
十七人	-11.669
欽恤	-11.6691
龜城	-11.6692
賊筠	-11.6694
臣等將	-11.6694
有加	-11.6694
至此極	-11.6695
心腹	-11.6695
今年農事	-11.6695
生民之	-11.6697
疆	-11.6698
嚴訊	-11.6698
爲弘文館應敎	-11.6699
觔	-11.67
與臣	-11.6701
奸吏	-11.6702
忠信	-11.6702
御宣政殿	-11.6703
鄕試	-11.6704
▁若令	-11.6704
李㙫	-11.6705
聖上之	-11.6708
古有	-11.6709
連歲	-11.6709
安純	-11.671
▁申時	-11.671
氣象	-11.6711
政院啓辭	-11.6713
正一品	-11.6713
公卿	-11.6716
耕作	-11.6717
冤悶	-11.6717
价	-11.6719
來獻	-11.6721
妄作	-11.6722
不悛	-11.6725
繼母	-11.6726
有能	-11.6728
從願	-11.6728
所書	-11.6729
或可	-11.673
設局	-11.6733
元翼	-11.6733
臺言	-11.6734
吁	-11.6734
巷	-11.6735
力疾	-11.6735
伴送使	-11.6736
沈壽賢	-11.6736
李季甸	-11.6736
羊甲	-11.6736
顚仆	-11.6736
彌縫	-11.6736
直赴會試	-11.6736
掖隷	-11.6736
席藁	-11.6736
內資寺	-11.6737
工曹佐郞	-11.6737
喉司	-11.6737
兪泓	-11.6737
有三	-11.6737
▁則依	-11.6738
閔黯	-11.6738
▁極爲可駭	-11.6739
秋冬	-11.674
信使	-11.674
爲人臣	-11.6742
家丁	-11.6742
鄭忠信	-11.6742
流涕	-11.6742
內侍府	-11.6746
行判中樞府事	-11.6748
李潑	-11.6748
義孫	-11.6748
朝廷之上	-11.6752
聞命	-11.6752
若問	-11.6753
闕直	-11.6754
本監	-11.6754
▁似涉	-11.6754
酉時	-11.6758
托稱	-11.676
相率	-11.6761
仁壽	-11.6762
之首	-11.6765
旣與	-11.6766
逬	-11.6769
傳旨承政院	-11.6769
伏地	-11.6771
▁竝不從	-11.6772
衣一領	-11.6773
惡逆	-11.6774
國中	-11.6774
▁上遂	-11.6774
▁禮曹請	-11.6776
留待	-11.6776
邊鎭	-11.6777
初昏	-11.6778
親病	-11.6779
選上	-11.678
箚請	-11.678
設場	-11.6781
示警	-11.6782
▁儼	-11.6783
善惡	-11.6785
灸	-11.6785
李程	-11.6787
御前	-11.6788
有後弊	-11.6789
蕭	-11.6789
▁在魯	-11.6789
洪達孫	-11.6792
盞	-11.6793
饗	-11.6793
株	-11.6793
洪象漢	-11.6793
▁其來已久	-11.6793
偵探	-11.6793
逋欠	-11.6794
畿伯	-11.6795
喪事	-11.6795
竝論	-11.6795
百端	-11.6795
有傳敎	-11.6796
果然	-11.6796
▁益加	-11.6796
骨肉	-11.6796
有嫌	-11.6797
加通政	-11.6798
▁務要	-11.6798
碩圭	-11.6799
是任	-11.6801
年過	-11.6802
家財	-11.6802
狀告	-11.6802
閱月	-11.6803
▁上自	-11.6804
獨斷	-11.6805
自縊	-11.6805
公洪	-11.6805
强顔	-11.6806
鄭希	-11.6806
點閱	-11.6809
起舞	-11.681
賤隷	-11.6813
相値	-11.6813
高靈	-11.6815
▁實涉	-11.6815
▁豈容	-11.6815
行都政	-11.6816
武科殿試	-11.6817
老臣	-11.6818
李時言	-11.6818
此等人	-11.6819
作耗	-11.6819
所收	-11.682
未卽	-11.682
中樞院	-11.682
仁同	-11.6822
▁兩麥	-11.6822
堂堂	-11.6823
上恩	-11.6823
▁今無	-11.6823
稱病不	-11.6824
宣旨	-11.6826
闓	-11.6829
凡察	-11.6829
春塘臺	-11.683
臺諫啓辭	-11.6831
責以	-11.6833
退歸	-11.6834
兼之	-11.6834
錫冑	-11.6834
事干人	-11.6835
驛子	-11.6835
曲直	-11.6835
▁則凡	-11.6836
若何	-11.6836
譏斥	-11.6837
知義禁	-11.6838
于承政院	-11.6839
布政	-11.6839
知中樞	-11.684
習射	-11.6841
救恤	-11.6842
軍情	-11.6843
▁下于政院	-11.6843
▁矧	-11.6843
傳于兵曹	-11.6844
兩國	-11.6844
立廟	-11.6844
與賊	-11.6844
之誤	-11.6847
樂器	-11.6847
微賤	-11.6847
者必多	-11.6849
不遑	-11.6849
捲	-11.6849
祈雨于	-11.685
渝	-11.6851
遘	-11.6851
鄭載嵩	-11.6851
▁批答封下	-11.6851
徐邁修	-11.6851
豕	-11.6851
韓繼美	-11.6851
柳寅吉	-11.6851
頹圮	-11.6851
李好信	-11.6851
束伍	-11.6852
▁在所不已	-11.6852
▁而今番	-11.6852
窘迫	-11.6853
)[	-11.6853
考見	-11.6853
之濫	-11.6853
淹延	-11.6853
新闕	-11.6853
其道觀察使	-11.6854
御勤政殿	-11.6854
▁及授本職	-11.6855
序立	-11.686
昌臣	-11.6861
年分	-11.6864
▁上以爲	-11.6864
爲殿下	-11.6868
李提督	-11.6868
慶會樓下	-11.6869
條列	-11.687
下直	-11.6871
▁承旨等啓	-11.6872
宮奴	-11.6874
二度	-11.6874
成任	-11.6875
懈	-11.6876
之所當	-11.6876
取實	-11.6876
律外	-11.6877
當議處	-11.6878
日食	-11.6878
傍近	-11.6878
▁皆得	-11.688
已服	-11.6882
館中	-11.6887
放鷹	-11.6887
傳敎之意	-11.6888
而不言	-11.689
召見大臣	-11.6891
勑諭	-11.6891
▁又復	-11.6892
處置請出	-11.6894
無所懲	-11.6895
本情	-11.6897
械	-11.6898
賊魁	-11.6899
▁或不無	-11.69
卜定	-11.6902
居下	-11.6902
南山	-11.6904
陳白	-11.6906
▁凡百	-11.6907
何傷	-11.6909
具壽永	-11.6909
延恩殿	-11.6909
趙道彬	-11.6909
壽康宮	-11.6909
宋時喆	-11.6909
宋錫慶	-11.6909
鄭賜湖	-11.6909
鄭昌順	-11.6909
硫黃	-11.6909
金始振	-11.6909
好生	-11.6909
李性源	-11.6909
李弘冑	-11.691
▁上優批答之	-11.691
伏法	-11.691
厭憚	-11.691
▁恬不	-11.691
侍藥廳	-11.6911
李徽之	-11.6911
續續	-11.6911
傾陷	-11.6912
操縱	-11.6912
時在	-11.6914
政府六曹	-11.6915
江界府使	-11.6917
自作	-11.6917
虛竭	-11.6917
趨附	-11.6918
▁日就	-11.6918
旣受	-11.6919
科斷	-11.692
年紀	-11.692
又上箚	-11.692
▁而猶不	-11.6921
時例	-11.6923
訟冤	-11.6924
職任	-11.6925
▁畢竟	-11.6929
管領	-11.6929
奴隷	-11.693
乖當	-11.6932
律詩	-11.6933
指斥	-11.6934
申浚	-11.6934
疏箚	-11.6936
俾	-11.6938
候望	-11.6938
▁尤宜	-11.6942
勿捧	-11.6942
季男	-11.6943
官庫	-11.6943
相戰	-11.6944
爲議政府舍人	-11.6947
城池	-11.6948
得知	-11.6948
難行	-11.6949
開釋	-11.6949
同黨	-11.695
泰慶	-11.6951
分疏	-11.6951
文士	-11.6951
▁則彼必	-11.6951
旣發	-11.6953
敎誘	-11.6953
乃職	-11.6954
裁處	-11.6956
▁分送	-11.6956
▁故不爲	-11.6957
姑留	-11.6957
之戰	-11.696
童子	-11.696
護黨	-11.6961
才望	-11.6962
▁每日	-11.6963
▁俱是	-11.6963
召命	-11.6963
書題	-11.6964
二千石	-11.6965
儕	-11.6966
典書	-11.6966
無地	-11.6967
東堂	-11.6967
禳	-11.6967
嚮	-11.6968
妣	-11.6968
絃	-11.6968
衢	-11.6968
李益炡	-11.6968
歌謠	-11.6968
呈訴	-11.6968
李周鎭	-11.6968
許筬	-11.6968
調劑	-11.6969
養老宴	-11.6969
烟臺	-11.697
兇慘	-11.6972
駄載	-11.6973
速決	-11.6974
受朝	-11.6976
年限	-11.6976
諸般	-11.6978
▁疑	-11.6979
歲前	-11.698
一百八十	-11.6981
作散	-11.6982
從人	-11.6983
疏下	-11.6984
▁居官	-11.6984
二十八日	-11.6985
施措	-11.6986
▁甚不可也	-11.6988
師表	-11.6989
居正	-11.6989
安琛	-11.6989
生擒	-11.6989
輿望	-11.699
一空	-11.699
爲藝文館提學	-11.699
切實	-11.6991
期年	-11.6994
酒饌	-11.6995
以此引避	-11.6996
李碩	-11.6997
忠烈	-11.6997
刑曹正郞	-11.6997
何耶	-11.7
受弊	-11.7001
尹致	-11.7003
赴京時	-11.7004
▁甚可	-11.7005
之甚者	-11.7006
失中	-11.7006
日新	-11.7007
築墻	-11.7007
詳聞	-11.7009
之末	-11.7013
有關於	-11.7013
巨鎭	-11.7014
徵納	-11.7014
齋任	-11.7015
孝誠	-11.7016
試所	-11.7019
思政殿	-11.702
春夏	-11.702
▁雖未知	-11.7022
不修	-11.7023
多滯	-11.7024
諸色	-11.7025
▁又與	-11.7025
朴長遠	-11.7026
情願	-11.7026
徐浩修	-11.7026
吾都里	-11.7026
坎	-11.7026
趣	-11.7026
嬰	-11.7026
金鎭圭	-11.7026
飜	-11.7026
翊衛司	-11.7027
旬日	-11.7028
該房	-11.7029
遭喪	-11.7029
勤於	-11.7029
眩亂	-11.703
刑房承旨	-11.703
給災	-11.7032
一鏡	-11.7032
益加	-11.7033
放恣	-11.7033
李士慶	-11.7033
機會	-11.7033
亂離	-11.7035
撰進	-11.7036
未還	-11.7037
奮發	-11.7038
涼德	-11.7038
十九人	-11.7039
小祥	-11.7039
攻斥	-11.704
所指	-11.7042
覆載	-11.7042
備局啓言	-11.7045
被斥	-11.7045
金徽	-11.7046
▁敢爲	-11.7047
從其	-11.7048
所定	-11.7048
退居	-11.7049
留門	-11.705
遣都承旨	-11.7051
振作	-11.7055
曾孫	-11.7055
竄黜	-11.7056
畢後	-11.7056
最重	-11.7062
何獨	-11.7062
之選	-11.7062
右正言	-11.7063
明川	-11.7063
邪論	-11.7064
▁始知	-11.7065
五分	-11.7066
所無之	-11.7066
一尺	-11.7069
惡名	-11.7073
▁處處	-11.7073
講和	-11.7073
尤甚邑	-11.7075
▁近聞	-11.7075
深慮	-11.7077
負罪	-11.7079
爭訟	-11.708
竝擧	-11.7082
而不爲	-11.7082
電	-11.7083
戇	-11.7086
李瓊仝	-11.7086
召對玉堂官	-11.7086
球	-11.7086
廣興倉	-11.7086
曺挺立	-11.7086
▁以戒後來	-11.7086
器皿	-11.7086
申景禛	-11.7086
網打	-11.7087
公共之論	-11.7087
寧陵	-11.7087
陟降	-11.7088
此二人	-11.7088
幄次	-11.7088
羅織	-11.7089
天聰	-11.7089
措辦	-11.7089
李廷濟	-11.709
金興	-11.709
慢忽	-11.7091
洪武	-11.7092
連有	-11.7092
五升	-11.7095
外邑	-11.7096
禮賓	-11.7096
推捉	-11.7097
拘忌	-11.7097
分輕重	-11.7097
五經	-11.7099
右議政趙顯命	-11.7103
▁請命拿鞫	-11.7107
李叔蕃	-11.7108
▁命皆	-11.7108
入保	-11.711
▁不可在職	-11.711
遺在	-11.711
▁罪當	-11.7111
李宜顯	-11.7112
▁而只以	-11.7112
▁而今見	-11.7113
▁何忍	-11.7114
本道觀察使	-11.7114
左司諫	-11.7115
▁又因	-11.7115
左軍	-11.7118
公服	-11.712
▁乞賜	-11.7122
御便殿	-11.7124
萬民	-11.7125
繼之	-11.7126
喪服	-11.7128
玉堂箚	-11.7128
日本國王	-11.7128
命賜	-11.7129
各加一資	-11.713
冒受	-11.7131
願納	-11.7131
論人	-11.7131
甚盛	-11.7132
洪萬容	-11.7132
開說	-11.7134
彼國	-11.7134
樂安	-11.7134
未可知也	-11.7134
天命	-11.7135
冊使	-11.7138
牌不進	-11.7138
▁天下之	-11.7138
靦面	-11.714
竝遞差	-11.714
▁其以此意	-11.714
▁然非	-11.7141
纏	-11.7145
訣	-11.7145
忽剌溫	-11.7145
杭	-11.7145
燦	-11.7145
金宇亨	-11.7145
崔東式	-11.7145
典醫監	-11.7145
金謙光	-11.7145
爲承政院同副承旨	-11.7145
禁其	-11.7146
南智	-11.7146
傷損	-11.7146
士民	-11.7146
任重	-11.7146
恐動	-11.7147
避正殿	-11.7147
三省推鞫	-11.7148
著矣	-11.7148
還鄕	-11.7148
彗星見	-11.7148
▁休煩可	-11.715
會坐	-11.715
領相鄭太和	-11.7151
約條	-11.7151
位田	-11.7153
丹木	-11.7154
斬獲	-11.7154
▁竊念	-11.7154
論難	-11.7155
▁日漸	-11.7156
用之物	-11.7157
人臣之	-11.7157
待後日	-11.7157
王京	-11.7159
次郞	-11.7159
泰川	-11.7159
晩矣	-11.7159
再度	-11.7162
奸臣	-11.7162
風采	-11.7162
因傳敎	-11.7163
▁豈爲	-11.7163
據實	-11.7166
逮捕	-11.7166
故犯	-11.7167
某處	-11.7168
群下之	-11.7168
訊鞫	-11.7169
▁各於	-11.7169
枰	-11.7171
之心乎	-11.7171
▁則雖有	-11.7171
詣臺	-11.7175
宋欽	-11.7175
後患	-11.7176
▁顧今	-11.7177
▁上慰諭	-11.7177
司憲府請	-11.7178
高皇帝	-11.7179
物色	-11.7181
呈疏	-11.7182
監考	-11.7183
行用	-11.7184
極惡	-11.7184
時急	-11.7184
連章	-11.7185
知予意	-11.7185
世豪	-11.7187
警責	-11.7187
禮曹言	-11.7187
不推	-11.7189
遣注書	-11.7189
聞此言	-11.7189
虐民	-11.7194
賜樂	-11.7194
非一二	-11.7195
萊	-11.7197
不職之罪	-11.7198
內史	-11.72
請兵	-11.7201
▁誠有	-11.7201
泰仁	-11.7202
沔	-11.7204
其故	-11.7204
致勤	-11.7205
璜	-11.7205
范	-11.7205
初度呈辭	-11.7205
羈縻	-11.7205
鄭甲孫	-11.7205
宋眞明	-11.7205
徐文重	-11.7205
娛	-11.7205
▁不可一日在官	-11.7205
捧納	-11.7206
先正臣宋時烈	-11.7206
乘馹	-11.7206
吳伯昌	-11.7207
而然乎	-11.7209
▁自下	-11.7209
浮費	-11.721
招來	-11.721
奉祀孫	-11.7211
公罪	-11.7211
金應南	-11.7211
崔淑生	-11.7212
欽仰	-11.7214
落後	-11.7214
於政院	-11.7216
一本	-11.7219
兵符	-11.722
防禁	-11.7223
▁今若不	-11.7224
出御	-11.7225
柑	-11.7226
試場	-11.7227
恩數	-11.7228
欽差	-11.723
爲定式	-11.723
自下	-11.7234
許遲	-11.7236
卒哭前	-11.7242
任情	-11.7243
都憲	-11.7244
先來	-11.7245
遷就	-11.7246
辨其	-11.7246
徵贖	-11.7247
數十人	-11.7251
會講	-11.7251
兼任	-11.7252
爲兼司書	-11.7256
致弔	-11.7256
素稱	-11.7258
分置	-11.7259
嚴治	-11.726
嘗聞	-11.7261
令王府	-11.7261
爽	-11.7261
澂	-11.7263
差除	-11.7263
▁方可	-11.7264
未安之意	-11.7264
藁	-11.7264
拒諫	-11.7265
加嘉善	-11.7265
傳于戶曹	-11.7265
歧	-11.7265
用酒	-11.7265
浸	-11.7265
票	-11.7265
証	-11.7265
興天寺	-11.7265
苧麻布	-11.7265
金起宗	-11.7265
▁何待	-11.7265
烏紗帽	-11.7265
金信元	-11.7266
▁近古所無	-11.7266
外補	-11.7266
不廉	-11.7267
李肇源	-11.7267
匹段	-11.7267
東國	-11.7267
都試	-11.7267
渙散	-11.7268
拈出	-11.7268
▁必將	-11.7269
▁以勵	-11.7271
▁元非	-11.7273
洞照	-11.7274
無窮之弊	-11.7275
門蔭	-11.7275
▁竝引嫌而退	-11.7275
領議政柳洵	-11.7277
下手	-11.7277
明辨	-11.7278
傳啓	-11.728
一開	-11.7282
兼差	-11.7282
望見	-11.7282
詣太廟	-11.7282
▁臣等不敢	-11.7283
優數	-11.7286
護送軍	-11.7287
▁則朝廷	-11.7288
大作	-11.7291
▁心常	-11.7293
傳言	-11.7293
竝依啓	-11.7293
而逃	-11.7294
雜色	-11.7295
通奸	-11.7295
文化	-11.7295
保其	-11.7295
▁領議政金致仁	-11.7297
費辭	-11.7298
泮宮	-11.7301
竝命出仕	-11.7301
過慮	-11.7304
靖難	-11.7305
等議曰	-11.7306
▁而渠	-11.7312
垂死	-11.7313
豐德	-11.7313
藏于	-11.732
服藥	-11.7321
致察	-11.7321
罄	-11.7322
忠貞	-11.7322
何以知之	-11.7323
敞	-11.7323
金興慶	-11.7324
邊臣	-11.7324
▁然旣	-11.7325
淆	-11.7325
禛	-11.7326
什	-11.7326
耐	-11.7326
蠢	-11.7326
垓	-11.7326
恰	-11.7326
廣孝殿	-11.7326
才能	-11.7326
潘	-11.7326
倚毗	-11.7326
籍沒家産	-11.7326
李思鈞	-11.7326
金長生	-11.7327
騰播	-11.7327
吉州牧使	-11.7327
喉院	-11.7327
坐次	-11.7328
本兵	-11.7329
許磁	-11.733
韓詠	-11.7331
勘勳	-11.7331
窠闕	-11.7333
刑曹堂上	-11.7334
不願	-11.7335
浩大	-11.7335
申景禧	-11.7335
失儀	-11.7337
奉聖旨	-11.7341
卽起	-11.7341
二百五十	-11.7342
▁禮畢	-11.7345
張大	-11.7346
▁彼若	-11.7347
發覺	-11.7348
貧窮	-11.7348
引儀	-11.7356
打殺	-11.7358
繫獄	-11.7358
般	-11.7359
差員	-11.736
動樂	-11.7362
不可勝	-11.7364
判官李	-11.7364
辭遞	-11.7364
殿坐	-11.7365
資窮者	-11.7365
從征	-11.7366
▁固知	-11.7366
▁則國家	-11.7367
推考事	-11.7368
待大臣	-11.7368
知敦寧	-11.737
終日	-11.737
避役	-11.7371
一百石	-11.7374
爲災	-11.7374
赴戰	-11.7375
安在	-11.7378
▁心甚	-11.7379
爲知中樞府事	-11.7379
▁昔在	-11.7379
韓繼禧	-11.7385
糜	-11.7386
趙英茂	-11.7387
㤼	-11.7387
尹趾完	-11.7387
拓	-11.7387
閔應洙	-11.7387
鼻	-11.7387
趙明履	-11.7387
柳公亮	-11.7387
永安北道節度使	-11.7387
沈守慶	-11.7387
鄭廣敬	-11.7387
右副賓客	-11.7387
韓致禮	-11.7387
搆捏	-11.7387
爲憂	-11.7387
价川	-11.7388
搜訪	-11.7388
伺候	-11.7388
沃川	-11.7389
▁極爲非矣	-11.739
▁果是	-11.739
藏置	-11.7391
▁甚爲未便	-11.7391
顒望	-11.7392
封書	-11.7392
本非	-11.7392
受灸	-11.7392
爲他日	-11.7393
審愼	-11.7393
都巡察使	-11.7393
訓鍊觀	-11.7393
變異	-11.7393
似宜	-11.7395
輔養官	-11.7396
詳覆	-11.74
實無	-11.7401
金城	-11.7402
順孫	-11.7404
▁至請	-11.7404
四員	-11.7405
六匹	-11.7405
許沆	-11.7406
改過	-11.7406
凶書	-11.7407
楗	-11.7407
上疏論	-11.7409
近聞	-11.7409
抄發	-11.7409
量處	-11.741
非細故	-11.741
行祈雨祭	-11.7412
叛逆	-11.7414
諸卿	-11.7414
則一也	-11.7414
▁若然則	-11.7415
死節	-11.7417
親子	-11.7418
▁而不敢	-11.742
遞任	-11.7425
▁有不可勝言	-11.7426
作詩	-11.7427
捧傳旨	-11.7427
常刑	-11.7428
司憲府上疏	-11.7428
箋文	-11.7429
此處	-11.7431
因此而	-11.7432
罔念	-11.7433
農作	-11.7434
本末	-11.7434
我國之人	-11.7435
染病	-11.7435
沈澮議	-11.7435
而發也	-11.7436
▁毋致	-11.7437
▁上始	-11.7437
改付標	-11.744
天性	-11.7441
琮	-11.7441
出陸	-11.7442
良賤	-11.7442
籤	-11.7445
可紀	-11.7447
無愧	-11.7448
慼	-11.7448
握	-11.7448
耄	-11.7448
嶽	-11.7448
首領官	-11.7448
昧爽	-11.7448
唾罵	-11.7448
李厚源	-11.7448
李昌誼	-11.7449
士族婦女	-11.7449
驪州牧使	-11.7449
內贍寺	-11.7449
于賓廳	-11.7449
懇惻	-11.7449
▁予甚嘉之	-11.7449
芳幹	-11.7449
金熤	-11.7451
曉諭中外	-11.7451
約束	-11.7452
之候	-11.7454
又上疏	-11.7454
蠲免	-11.7454
烙刑	-11.7455
權橃	-11.7455
整理	-11.7455
史庫	-11.7456
經濟	-11.7456
永樂	-11.7457
維持	-11.7457
無別	-11.7458
慈宮	-11.7459
知義禁府事	-11.7459
所賜	-11.746
▁期於必	-11.746
▁明有	-11.7461
潭	-11.7462
▁請減	-11.7463
初覆	-11.7464
承襲	-11.7464
鄭招	-11.7466
荒政	-11.7466
水原府	-11.7467
損實	-11.7469
奉表	-11.7469
?」	-11.7472
坐起	-11.7473
未捧	-11.7474
義城	-11.7474
紓	-11.7476
關宗社	-11.7478
奸夫	-11.748
臣等之言	-11.748
▁請遣	-11.7486
賜祭于	-11.7486
爲證	-11.7488
▁豈可以此	-11.749
▁竝從之	-11.749
▁令各	-11.7494
旁近	-11.7499
治國	-11.7499
連山	-11.7499
華城	-11.7499
宋朝	-11.7499
近有	-11.75
爲注書	-11.75
將卒	-11.7501
疑獄	-11.7501
邊鄙	-11.7503
克培	-11.7504
摩	-11.7504
太重	-11.7506
蜜	-11.7508
生長	-11.7509
醬	-11.7509
獨子	-11.751
申思喆	-11.751
▁太白見於未地	-11.751
璽	-11.751
閔應亨	-11.751
請㼁按律	-11.751
低昻	-11.751
會禮宴	-11.751
鞠躬	-11.751
臨陂	-11.7511
舒川	-11.7511
年幼	-11.7513
不得不爾	-11.7513
飭勵	-11.7514
院中	-11.7514
柳鳳輝	-11.7515
驚懼	-11.7516
戶曹正郞	-11.7516
攻擊	-11.7517
宜寧	-11.7518
伏以	-11.7518
亦如此	-11.7518
留念	-11.7518
優恤	-11.7518
賓對	-11.7521
鄭晳	-11.7521
李泰	-11.7523
▁仍傳于政院曰	-11.7525
銓長	-11.7526
久旱	-11.7527
平心	-11.7529
停廢	-11.753
見敗	-11.753
▁請拿問定罪	-11.753
失體	-11.7531
前參判	-11.7533
輕蔑	-11.7534
▁恐難	-11.7534
▁此何等	-11.7535
▁方許	-11.7536
▁而不卽	-11.7537
從軍	-11.7538
繼孫	-11.7538
爲咸鏡道觀察使	-11.7541
勑行	-11.7543
齊衰	-11.7548
有聲	-11.7549
帝命	-11.7549
旣定	-11.755
靖國	-11.7553
到記	-11.7553
被抄	-11.7554
從其請	-11.7554
平壤府	-11.7554
諸陵	-11.7554
委諸	-11.7555
宋氏	-11.7556
極力	-11.7557
朔日	-11.7559
潛通	-11.756
與我	-11.7561
六名	-11.7562
餞于	-11.7563
朝象	-11.7565
俱在	-11.7565
直閣	-11.7565
李英	-11.7566
▁而獨於	-11.7568
只罷其職	-11.7569
新恩	-11.7569
不細	-11.757
金錫	-11.757
悃	-11.7572
瀣	-11.7572
甕	-11.7572
棚	-11.7572
▁上賜優批	-11.7572
丁玉亨	-11.7572
痰	-11.7572
窺覘	-11.7572
以奏	-11.7573
橫罹	-11.7574
遠人	-11.7574
仁祖朝	-11.7575
待罪言地	-11.7575
▁請速改正	-11.7575
容貌	-11.7576
卽刻	-11.7576
優答	-11.7576
李昌壽	-11.7576
▁而第念	-11.7576
押解	-11.7578
安心勿辭	-11.7578
所御	-11.7579
挾雜	-11.7579
寶鑑	-11.7579
不坐	-11.7582
嚴峻	-11.7584
離異	-11.7584
殺手	-11.7585
出使	-11.7586
不起	-11.7586
本處	-11.7586
宗社大計	-11.7586
▁俾得	-11.7587
極難	-11.7588
該廳	-11.7588
觀望	-11.7589
聲色	-11.759
首發	-11.7594
夜半	-11.7595
圖形	-11.7597
係是	-11.7599
難堪	-11.76
率去	-11.7601
聲勢	-11.7602
▁自可	-11.7602
初三日	-11.7604
慈山	-11.7606
歲時	-11.7606
安靜	-11.7606
遣宦官	-11.7607
李枰	-11.7608
下敎矣	-11.761
終制	-11.7611
緘辭	-11.7611
▁臣答曰	-11.7613
囚私奴	-11.7613
迫切	-11.7614
今歲	-11.7615
大熾	-11.7615
傳授	-11.7621
喜事	-11.7622
敎導	-11.7624
遣中使	-11.7625
變辭	-11.7625
尙魯	-11.7626
賤疾	-11.7626
竝錄	-11.7626
橃	-11.7627
召儒臣	-11.7628
之聖意	-11.7628
膠	-11.7628
明日當	-11.7629
羲	-11.7629
廚	-11.763
▁以貽	-11.763
緊關	-11.7632
每於	-11.7633
異己	-11.7634
角弓	-11.7634
國葬	-11.7634
都巡問使	-11.7634
核	-11.7634
藎	-11.7634
忻	-11.7634
鄭載禧	-11.7634
李秉鼎	-11.7634
金祖淳	-11.7634
謹天戒	-11.7635
賁	-11.7635
黑團領	-11.7635
把截	-11.7635
海美	-11.7637
閉門	-11.7637
尹暄	-11.7638
金壽賢	-11.7638
鄭琢	-11.7641
▁予未知	-11.7641
牛疫	-11.7641
持來	-11.7642
貢賦	-11.7642
之工	-11.7643
此習	-11.7644
長短	-11.7645
冠帶	-11.7645
沈攸	-11.7647
自現	-11.7648
知識	-11.7648
居處	-11.7649
方以	-11.7649
隣國	-11.765
愛惜	-11.765
鼓吹	-11.7651
附會	-11.7651
査考	-11.7653
咸平	-11.7654
上親臨	-11.7654
安接	-11.7655
箕子	-11.7657
致奠	-11.7658
曲盡	-11.7658
六曹郞官	-11.7658
爲賊所	-11.7659
高祖	-11.7659
前古	-11.7659
金仲	-11.766
趙觀彬	-11.7661
▁人或	-11.7665
參商	-11.7667
致敗	-11.7667
被擄人	-11.767
明朝	-11.7671
干預	-11.7672
下嚴敎	-11.7672
推恩	-11.7672
顯陵	-11.7673
禁火	-11.7673
命減	-11.7674
王獄	-11.7676
盡知	-11.7676
▁彼必	-11.7676
雖似	-11.7677
昏夜	-11.7681
▁人無	-11.7681
至于今	-11.7683
在予	-11.7683
有所未安	-11.7684
于京畿	-11.7688
▁日以	-11.7688
以獻	-11.769
李繼孫	-11.7691
木柵	-11.7692
援例	-11.7694
▁自上亦	-11.7696
看病	-11.7697
圃	-11.7697
▁太白見於午地	-11.7697
響	-11.7697
風雲雷雨	-11.7697
斬待時	-11.7697
李頤命	-11.7697
瓮津	-11.7697
惻怛	-11.7697
儼	-11.7698
上詣延和門	-11.7698
南以雄	-11.7698
▁似爲便當	-11.7698
親親	-11.7698
遣人來獻土物	-11.7698
李克基	-11.7699
納供	-11.77
全減	-11.7701
遣近臣	-11.7701
于資政殿	-11.7701
出於不得已也	-11.7702
▁願自今	-11.7703
而問之	-11.7703
纔過	-11.7703
乳母	-11.7704
柳儼	-11.7705
加數	-11.7708
司勇	-11.7708
旌門	-11.7708
通文	-11.7708
九日	-11.771
擬差	-11.7713
▁則無以	-11.7713
幾盡	-11.7713
止此	-11.7714
▁非予	-11.7715
金緻	-11.7715
潛商	-11.7716
不去	-11.7716
得其情	-11.7716
預定	-11.7718
仍前	-11.772
依律施行	-11.772
三十五	-11.7721
入己	-11.7724
還集	-11.7725
流配	-11.7725
刊行	-11.7726
宮僚	-11.7726
指授	-11.773
會賓廳	-11.7734
勞民	-11.7734
▁而彼	-11.7734
德山	-11.7736
▁皆當	-11.7736
周易	-11.7738
有違於	-11.7738
哀痛	-11.774
木星	-11.774
降倭	-11.774
發告	-11.7742
經用	-11.7742
曄	-11.7744
姑置之	-11.7745
古昔	-11.7745
所造	-11.7746
共濟	-11.7746
二道	-11.7747
戰馬	-11.7748
三十三	-11.7749
高原	-11.775
鄭存謙	-11.7756
興利	-11.7756
知禮	-11.7757
黨人	-11.7757
駁之	-11.7759
來請	-11.776
▁以勸	-11.776
攷	-11.7761
褥	-11.7761
朴宗薰	-11.7761
祈晴	-11.7761
勤謹	-11.7764
▁啓下備邊司	-11.7764
橋梁	-11.7765
收取	-11.7765
魚肉	-11.7765
肄習	-11.7765
齎宣醞	-11.7766
▁其令該曹	-11.7768
益勳	-11.7768
臺諫論啓	-11.7771
五十餘人	-11.7773
麾下	-11.7774
一百七十	-11.7774
遼東都司	-11.7775
被謫	-11.7776
詣毓祥宮	-11.7776
權慄	-11.7777
▁備局請	-11.7778
月晦日	-11.7778
李潤	-11.7779
機張	-11.7779
侵斥	-11.7782
遊街	-11.7783
再造	-11.7785
▁上聞	-11.7788
贈給	-11.7788
朴承	-11.779
▁不惟	-11.779
▁必致	-11.7793
通禮	-11.7793
加律	-11.7794
趙秉	-11.7795
時弊	-11.7797
特罷	-11.7798
潛入	-11.7799
亦不可不	-11.7801
昨者	-11.7802
殄	-11.7803
監試官	-11.7803
事端	-11.7804
金尙星	-11.7804
馬兵	-11.7805
舍利	-11.7805
投入	-11.7805
擬入	-11.7807
疾苦	-11.7807
補用	-11.7807
一定	-11.7808
▁則反	-11.7809
斬之	-11.7812
武備	-11.7812
不可從也	-11.7812
請亟	-11.7814
▁未聞有	-11.7815
請辭	-11.7816
自在	-11.7819
▁請以此	-11.7823
不易之	-11.7823
未已	-11.7824
咽	-11.7824
壼	-11.7824
夭	-11.7824
岑	-11.7824
閥	-11.7824
攅	-11.7824
暢	-11.7824
趙希逸	-11.7824
金文淳	-11.7824
兪彦鎬	-11.7825
金益廉	-11.7825
▁肅宗	-11.7826
衣冠之列	-11.7826
無意	-11.7826
徐宗玉	-11.7826
莫如	-11.7826
雖不可	-11.7827
▁在所難免	-11.7827
下傳旨	-11.7827
曺偉	-11.7827
不致察	-11.7827
太輕	-11.7828
月食	-11.7828
▁適値	-11.7828
酬勞	-11.7828
祈穀	-11.7831
之訓	-11.7832
藉口	-11.7832
准職	-11.7832
憂愛	-11.7832
親蠶	-11.7833
大赦	-11.7835
可怪	-11.7836
爾等之言	-11.7837
創開	-11.7837
日官	-11.7837
通仕路	-11.7838
韓山	-11.7838
之致也	-11.7839
不饒	-11.784
坊民	-11.7841
和賣	-11.7843
書名	-11.7843
金宗直	-11.7845
其制	-11.7846
私通	-11.7847
相爭	-11.7851
▁則其爲	-11.7852
引見時	-11.7853
督納	-11.7854
入廟	-11.7856
▁王命	-11.7856
無所據	-11.7858
事在赦前	-11.7859
加刑訊	-11.786
禮遇	-11.7864
已發	-11.7865
百餘名	-11.7866
金構	-11.7867
堂上推考	-11.7867
遺失	-11.7868
▁例以	-11.7868
軍威	-11.7869
於君父	-11.7871
情事	-11.7872
▁皆可	-11.7872
雖微	-11.7873
有疾病	-11.7873
有變	-11.7873
▁命除	-11.7875
身在	-11.7876
▁當更	-11.7877
董役	-11.7879
峽	-11.788
南斗	-11.788
臭	-11.7883
登極	-11.7884
旣令	-11.7885
視朝	-11.7886
弁	-11.7887
于思政殿	-11.7887
跋	-11.7888
奎章閣	-11.7888
▁一則曰	-11.7888
屹	-11.7888
鄭光績	-11.7888
嘻	-11.7888
袞龍袍	-11.7888
申厚載	-11.7888
愼守勤	-11.7888
沈星鎭	-11.7888
皆已	-11.7889
省箚具悉	-11.7889
銘旌	-11.7889
▁若此不已	-11.7889
睿裁	-11.789
問禮官	-11.789
彈壓	-11.789
診候	-11.789
採訪	-11.7891
勿罷	-11.7891
禮曹判書申商	-11.7891
飮福宴	-11.7893
熾盛	-11.7894
李坫	-11.7895
迎接	-11.7896
爲弘文館副修撰	-11.7896
非敢	-11.7897
金益	-11.7897
輕改	-11.7897
甚厚	-11.7897
遲留	-11.7898
三公議啓曰	-11.7902
遷葬	-11.7902
糧料	-11.7903
另	-11.7905
穡	-11.7905
▁而當此	-11.7905
疏釋	-11.7908
卽令	-11.791
日就	-11.7913
都承旨權瑊	-11.7913
監造官	-11.7916
三石	-11.7918
▁宜先	-11.792
旱氣	-11.7921
周禮	-11.7922
▁而及其	-11.7923
▁聽其	-11.7925
淸選	-11.7925
御夜對	-11.7925
罷臣職	-11.7927
▁或言	-11.7927
匹夫	-11.7932
一視	-11.7933
陵官	-11.7934
爲宗社	-11.7935
金化	-11.7935
困苦	-11.7935
宗道	-11.7937
容隱	-11.7937
▁大臣以爲	-11.7938
挈	-11.794
徐宗	-11.7944
敘	-11.7944
右賓客	-11.7945
卽還	-11.7946
章疏	-11.7947
邊邑	-11.7948
享官	-11.7949
朔寧	-11.7951
棨	-11.7952
解體	-11.7953
俘	-11.7953
▁雨雹交下	-11.7953
逡巡	-11.7953
緇	-11.7953
鄭惟吉	-11.7953
金禹錫	-11.7953
擊毬	-11.7954
姜鋧	-11.7954
土木之役	-11.7954
▁尾長四五尺許	-11.7954
雲山	-11.7954
工曹正郞	-11.7954
▁尾長二三尺許	-11.7954
金益精	-11.7954
錄功	-11.7956
禁物	-11.7956
而然歟	-11.7956
情實	-11.7957
鬼神	-11.7958
卽位以來	-11.7958
告急	-11.7958
洪羲	-11.7959
領議政奇自獻	-11.7961
大役	-11.7961
宋駿	-11.7961
茶禮	-11.7961
▁竝直赴殿試	-11.7965
懷德	-11.7965
引見大臣備堂	-11.7966
邇來	-11.7966
責成	-11.7967
先入	-11.7967
六品以上	-11.7967
敎養	-11.7968
▁諫院又啓	-11.7969
御製詩	-11.7969
同坐	-11.7972
一切禁斷	-11.7972
京畿水使	-11.7973
逃去	-11.7973
停捧	-11.7974
▁於義	-11.7975
削科	-11.7975
爲兼文學	-11.7976
于平安道	-11.7976
在位	-11.7976
供給	-11.7978
杖七十	-11.7979
爲京畿監司	-11.798
待年	-11.7982
雖如此	-11.7982
敬謹	-11.7983
非我	-11.7984
慘矣	-11.7984
一禁	-11.7986
親幸	-11.7988
諭善	-11.7988
▁今承	-11.7995
從諫	-11.7995
迎合	-11.7996
日滋	-11.7997
西壁	-11.7998
罷散	-11.7998
撓改	-11.7998
爵祿	-11.7999
華人	-11.8002
習俗	-11.8003
會圈	-11.8003
特送	-11.8004
又如此	-11.8004
尙多	-11.8005
上祗迎	-11.8006
官府	-11.8008
免死	-11.8009
赴召	-11.8009
每當	-11.8009
誾	-11.8013
不定	-11.8014
攘	-11.8015
論遞	-11.8015
餘存	-11.8015
爵命	-11.8016
障	-11.8016
進饌	-11.8017
㙉	-11.8018
僨	-11.8018
叢	-11.8018
閔鍾顯	-11.8018
▁比比有之	-11.8018
湄	-11.8018
璔	-11.8018
李喆輔	-11.8018
紗帽	-11.8018
蠟	-11.8018
鉛	-11.8018
▁不若	-11.8018
記憶	-11.8019
赫然	-11.8019
金守溫	-11.8019
踐歷	-11.8019
依法典	-11.8019
牟利	-11.802
李敏求	-11.802
金鼎	-11.8021
下該曹	-11.8023
忠淸水使	-11.8023
霖雨	-11.8023
接待都監	-11.8024
催督	-11.8025
二石	-11.8025
諸囚	-11.8025
李德壽	-11.8026
興起	-11.8027
來泊	-11.8027
洞知	-11.8028
考閱	-11.8028
副萬戶	-11.8028
環刀	-11.8029
賜衣	-11.803
任章	-11.803
彦春	-11.8031
下玄宮	-11.8031
▁而今聞	-11.8031
定日	-11.8033
悖惡	-11.8034
格天	-11.8034
於後世	-11.8035
希達	-11.8035
▁此由	-11.8036
初無	-11.8037
撤樂	-11.804
之化	-11.8041
戒後	-11.8041
予將	-11.8043
孝思	-11.8043
▁臣等謂	-11.8043
來呈	-11.8044
久近	-11.8046
少無	-11.8046
請還寢	-11.8046
防啓	-11.8047
▁終必	-11.8048
▁然後始	-11.805
杜門	-11.805
細事	-11.8052
至尊	-11.8055
大行王	-11.8057
北邊	-11.8057
嘗以	-11.8058
不立	-11.8061
留住	-11.8062
行常參	-11.8064
州太守	-11.8064
▁其問于	-11.8065
亨孫	-11.8066
▁今復	-11.8067
親密	-11.8067
慮有	-11.8067
啓沃	-11.8068
不捧	-11.8069
鷹子	-11.8071
▁合有	-11.8072
日晩	-11.8072
戊	-11.8074
之甚也	-11.8074
未完	-11.8075
夏月	-11.8075
琢	-11.8077
圻	-11.8078
朴光	-11.8079
十四日	-11.8079
嘗試	-11.808
可信	-11.808
▁豈必	-11.8082
兩日	-11.8082
煽	-11.8082
▁上特	-11.8083
殖	-11.8083
兔	-11.8083
柟	-11.8083
在天之靈	-11.8083
堞	-11.8083
洪奭周	-11.8083
金取魯	-11.8083
軒架	-11.8083
糶糴	-11.8084
測候	-11.8084
馹孫	-11.8086
▁辭旨	-11.8086
金湜	-11.8086
結綵	-11.8087
無根	-11.8088
重其事	-11.8088
陞擢	-11.809
▁俱有	-11.809
身布	-11.8091
▁請命出仕	-11.8091
▁承旨等啓曰	-11.8091
萬餘石	-11.8092
限內	-11.8093
▁今亦依此	-11.8094
弘文館箚子	-11.8095
▁事體未安	-11.8095
能堪	-11.8097
興仁門	-11.8097
預差	-11.8099
恩津	-11.8101
頃刻	-11.8101
濫加	-11.8104
別殿	-11.8105
居喪	-11.8106
文昭	-11.8109
所共憤	-11.811
不察之失	-11.811
▁及見	-11.8111
盲	-11.8111
邑宰	-11.8111
私親	-11.8113
三十六	-11.8113
外庭	-11.8113
記事	-11.8113
▁爭相	-11.8115
依此擧行	-11.8116
一日之內	-11.8117
改題	-11.8117
分左右	-11.8118
所捉	-11.8118
當留念	-11.812
徵布	-11.8121
覲親	-11.8121
賀聖節	-11.8122
該吏	-11.8123
刑章	-11.8124
▁以解	-11.8124
磨鍊以啓	-11.8127
之義乎	-11.8129
同類	-11.8129
濫受	-11.8132
無聞	-11.8132
獲罪	-11.8132
▁唯以	-11.8132
爭辨	-11.8133
聖賢	-11.8133
四十餘人	-11.8133
大紅	-11.8134
孝悌	-11.8135
惡其	-11.8136
上幸慕華館	-11.8139
曼	-11.8142
德馨	-11.8143
常典	-11.8143
璡	-11.8145
忠厚	-11.8146
諸員	-11.8146
豹	-11.8147
大德	-11.8148
綽	-11.8148
碧蹄	-11.8148
欲待	-11.8148
仆	-11.8149
訑	-11.8149
凈	-11.8149
沽	-11.8149
瀷	-11.8149
馭	-11.8149
鳩	-11.8149
哂	-11.8149
忠順衛	-11.8149
南泰齊	-11.8149
崔興源	-11.8149
鄭錫五	-11.8149
李克堪	-11.8149
尹慜	-11.8151
事傳敎矣	-11.8151
捲堂	-11.8151
惶懼	-11.8151
▁極可	-11.8152
▁請命罷職不敍	-11.8153
登途	-11.8153
李蕆	-11.8155
悖妄	-11.8155
而不用	-11.8157
杖殺	-11.8157
▁臣意則	-11.8159
▁如是則	-11.8161
國光	-11.8161
無悔	-11.8161
在我	-11.8162
先賢	-11.8162
別置	-11.8163
三聘	-11.8163
左議政金尙魯	-11.8165
▁臣又	-11.8165
財力	-11.8166
尹珣	-11.8166
生員李	-11.8167
者久矣	-11.8167
冬月	-11.8167
旣出	-11.8167
六日	-11.8168
自列	-11.817
▁遂至	-11.8171
允許	-11.8171
狃於	-11.8171
存問	-11.8173
之過也	-11.8174
妻孥	-11.8174
無節	-11.8175
報監司	-11.8175
丹陽	-11.8176
進駐	-11.8176
甚焉	-11.8177
來此	-11.8178
壯元	-11.8179
死傷	-11.8179
望哭	-11.8179
漲	-11.818
▁臣卽	-11.818
前代	-11.8182
▁而竟	-11.8183
幾年	-11.8185
無他意	-11.8185
陞拜	-11.8189
孰不	-11.8189
有未盡	-11.8189
嚴密	-11.8191
尤難	-11.8191
諸僚	-11.8192
參榜	-11.8194
問其由	-11.8196
表箋	-11.8197
蒙放	-11.8199
仰奏	-11.82
罪責	-11.82
才行	-11.8201
茂長	-11.8203
致謝	-11.8204
潚	-11.8208
常仕	-11.8208
幄	-11.8209
詡	-11.821
捕倭	-11.821
李肇	-11.8211
玄碩圭	-11.8211
九重	-11.8211
彩花席	-11.8211
鑰	-11.8212
孝昌	-11.8213
彦弼	-11.8213
擲	-11.8214
珖	-11.8214
壑	-11.8215
薨	-11.8215
熏	-11.8215
筑	-11.8215
俌	-11.8215
洪茂績	-11.8215
潮	-11.8215
燃	-11.8215
囹圄	-11.8215
崔士康	-11.8215
廣延樓	-11.8215
放歸田里	-11.8215
▁回賜正布	-11.8215
吳挺一	-11.8215
賫	-11.8215
▁無乃不可乎	-11.8215
大院君	-11.8215
簇	-11.8215
沃溝	-11.8215
李書九	-11.8216
筋力	-11.8216
▁惶恐待罪	-11.8216
諂附	-11.8217
▁僅得	-11.8217
▁入乾方	-11.8217
金有慶	-11.8217
▁人莫不	-11.8218
根柢	-11.8218
▁非臣	-11.8218
可推	-11.8219
辭章	-11.822
行止	-11.822
不可輕改	-11.822
生死	-11.8221
眼疾	-11.8222
冬雷	-11.8224
鳳瑞	-11.8225
裁決	-11.8226
不稔	-11.8227
▁勢不可	-11.8228
各一領	-11.823
今將	-11.823
設廳	-11.8231
▁凡諸	-11.8232
▁至於如此	-11.8233
來待	-11.8233
▁毋論	-11.8233
復用	-11.8234
加上尊號	-11.8234
崇祿	-11.8234
關啓	-11.8235
接戰	-11.8235
光祖	-11.8236
此類	-11.8236
接待所	-11.8237
誣引	-11.8237
▁只緣	-11.8238
隨闕	-11.824
王子君	-11.824
此議	-11.8242
英廟	-11.8243
多般	-11.8244
牌文	-11.8244
期限	-11.8244
投屬	-11.8245
登山	-11.8247
而推之	-11.8249
暗行	-11.8253
▁一竝	-11.8253
遼陽	-11.8254
趁不	-11.8255
堉	-11.8261
▁原其	-11.8261
▁雖不能	-11.8262
李泰淵	-11.8262
予小子	-11.8264
▁而有此	-11.8264
遣官致祭	-11.8266
錮	-11.8269
高明	-11.8271
御營	-11.8272
鎭堡	-11.8275
上疏略曰	-11.8275
蔚	-11.8275
不撓	-11.8276
執禮	-11.8277
言送	-11.8277
親功臣	-11.828
司中	-11.8281
乃還	-11.8282
緞	-11.8282
沐	-11.8282
吝	-11.8282
絳紗袍	-11.8282
芒	-11.8282
洪宇遠	-11.8282
綴	-11.8282
金貴榮	-11.8282
金履喬	-11.8282
直告	-11.8282
鞍具馬一匹	-11.8282
兢惕	-11.8282
凋殘	-11.8282
廣州府尹	-11.8283
箭竹	-11.8284
浩繁	-11.8285
實職除授	-11.8285
三十八	-11.8286
李溵	-11.8287
▁若待	-11.8287
崇禮門	-11.8287
所捕	-11.8287
金輔	-11.8288
韓恂	-11.8288
觀象監提調	-11.8289
斂散	-11.829
小官	-11.829
小心	-11.829
陳言	-11.8291
讀書堂	-11.8291
別軍職	-11.8292
艱食	-11.8294
畢露	-11.8295
來問安	-11.8295
滋甚	-11.83
季良	-11.83
爲人所	-11.8303
成龍	-11.8303
極歡	-11.8303
▁悉皆	-11.8307
忌日	-11.8307
其第	-11.8308
兇疏	-11.8309
吏胥	-11.831
慰安	-11.831
代言等	-11.8311
仍帶	-11.8311
出於一時	-11.8312
山陵都監	-11.8315
▁則其所	-11.8315
相親	-11.8315
五百餘	-11.8316
遊觀	-11.8316
忍爲	-11.8317
大旱	-11.8321
林下	-11.8322
入闕	-11.8322
上箚乞免	-11.8327
徒黨	-11.8329
▁政院回啓	-11.8332
德川	-11.8333
之孫也	-11.8333
王章	-11.8334
▁令政院	-11.8334
譴罰	-11.8335
大聖人	-11.8336
分掌	-11.8336
執政	-11.8336
祭需	-11.8337
白雲	-11.8338
旣承	-11.8339
可用之人	-11.8339
▁以憑	-11.8339
▁罪在	-11.8341
製詩	-11.8342
金仁	-11.8343
橫城	-11.8344
療	-11.8344
不和	-11.8344
▁於禮	-11.8348
傳香	-11.8348
謂臣	-11.8348
衣資	-11.8348
舛	-11.8348
勛	-11.8349
鐘	-11.8349
徧	-11.8349
鍵	-11.8349
捽	-11.8349
兪伯曾	-11.8349
渚	-11.8349
穰	-11.8349
鄙陋	-11.835
各年	-11.835
▁極爲悶慮	-11.835
娼妓	-11.835
黃金	-11.8351
允下	-11.8351
副摠管	-11.8351
凌辱	-11.8352
禪科	-11.8353
順付	-11.8354
李時彦	-11.8354
相近	-11.8354
孫澍	-11.8354
成化	-11.8354
延訪	-11.8355
▁豈不寒心	-11.8355
廐馬	-11.8356
嘉悅	-11.8356
瑞山	-11.8357
資生	-11.8359
▁臣欲	-11.836
別有	-11.836
▁決無	-11.836
土産	-11.8361
緜紬	-11.8361
事涉	-11.8362
任所	-11.8364
現捉	-11.8365
▁語意	-11.8367
死後	-11.8367
太常	-11.8368
回還時	-11.8369
回程	-11.8369
世英	-11.837
良法	-11.837
扈	-11.837
瀆天聽	-11.8373
餘黨	-11.8373
兵力	-11.8374
左議政許積	-11.8375
冬節	-11.8375
▁然後乃	-11.8375
在下者	-11.8377
國家不幸	-11.8379
▁此後則	-11.838
水邊	-11.8381
所傳	-11.8383
給由	-11.8384
李汝	-11.8385
險阻	-11.8386
金魯	-11.8386
農月	-11.8387
人力	-11.8387
盲人	-11.8388
傳語	-11.8389
抄擇	-11.839
見棄	-11.8391
可笑	-11.8392
土木	-11.8392
不能支	-11.8393
財用	-11.8394
擇吉	-11.8394
存恤	-11.8396
作變	-11.8399
囚鞫	-11.8401
頃以	-11.8402
崇信	-11.8402
爲領議政	-11.8404
益深	-11.8407
▁官至	-11.8408
玹	-11.8408
別提	-11.8408
寂	-11.8415
柳雲	-11.8416
藿	-11.8417
耦	-11.8417
亘	-11.8417
內需	-11.8417
涇	-11.8417
赧	-11.8417
趙雲逵	-11.8417
尹德駿	-11.8417
黍	-11.8417
金鎭龜	-11.8417
衫	-11.8417
李匡德	-11.8417
置而不論	-11.8417
下書諸道觀察使	-11.8417
一同	-11.8417
禁衛大將	-11.8417
沔川	-11.8418
相似	-11.8418
弘濟院	-11.8418
克成	-11.8419
李希輔	-11.842
韓堰	-11.842
城基	-11.842
所不知	-11.8421
解職	-11.8422
出置	-11.8422
之所致	-11.8427
布貨	-11.8427
皇天	-11.8428
內間	-11.843
精抄	-11.843
成婚	-11.8432
密城君	-11.8432
承旨推考	-11.8433
一擧	-11.8433
召募	-11.8434
冒占	-11.8435
退出	-11.8436
爲禮曹佐郞	-11.8437
製造	-11.8439
大賊	-11.844
▁起自	-11.844
安然	-11.844
軍裝	-11.8448
大建	-11.8448
特減	-11.8449
領率	-11.8453
陳荒	-11.8454
外祖	-11.8455
欲免	-11.8456
觀瞻	-11.8456
喜怒	-11.8456
其冤	-11.8458
尹銑	-11.846
予已知之	-11.8461
言論	-11.8461
重修	-11.8462
放砲	-11.8464
于本府	-11.8465
愚妄	-11.8466
骸	-11.8466
發身	-11.8466
痛惡	-11.8468
大略	-11.8468
慶業	-11.847
▁而其後	-11.8471
人所共知	-11.8474
無可疑	-11.848
不能無	-11.8484
入門	-11.8484
纓	-11.8485
嬖	-11.8485
▁昭不可掩	-11.8485
搏	-11.8485
柳思訥	-11.8485
苞	-11.8485
姻婭	-11.8485
彰義宮	-11.8485
麿	-11.8485
洪處亮	-11.8485
線	-11.8485
▁略無顧忌	-11.8485
滋蔓	-11.8485
留中不下	-11.8485
蔚珍	-11.8485
衰絰	-11.8485
熒惑	-11.8485
隕越	-11.8486
李陸	-11.8486
貢法	-11.8486
父喪	-11.8487
李自堅	-11.8487
治療	-11.8488
金何	-11.8489
朴仲孫	-11.849
吾輩	-11.849
權景祐	-11.849
左賓客	-11.849
▁今更	-11.849
布天	-11.8492
行望闕禮	-11.8492
策勳	-11.8492
軫慮	-11.8493
受香	-11.8493
其律	-11.8495
恬然	-11.8495
李世華	-11.8495
陰險	-11.8496
鄙瑣	-11.8496
渭原	-11.8496
極選	-11.8497
絶悖	-11.8498
徵斂	-11.8499
聽斷	-11.85
請對入侍	-11.85
所啓之意	-11.8501
雷變	-11.8501
凍死	-11.8501
門下府	-11.8501
立碑	-11.8501
婢夫	-11.8501
富貴	-11.8502
倭館	-11.8502
現發	-11.8503
兵馬使	-11.8504
廉察	-11.8505
同氣	-11.8506
數十年	-11.8506
近似	-11.8507
▁遂使	-11.8508
羞辱	-11.851
▁只行	-11.8511
無難	-11.8512
保民	-11.8513
李昌後	-11.8514
宴飮	-11.8514
齊坐	-11.8516
光佐	-11.8517
▁命依	-11.8519
初七日	-11.852
臺職	-11.8523
一句	-11.8525
誤書	-11.8526
百執事	-11.8527
果何如	-11.8529
可改	-11.8531
陳情	-11.8532
李奎	-11.8533
獨當	-11.8533
臣隣	-11.8535
小小	-11.8535
禮樂	-11.8536
應入	-11.8537
源義	-11.8537
手本	-11.8537
相左	-11.8537
寬厚	-11.8538
崇祖	-11.8538
收聚	-11.8539
罪戾	-11.854
穫	-11.8546
趙尙絅	-11.8546
乃是	-11.855
代理	-11.8551
申氏	-11.8551
囂	-11.8553
讃	-11.8553
拏	-11.8553
複	-11.8553
簋	-11.8553
翕	-11.8553
軀	-11.8553
餽	-11.8553
黃昇源	-11.8553
朴汝樑	-11.8553
金宇顒	-11.8553
耿耿	-11.8553
彛	-11.8553
兪㯙	-11.8553
隄備	-11.8553
國人之	-11.8553
兪大建	-11.8554
掛榜	-11.8555
不容少緩	-11.8555
啓請還收	-11.8556
比於	-11.8559
橫看	-11.856
致雲	-11.856
銀貨	-11.8561
不經	-11.8561
戶曹佐郞	-11.8561
常情	-11.8562
昭雪	-11.8563
亂打	-11.8565
齊憤	-11.8566
令禮官	-11.8567
邦刑	-11.8571
等上書	-11.8571
李聖	-11.8573
奏達	-11.8573
代官	-11.8576
日數	-11.8578
前望	-11.858
▁悉令	-11.8581
萬機	-11.8581
金集	-11.8582
臣頃	-11.8582
慰宴	-11.8582
傳命	-11.8583
到義州	-11.8584
可見矣	-11.8584
問疾	-11.8585
直斥	-11.8586
顧問	-11.8586
詩文	-11.8591
諫諍	-11.8591
▁若又	-11.8591
其是非	-11.8594
主第	-11.8594
陳田	-11.8594
伸雪	-11.8597
不得行	-11.8597
長陵	-11.8598
李鎰	-11.8598
待秋成	-11.8599
甚苦	-11.86
非便	-11.8601
▁則輒	-11.8601
諸浦	-11.8604
遠來	-11.8605
意謂	-11.8608
爭論	-11.8609
正犯	-11.8611
▁又將	-11.8613
年已	-11.8613
▁設或	-11.8616
李相璜	-11.8616
我國之事	-11.8617
不干於	-11.8617
來投	-11.862
▁崇善	-11.8621
禍福	-11.8621
莽	-11.8622
楮	-11.8622
裌	-11.8622
碧	-11.8622
蠱	-11.8622
雛	-11.8622
李孟畇	-11.8622
橐	-11.8622
高彦伯	-11.8622
務安	-11.8622
吳命峻	-11.8622
烽燧	-11.8622
吳始復	-11.8622
行四拜禮	-11.8622
不可測	-11.8623
一族	-11.8623
▁然後方可	-11.8623
整頓	-11.8624
仁政門	-11.8625
搜討	-11.8625
出來時	-11.8626
靖陵	-11.8626
徐祉	-11.8629
石灰	-11.863
鼎席	-11.863
中一人	-11.8631
關北	-11.8631
數萬	-11.8631
如初	-11.8633
扶餘	-11.8633
下議政府	-11.8633
依他例	-11.8633
前一日	-11.8635
爲慶尙監司	-11.8637
▁上召見之	-11.8637
貞陵	-11.8638
尹淮	-11.8638
合司連啓	-11.864
逐年	-11.8641
臺疏	-11.8642
參上	-11.8643
二百匹	-11.8645
木川	-11.8645
下刑曹	-11.8648
于東宮	-11.8648
於明日	-11.865
常人	-11.8651
木緜	-11.8652
▁惟爾	-11.8653
此理	-11.8654
停朝	-11.8655
參班	-11.8655
劾問	-11.8657
▁令承文院	-11.8657
李沃	-11.8658
肆然	-11.8659
同經筵	-11.866
收錄	-11.8661
皆如啓	-11.8665
朴文	-11.8668
優於	-11.8669
所捧	-11.8669
發軍	-11.867
▁不可不愼	-11.8671
師錫	-11.8673
按問	-11.8674
偸取	-11.8676
勉留	-11.8677
靈山	-11.8678
根因	-11.868
宗學	-11.8682
各一人	-11.8683
生還	-11.8684
穗	-11.8685
完畢	-11.8686
一條	-11.8687
鬧	-11.8688
千載	-11.869
泗	-11.8691
請罷職	-11.8691
褊	-11.8691
枷	-11.8691
瑀	-11.8692
輦轂之下	-11.8692
鄭尙淳	-11.8692
閒	-11.8692
攬	-11.8692
關王廟	-11.8692
謇	-11.8692
趙榮國	-11.8692
朴永文	-11.8692
宋成明	-11.8692
驍勇	-11.8692
激惱	-11.8692
尹孝先	-11.8693
嗚呼	-11.8693
亦豈不	-11.8693
屢經	-11.8694
衆所共知	-11.8694
物議譁然	-11.8694
撫綏	-11.8694
李潤慶	-11.8695
悔悟	-11.8695
隊副	-11.8696
弓一張	-11.8696
親禱	-11.8697
給送	-11.8697
入見	-11.8697
誰肯	-11.8699
驚怪	-11.8699
更査	-11.87
敬陵	-11.8701
盡瘁	-11.8702
守法	-11.8702
尊卑	-11.8703
▁靡不	-11.8703
已決	-11.8703
請竄	-11.8709
敗船	-11.8709
直路	-11.871
恒福	-11.8711
別般	-11.8712
收租	-11.8712
奸濫	-11.8712
將盡	-11.8716
率領	-11.8716
所遭	-11.8717
訴於	-11.8718
潛邸時	-11.8718
市人	-11.8719
持去	-11.872
▁惟其	-11.872
崇德	-11.8721
之域	-11.8723
私廟	-11.8726
多謝	-11.873
率軍	-11.8731
超拜	-11.8733
成熟	-11.8734
▁第其	-11.8734
鄕人	-11.8735
武官	-11.8737
善類	-11.8737
▁亦可以	-11.8739
雷雨	-11.874
▁卿其安心	-11.8742
百官陳賀	-11.8743
言是也	-11.8744
入屬	-11.8744
▁竝依	-11.8746
不樂	-11.8747
▁請停之	-11.8749
通川	-11.875
所坐	-11.875
泮儒	-11.8751
▁亦恐	-11.8751
之甚乎	-11.8753
李秉常	-11.8753
斬首	-11.8753
監造	-11.8755
出往	-11.8755
賊臣	-11.8755
八名	-11.8756
址	-11.8756
臣等伏覩	-11.8757
親政	-11.8757
幾至	-11.8758
不由	-11.8759
不得已也	-11.8759
唾鄙	-11.8761
鉢	-11.8761
淪	-11.8761
簽	-11.8761
體予至懷	-11.8761
左副賓客	-11.8761
宵旰	-11.8762
大明會典	-11.8762
彝倫	-11.8762
徐命臣	-11.8763
尙州牧使	-11.8763
回駕	-11.8763
光化門	-11.8763
濫觴	-11.8763
捕盜將	-11.8764
紊亂	-11.8764
▁今年則	-11.8765
豐歉	-11.8766
餞宴	-11.8766
窮詰	-11.8766
▁遂有是命	-11.8767
之暇	-11.8767
一端	-11.8768
冒據	-11.8769
感歎	-11.8769
煩執	-11.877
臘享	-11.877
解氷	-11.877
變幻	-11.8771
如是啓之	-11.8772
一例	-11.8775
▁尤非	-11.8777
▁臣等以謂	-11.8778
林健	-11.8779
予之所	-11.878
不遞	-11.8782
移給	-11.8784
錄券	-11.8787
還俗	-11.8788
事體重大	-11.8788
李景曾	-11.8789
强煩	-11.879
夫子	-11.8791
飾辭	-11.8791
殺獄	-11.8791
渠等	-11.8791
判義禁府事	-11.8792
謹稽	-11.8793
參差	-11.8794
相較	-11.8795
▁人有	-11.8795
南二星	-11.8798
直哉	-11.88
保寧	-11.8801
累度	-11.8806
各司奴婢	-11.8807
講習	-11.8807
重勘	-11.881
贍	-11.8811
色掌	-11.8815
題目	-11.8815
重望	-11.8817
甸	-11.8818
畏其	-11.882
遠慮	-11.8822
暘	-11.8823
七十餘	-11.8824
帶率	-11.8825
甚是	-11.8825
供進	-11.8825
諸堂	-11.8826
失望	-11.8826
文川	-11.8828
倜	-11.8829
獨啓	-11.883
李鐸	-11.883
烽	-11.883
匱	-11.8831
洪氏	-11.8831
▁令吏曹	-11.8832
吳載純	-11.8832
侑	-11.8832
哺	-11.8832
繪	-11.8832
藼	-11.8832
鴨綠江	-11.8832
旱田	-11.8832
黑角帶	-11.8832
不諱	-11.8833
趙曮	-11.8833
思量	-11.8833
社壇	-11.8834
李在學	-11.8834
▁惜哉	-11.8834
大豆	-11.8835
吏兵曹	-11.8835
具庠	-11.8836
事係重大	-11.8837
前持平	-11.8838
吳瑗	-11.8838
耕田	-11.884
祖宗朝故事	-11.884
禔	-11.8841
詣仁政殿	-11.8841
寔	-11.8841
爲之可也	-11.8842
濫用	-11.8842
殷老	-11.8843
▁罔知所	-11.8844
征討	-11.8845
史冊	-11.8846
瞞	-11.8846
官制	-11.8848
▁假令	-11.8848
申慄	-11.8848
江陰	-11.8848
遣還	-11.8849
上箚言	-11.885
涓	-11.885
▁例爲	-11.885
紀律	-11.885
錫鼎	-11.8852
釋奠	-11.8853
申湜	-11.8853
茂山	-11.8856
▁語多	-11.8858
爲待敎	-11.8858
參論	-11.8863
爲盜	-11.8864
還本土	-11.8864
移授	-11.8865
强奸	-11.8866
再次	-11.8867
特異	-11.8867
寒食	-11.8868
未準	-11.8871
于遼東	-11.8878
乞致仕	-11.8878
不能禁	-11.8878
乃敢	-11.8879
鐵堅	-11.8881
夕上食	-11.8884
代立	-11.8884
爲弊	-11.8886
鉤問	-11.8886
進香使	-11.8886
姑停之	-11.8886
十結	-11.8887
未參	-11.8889
不可獨	-11.8889
陵幸	-11.8889
明覈	-11.889
輕妄	-11.889
▁請避嫌	-11.8894
起耕	-11.8896
宿德	-11.8896
埋置	-11.8897
差胡	-11.8898
累朝	-11.8898
早朝	-11.8898
堰	-11.8898
與大臣議之	-11.8898
庠	-11.8898
叩	-11.8901
在於此	-11.8901
▁似合	-11.8902
▁遂令	-11.8902
崖	-11.8903
慶尙右兵使	-11.8903
柳仁淑	-11.8903
透	-11.8903
光海君日記	-11.8903
邊應星	-11.8903
宋言愼	-11.8903
邊遠充軍	-11.8903
崔氏	-11.8903
申恜	-11.8903
價米	-11.8903
皇甫	-11.8904
權盼	-11.8904
薦禽	-11.8904
告宗廟	-11.8904
李必榮	-11.8904
稠疊	-11.8904
筆墨	-11.8905
紀綱解弛	-11.8905
欠缺	-11.8905
▁以副予望	-11.8908
▁請命改正	-11.8909
撫摩	-11.8909
宮墻	-11.891
貽害	-11.891
耆舊	-11.891
杖訊	-11.8911
汝輩	-11.8911
己意	-11.8913
越境	-11.8914
開端	-11.8914
有物議	-11.8915
▁言于兵曹	-11.8917
返虞	-11.8918
此說	-11.8918
御營軍	-11.892
部民	-11.8921
監司關啓	-11.8921
於中路	-11.8921
▁相爲	-11.8921
議政府據戶曹呈啓	-11.8921
我輩	-11.8923
痛斥	-11.8924
假稱	-11.8927
夏享	-11.8927
憂勤	-11.8929
移定	-11.8932
妖言	-11.8934
廢朝時	-11.8935
賢老	-11.8937
爲批	-11.8937
協力	-11.894
可議	-11.8941
不設	-11.8942
▁二曰	-11.8943
相禮	-11.8947
[...]
