<pad>	0
<unk>	0
,	-2.11434
▁	-2.90014
。	-3.32893
:	-4.15633
▁"	-4.30213
▁○	-4.30637
、	-4.37277
。"	-4.45039
之	-5.00036
以	-5.32268
/	-5.38792
▁而	-5.43502
者	-5.46815
也	-5.53479
?	-5.61151
爲	-5.63125
曰	-5.72154
於	-5.7251
事	-5.73352
▁則	-5.91905
▁以	-6.00182
等	-6.09422
矣	-6.13367
有	-6.22603
而	-6.23524
時	-6.27032
乎	-6.28744
及	-6.30109
其	-6.31966
人	-6.33235
則	-6.50601
▁‘	-6.55984
?"	-6.56496
▁其	-6.57195
不	-6.60009
▁傳曰	-6.60249
一	-6.66299
▁請	-6.68593
▁答曰	-6.7098
于	-6.71101
命	-6.72944
無	-6.74897
啓曰	-6.75025
▁故	-6.75829
▁且	-6.77786
後	-6.78009
▁上曰	-6.78254
行	-6.793
所	-6.79888
與	-6.81488
中	-6.82324
李	-6.85858
之事	-6.86762
自	-6.88112
金	-6.904
上	-6.91504
言	-6.94551
大	-6.94717
云	-6.96701
▁【	-6.99763
。’	-7.00835
臣	-7.04678
前	-7.05084
啓	-7.0754
在	-7.10274
下	-7.10963
處	-7.11489
出	-7.12334
請	-7.1308
當	-7.14033
之意	-7.15616
《	-7.15808
▁今	-7.16112
傳曰	-7.16138
亦	-7.17236
官	-7.19328
▁從之	-7.20157
至	-7.20443
可	-7.23235
ᆞ	-7.23759
▁然	-7.23898
》	-7.23933
日	-7.24382
。】	-7.25102
此	-7.25164
▁命	-7.25218
用	-7.26865
(	-7.27237
文	-7.29281
▁又	-7.29863
▁若	-7.32379
▁上	-7.33307
正	-7.35781
三	-7.37061
內	-7.37266
〕	-7.37901
議	-7.38001
▁亦	-7.38007
來	-7.3814
入	-7.38201
之人	-7.38296
成	-7.38386
得	-7.38918
已	-7.39015
生	-7.39285
;	-7.39614
見	-7.39757
家	-7.41062
使	-7.41429
令	-7.4181
同	-7.4206
禮	-7.44509
欲	-7.4497
將	-7.45413
▁雖	-7.46142
非	-7.47853
相	-7.48296
年	-7.48921
名	-7.49618
書	-7.49711
知	-7.50705
安	-7.51021
外	-7.52172
何如	-7.52266
大臣	-7.52533
加	-7.52752
▁有	-7.53085
山	-7.5446
重	-7.54526
如	-7.56045
多	-7.56112
不可	-7.56533
進	-7.57154
明	-7.58086
未	-7.58617
)〔	-7.59476
▁但	-7.59662
皆	-7.59858
從	-7.60109
▁不可	-7.60145
雖	-7.60152
道	-7.6068
如此	-7.60994
是	-7.61295
罪	-7.61506
民	-7.62128
▁自	-7.62358
辭	-7.6289
▁或	-7.62891
今	-7.62928
▁使	-7.63694
子	-7.63835
▁令	-7.63945
以爲	-7.64199
▁皆	-7.64295
例	-7.64661
若	-7.66348
德	-7.67524
▁臣	-7.68346
▁當	-7.68783
朴	-7.70318
▁不允	-7.70434
之罪	-7.70619
守	-7.71381
焉	-7.71674
臺諫	-7.72164
必	-7.729
守令	-7.7336
兩	-7.74645
心	-7.74689
聞	-7.74733
兵	-7.75119
定	-7.75593
可也	-7.75639
論	-7.75746
還	-7.75777
復	-7.75928
之時	-7.76058
數	-7.76407
▁況	-7.78597
▁乃	-7.78609
受	-7.78661
二	-7.79037
鄭	-7.79303
又	-7.79646
▁至於	-7.79711
之後	-7.79981
善	-7.80877
予	-7.80963
▁與	-7.81015
石	-7.81314
元	-7.8142
耳	-7.82031
尹	-7.82427
世	-7.83173
因	-7.83275
甚	-7.83488
馬	-7.83519
國	-7.83869
▁仍	-7.83953
先	-7.84058
立	-7.85006
或	-7.85102
作	-7.8579
許	-7.85792
▁非	-7.85863
之言	-7.85954
天	-7.86712
地	-7.87262
居	-7.87323
發	-7.87789
義	-7.8798
各	-7.8819
給	-7.88494
遣	-7.88877
▁竝	-7.89287
哉	-7.89613
乃	-7.89753
旣	-7.90796
權	-7.9086
▁臣等	-7.90874
▁此	-7.92031
▁不	-7.92153
法	-7.92186
意	-7.92441
軍	-7.92489
上疏	-7.92682
分	-7.92806
仁	-7.9284
任	-7.92987
卿	-7.93101
往	-7.93442
賊	-7.93793
賜	-7.93931
間	-7.94427
職	-7.95353
死	-7.95574
然	-7.95593
卽	-7.95908
長	-7.96056
盡	-7.9612
直	-7.96297
去	-7.97753
洪	-7.98651
▁爲	-7.98967
陳	-7.99029
五	-7.99165
問	-7.99169
四	-7.99683
▁宜	-8.00131
致	-8.00493
設	-8.00619
應	-8.00663
趙	-8.00716
諸	-8.00821
送	-8.0104
公	-8.01325
▁一	-8.0163
望	-8.01752
初	-8.01844
何	-8.02364
)	-8.0251
實	-8.02535
允	-8.03263
稱	-8.04081
過	-8.04809
門	-8.04815
親	-8.04832
▁卽	-8.0497
之地	-8.05222
病	-8.05253
▁必	-8.05476
柳	-8.05632
王	-8.06465
▁上從之	-8.06543
難	-8.07669
我	-8.07804
小	-8.07844
而已	-8.08909
爲之	-8.0896
治	-8.09273
諭	-8.09654
朝	-8.09665
竝	-8.10123
更	-8.10195
不能	-8.11002
’	-8.11009
經	-8.11083
耶	-8.11157
服	-8.1124
本	-8.1128
新	-8.1142
之命	-8.11648
申	-8.11652
白	-8.11716
以啓	-8.12446
改	-8.12625
鎭	-8.12745
▁使之	-8.12925
▁只	-8.13253
▁如	-8.13748
擧	-8.13856
▁欲	-8.14313
待	-8.14698
宗	-8.14812
孫	-8.14832
▁至	-8.14994
崔	-8.15
益	-8.15043
私	-8.15472
臣等	-8.15618
君	-8.15823
罷	-8.15849
南	-8.15975
方	-8.16627
通	-8.16658
依啓	-8.17502
▁因	-8.17593
▁李	-8.17646
持平	-8.17996
朔	-8.18207
主	-8.18297
除	-8.18422
老	-8.18423
告	-8.18578
尙	-8.18861
之道	-8.19061
▁予	-8.19831
承旨	-8.1988
忠	-8.20184
取	-8.20592
▁無	-8.21042
承	-8.2131
慶	-8.21759
差	-8.21975
之弊	-8.22643
學	-8.23022
能	-8.2304
達	-8.232
報	-8.23653
被	-8.23709
海	-8.2378
失	-8.24012
不得	-8.24259
信	-8.24382
處置	-8.24653
正言	-8.24856
今日	-8.25126
故	-8.25294
城	-8.25695
東	-8.25697
歸	-8.2571
宜	-8.25761
奉	-8.26341
置	-8.26519
疏	-8.26585
身	-8.267
平	-8.27156
勿	-8.27226
始	-8.27326
別	-8.28069
張	-8.2825
田	-8.28259
水	-8.28851
常	-8.29022
卒	-8.29417
府	-8.29698
敬	-8.29983
黃	-8.30439
▁依	-8.30503
罪人	-8.30508
之日	-8.30554
依	-8.30669
等事	-8.30735
興	-8.30823
賢	-8.31211
到	-8.31692
遠	-8.31802
遞	-8.32053
之際	-8.32489
龍	-8.32607
掌令	-8.32974
觀	-8.33122
米	-8.33309
▁(	-8.33708
禁	-8.33721
施	-8.33776
孝	-8.33777
擧行	-8.34187
備	-8.3421
夜	-8.34508
言之	-8.35252
役	-8.35455
徵	-8.35475
以下	-8.35506
深	-8.3564
節	-8.361
傳	-8.36482
朝廷	-8.36483
字	-8.36965
變	-8.37159
右議政	-8.37449
儒生	-8.37493
敎	-8.37578
合	-8.37732
納	-8.38073
兼	-8.38379
謂	-8.38397
漢	-8.3857
退	-8.387
邑	-8.39032
具	-8.39623
之擧	-8.3968
殿下	-8.399
和	-8.40004
思	-8.40057
永	-8.4022
殿	-8.4045
起	-8.40745
授	-8.40926
▁已	-8.41226
移	-8.41245
嚴	-8.41274
物	-8.41378
罷職	-8.41442
!	-8.4155
大司憲	-8.41671
祭	-8.41739
極	-8.42291
西	-8.42454
▁旣	-8.42545
萬	-8.42992
沈	-8.43084
結	-8.43465
▁蓋	-8.43606
近	-8.4375
▁至是	-8.43753
妻	-8.4388
考	-8.44442
計	-8.44587
▁以爲	-8.44775
之心	-8.45016
堂上	-8.45168
壽	-8.4536
聽	-8.45844
順	-8.45964
春	-8.46061
養	-8.46081
韓	-8.46125
風	-8.46754
錄	-8.46849
▁凡	-8.46877
坐	-8.46963
率	-8.47252
食	-8.47298
推	-8.47456
布	-8.47652
前日	-8.47823
源	-8.48697
犯	-8.48929
不知	-8.48986
船	-8.48989
▁上命	-8.49125
好	-8.49132
少	-8.4923
▁是	-8.49366
誠	-8.49391
六	-8.49477
良	-8.49706
世子	-8.49707
久	-8.49963
聖	-8.50006
色	-8.50078
樂	-8.50078
就	-8.50208
歲	-8.50287
終	-8.50454
淸	-8.50535
輕	-8.50908
載	-8.51097
屬	-8.51118
推考	-8.51144
縣	-8.51237
政	-8.51327
高	-8.51354
凡	-8.51368
厚	-8.51502
施行	-8.51512
戶	-8.5167
奴婢	-8.51895
之法	-8.52075
陵	-8.52113
▁敎曰	-8.52181
次	-8.5252
爲正言	-8.52715
爲掌令	-8.52885
爲持平	-8.53081
囚	-8.53096
氣	-8.53096
▁云	-8.53132
縣監	-8.53242
參	-8.53276
力	-8.5342
語	-8.53444
▁遂	-8.53785
代	-8.5381
殺	-8.53836
減	-8.54173
功	-8.54353
拜	-8.54656
他	-8.54781
勿辭	-8.55456
口	-8.55567
▁不可不	-8.55692
▁豈	-8.56091
兵曹	-8.56194
吏	-8.56372
左議政	-8.56664
只	-8.57061
憲府	-8.57117
停	-8.57343
吉	-8.57368
講	-8.57407
營	-8.57526
▁將	-8.57693
國家	-8.57764
幸	-8.58074
▁行	-8.58081
古	-8.58277
星	-8.58673
留	-8.59382
監司	-8.5941
我國	-8.59738
》,	-8.59995
大司諫	-8.60037
之說	-8.60088
連	-8.60274
使臣	-8.60281
士	-8.60591
七	-8.60694
如是	-8.6071
造	-8.60814
入侍	-8.60849
御	-8.61149
位	-8.61248
回	-8.61349
律	-8.61409
女	-8.61533
宋	-8.61568
放	-8.61591
路	-8.61653
十	-8.61756
傷	-8.61856
土	-8.62144
試	-8.62204
▁批曰	-8.62367
爾	-8.6263
惡	-8.62762
修	-8.62781
召	-8.6295
薦	-8.63368
之所	-8.63505
度	-8.63515
亂	-8.63637
者也	-8.63778
全	-8.63874
易	-8.63906
木	-8.63928
疾	-8.64076
敎曰	-8.64132
雨	-8.64451
說	-8.6454
廢	-8.64547
異	-8.64732
運	-8.64842
章	-8.6517
汝	-8.65209
陽	-8.65711
一人	-8.65731
昌	-8.65909
再	-8.65951
封	-8.66017
求	-8.66387
舊	-8.66439
免	-8.66578
容	-8.66609
草	-8.66665
月	-8.66761
▁殿下	-8.66779
司	-8.66912
衣	-8.6699
理	-8.67099
絶	-8.67171
史臣曰	-8.67277
流	-8.67284
奏	-8.6734
爲承旨	-8.67341
▁幷	-8.67343
答	-8.67738
收	-8.67765
師	-8.67793
八	-8.67829
▁各	-8.67887
兩司	-8.67976
繼	-8.68205
喪	-8.68333
光	-8.68577
之狀	-8.68678
提調	-8.68798
父	-8.68964
制	-8.69008
解	-8.69055
獻	-8.69176
周	-8.69218
九	-8.6937
郡守	-8.69605
曾	-8.69897
慮	-8.69925
林	-8.70055
母	-8.70182
夏	-8.70215
出於	-8.70315
之間	-8.70336
未安	-8.70398
招	-8.70617
示	-8.70718
軍士	-8.70903
吾	-8.71025
▁時	-8.71096
政院	-8.71183
之任	-8.71373
開	-8.71562
執義	-8.71701
引	-8.7175
▁以此	-8.71994
▁金	-8.72136
倭	-8.72162
禮曹	-8.72378
惟	-8.72542
都	-8.72713
寧	-8.72722
首	-8.72828
雲	-8.73003
福	-8.73153
穀	-8.73197
保	-8.73673
幷	-8.73935
狀啓	-8.7402
廣	-8.74074
獻納	-8.74403
懷	-8.7444
會	-8.74494
對	-8.74537
▁在	-8.74547
虛	-8.74606
堂	-8.74652
疑	-8.74794
邊	-8.748
司諫	-8.74967
顯	-8.74992
夫	-8.75053
科	-8.75135
本道	-8.75645
▁從	-8.75836
功臣	-8.76068
平安道	-8.76142
情	-8.76154
宮	-8.76214
▁何	-8.76301
獨	-8.76812
之敎	-8.76866
貴	-8.76887
來啓曰	-8.76934
關	-8.77085
期	-8.77192
諸臣	-8.77713
己	-8.77794
避	-8.77795
利	-8.77932
▁大臣	-8.78014
仍	-8.78156
察	-8.78167
不爲	-8.78201
玉	-8.78208
不足	-8.78461
傳于政院曰	-8.78561
武	-8.78633
圖	-8.78744
微	-8.78834
謙	-8.78888
奴	-8.7926
之禮	-8.79319
之計	-8.79403
▁不得	-8.79414
遇	-8.79448
面	-8.7966
付	-8.79734
加資	-8.79808
餘	-8.7989
知道	-8.79958
▁賜	-8.8004
以此	-8.803
擇	-8.80302
▁實	-8.80381
愼	-8.80463
決	-8.80707
指	-8.80789
丁	-8.80909
止	-8.81064
責	-8.81092
似	-8.81141
▁初	-8.81173
頭	-8.81238
恩	-8.81601
奸	-8.81674
念	-8.82212
銀	-8.8243
▁大	-8.82672
▁可	-8.82758
蒙	-8.82767
太	-8.8289
吳	-8.82903
翼	-8.82943
條	-8.8316
體	-8.83184
强	-8.83209
昨日	-8.83228
故也	-8.8339
號	-8.83402
持	-8.83531
▁每	-8.83734
英	-8.8377
▁《	-8.83904
由	-8.83917
盛	-8.84154
固	-8.84375
都監	-8.84384
向	-8.84447
▁恐	-8.84593
果	-8.8477
▁今者	-8.85
之論	-8.85337
姜	-8.85369
貞	-8.85455
濟	-8.85576
臨	-8.85578
降	-8.85796
之典	-8.85975
原	-8.86131
捕	-8.86565
秋	-8.86628
京畿	-8.86759
之物	-8.86947
痛	-8.87126
里	-8.8729
僧	-8.87384
錫	-8.87424
▁更	-8.87454
馳啓	-8.87459
闕	-8.8749
獄	-8.87639
刑曹	-8.87649
百	-8.87709
島	-8.87783
"	-8.87917
今年	-8.88007
逆	-8.88008
所啓	-8.88039
書啓	-8.88113
手	-8.88181
彦	-8.88468
▁不能	-8.8849
廳	-8.88627
急	-8.8873
執	-8.8876
▁今後	-8.88926
接	-8.89045
領	-8.89208
斷	-8.89277
之患	-8.89327
▁多	-8.89455
上來	-8.89484
閔	-8.89509
刑	-8.89654
監	-8.89731
郡	-8.89737
存	-8.89738
公事	-8.89881
恭	-8.89997
不允	-8.90138
喜	-8.90447
北	-8.90561
追	-8.90561
業	-8.90589
河	-8.9079
對曰	-8.90903
弊	-8.91237
弘文館	-8.9146
御史	-8.91463
戊申	-8.9148
政院啓曰	-8.91497
狀	-8.91624
詣	-8.9172
至此	-8.91776
火	-8.91794
▁今日	-8.91922
近來	-8.92082
速	-8.92133
典	-8.92258
▁前	-8.92636
祖	-8.9271
郞廳	-8.92738
之義	-8.92757
種	-8.92836
省	-8.92889
▁然後	-8.93141
衆	-8.93289
禮曹啓曰	-8.93435
尊	-8.93464
革	-8.93481
恐	-8.93518
啓辭	-8.93539
交	-8.93735
寺	-8.93824
捧	-8.93829
患	-8.93911
志	-8.93939
▁不聽	-8.93993
補	-8.9402
據	-8.9425
▁自上	-8.94316
之數	-8.94386
憲府啓曰	-8.94437
衛	-8.94668
▁○(	-8.94989
射	-8.9501
之中	-8.95017
輩	-8.95035
漸	-8.95255
州	-8.95381
慶尙道	-8.95404
輔	-8.95518
宰相	-8.95576
畢	-8.95859
論啓	-8.95876
▁請令	-8.95916
習	-8.95926
赴	-8.95928
祿	-8.95946
男	-8.96191
賞	-8.96255
天使	-8.96322
且	-8.9634
切	-8.9657
院	-8.96683
謀	-8.96924
吏曹	-8.96955
俱	-8.96978
爲大司諫	-8.97024
臺	-8.97364
議政府	-8.97507
精	-8.97616
而不	-8.97617
往來	-8.97729
徐	-8.97801
羅	-8.97917
榮	-8.98026
勢	-8.9806
帶	-8.98105
京	-8.98149
才	-8.98191
▁豈可	-8.98214
都事	-8.98215
不敢	-8.98341
稟	-8.98525
煩	-8.98542
庭	-8.98631
完	-8.98685
江	-8.9876
入啓	-8.98761
右	-8.98926
儀	-8.9931
以上	-8.99455
爲獻納	-8.99582
▁臺諫	-8.99603
左	-8.99706
▁先	-8.9981
都承旨	-8.99825
▁及	-8.9984
大典	-9.00016
吏曹判書	-9.00031
▁惟	-9.00064
?’	-9.00109
供	-9.00209
專	-9.00243
▁略曰	-9.00249
特	-9.00299
領議政	-9.0046
彼	-9.00481
之語	-9.00529
推鞫	-9.0054
怨	-9.00659
幾	-9.00667
神	-9.00863
不當	-9.00868
酒	-9.00892
前後	-9.00987
違	-9.01064
宣	-9.0109
出入	-9.01127
選	-9.01132
害	-9.01224
事體	-9.01441
目	-9.01499
散	-9.01584
薄	-9.02022
辨	-9.02069
基	-9.02193
簡	-9.02232
斥	-9.0225
政府	-9.02317
隨	-9.02371
壬辰	-9.0239
遞差	-9.02564
靑	-9.02672
戒	-9.02733
廟	-9.02833
知之	-9.02908
爲司諫	-9.0292
引避	-9.03057
足	-9.03105
謝	-9.0312
之失	-9.0315
動	-9.03252
行之	-9.0327
杖	-9.03371
務	-9.03387
一時	-9.03417
亨	-9.03474
呈	-9.03698
諫院	-9.03786
資	-9.0386
弘	-9.03863
遂	-9.03868
防	-9.0387
猶	-9.0419
性	-9.04239
有所	-9.04324
。"】	-9.04346
奪	-9.04512
累	-9.04543
惠	-9.04605
近日	-9.04613
▁下	-9.04653
錢	-9.04796
外方	-9.04835
鄕	-9.04904
器	-9.05029
華	-9.05045
備邊司啓曰	-9.05177
眞	-9.05359
聲	-9.05529
限	-9.05644
棄	-9.05814
爲執義	-9.06036
泰	-9.06074
兵曹判書	-9.06131
館	-9.06172
全羅道	-9.06226
擬	-9.06385
▁特	-9.06506
徒	-9.06609
爲大司憲	-9.06734
寒	-9.06888
啓請	-9.07035
鞫	-9.07079
陞	-9.07191
每	-9.07397
俊	-9.07469
糧	-9.07508
▁其餘	-9.0757
視	-9.07625
百官	-9.07665
着	-9.07746
▁承旨	-9.08003
諸道	-9.08033
下敎	-9.08195
各道	-9.08425
黨	-9.08428
溫	-9.09019
雜	-9.09081
▁今此	-9.09088
爲修撰	-9.09101
儒	-9.0915
紙	-9.09189
之行	-9.09323
房	-9.09567
▁政院	-9.09732
之疏	-9.09821
怒	-9.09864
郞	-9.10263
密	-9.10379
備局	-9.1054
戊午	-9.10622
▁卿	-9.10687
癸丑	-9.10802
二人	-9.10933
救	-9.10969
之變	-9.11013
上言	-9.11298
等啓曰	-9.1137
庚申	-9.11611
斗	-9.11627
▁尙	-9.1164
壬子	-9.11786
遺	-9.11934
三司	-9.12115
本府	-9.12209
▁猶	-9.1222
己酉	-9.12322
問安	-9.1233
官員	-9.12464
▁終	-9.12562
庚戌	-9.12907
建	-9.12925
乙卯	-9.13134
梁	-9.13205
贈	-9.13232
素	-9.13254
磨鍊	-9.13285
美	-9.13318
憲	-9.13601
記	-9.1362
▁俾	-9.13687
景	-9.13699
▁所當	-9.13862
崇	-9.13933
室	-9.1398
玉堂	-9.14005
宴	-9.14059
貢	-9.14196
齊	-9.14221
判	-9.14277
▁大抵	-9.14339
▁講	-9.14341
弼	-9.14351
之例	-9.1441
▁始	-9.14416
敗	-9.14453
史	-9.14567
效	-9.14686
此事	-9.14866
要	-9.14943
▁自今	-9.14985
甲寅	-9.15061
誤	-9.15087
於此	-9.15107
感	-9.15154
負	-9.15229
尤	-9.15258
禮曹啓	-9.15373
出來	-9.15429
▁今若	-9.15443
末	-9.15467
希	-9.15554
伊	-9.15563
寶	-9.15567
祥	-9.15594
▁須	-9.15786
官吏	-9.1585
▁則其	-9.15889
之臣	-9.15904
戰	-9.15968
爲當	-9.16095
義禁府	-9.1622
延	-9.16388
▁誠	-9.1639
反	-9.16408
辛亥	-9.16501
以來	-9.16546
之民	-9.166
判官	-9.16611
比	-9.16737
出仕	-9.16795
戶曹	-9.16812
釋	-9.16853
之請	-9.16877
丁巳	-9.16927
遽	-9.16956
藏	-9.17058
丙辰	-9.17208
詩	-9.17233
準	-9.17284
著	-9.17371
人心	-9.17389
遷	-9.17511
壬戌	-9.17728
寢	-9.17753
辛酉	-9.17776
野人	-9.18049
之故	-9.18139
以聞	-9.18251
享	-9.1826
憂	-9.1829
純	-9.18394
▁願	-9.184
御經筵	-9.1847
以後	-9.18528
傳旨	-9.18626
讀	-9.1876
▁如有	-9.18827
▁以致	-9.18933
所謂	-9.18968
王世子	-9.19026
印	-9.19056
乙巳	-9.19068
牌	-9.19071
▁勿	-9.19181
寬	-9.19361
空	-9.19409
勞	-9.19507
價	-9.1952
碩	-9.19572
甲	-9.19634
毁	-9.19773
表	-9.19778
禮曹判書	-9.19946
史官	-9.20044
啓聞	-9.20111
卿等	-9.20177
便	-9.20219
端	-9.20232
香	-9.20327
諫院啓曰	-9.20511
議啓	-9.20611
辛丑	-9.2062
嘗	-9.20649
己未	-9.20726
半	-9.21145
而來	-9.21222
介	-9.21242
詳	-9.21324
略	-9.21383
勤	-9.21488
▁不敢	-9.21552
已久	-9.21562
根	-9.21585
公論	-9.21837
處分	-9.21838
府使	-9.21839
聚	-9.2202
丙子	-9.22502
品	-9.22537
己卯	-9.22599
集	-9.2261
▁敢啓	-9.22665
爲校理	-9.22691
願	-9.22703
兵使	-9.22822
甲子	-9.22943
削	-9.22956
唐	-9.22994
祀	-9.23018
凶	-9.23069
恒	-9.23127
未便	-9.23177
製	-9.23199
尤甚	-9.23373
窮	-9.2339
▁或有	-9.23474
葬	-9.23508
貿	-9.23586
藥	-9.2377
豈	-9.23771
副	-9.23779
該曹	-9.23814
克	-9.23923
與否	-9.23985
處之	-9.24021
築	-9.24078
千	-9.24101
▁朝廷	-9.24102
仲	-9.24212
▁今則	-9.24259
庚子	-9.24363
最	-9.24621
。")	-9.24661
啓之	-9.24676
癸亥	-9.24761
量	-9.24911
愛	-9.24978
仕	-9.24988
國事	-9.24996
敍用	-9.25048
▁王	-9.25082
己丑	-9.25217
壬寅	-9.25221
▁聞	-9.25323
▁上以	-9.25545
丁未	-9.25732
▁請遞	-9.25742
兒	-9.2577
赦	-9.25774
甲戌	-9.25838
等處	-9.25932
各官	-9.25954
屢	-9.25972
災	-9.25987
濫	-9.26
案	-9.26058
軍官	-9.26096
節目	-9.26097
之子	-9.26126
禁府	-9.26146
第	-9.26151
松	-9.2623
啓言	-9.26244
丁酉	-9.26252
部	-9.26293
已諭	-9.26363
可矣	-9.26444
勸	-9.2645
某	-9.26505
自上	-9.26506
▁不爲	-9.26512
▁不從	-9.26517
辭職	-9.26521
産	-9.26528
▁雖有	-9.26542
當初	-9.26591
▁近來	-9.26595
證	-9.26656
辛卯	-9.26666
己巳	-9.26672
忠淸道	-9.26674
丙申	-9.26722
迫	-9.26783
▁待	-9.26849
觀察使	-9.26866
甲辰	-9.26876
堅	-9.27014
庚寅	-9.27082
▁不必	-9.27211
▁後	-9.27247
浦	-9.27285
▁尤	-9.27341
川	-9.27412
聖上	-9.27507
澤	-9.27604
乙未	-9.27704
文書	-9.27719
辛巳	-9.27763
勝	-9.27797
登	-9.27846
傳敎	-9.27847
牛	-9.27863
愚	-9.28054
父母	-9.28193
丁丑	-9.28237
推之	-9.28258
胡	-9.28289
之啓	-9.2852
謹	-9.28628
氏	-9.28628
▁反	-9.28632
審	-9.2866
▁仍命	-9.2878
乙亥	-9.28818
妄	-9.28877
▁得	-9.28901
丙午	-9.2903
上箚	-9.29318
點	-9.29451
各司	-9.29467
侍	-9.29535
丁卯	-9.29618
▁卿等	-9.29642
己亥	-9.29726
未及	-9.2973
涉	-9.29914
▁入	-9.29957
亡	-9.29999
甲午	-9.30156
▁乞	-9.30173
威	-9.30227
除授	-9.30348
洞	-9.30441
先朝	-9.306
伯	-9.30615
修撰	-9.30671
戊辰	-9.308
花	-9.3081
通事	-9.30854
宗親	-9.30903
秀	-9.3091
癸卯	-9.30962
稍	-9.30984
誣	-9.31009
慰	-9.31093
籍	-9.31272
▁講訖	-9.31352
壬午	-9.31397
須	-9.31517
庚午	-9.31616
爲副修撰	-9.31677
備邊司	-9.31721
三公	-9.31751
戊戌	-9.31834
其罪	-9.31909
破	-9.31982
子孫	-9.32018
農	-9.32042
盜	-9.32061
戊子	-9.32112
之職	-9.32159
癸巳	-9.32217
乙酉	-9.32218
▁分	-9.32248
中外	-9.32253
休	-9.32336
▁而今	-9.32339
之議	-9.32374
問之	-9.32583
戊寅	-9.32603
▁不宜	-9.32635
淵	-9.32682
賤	-9.3269
不同	-9.32919
料	-9.32934
》。	-9.33098
黃海道	-9.33138
宗廟	-9.3315
庚辰	-9.33211
箚	-9.33215
歟	-9.33318
增	-9.33411
公議	-9.33446
癸酉	-9.33488
丁亥	-9.33545
如何	-9.33557
淳	-9.33576
劾	-9.33586
升	-9.33629
爭	-9.33695
癸未	-9.3377
之類	-9.33774
道臣	-9.33935
三年	-9.33943
二十	-9.33993
壬申	-9.33993
所言	-9.34101
爵	-9.34147
早	-9.34264
然後	-9.34407
列	-9.34526
査	-9.34553
冒	-9.34568
畏	-9.34628
丙寅	-9.3472
滿	-9.34743
兇	-9.34768
掌	-9.34878
▁非但	-9.35155
丙戌	-9.3517
▁可以	-9.35176
兪	-9.35218
乙丑	-9.35228
智	-9.35409
上敎	-9.35928
騎	-9.35942
▁其後	-9.35944
所爲	-9.35948
左右	-9.36
護	-9.36086
承政院	-9.36105
適	-9.36128
不許	-9.36297
伏	-9.36312
先王	-9.36336
敢	-9.36451
用之	-9.36457
▁固	-9.36465
▁見	-9.36519
門外	-9.36561
內官	-9.36568
指揮	-9.3658
胤	-9.36593
之策	-9.36597
損	-9.36633
不得已	-9.36719
墓	-9.36816
爲副校理	-9.36823
義州	-9.36886
辱	-9.37072
廷	-9.37189
辛未	-9.37219
▁姑	-9.37261
忘	-9.37317
之官	-9.37432
▁除	-9.37457
所以	-9.37485
員	-9.37615
冊	-9.37672
入直	-9.37741
▁必有	-9.37753
優	-9.37754
〔	-9.37776
逃	-9.37827
震	-9.37876
馳啓曰	-9.3799
甲申	-9.38016
措置	-9.3804
禍	-9.38102
俗	-9.38125
▁其時	-9.38235
六曹	-9.38284
▁俱	-9.38473
之辭	-9.3848
‘	-9.38481
嫌	-9.38548
干	-9.38579
鐵	-9.38727
宿	-9.38877
配	-9.38985
茂	-9.38999
之理	-9.39009
之處	-9.39177
爲司諫院大司諫	-9.39199
▁豈不	-9.3927
▁尹	-9.39316
上疏曰	-9.39356
豐	-9.39448
積	-9.39522
▁何以	-9.39549
康	-9.39611
拿來	-9.39657
亦有	-9.39692
勉	-9.39702
童	-9.39715
策	-9.39775
司憲府	-9.39816
▁前後	-9.39933
柱	-9.40095
格	-9.40115
。)	-9.40157
代之	-9.40159
遼東	-9.40177
大將	-9.40334
從之	-9.40456
飭	-9.40471
文臣	-9.40726
乙	-9.40794
晩	-9.40822
輕重	-9.4091
▁而其	-9.414
賀	-9.41403
陰	-9.41429
虎	-9.4143
齋	-9.41495
弟	-9.41535
大小	-9.41552
奇	-9.41695
▁不過	-9.41708
府院君	-9.41744
一日	-9.418
日本國	-9.41811
東宮	-9.42035
等上疏	-9.42106
儲	-9.42153
愈	-9.42167
化	-9.42221
差出	-9.42277
步	-9.42319
邦	-9.42375
塞	-9.4242
議處	-9.42598
邊將	-9.42634
侍衛	-9.42678
副使	-9.42767
入來	-9.42778
▁未	-9.42812
席	-9.42858
議之	-9.42861
行禮	-9.42871
視事	-9.42974
▁則必	-9.43046
聞之	-9.43064
五十	-9.43096
瑞	-9.43128
校理	-9.4319
不可不	-9.43275
魚	-9.43504
不從	-9.43558
隱	-9.43575
一事	-9.43651
▁權	-9.43691
奠	-9.43772
仰	-9.43797
▁則當	-9.43813
衡	-9.43842
▁今又	-9.43844
本曹	-9.43926
臺官	-9.43942
▁極爲	-9.44136
▁當此	-9.44155
邪	-9.44157
係	-9.44175
敍	-9.44227
大事	-9.4426
撤	-9.44433
之功	-9.44465
萬戶	-9.4454
儒臣	-9.44546
》、《	-9.44598
倉	-9.44615
迎	-9.4462
卷	-9.44651
▁若不	-9.44654
宇	-9.44717
明日	-9.44804
▁多有	-9.44858
稅	-9.44864
緩	-9.44872
經筵	-9.4502
▁大槪	-9.45032
恤	-9.45082
罰	-9.45099
市	-9.4519
▁夫	-9.45286
三人	-9.45295
類	-9.45459
淑	-9.45467
其時	-9.45524
傳于	-9.45545
規	-9.45615
遵	-9.45617
兄弟	-9.45623
莫	-9.4577
▁何必	-9.45867
阿	-9.45883
至於	-9.45958
之役	-9.46173
見之	-9.46214
侍從	-9.46214
式	-9.46252
是非	-9.46302
皇帝	-9.46371
▁亦有	-9.46493
冬	-9.46496
耕	-9.46519
旨	-9.46651
細	-9.46698
辛	-9.46719
階	-9.46723
司憲府啓曰	-9.46746
危	-9.46769
馳	-9.4683
舍	-9.46866
▁果	-9.46946
商	-9.47086
▁請命罷職	-9.47139
姑	-9.47206
▁上答曰	-9.47253
誅	-9.47265
卜	-9.47321
畫	-9.47369
云云	-9.47428
曺	-9.47429
實錄	-9.47504
▁民	-9.47517
附	-9.47546
嘉	-9.47608
斬	-9.47693
▁取	-9.47776
▁勿爲	-9.47825
駭	-9.47859
不合	-9.48025
匹	-9.48137
啓達	-9.48164
軍兵	-9.48203
治罪	-9.48226
昭	-9.48252
顧	-9.48276
▁敢	-9.48286
雪	-9.48335
回啓	-9.48347
婢	-9.48486
定配	-9.4851
▁請依	-9.4854
擊	-9.48562
烈	-9.48573
予意	-9.48606
可以	-9.48606
訓	-9.48839
音	-9.48881
之外	-9.48931
城君	-9.48933
緣	-9.49088
▁世子	-9.49089
▁本	-9.49157
鳳	-9.49206
赤	-9.49252
刑訊	-9.49332
憤	-9.49357
閑	-9.49383
改正	-9.49476
者乎	-9.49655
熙	-9.49719
豆	-9.49768
訖	-9.49808
斤	-9.49907
照律	-9.49951
領相	-9.49973
▁前日	-9.50024
大提學	-9.50114
郞官	-9.50124
春秋	-9.50161
之前	-9.50176
召見	-9.50356
照	-9.50375
楊	-9.50386
助	-9.50475
毛	-9.50531
濟州	-9.50715
富	-9.50735
苦	-9.50769
下諭	-9.5081
忽	-9.50988
▁遽	-9.51012
懲	-9.51147
▁鄭	-9.51244
質	-9.51306
陳疏	-9.51365
▁謂	-9.51513
諫	-9.51556
平安	-9.51579
爲司憲府大司憲	-9.51708
循	-9.51746
之誠	-9.52011
露	-9.52029
尺	-9.52093
節度使	-9.52114
▁不可以	-9.52179
▁已爲	-9.52185
車	-9.52198
沙	-9.52202
▁柳	-9.52294
八十	-9.52368
候	-9.52404
怪	-9.52494
輸	-9.5257
共	-9.52606
息	-9.52607
辦	-9.52618
社稷	-9.52639
甚矣	-9.52645
鞫之	-9.52678
所在	-9.52681
否	-9.52745
爲難	-9.52838
形	-9.52854
熟	-9.52951
攻	-9.52997
大君	-9.53016
無異	-9.5302
巡	-9.53106
本國	-9.53155
武臣	-9.53191
其家	-9.53211
中朝	-9.53283
飮	-9.53437
一道	-9.53441
▁日	-9.5369
▁又啓	-9.53774
閣	-9.53777
人物	-9.53987
漢城府	-9.54171
假	-9.54198
偏	-9.54209
之內	-9.54223
就職	-9.54254
所見	-9.54281
書狀	-9.54375
▁不知	-9.54384
▁而不	-9.54405
▁率	-9.54489
一百	-9.54545
他人	-9.54587
▁往	-9.54669
驛	-9.54757
▁設	-9.54777
▁則雖	-9.54882
詣闕	-9.54898
帖	-9.55056
▁當初	-9.55101
贖	-9.55116
暴	-9.55117
似當	-9.5516
虜	-9.55244
其人	-9.55259
無所	-9.55263
落	-9.55355
▁國家	-9.55357
▁三	-9.55368
在於	-9.55522
▁朴	-9.55728
劉	-9.5582
之路	-9.55883
▁其中	-9.55924
鼎	-9.55926
戶曹判書	-9.55996
均	-9.56056
親祭	-9.5606
▁方	-9.56064
▁如此	-9.5607
曹	-9.56161
▁而以	-9.56169
▁以其	-9.56343
抄	-9.5635
試官	-9.56473
罪之	-9.56475
避嫌	-9.56523
所犯	-9.56569
驚	-9.56574
倭人	-9.566
咨	-9.56609
佐	-9.56662
禹	-9.56731
誰	-9.56744
統	-9.56797
之徒	-9.56802
司憲府啓	-9.56859
父子	-9.56898
▁亦不	-9.56964
同僚	-9.57015
▁不許	-9.57071
竊	-9.57077
▁未知	-9.57118
入送	-9.57139
▁上不從	-9.57164
陣	-9.57329
懼	-9.57341
越	-9.57359
】	-9.5746
寵	-9.57573
道內	-9.5759
族	-9.57675
▁不無	-9.57687
▁常	-9.57772
欽	-9.57784
孟	-9.57857
待罪	-9.57886
▁亟	-9.5792
皮	-9.5795
場	-9.5797
覽	-9.58095
帝	-9.58143
勑	-9.58225
此人	-9.58276
▁復	-9.58285
▁屢	-9.58338
懇	-9.58421
▁問	-9.58682
江原道	-9.58721
▁臣之	-9.58767
唐人	-9.58771
▁非徒	-9.58772
謝恩	-9.58888
黑	-9.58911
▁似	-9.58933
程	-9.58975
調	-9.58988
投	-9.59041
三十	-9.5919
▁噫	-9.59237
境	-9.5929
衰	-9.59332
謁	-9.59333
督	-9.59346
知其	-9.59351
參判	-9.59385
水使	-9.59542
其父	-9.59708
廟堂	-9.59839
勳	-9.59902
單子	-9.59927
庸	-9.59933
哀	-9.59983
或有	-9.59992
等曰	-9.60028
友	-9.60047
住	-9.60121
拿問	-9.60159
之方	-9.60183
龜	-9.60207
▁其令	-9.60211
今此	-9.6026
▁人皆	-9.6028
檢	-9.60425
▁令該曹	-9.60483
司諫院啓曰	-9.60485
預	-9.60562
署	-9.60594
刻	-9.60722
▁今聞	-9.6075
哭	-9.60752
▁趙	-9.60765
脫	-9.60909
▁又以	-9.60949
▁"《	-9.61029
充	-9.61095
雖有	-9.61122
採	-9.61182
平壤	-9.61196
慈殿	-9.61244
靈	-9.6129
皇	-9.61342
三日	-9.61394
宥	-9.61475
拿鞫	-9.61495
秩	-9.61702
事目	-9.61776
▁不勝	-9.61795
▁獨	-9.61838
▁以示	-9.61939
▁彼	-9.61962
齡	-9.62022
通政	-9.62034
叔	-9.62038
▁請以	-9.62121
齎	-9.62131
醫	-9.62149
等物	-9.62158
紀	-9.62256
裕	-9.62282
▁我國	-9.62369
爲言	-9.62461
題	-9.62496
侵	-9.62497
曲	-9.62612
驅	-9.62814
’,	-9.62851
成均館	-9.62872
▁王世子	-9.629
兄	-9.63074
不服	-9.63119
▁決不可	-9.63129
甚多	-9.63131
爲便	-9.6327
陷	-9.63316
嶺南	-9.63339
冤	-9.63348
榜	-9.63366
宣傳官	-9.6337
爲人	-9.63425
政丞	-9.63483
乘	-9.63577
諸邑	-9.63583
班	-9.63604
約	-9.6368
放送	-9.63762
夢	-9.6385
倫	-9.64152
紅	-9.64163
御朝講	-9.64203
險	-9.6427
敬差官	-9.64271
冠	-9.64318
伸	-9.64336
之下	-9.64391
訟	-9.64395
諱	-9.64402
▁又曰	-9.64488
▁同	-9.64495
三月	-9.6453
漏	-9.64536
七十	-9.64639
參議	-9.64646
殊	-9.6472
妾	-9.64736
討	-9.64775
敏	-9.64884
▁輒	-9.6489
▁別	-9.64975
之端	-9.65002
覈	-9.65009
如啓	-9.65068
其子	-9.65154
接待	-9.65214
▁「	-9.65257
不已	-9.65472
垂	-9.65523
默	-9.65578
上送	-9.65596
上書	-9.65711
▁一一	-9.65879
以李	-9.6592
所當	-9.6597
▁此則	-9.6606
臺諫啓前事	-9.66154
笑	-9.66187
無狀	-9.66295
頗	-9.66309
述	-9.66319
▁不得已	-9.6636
渠	-9.66362
驗	-9.66405
▁可謂	-9.66494
潛	-9.66552
之規	-9.66716
之律	-9.66748
嶺	-9.66759
之制	-9.6679
佛	-9.66798
▁豈有	-9.6689
排	-9.66959
等語	-9.66971
前例	-9.67057
▁先是	-9.67063
巨	-9.67109
答曰	-9.67136
惜	-9.67163
援	-9.67266
各邑	-9.67304
遞之	-9.67306
久矣	-9.67368
弱	-9.67404
賣	-9.67408
慢	-9.6744
下人	-9.67495
買	-9.6753
滅	-9.67613
荒	-9.67696
祖宗	-9.6776
同副承旨	-9.67769
擅	-9.6777
▁何可	-9.67798
▁亦爲	-9.67868
廉	-9.67878
▁憲府	-9.67885
。’"	-9.67896
嬪	-9.67926
妓	-9.68082
司諫院	-9.68151
象	-9.68203
京中	-9.68209
不及	-9.68228
季	-9.68278
▁莫不	-9.68333
▁毋	-9.68399
賴	-9.68486
而後	-9.68519
譯官	-9.68552
▁又啓曰	-9.68586
骨	-9.68626
操	-9.68664
番	-9.68665
費	-9.68696
覆	-9.68779
玄	-9.68791
▁益	-9.6882
啓下	-9.68842
▁有若	-9.68869
分付	-9.68913
▁許	-9.69019
▁卿其	-9.69089
生員	-9.69107
申飭	-9.69108
觀之	-9.69109
儉	-9.69125
殘	-9.69126
勘	-9.69157
哲	-9.69241
之至	-9.69286
▁出於	-9.69303
軍門	-9.6931
二百	-9.69342
旣已	-9.69354
故事	-9.69401
天朝	-9.69411
爲刑曹判書	-9.69443
衙門	-9.69465
差官	-9.69521
激	-9.69621
▁至爲	-9.69695
悉	-9.69697
背	-9.69747
上下	-9.69772
▁自有	-9.6985
請對	-9.69913
▁近日	-9.69914
看	-9.69918
轉	-9.69922
工	-9.69936
論賞	-9.69961
貪	-9.70011
甫	-9.70037
▁豈無	-9.70042
▁召	-9.70067
▁用	-9.70088
之士	-9.70093
▁論	-9.70122
振	-9.70128
▁又有	-9.70142
單	-9.70173
刑曹判書	-9.70182
▁曾	-9.7024
加刑	-9.70242
宜當	-9.70279
下送	-9.70331
咸	-9.70383
乞	-9.70525
▁監司	-9.70531
訴	-9.70548
掩	-9.70621
庶	-9.70668
麟	-9.70733
困	-9.70735
縣令	-9.70852
臺閣	-9.70882
▁旣已	-9.70883
▁安	-9.70904
換	-9.70945
庫	-9.7097
但	-9.70987
遭	-9.70999
九月	-9.71076
敵	-9.71147
財	-9.71371
竄	-9.7146
之情	-9.71471
厥	-9.71479
慶尙	-9.71539
昔	-9.71576
愧	-9.71587
健	-9.71715
勿爲	-9.71789
伏見	-9.71947
王子	-9.71963
沒	-9.71993
大王	-9.72053
咸鏡道	-9.72063
兵曹啓	-9.72166
▁於是	-9.7217
▁俾無	-9.72338
肆	-9.72379
副校理	-9.72435
無妨	-9.72446
湖南	-9.72496
逆賊	-9.72497
黜	-9.7252
隆	-9.72656
▁皆以	-9.72714
後日	-9.72735
銓曹	-9.72739
人等	-9.72779
夕	-9.72788
▁明	-9.72789
▁徒	-9.72875
之輩	-9.72904
察訪	-9.72927
▁世	-9.72942
魯	-9.73122
駕	-9.73151
▁若以	-9.73247
不過	-9.73349
判書	-9.73366
人君	-9.7339
使之	-9.73489
之望	-9.73491
尋常	-9.73576
乾	-9.73684
貸	-9.73695
▁夜	-9.73734
綿布	-9.73749
有異	-9.73761
材	-9.73764
從事官	-9.7377
▁玆	-9.73779
盧	-9.7382
▁其於	-9.73826
人之	-9.73912
不行	-9.73931
臣之	-9.73949
▁罪	-9.74089
人也	-9.74106
▁遣	-9.74154
走	-9.7422
赴京	-9.74265
創	-9.74363
議定	-9.74393
晋	-9.74406
出身	-9.74437
爲吏曹參議	-9.7444
未得	-9.74454
悅	-9.74461
▁出	-9.74525
▁申	-9.74643
奎	-9.74677
▁唯	-9.74696
亮	-9.74743
二字	-9.74905
遊	-9.74908
構	-9.75016
▁限	-9.75044
論之	-9.75045
武士	-9.75046
賑	-9.75054
宋時烈	-9.75082
朝鮮	-9.75105
▁各別	-9.75129
之比	-9.75131
鍾	-9.75201
甲士	-9.7527
監察	-9.75275
罔極	-9.75406
靖	-9.75555
曉	-9.75573
▁右議政	-9.75607
全羅	-9.75805
京外	-9.75858
快	-9.76008
臺諫啓	-9.76053
乏	-9.76072
大禮	-9.76088
▁允之	-9.76341
更議	-9.764
可知	-9.76446
二品以上	-9.76465
大人	-9.76474
舊例	-9.76585
星下	-9.76612
下書	-9.76629
不必	-9.76644
山陵	-9.76694
定罪	-9.76726
宗室	-9.76828
▁一時	-9.76857
朝家	-9.76948
防禦	-9.76996
昏	-9.77023
▁上謂	-9.77028
進上	-9.77032
毒	-9.77211
托	-9.77306
進士	-9.77315
▁苟	-9.77423
三百	-9.77467
前啓	-9.77541
躬	-9.77604
承命	-9.77604
屈	-9.7773
▁直	-9.77771
進退	-9.77794
屯	-9.77795
識	-9.77831
陳賀	-9.77847
▁言于	-9.77865
植	-9.77866
而止	-9.77891
▁盡	-9.77945
民間	-9.7806
咸吉道	-9.78069
事也	-9.78086
之名	-9.78097
▁具	-9.78179
▁而至於	-9.78193
推問	-9.78211
忠淸	-9.7823
委	-9.7824
▁受	-9.78259
之列	-9.78324
▁今年	-9.78409
▁專	-9.78443
舜	-9.78452
中國	-9.7854
抑	-9.78617
被罪	-9.78693
天下	-9.78781
▁予甚	-9.78813
連啓	-9.7882
宗社	-9.78833
京城	-9.7885
不至	-9.78883
北道	-9.78966
支	-9.78971
致祭	-9.78986
機	-9.78992
受敎	-9.79034
合啓	-9.79048
▁及其	-9.79054
六十	-9.79082
欺	-9.79136
李世	-9.7916
纔	-9.79184
以進	-9.79189
▁左議政	-9.79318
▁今當	-9.79386
還宮	-9.79397
▁適	-9.79463
▁何敢	-9.79511
不謹	-9.79544
▁洪	-9.79751
▁若有	-9.79812
八月	-9.79822
付處	-9.79863
亦不	-9.79887
關西	-9.79928
日本	-9.80174
警	-9.80189
▁還	-9.80242
▁兼	-9.80249
▁此非	-9.8029
昨	-9.8032
之資	-9.80479
▁我	-9.80561
僉使	-9.80569
▁請命	-9.80583
▁更爲	-9.80671
請罪	-9.80689
呈辭	-9.80708
左副承旨	-9.8078
有差	-9.80809
管	-9.80819
右相	-9.80844
歷	-9.80887
一體	-9.80925
四月	-9.80932
之政	-9.81022
▁爾	-9.81091
▁明日	-9.81186
年少	-9.8127
淫	-9.81331
▁沈	-9.81341
右副承旨	-9.81541
下去	-9.81593
不出	-9.81681
賓	-9.81727
左相	-9.81745
揚	-9.81754
變通	-9.81833
祝	-9.81975
▁爲人	-9.81981
其所	-9.82036
平安監司	-9.82088
▁不須	-9.82149
乖	-9.82216
祖宗朝	-9.8224
獲	-9.82273
究	-9.82396
▁移	-9.82403
▁竟	-9.82476
啓本	-9.82514
津	-9.82581
又啓曰	-9.82608
▁守令	-9.82625
文武	-9.8264
爾等	-9.8265
盡心	-9.82706
一一	-9.82768
▁爾等	-9.8277
群臣	-9.8283
殺人	-9.82885
▁久	-9.82909
之餘	-9.83103
爲吏曹參判	-9.83107
言官	-9.8311
▁固當	-9.83295
十五	-9.83344
之初	-9.83371
傳于承政院曰	-9.83436
壯	-9.83512
▁其爲	-9.83588
煥	-9.83609
已爲	-9.83646
子弟	-9.83679
諸將	-9.83724
在外	-9.83728
占	-9.83754
▁況今	-9.83785
▁再	-9.83833
旱	-9.83935
拔	-9.83939
序	-9.8394
▁亦令	-9.83992
肅	-9.8405
所論	-9.84068
鞫問	-9.84068
赴任	-9.84141
還收	-9.84283
壇	-9.84339
▁而又	-9.8434
▁昨日	-9.84411
頃日	-9.84425
之恩	-9.84478
呼	-9.84501
其言	-9.84514
刑曹啓	-9.84568
欠	-9.84583
七月	-9.84645
隨駕	-9.84682
熱	-9.84998
而去	-9.85011
折	-9.85064
文字	-9.85127
定式	-9.85155
姦	-9.85179
野	-9.85217
副提學	-9.85267
嘉善	-9.85305
苟	-9.85414
賦	-9.85445
一二	-9.85489
前此	-9.85489
承文院	-9.85491
▁連	-9.85609
未知	-9.85639
朱	-9.85681
▁汝	-9.85736
詐	-9.85768
婚	-9.85801
安置	-9.8584
差遣	-9.85852
小人	-9.85867
▁其所	-9.85897
一員	-9.85907
鑑	-9.85951
之習	-9.85968
人民	-9.86012
慈	-9.8605
行公	-9.86052
剛	-9.86097
▁天	-9.86125
▁特命	-9.86162
篤	-9.86237
不用	-9.86253
伐	-9.86289
仍任	-9.86305
五禮儀	-9.86332
公主	-9.86345
陪	-9.86424
講武	-9.86461
臣子	-9.86627
有弊	-9.86689
謂之	-9.86713
▁掌令	-9.86737
其職	-9.86751
雖不	-9.86814
不言	-9.86839
軍器	-9.86853
矢	-9.86871
▁百官	-9.86902
遠竄	-9.86906
四十	-9.86953
封進	-9.86976
王曰	-9.87013
十二	-9.87119
飢民	-9.87206
贊	-9.87288
▁又命	-9.87365
堡	-9.87369
不宜	-9.87494
▁則是	-9.87502
五百	-9.87537
編	-9.87586
▁隨	-9.87672
所聞	-9.87689
牧	-9.87706
▁所以	-9.87761
論罪	-9.87783
咎	-9.87836
改之	-9.87905
大義	-9.88043
同議	-9.8805
▁更加	-9.88221
擧動	-9.88249
未盡	-9.88255
輿	-9.88297
▁請勿	-9.88305
臺臣	-9.88311
▁雖不	-9.88374
筆	-9.88445
▁未及	-9.88455
惑	-9.88479
國王	-9.88749
雄	-9.88791
可乎	-9.88808
謝恩使	-9.88855
逸	-9.88937
▁深	-9.88951
圍	-9.88952
波	-9.88985
親行	-9.89022
▁何以爲之	-9.89038
▁竝令	-9.89121
妖	-9.89139
淺	-9.89159
▁此後	-9.89207
短	-9.89246
浩	-9.89259
▁第	-9.89285
毋	-9.89295
築城	-9.89322
左承旨	-9.89362
還給	-9.89456
▁所謂	-9.89479
按	-9.89564
▁此豈	-9.89567
幼學	-9.89689
寒心	-9.89752
重臣	-9.89785
吏曹參判	-9.89872
▁大司憲	-9.89902
聖明	-9.89908
悖	-9.89933
弓	-9.89936
孤	-9.89942
忍	-9.89952
▁請竝	-9.90027
副修撰	-9.90043
二月	-9.90062
▁必欲	-9.90118
注書	-9.90124
雷	-9.90183
徽	-9.90215
褒	-9.90243
摠	-9.90254
添	-9.90336
潤	-9.90359
闕內	-9.90366
之家	-9.90369
奏曰	-9.90401
盧思愼	-9.90443
讓	-9.90517
協	-9.90587
緜布	-9.906
何以	-9.90645
▁庶	-9.90712
壞	-9.90723
勿論	-9.90726
已定	-9.90903
雨雹	-9.91018
有司	-9.91026
他道	-9.91058
▁今已	-9.91085
▁人心	-9.91088
扶	-9.91101
▁進	-9.91111
御晝講	-9.91143
者多	-9.91302
鹽	-9.91326
▁上引見	-9.91348
許之	-9.91409
件	-9.91439
判府事	-9.91439
大司成	-9.91546
引見	-9.91579
頒	-9.91632
奉審	-9.91706
書契	-9.91726
八道	-9.91846
貿易	-9.91846
右承旨	-9.91855
導	-9.91887
標	-9.92015
節制使	-9.92025
四百	-9.92031
批	-9.92045
族親	-9.92113
圭	-9.92122
蘇	-9.92165
題給	-9.92206
戲	-9.92302
峻	-9.92309
▁物情	-9.92309
未久	-9.92342
履	-9.92346
▁今見	-9.92363
十月	-9.924
▁領事	-9.92402
▁上下	-9.92525
之意也	-9.92615
貫	-9.92623
祚	-9.92633
禮官	-9.92653
寇	-9.92687
亟	-9.92722
▁此亦	-9.92752
一年	-9.92823
齒	-9.92938
等邑	-9.92952
▁無不	-9.92958
朝官	-9.92965
畜	-9.92971
逢	-9.92997
挾	-9.93101
▁近	-9.93131
六月	-9.93149
之責	-9.93297
珍	-9.93325
群	-9.93335
洙	-9.93338
緊	-9.93349
閱	-9.93393
所陳	-9.93486
▁是日	-9.93656
改差	-9.93729
之勢	-9.93793
術	-9.93805
之節	-9.93879
顚倒	-9.93948
地震	-9.93983
板	-9.94044
本院	-9.94116
京畿監司	-9.94123
▁何如	-9.94278
▁勿令	-9.94353
逐	-9.94392
工曹判書	-9.94415
置之	-9.9445
之致	-9.94488
懸	-9.94513
經略	-9.94549
數日	-9.94599
啓稟	-9.94605
活	-9.94613
移御	-9.94613
▁色赤	-9.94665
答之	-9.94723
遊擊	-9.94732
饋	-9.94794
悶	-9.948
値	-9.94857
懿	-9.9486
必有	-9.94927
輒	-9.94929
▁請自今	-9.94983
至重	-9.94992
謬	-9.95012
寅	-9.95187
方物	-9.95236
▁上不許	-9.95409
來啓	-9.95424
秉	-9.95425
救荒	-9.95499
▁長	-9.95523
五月	-9.95559
▁其在	-9.95573
▁實是	-9.95699
明白	-9.95722
尋	-9.95821
爲國	-9.95835
告身	-9.95865
▁別無	-9.95902
▁而但	-9.95949
可否	-9.95971
隻	-9.96014
▁必須	-9.96025
徑	-9.9606
郭	-9.96111
橫	-9.96125
巧	-9.96158
維	-9.96229
▁引見	-9.96232
▁此乃	-9.96262
製述	-9.96287
諸事	-9.96288
側	-9.96322
臣民	-9.96324
軍卒	-9.96333
▁今以	-9.9642
▁似當	-9.96431
便否	-9.96439
▁無乃	-9.9649
禧	-9.96495
打	-9.96526
而然也	-9.96719
引嫌	-9.96722
不參	-9.96729
▁流星出	-9.96867
科擧	-9.97184
消	-9.97199
▁改	-9.97205
之不	-9.9733
▁正	-9.97343
忝	-9.97456
旬	-9.97457
水軍	-9.97546
箭	-9.97577
不嚴	-9.97641
▁持平	-9.97691
上命	-9.9771
列邑	-9.97799
▁兩司	-9.97821
呂	-9.97891
▁都承旨	-9.97891
敦	-9.97929
▁不合	-9.97932
▁累	-9.97953
現	-9.97959
歎	-9.97982
寫	-9.98046
罷黜	-9.98129
太廟	-9.98159
宰	-9.98248
其任	-9.98317
左參贊	-9.98329
韓明澮	-9.98351
試取	-9.98377
大妃	-9.98392
焚	-9.98398
而還	-9.98415
校	-9.98472
▁有何	-9.98487
銓	-9.98522
池	-9.98565
詳察	-9.9866
水原	-9.98686
▁幸	-9.98691
▁上許之	-9.98717
奉行	-9.98739
斯	-9.98777
事勢	-9.98796
上詣	-9.9883
可慮	-9.98951
黃海	-9.98994
尾	-9.99014
▁繼	-9.99018
浮	-9.9902
刊	-9.9902
試射	-9.99026
▁旋	-9.99053
若是	-9.99062
宰臣	-9.99063
刑推	-9.99098
▁以至	-9.99107
陳達	-9.99144
▁吾	-9.99159
再啓	-9.9918
其意	-9.99192
▁永	-9.99295
穆	-9.99299
稟處	-9.99449
撰	-9.99461
角	-9.99492
諭之	-9.99502
▁雖曰	-9.99509
可疑	-9.99575
▁新	-9.996
▁重	-9.99694
分揀	-9.99736
▁任	-9.99873
而死	-9.99893
之爲	-9.99905
▁自古	-9.99923
科罪	-9.9994
本職	-9.99955
設行	-9.99955
常時	-10
勇	-10.0001
有罪	-10.0005
前者	-10.0006
傍	-10.0006
旋	-10.0016
幹	-10.002
▁速爲	-10.0023
▁申前啓	-10.003
者然	-10.0036
別試	-10.004
▁元	-10.0041
婦	-10.0052
井	-10.0053
移咨	-10.0058
無罪	-10.006
肉	-10.0073
等議	-10.0074
不見	-10.0083
曠	-10.0084
▁此實	-10.0091
騷擾	-10.01
仇	-10.01
收議	-10.0103
億	-10.0105
正月	-10.0112
入內	-10.0114
護軍	-10.0116
內需司	-10.0117
一匹	-10.0117
▁潛	-10.0128
▁給	-10.0132
蓋	-10.0141
摘奸	-10.0146
停之	-10.015
鳴	-10.0156
▁實爲	-10.0158
受常參	-10.0158
的	-10.016
武科	-10.0162
績	-10.017
義禁府啓	-10.0173
應敎	-10.0179
山城	-10.0184
禮部	-10.019
東西	-10.0193
▁皆不允	-10.0194
疏中	-10.0194
斂	-10.02
不聽	-10.0202
湖西	-10.0202
庭試	-10.0203
義理	-10.0206
▁合	-10.0206
跡	-10.0206
曲折	-10.0207
先是	-10.0214
事干	-10.0214
刷還	-10.0218
▁大司諫	-10.0224
▁事體	-10.0225
上國	-10.0229
爲禮曹判書	-10.0229
不安	-10.0239
以送	-10.024
趨	-10.0241
句	-10.0241
大矣	-10.0245
膺	-10.0247
▁勢	-10.025
捉	-10.0253
亦當	-10.0265
苟且	-10.0272
迹	-10.0275
領府事	-10.0277
軍人	-10.0283
言者	-10.0286
殷	-10.0292
▁或以	-10.0304
甘	-10.0306
▁至有	-10.0312
彌	-10.032
本司	-10.0321
十五日	-10.0336
疾病	-10.0346
▁則恐	-10.0353
翊	-10.0361
右參贊	-10.0362
慕	-10.0364
村	-10.0366
▁一依	-10.037
▁請罷	-10.0372
狂	-10.0373
▁至今	-10.0375
上王	-10.0377
▁以待	-10.0378
該	-10.0381
▁今雖	-10.0386
注擬	-10.0399
額	-10.0399
道路	-10.0399
▁啓	-10.0402
爲都承旨	-10.0403
▁來	-10.0408
▁莫	-10.0409
合司	-10.042
人情	-10.0424
文科	-10.0424
注	-10.0426
▁渠	-10.0429
右贊成	-10.043
符	-10.043
所用	-10.0431
▁此意	-10.0431
平時	-10.0434
減死	-10.0451
姪	-10.0453
▁賊	-10.0455
副正	-10.0456
明年	-10.0463
流星出	-10.0463
鑄	-10.0466
擇差	-10.0467
拿	-10.0473
屋	-10.0477
踈	-10.0477
不卽	-10.0477
命招	-10.0481
聖敎	-10.0482
▁有所	-10.0484
宜矣	-10.0486
借	-10.0489
內外	-10.0491
江都	-10.0496
▁昔	-10.0501
贓	-10.0502
▁終不	-10.052
移文	-10.0523
各一	-10.0524
筵	-10.0526
謄錄	-10.0526
遣人	-10.0529
詢	-10.0534
待之	-10.0534
巖	-10.0536
園	-10.0537
▁亦當	-10.054
驚駭	-10.054
玆	-10.0541
撫	-10.0544
▁前者	-10.0545
上以	-10.055
燒	-10.0552
未能	-10.0554
開諭	-10.0555
▁兩	-10.0557
續	-10.0558
其事	-10.0559
▁諫院	-10.0563
差送	-10.0569
特命	-10.0572
博	-10.0574
累日	-10.0578
上下敎曰	-10.0585
▁因此	-10.0588
復命	-10.0591
飾	-10.0597
宦官	-10.0598
▁歷	-10.0603
柄	-10.0605
靡	-10.0622
西北	-10.0631
耗	-10.0632
醫官	-10.0634
死者	-10.0634
踰	-10.0637
奔	-10.0649
措	-10.0654
弄	-10.0665
攝	-10.0668
不來	-10.0669
座	-10.0672
疊	-10.0676
捕捉	-10.0676
索	-10.0677
充軍	-10.0677
兩司合啓	-10.068
長官	-10.0681
近處	-10.0689
諡	-10.0692
之來	-10.0694
▁乃是	-10.0694
開城府	-10.0698
承傳	-10.0703
台	-10.0708
之文	-10.072
極矣	-10.0722
民力	-10.0722
妃	-10.0723
倍	-10.0726
▁只以	-10.0751
居民	-10.0752
回啓曰	-10.0753
艱	-10.0755
誦	-10.0756
慶尙道觀察使	-10.076
十分	-10.0764
▁卽爲	-10.0769
捧入	-10.077
▁而無	-10.0773
恕	-10.0779
二十日	-10.0784
▁積	-10.0786
不忍	-10.0789
▁年	-10.0789
一等	-10.0792
備堂	-10.0795
接見	-10.0798
參酌	-10.0803
退行	-10.0804
嗣	-10.0811
等啓	-10.0815
夫人	-10.0817
替	-10.0823
之於	-10.0824
洪應	-10.0825
▁未免	-10.0831
太宗	-10.0832
作弊	-10.0838
偸	-10.0842
▁然則	-10.0842
治之	-10.0854
平日	-10.0857
佑	-10.0861
田稅	-10.0868
▁比	-10.0874
▁無以	-10.0881
▁又言	-10.0881
立法	-10.0882
都節制使	-10.0884
海州	-10.0884
▁以備	-10.0892
諫官	-10.0894
人家	-10.0895
▁有此	-10.0895
藝文館	-10.0896
▁擇	-10.0897
哈	-10.0897
分給	-10.0911
劇	-10.0914
擧子	-10.0918
探	-10.0918
緣坐	-10.0921
兩界	-10.0926
饌	-10.0928
混	-10.0933
銜	-10.0935
昧	-10.0952
▁在於	-10.0952
告廟	-10.0953
離	-10.0953
革罷	-10.0955
亭	-10.0956
恨	-10.0968
▁竊	-10.0976
▁似爲	-10.0979
而爲之	-10.0982
▁亦皆	-10.0985
吏曹啓	-10.0985
寓	-10.099
靜	-10.0994
擬望	-10.0998
備忘記	-10.1
甚重	-10.1002
▁亦非	-10.1003
云者	-10.1003
▁尤爲	-10.101
入參	-10.1014
▁勢難	-10.1025
▁亦可	-10.1027
貽	-10.1029
年老	-10.103
問于	-10.1031
眷	-10.1032
錯	-10.1034
▁文	-10.1035
廣州	-10.1036
讀書	-10.1037
杖一百	-10.1042
遍	-10.1045
▁未得	-10.1049
李貴	-10.1056
今番	-10.1058
二千	-10.1064
居首	-10.1067
言于	-10.1068
▁作	-10.1068
不受	-10.1076
▁亦不可	-10.1079
四人	-10.1079
不欲	-10.1084
世道	-10.1087
征	-10.1088
▁觀	-10.1089
大夫	-10.109
咨文	-10.1091
祈雨	-10.1091
客	-10.1092
澄	-10.1096
大同	-10.1098
停啓	-10.1106
討逆	-10.111
縱	-10.1111
綱	-10.1116
君父	-10.112
斃	-10.112
不然	-10.112
局	-10.1122
恃	-10.1132
▁不卽	-10.1132
司憲府大司憲	-10.1134
祠	-10.114
三千	-10.1146
▁上可之	-10.1149
此言	-10.1151
隔	-10.1155
覺	-10.1161
有功	-10.1162
李德馨	-10.1163
全羅監司	-10.1163
不勝	-10.1163
拒	-10.1165
給之	-10.1166
遣承旨	-10.1169
彼人	-10.1169
蕃	-10.1172
▁召見	-10.1179
發送	-10.1182
▁頃者	-10.119
朝臣	-10.119
多少	-10.1191
重事	-10.1202
卑	-10.1209
▁侍讀官	-10.121
▁無非	-10.1218
慶尙監司	-10.1219
則以	-10.1222
主簿	-10.1224
人主	-10.1224
莫甚	-10.1231
竭	-10.124
壁	-10.1246
貴國	-10.1252
▁餘	-10.1262
醉	-10.1266
浚	-10.1268
臥	-10.127
部將	-10.1273
狀聞	-10.1277
墻	-10.1279
蔡	-10.128
海西	-10.128
▁無所	-10.1284
藩	-10.1289
屛	-10.1292
揆	-10.1297
雜物	-10.1302
若此	-10.1304
▁親	-10.1309
洽	-10.131
臺啓	-10.1316
飛	-10.1319
囚禁	-10.1323
王后	-10.1324
▁黃	-10.1331
獻官	-10.1333
▁小	-10.134
遲	-10.1341
進獻	-10.1344
之喪	-10.1345
儀註	-10.1347
▁抑	-10.1347
天地	-10.1354
▁自是	-10.1368
方伯	-10.1372
院相	-10.1377
晝	-10.1378
蕩	-10.138
繁	-10.1381
燕	-10.1384
頭目	-10.1386
行祭	-10.1395
▁心	-10.1395
提	-10.1396
皆以爲	-10.1401
忌	-10.1403
襲	-10.1406
耳目	-10.1408
方在	-10.1414
削職	-10.1421
安州	-10.1423
九十	-10.1423
界	-10.1423
及於	-10.1424
君臣	-10.1427
窠	-10.143
調理	-10.1433
入於	-10.1434
官爵	-10.1436
▁敢稟	-10.1436
太祖	-10.1442
▁追	-10.1446
人言	-10.1447
隣	-10.1451
失農	-10.1454
劍	-10.1455
樣	-10.1459
爲非	-10.1462
▁予意	-10.1466
▁甚	-10.1468
錦	-10.1472
陸	-10.1482
晦	-10.1484
晏然	-10.1486
停止	-10.1486
枝	-10.1493
爲副提學	-10.1496
上御	-10.1497
書之	-10.1499
爲應敎	-10.1503
爲副應敎	-10.1504
坤	-10.1506
周旋	-10.1508
江華	-10.1508
稽	-10.1509
議于大臣	-10.1511
後世	-10.1517
▁此時	-10.1518
跪	-10.1519
▁伏望	-10.1523
去官	-10.1531
冬至	-10.1532
屍	-10.1541
如前	-10.1543
憑	-10.1544
過矣	-10.1546
可爲	-10.1557
紬	-10.1567
諒	-10.1569
礪	-10.1569
終始	-10.1573
▁請亟	-10.1574
▁嘗	-10.1587
聞見	-10.1596
遣使	-10.1602
血	-10.1603
註	-10.1605
爲敎	-10.1605
一路	-10.1607
顔	-10.1607
▁依前	-10.1618
▁崔	-10.1619
失火	-10.162
閏	-10.162
承服	-10.1623
▁請罷職	-10.1627
卞	-10.1633
學問	-10.1635
卿之	-10.1635
▁指	-10.1636
湯	-10.1642
普	-10.1643
恥	-10.1645
▁南	-10.1646
一萬	-10.1646
擧措	-10.1646
可駭	-10.1648
▁已有	-10.165
▁勿辭	-10.1652
超	-10.1657
姓名	-10.1661
經筵官	-10.1663
檢察	-10.1672
獵	-10.1675
▁宋	-10.1675
有無	-10.1677
相見	-10.1683
風俗	-10.1683
江原	-10.1692
歡	-10.1693
▁少	-10.1693
▁尋	-10.1694
▁奉	-10.1694
試才	-10.1698
內禁衛	-10.17
▁此事	-10.17
災變	-10.1702
俟	-10.1705
不堪	-10.1713
異於	-10.1715
形勢	-10.1718
▁就	-10.1723
▁一切	-10.1723
物議	-10.1724
貢物	-10.1725
閉	-10.173
禮文	-10.1731
家舍	-10.1733
多有	-10.1733
▁該曹	-10.1734
慘	-10.1734
▁吏曹	-10.1741
▁竝皆	-10.1741
別無	-10.1745
書吏	-10.1746
奇自獻	-10.1747
▁去	-10.1752
虞	-10.1755
士大夫	-10.1756
▁豈非	-10.1761
飢	-10.1761
▁持	-10.1765
可用	-10.1768
一款	-10.177
無據	-10.1771
▁至以	-10.1771
衍	-10.1774
範	-10.1774
岳	-10.1774
酷	-10.1775
▁尙未	-10.1777
▁上問	-10.1778
沮	-10.1784
逼	-10.1785
▁則以	-10.1792
兀良哈	-10.1793
僚	-10.1795
書狀官	-10.1799
江邊	-10.1813
是日	-10.1817
▁臣亦	-10.1821
調用	-10.1831
▁禮曹	-10.1831
亦多	-10.1836
平安道觀察使	-10.1838
尹弼商	-10.1842
娶	-10.1843
不法	-10.1846
瞻	-10.1846
委官	-10.1846
▁應	-10.1847
取稟	-10.1848
奉安	-10.1848
▁且以	-10.1851
侮	-10.1852
不實	-10.1856
駁	-10.1857
抵	-10.1859
思之	-10.1873
譯	-10.1874
因此	-10.1874
必欲	-10.1875
誣告	-10.1876
無益	-10.1877
繫	-10.1877
命召	-10.1884
滯	-10.1884
衣服	-10.1898
召對	-10.1898
▁請還收	-10.1905
渡	-10.1907
不肯	-10.1913
相議	-10.1914
祐	-10.1916
燭	-10.1929
▁不但	-10.1937
▁正言	-10.1947
職事	-10.1951
勵	-10.1952
▁予亦	-10.1953
屯田	-10.1954
鬱	-10.1963
上年	-10.1967
▁廣	-10.1968
蔑	-10.1973
別監	-10.1975
之重	-10.1981
君上	-10.1987
▁其他	-10.1988
對馬島	-10.1993
更爲	-10.1997
措語	-10.2
▁贈	-10.2002
鼓	-10.2008
匠	-10.2009
爲吏曹判書	-10.2023
麻	-10.2035
▁對曰	-10.2044
節次	-10.2044
江界	-10.2047
金吾	-10.2053
尉	-10.2057
▁退待物論	-10.2057
禮曹參判	-10.2059
之禍	-10.206
彭	-10.2062
謗	-10.2062
中宮	-10.2065
丹	-10.2065
按律	-10.2068
有何	-10.2073
國之	-10.2079
出納	-10.2086
京畿觀察使	-10.2091
阻	-10.2091
▁臣竊	-10.2098
▁前此	-10.2109
孔	-10.2109
▁請速	-10.2117
▁諸	-10.2118
禦	-10.2118
鍊	-10.212
杜	-10.2125
▁次	-10.2126
▁而臣	-10.2127
賓廳	-10.2128
弛	-10.2128
南方	-10.2128
翰	-10.2128
掌令李	-10.2129
一千	-10.2138
重任	-10.2139
旗	-10.2142
▁例	-10.2145
何事	-10.2152
卽位	-10.2155
底	-10.2155
貨	-10.2158
▁加以	-10.2158
本月	-10.2159
▁韓	-10.2163
罷之	-10.2164
將士	-10.2165
留守	-10.2165
裵	-10.2169
豪	-10.2171
物故	-10.2176
▁略	-10.218
▁亦無	-10.2181
樓	-10.2182
▁〔	-10.2182
染	-10.2183
咸鏡監司	-10.2184
招辭	-10.2185
至今	-10.2186
▁使臣	-10.2195
出去	-10.2196
蒙允	-10.2201
▁則不可	-10.2215
頃者	-10.2217
次對	-10.222
云矣	-10.2223
欺罔	-10.2225
進講	-10.2229
▁兵曹	-10.223
非常	-10.2239
爲工曹判書	-10.2242
一言	-10.2243
上京	-10.2243
▁予欲	-10.2243
已盡	-10.2247
款	-10.2251
奏請	-10.2252
膳	-10.2255
▁急急	-10.2257
算	-10.2263
義州府尹	-10.2264
反覆	-10.2268
不免	-10.2269
此意	-10.2269
人臣	-10.228
如儀	-10.228
之由	-10.2283
脈	-10.2284
擢	-10.2285
▁今不可	-10.2286
藥房	-10.2293
本意	-10.2298
而退	-10.2299
▁外方	-10.2302
六百	-10.2304
楊州	-10.2309
二品	-10.2311
而出	-10.2311
不正	-10.2318
▁退待	-10.2322
紀綱	-10.2323
下吏	-10.2325
司僕寺	-10.2325
悔	-10.2327
諸司	-10.2331
▁致	-10.2335
李爾瞻	-10.2335
鞫廳	-10.2338
酌	-10.2338
夷	-10.2341
獄事	-10.2347
▁加	-10.2349
▁議	-10.2355
參奉	-10.2355
此時	-10.2355
軫	-10.2356
憫	-10.2359
之用	-10.2361
司僕	-10.2368
▁其意	-10.2368
其心	-10.2369
准	-10.2372
讎	-10.2373
見其	-10.2382
泉	-10.2385
可謂	-10.2388
言路	-10.2388
十年	-10.2394
左贊成	-10.2399
遠接使	-10.24
用人	-10.2408
都提調	-10.241
▁其間	-10.2417
不幸	-10.2421
推刷	-10.2422
幼	-10.2424
搜	-10.2427
之憂	-10.2439
埋	-10.244
各別	-10.2443
兵曹啓曰	-10.2453
徹	-10.2455
贊成	-10.2458
穴	-10.2468
全州	-10.247
▁雖以	-10.2473
▁勿論	-10.2477
定奪	-10.2484
自今	-10.2485
押	-10.2493
裁	-10.2494
劃	-10.2496
爲重	-10.2498
蔭	-10.2498
戎	-10.2499
姓	-10.2502
禁軍	-10.2503
王妃	-10.2504
頃	-10.2506
氷	-10.2508
初一日	-10.2508
除職	-10.2509
不明	-10.2512
材木	-10.2513
▁試	-10.2514
僞	-10.2518
之風	-10.2523
搆	-10.2524
泊	-10.2525
宋浚吉	-10.2525
▁齎	-10.2529
行幸	-10.253
倭賊	-10.2531
依律	-10.2531
【	-10.2533
朝士	-10.2533
有此	-10.2534
取才	-10.2535
今觀	-10.2536
拘	-10.2542
掠	-10.255
▁擧	-10.255
若不	-10.2551
無可	-10.2553
獻議	-10.2554
表裏	-10.2556
▁仍傳曰	-10.2557
言語	-10.2558
更啓	-10.2566
▁百	-10.2571
米豆	-10.258
輦	-10.2587
展拜	-10.2596
金壽恒	-10.2604
募	-10.2608
綱常	-10.2614
削黜	-10.2615
中軍	-10.2617
判中樞府事	-10.2619
李克培	-10.2622
▁再啓	-10.2622
▁請於	-10.2631
直宿	-10.2631
之令	-10.2636
親臨	-10.2636
解弛	-10.2637
惶恐	-10.2648
都城	-10.2662
所失	-10.2662
后	-10.2662
閭閻	-10.2664
其弊	-10.2675
環	-10.2676
民生	-10.2678
▁執義	-10.2681
爲大司成	-10.2682
庸劣	-10.2693
看審	-10.2696
之賊	-10.27
▁亦以	-10.2704
相繼	-10.2707
一家	-10.2708
▁而反	-10.2708
京師	-10.2709
慰諭	-10.2714
一番	-10.2714
較	-10.2714
僧徒	-10.2715
沿海	-10.2724
漂	-10.2725
▁視	-10.2728
叱	-10.2735
堪	-10.2737
嚴飭	-10.2741
朝夕	-10.2744
▁故有是命	-10.2746
初試	-10.2747
受之	-10.2749
盜賊	-10.2751
都元帥	-10.2751
堂上官	-10.2751
之事也	-10.2754
文學	-10.2757
議政府啓	-10.2761
今見	-10.2766
播	-10.2771
辰	-10.2771
奉使	-10.2772
▁人物	-10.2776
君子	-10.2777
缺	-10.2782
明矣	-10.2782
幕	-10.2784
▁爲先	-10.2784
奬	-10.2789
箕	-10.279
發於	-10.2791
止之	-10.2791
不遠	-10.2791
樹	-10.2795
▁人君	-10.28
今月	-10.28
詔使	-10.2811
主上	-10.2814
李恒福	-10.2817
此非	-10.282
觸	-10.2821
頑	-10.2821
未免	-10.2823
牧場	-10.2831
量田	-10.2832
得情	-10.2833
萬世	-10.2839
。)"	-10.2839
▁司諫	-10.2841
▁請命遞差	-10.2842
洛	-10.2849
・	-10.285
國體	-10.285
緩急	-10.2852
翁主	-10.2857
▁問于	-10.286
糧餉	-10.2864
彬	-10.2864
鄭仁弘	-10.2867
島主	-10.2869
▁古	-10.2871
兩道	-10.2875
厭	-10.2877
却	-10.2879
聖德	-10.288
臨時	-10.2881
▁欲爲	-10.2882
上幸	-10.2882
至誠	-10.289
稷	-10.2894
自願	-10.2904
牢	-10.2906
訊	-10.2911
▁而只	-10.2914
▁玉堂	-10.2916
往見	-10.2919
人員	-10.292
迪	-10.2921
倡	-10.2921
先罷後推	-10.2923
秘密	-10.2923
▁臣於	-10.2929
▁克	-10.293
兵曹參判	-10.2932
此輩	-10.2936
紛紜	-10.2936
貪汚	-10.2937
率百官	-10.294
▁其罪	-10.2946
退去	-10.2946
牽	-10.2951
▁色白	-10.2952
商量	-10.2955
入京	-10.2955
會議	-10.2958
▁殆	-10.2958
束	-10.2958
爲辭	-10.2963
於民	-10.2963
▁四	-10.2965
衙	-10.2967
同參	-10.2968
▁本府	-10.2969
未嘗	-10.2975
▁難以	-10.2975
亦以	-10.2975
虛實	-10.2981
亦可	-10.2986
舟	-10.2992
六卿	-10.2998
監軍	-10.2999
詳知	-10.3
覆啓	-10.3001
▁身	-10.3011
不測	-10.3017
▁能	-10.3018
當此	-10.3019
而處之	-10.3025
歇	-10.3026
法司	-10.3026
▁頃	-10.3026
▁更議	-10.3028
軍民	-10.3029
不察	-10.3036
▁使不得	-10.3053
其母	-10.3053
文昭殿	-10.3053
山君	-10.3063
莫重	-10.3064
執事	-10.3072
大體	-10.308
掘	-10.3082
經歷	-10.3091
元子	-10.3102
僧人	-10.3103
宣慰使	-10.3104
▁務	-10.3105
百姓	-10.3114
)。"	-10.312
戶曹啓	-10.3129
至嚴	-10.3132
上疏言	-10.3134
善處	-10.3134
▁領議政	-10.3138
無他	-10.3143
脅	-10.3144
日記	-10.3144
暮	-10.3152
由於	-10.3159
鶴	-10.3163
妻子	-10.3163
十一	-10.3164
譏	-10.3178
▁豈可以	-10.318
論列	-10.3183
駭愕	-10.3185
臣以	-10.3186
經理	-10.3191
。」	-10.3192
練	-10.3206
署經	-10.3206
潔	-10.3207
民弊	-10.3207
號令	-10.3215
則已	-10.3216
蠲減	-10.3218
之長	-10.322
各衙門	-10.322
衛將	-10.3223
▁十分	-10.3225
▁乃以	-10.3225
湖	-10.3227
詰	-10.3227
藝	-10.3228
▁不可無	-10.3228
麤	-10.323
於其間	-10.3234
隷	-10.3237
傾	-10.3238
項	-10.3241
罪名	-10.3244
繩	-10.3246
未有	-10.3247
無故	-10.3249
▁翌日	-10.3251
把	-10.3253
之可也	-10.3255
▁然其	-10.3255
書院	-10.3258
暑	-10.3259
直提學	-10.3261
忠州	-10.3265
草記	-10.3268
斟酌	-10.3268
矯	-10.3275
寄	-10.3277
▁且有	-10.3278
許積	-10.3278
接伴使	-10.328
倚	-10.3285
城中	-10.3291
李光	-10.3291
有餘	-10.3294
頹	-10.3295
城外	-10.3296
謫	-10.3307
合於	-10.3309
▁頃日	-10.3316
?"】	-10.3321
十三日	-10.3325
▁又令	-10.3325
祈	-10.3326
舍人	-10.3329
▁備	-10.3342
請罷	-10.3345
髮	-10.3346
扈衛	-10.3352
▁況此	-10.3358
▁一以	-10.3362
吏曹參議	-10.3365
徐當發落	-10.3366
瀆	-10.3366
得罪	-10.3367
有故	-10.3368
丘	-10.3375
▁仍令	-10.3376
星上	-10.3376
怠	-10.3379
▁政府	-10.3382
嫡	-10.3385
被論	-10.339
式年	-10.3392
謚	-10.34
在家	-10.3404
▁又請	-10.3408
▁如是	-10.3412
令該曹	-10.3412
公私	-10.3414
殿試	-10.3417
▁知	-10.3419
不止	-10.342
以入	-10.3422
▁餘不允	-10.3429
造成	-10.3435
於今日	-10.3443
▁未嘗	-10.3447
急急	-10.3449
本道監司	-10.3455
歉	-10.3456
嚴鞫	-10.3458
其中	-10.3467
▁定	-10.3469
不進	-10.3469
使人	-10.347
餉	-10.3471
▁諸臣	-10.3472
製進	-10.3474
頓	-10.3474
請遞	-10.3475
▁未有	-10.3478
冬至使	-10.3478
不緊	-10.3481
行移	-10.3483
足以	-10.3483
箇	-10.3485
論事	-10.3486
嫁	-10.3486
慶源	-10.3487
寡	-10.3498
莊	-10.3503
以金	-10.3505
上意	-10.3505
盤	-10.3507
卓	-10.3507
然矣	-10.3511
僅	-10.3513
彈	-10.3518
▁濫	-10.3525
之有	-10.3533
在職	-10.3537
▁皆是	-10.3542
職牒	-10.3544
▁一體	-10.3544
削奪官爵	-10.3549
▁全	-10.3552
詔	-10.3553
▁咸	-10.3555
內侍	-10.3557
予之	-10.3558
回還	-10.3562
▁臣以	-10.3562
今後	-10.3564
祔廟	-10.3573
整	-10.3577
判義禁	-10.3578
罪犯	-10.3579
何敢	-10.358
强盜	-10.3581
設宴	-10.3582
宅	-10.3583
倣	-10.3585
後弊	-10.3587
聖意	-10.3589
二員	-10.359
千戶	-10.3592
正使	-10.3593
烏	-10.3593
緖	-10.3596
成俊	-10.3596
問於	-10.3597
誘	-10.3598
游	-10.3601
汚	-10.3603
以待	-10.3608
而行	-10.3609
▁今乃	-10.361
▁其言	-10.3612
錄事	-10.3619
推官	-10.3621
舞	-10.3621
遠近	-10.3622
小民	-10.3622
所居	-10.3625
含	-10.3625
工曹	-10.3625
午時	-10.3626
簡通	-10.3628
之實	-10.3629
春秋館	-10.3632
▁雖在	-10.3632
上箚曰	-10.3632
級	-10.3634
言曰	-10.3638
今者	-10.364
堯	-10.3642
鄭光弼	-10.3644
本邑	-10.3652
爲成均館大司成	-10.3658
都摠府	-10.3658
▁則亦	-10.3659
成均	-10.3661
一國	-10.3668
五人	-10.3668
東方	-10.3671
▁天使	-10.3678
爲漢城府判尹	-10.3679
暗	-10.3681
無事	-10.3681
兀狄哈	-10.3684
十一月	-10.3687
領中樞府事	-10.3689
熾	-10.3693
不須	-10.3698
豈可	-10.3703
舟師	-10.3706
雅	-10.3708
全羅道觀察使	-10.3713
六品	-10.3715
來言	-10.3716
以前	-10.3719
世祖	-10.3723
災異	-10.3726
莫不	-10.373
藥院	-10.3732
人才	-10.3732
將官	-10.3733
壓	-10.3734
▁上王	-10.3734
篇	-10.374
別將	-10.3745
泣	-10.3748
蔽	-10.3751
南道	-10.3752
船軍	-10.3755
爲弼善	-10.3755
牌招	-10.3757
▁出入	-10.3759
進宴	-10.3761
蔘	-10.3766
抱	-10.3766
之書	-10.3769
▁顧	-10.3772
申明	-10.3776
孽	-10.3778
銅	-10.3781
▁過	-10.3783
犯罪	-10.3784
藉	-10.3785
師傅	-10.3785
十六日	-10.3789
不無	-10.3794
▁發	-10.3795
唯	-10.3795
古人	-10.3801
畿甸	-10.3802
▁致令	-10.3803
▁宜令	-10.3805
狼藉	-10.3815
大王大妃	-10.3817
誕日	-10.3822
擧哀	-10.3826
▁毋得	-10.3828
其實	-10.3828
▁不得不	-10.3828
羽	-10.3829
鉉	-10.3831
償	-10.3831
渾	-10.3831
然則	-10.3835
▁今方	-10.3836
其道	-10.3836
重地	-10.3839
會寧	-10.384
今聞	-10.3844
不識	-10.3846
床	-10.3847
▁詣	-10.3851
▁請改正	-10.3851
牒	-10.3852
推案	-10.3854
重大	-10.3856
敦諭	-10.3862
民之	-10.3865
軍資	-10.3866
得免	-10.3869
日月	-10.3869
風聞	-10.3876
誼	-10.3878
南袞	-10.3879
▁上允之	-10.3882
三道	-10.3882
禁之	-10.3884
祭文	-10.3886
等三人	-10.3887
之志	-10.3893
拿推	-10.3893
臣僚	-10.3894
▁閔	-10.3894
悲	-10.3894
凶歉	-10.3899
詞	-10.3903
▁萬	-10.3904
▁而近來	-10.3905
修改	-10.3911
▁到	-10.3913
鷹	-10.3914
永慶	-10.3918
秘	-10.3925
侈	-10.3926
▁傳敎矣	-10.3926
貧	-10.3927
▁固不可	-10.3935
其情	-10.3939
又曰	-10.3941
言於	-10.3942
▁孰不	-10.3946
縣監李	-10.3948
▁其可	-10.3949
致死	-10.3951
竹	-10.3956
陞堂上	-10.3958
▁當以	-10.3959
▁雖非	-10.3965
▁殊無	-10.3966
▁予當	-10.3967
粟	-10.3976
柳永慶	-10.398
言也	-10.3983
都督	-10.3985
訓鍊都監	-10.3988
演	-10.3989
叨	-10.399
小邦	-10.3994
至矣	-10.4002
十三	-10.4005
糾察	-10.4009
事理	-10.4011
▁而亦	-10.4012
文廟	-10.4013
爲先	-10.4015
暫	-10.4017
祗迎	-10.4026
相避	-10.4028
僉正	-10.4028
又以	-10.4035
貶	-10.4035
笠	-10.4035
睦	-10.4039
先正	-10.4039
都體察使	-10.404
所可	-10.4044
金宗瑞	-10.4045
輝	-10.4051
曆	-10.4051
郊	-10.4059
一切	-10.4063
鏡城	-10.4067
槪	-10.4071
戚	-10.4073
發遣	-10.4073
樞	-10.4075
戶曹啓曰	-10.4079
傑	-10.4082
閔鼎重	-10.4089
物論	-10.4095
李元翼	-10.4095
▁要	-10.4096
頒敎	-10.4101
十六	-10.4103
弘文館上箚	-10.4104
濕	-10.4104
可合	-10.4104
則當	-10.4106
所知	-10.4108
▁有違	-10.4109
四千	-10.4112
賑救	-10.4115
暇	-10.4115
抄啓	-10.4117
咸興	-10.412
展謁	-10.4121
▁旣有	-10.4122
▁由	-10.4124
境內	-10.4124
捨	-10.413
自明	-10.4139
川君	-10.4142
耆	-10.4146
曾經	-10.4149
等官	-10.4152
尙衣院	-10.4153
枉	-10.4158
之招	-10.4163
郡事	-10.4171
旱災	-10.4178
擇日	-10.4179
多士	-10.4182
無一言	-10.4184
爲未安	-10.4186
考啓	-10.4188
加罪	-10.419
相臣	-10.4194
中原	-10.4195
▁伏願	-10.4198
▁蓋以	-10.4205
▁依啓	-10.4206
酌處	-10.4207
▁故欲	-10.4208
▁上令	-10.4208
瓦	-10.421
人皆	-10.4211
首相	-10.422
豈不	-10.422
未寧	-10.4223
以謂	-10.4225
各處	-10.4226
▁雖無	-10.4228
持平李	-10.423
大殿	-10.4236
修理	-10.4237
▁急速	-10.4252
救療	-10.4252
當矣	-10.4258
摘發	-10.4258
之慮	-10.4262
料理	-10.4262
遼	-10.4264
傅	-10.4265
守直	-10.427
大護軍	-10.4273
敎書	-10.4275
▁甚爲	-10.4276
▁悉	-10.4276
之勞	-10.4278
▁竝爲	-10.428
圓	-10.4283
奉常寺	-10.4286
▁而殿下	-10.4286
有病	-10.4292
上納	-10.4294
猥濫	-10.4303
而無	-10.4304
十二月	-10.4306
殺之	-10.4307
割	-10.4312
國法	-10.4314
諸生	-10.4317
▁引	-10.4318
▁目今	-10.432
原君	-10.4328
陞敍	-10.4329
▁到今	-10.4332
死於	-10.4332
疎	-10.4332
數月	-10.4333
▁亦宜	-10.4334
行於	-10.4335
▁中外	-10.4336
天兵	-10.4337
站	-10.4338
是矣	-10.4343
商確	-10.4352
淸使	-10.4354
李廷龜	-10.4356
賜給	-10.436
詆	-10.4361
▁招	-10.4361
▁必不	-10.4363
▁此必	-10.4363
▁極爲駭愕	-10.4368
不便	-10.437
▁不服	-10.4372
嚴禁	-10.4375
所載	-10.4377
蘊	-10.4378
恢	-10.4378
爲判義禁府事	-10.4378
佐郞	-10.4382
幣	-10.4382
士類	-10.4384
罵	-10.4385
罕	-10.4389
▁本以	-10.4392
▁陳	-10.4394
酬	-10.4397
不納	-10.4397
在京	-10.44
▁則似	-10.4401
元老	-10.4402
本館	-10.4408
▁多至	-10.4414
不治	-10.4416
▁常時	-10.4417
技	-10.4418
勿待罪	-10.4418
御製	-10.4419
▁議于大臣	-10.442
臣於	-10.4421
之矣	-10.4421
天子	-10.4425
淸州	-10.4426
第一	-10.4427
憲府啓	-10.4431
碑	-10.4432
▁是豈	-10.4432
▁白	-10.4433
許多	-10.4434
蘭	-10.4435
下問	-10.4441
罪狀	-10.4443
固辭	-10.4445
冊封	-10.4449
祭享	-10.4451
奴子	-10.4452
浪	-10.4452
▁今之	-10.4454
身死	-10.4455
其身	-10.4458
之子也	-10.4458
之才	-10.4466
汗	-10.4467
縮	-10.4479
汲汲	-10.4482
論執	-10.4483
觀象監	-10.4485
老病	-10.4485
律文	-10.4486
士夫	-10.4487
若有	-10.4487
昌德宮	-10.4494
麥	-10.4494
法典	-10.4496
赴防	-10.4502
退待	-10.4506
年例	-10.4509
無餘	-10.451
該司	-10.451
太過	-10.4515
▁思	-10.4516
措備	-10.4524
▁以正	-10.4524
禁斷	-10.4527
國家之	-10.4527
爲此	-10.453
▁不可不懲	-10.4541
御夕講	-10.4541
以病	-10.455
以此意	-10.4551
男女	-10.4551
憾	-10.4552
霜	-10.4553
悼	-10.4554
晋州	-10.4555
此法	-10.4555
▁許令	-10.4559
用於	-10.4561
▁又於	-10.4563
爲吏曹佐郞	-10.4563
忌辰	-10.4567
拜陵	-10.457
詳定	-10.4572
虞候	-10.4572
聖節使	-10.4573
▁吳	-10.4575
久任	-10.4578
侍講院	-10.4578
服色	-10.4581
鎭撫	-10.4582
▁以補	-10.4582
因循	-10.4582
太甚	-10.4585
淡	-10.4588
爲司書	-10.459
▁云云	-10.4591
▁京畿	-10.4592
諸人	-10.4599
▁今番	-10.46
南九萬	-10.4601
▁至如	-10.4604
㼁	-10.4605
送于	-10.4613
營將	-10.4615
不通	-10.4623
▁雖或	-10.4624
非輕	-10.4625
陳戒	-10.4627
蠲	-10.4628
▁今亦	-10.4629
減膳	-10.4629
所儲	-10.463
沈喜壽	-10.4635
歌	-10.4639
▁臣謂	-10.4649
輸送	-10.465
▁必以	-10.4651
▁本道	-10.4656
差使員	-10.4657
陳箚	-10.4661
入居	-10.4666
山川	-10.4667
▁終始	-10.467
年間	-10.467
褒貶	-10.4675
初十日	-10.468
十餘	-10.4683
呈告	-10.4683
魁	-10.4684
麗	-10.4687
▁引避	-10.4689
査覈	-10.4694
忠淸監司	-10.4695
李芑	-10.4699
▁實出於	-10.4699
棄之	-10.47
▁昨	-10.4701
▁反覆	-10.4702
下三道	-10.4703
宗簿寺	-10.4709
本州	-10.4712
近者	-10.4713
王法	-10.4721
直長	-10.4721
經費	-10.4724
荷	-10.4726
不如	-10.4733
之多	-10.4734
遣之	-10.4736
例也	-10.4743
之事乎	-10.4743
不一	-10.4745
上敎允當	-10.4747
以此爲	-10.4751
其妻	-10.4752
御春塘臺	-10.4752
近於	-10.4758
塡	-10.476
商議	-10.476
陪臣	-10.4761
戴	-10.4771
▁不當	-10.4772
歸一	-10.4773
戶曹參判	-10.4777
牛馬	-10.4781
眼	-10.4787
李宗	-10.4787
論議	-10.4787
▁頗	-10.4791
如有	-10.4792
停擧	-10.4793
▁寧	-10.4793
促	-10.4795
與之	-10.4797
雖曰	-10.4799
桑	-10.4801
李壽	-10.4806
姑停	-10.4811
賓客	-10.4812
三南	-10.4813
喆	-10.4813
奉朝賀	-10.4815
▁只有	-10.4817
十匹	-10.4818
▁且其	-10.482
丁寧	-10.4822
爭之	-10.4823
李克均	-10.4826
巳時	-10.4826
橋	-10.4829
曩	-10.4831
爲同副承旨	-10.4831
攝行	-10.4833
坊	-10.4839
偉	-10.4844
香祝	-10.4847
他日	-10.4847
葉	-10.4848
更加	-10.4858
欣	-10.4866
▁謹	-10.4867
買賣	-10.4867
景福宮	-10.487
亦爲	-10.4871
此弊	-10.4873
勅	-10.4873
天將	-10.4874
三品	-10.4885
罔	-10.4886
自古	-10.489
民情	-10.4892
上號	-10.4894
大槪	-10.4895
金應箕	-10.4904
事情	-10.4905
▁近者	-10.4905
言事	-10.4909
不多	-10.4909
▁回啓曰	-10.4912
死亡	-10.4912
國用	-10.4912
所奏	-10.4912
歸於	-10.4913
大內	-10.4914
受刑	-10.4919
老人	-10.4919
金壽興	-10.492
感激	-10.4921
奔走	-10.4922
▁仍爲	-10.4922
兩殿	-10.4931
已行	-10.4933
午	-10.4939
▁誠爲	-10.4942
護送	-10.4947
▁本曹	-10.4949
睿	-10.4952
今日之	-10.4953
▁已令	-10.4954
一節	-10.4959
賞加	-10.4959
再三	-10.4959
追崇	-10.4963
上護軍	-10.4963
▁承	-10.4966
▁傳	-10.497
飯	-10.4971
▁請命罷斥臣職	-10.4972
收拾	-10.4974
谷	-10.4977
▁臣實	-10.498
▁便	-10.4981
勉從	-10.4991
閣臣	-10.4993
駐	-10.4994
唱	-10.4995
幸甚	-10.4996
書筵	-10.4997
宣醞	-10.4999
▁公然	-10.5001
等地	-10.5002
若干	-10.5004
峴	-10.5008
凶荒	-10.5016
牧使	-10.502
▁嗚呼	-10.5022
匡	-10.5023
▁此人	-10.5024
駙馬	-10.5025
非一	-10.5026
挺	-10.5029
聖旨	-10.5029
所關	-10.503
一身	-10.5039
豈有	-10.5041
耉	-10.5042
未時	-10.5046
▁一日	-10.505
▁陰	-10.5052
宗宰	-10.5052
醫員	-10.5055
意外	-10.5057
司憲府持平	-10.5057
竢	-10.5061
近侍	-10.5066
文官	-10.5066
四方	-10.507
陳啓	-10.5071
賂	-10.5074
禮葬	-10.5074
遣史官	-10.5075
決杖	-10.5079
味	-10.5086
何妨	-10.5087
毅	-10.5089
汰	-10.5093
得宜	-10.5093
十一日	-10.5099
冕服	-10.5099
隊	-10.5104
防備	-10.5105
仍舊	-10.5112
許遞	-10.5116
正言李	-10.5118
前朝	-10.5122
羞	-10.5125
十二日	-10.5126
禾穀	-10.5132
粹	-10.5133
▁狀如拳	-10.5133
翰林	-10.5136
平君	-10.5137
▁幾	-10.5142
爲輔德	-10.5146
打圍	-10.5152
所懷	-10.5154
疏辭	-10.5155
賜酒	-10.5158
議于	-10.5161
之也	-10.5165
司諫院連啓	-10.5171
民家	-10.5172
正布	-10.5173
醜	-10.5185
洗	-10.5186
察爲	-10.5187
尹子雲	-10.5188
粗	-10.5188
司憲府連啓	-10.519
旣以	-10.519
▁宜有	-10.5192
▁速	-10.5193
之期	-10.5195
正刑	-10.5196
東班	-10.5196
▁如或	-10.5204
▁故臣	-10.5205
懋	-10.5206
囑	-10.5207
日暈	-10.5211
入城	-10.5213
謀逆	-10.5215
不相	-10.5216
一分	-10.5216
李弘	-10.5217
東萊	-10.5221
鬼	-10.5222
▁以重	-10.5223
墨	-10.5223
▁一則	-10.5227
所屬	-10.523
之穀	-10.5231
殿最	-10.5234
死罪	-10.5238
講定	-10.5241
躋	-10.5242
統制使	-10.5242
都下	-10.5243
大雨	-10.5245
▁且曰	-10.5249
旅	-10.5253
宮中	-10.5255
一次	-10.5258
大論	-10.5258
無窮	-10.5258
二十七日	-10.5259
時事	-10.5259
參贊	-10.5262
上疏辭職	-10.5263
日後	-10.5264
四品	-10.5264
做	-10.5265
李德	-10.5267
箚子	-10.5268
▁自前	-10.5273
同知	-10.5276
揭	-10.5278
兵判	-10.5279
知悉	-10.528
提督	-10.5281
汝等	-10.5291
串	-10.5297
實職	-10.53
訪	-10.5304
漢江	-10.5304
陵寢	-10.5305
不敬	-10.5305
刑曹參判	-10.5306
之德	-10.5313
收用	-10.5313
輪	-10.5313
防禦使	-10.5314
佩	-10.5314
米布	-10.5315
緊急	-10.5315
僭	-10.5316
▁參贊官	-10.5316
杖八十	-10.5317
金瑬	-10.532
二萬	-10.5321
判尹	-10.5323
數年	-10.5329
農事	-10.5329
未穩	-10.5332
措辭	-10.5332
▁事甚	-10.5337
▁侍講官	-10.5337
特除	-10.5343
之一	-10.5344
聖批	-10.5349
刺	-10.535
蕩滌	-10.5353
拘於	-10.5353
待命	-10.5356
恤典	-10.5359
僉	-10.5362
刀	-10.5366
▁而若	-10.5366
辟	-10.5366
旣有	-10.5369
其數	-10.5373
尹鳳	-10.5374
▁分付	-10.5378
放釋	-10.5378
三等	-10.538
▁啓請	-10.5381
古例	-10.5384
諸大臣	-10.5385
之道也	-10.5385
纉	-10.5389
講經	-10.539
用心	-10.5391
妨	-10.5392
咸鏡	-10.5393
七百	-10.5395
小臣	-10.5403
考察	-10.5403
靴	-10.5404
廷臣	-10.5405
巡察使	-10.5407
責之	-10.5408
油	-10.5408
申前啓	-10.5413
內殿	-10.5415
而然	-10.5416
坡	-10.5416
誕	-10.5422
黃州	-10.5422
過重	-10.5422
司諫院正言	-10.5429
▁許之	-10.5429
▁但以	-10.5431
段	-10.5434
取人	-10.5437
忠淸道觀察使	-10.5442
二匹	-10.5445
放之	-10.5447
▁以慰	-10.5448
之女	-10.5448
十日	-10.5449
釐正	-10.5454
已甚	-10.5474
▁廟堂	-10.5478
安心	-10.5481
▁實非	-10.5484
司憲府掌令	-10.5487
弔	-10.5489
循私	-10.5491
自當	-10.5491
爲兵曹判書	-10.5493
修築	-10.5494
▁是以	-10.5495
趙顯命	-10.5496
不下	-10.5498
自己	-10.5498
狹	-10.5501
▁卽令	-10.5502
▁僉曰	-10.5503
▁恐有	-10.5507
申叔舟	-10.5509
士林	-10.5511
▁聖上	-10.5511
撓	-10.5511
八百	-10.5515
李元	-10.5515
非但	-10.5518
裏	-10.5518
妹	-10.5518
無識	-10.5519
其疏	-10.5524
泛	-10.5526
爲文學	-10.5528
觀此	-10.5532
支待	-10.5533
銓官	-10.5533
無知	-10.5534
食物	-10.5538
祛	-10.5539
▁顯	-10.5542
又啓	-10.5542
▁請令該曹	-10.5546
▁斷	-10.5548
渡江	-10.555
賑恤	-10.5557
捷	-10.5558
▁鄭昌孫	-10.5558
藥房入診	-10.5559
古今	-10.5561
當否	-10.5567
都司	-10.5569
馨	-10.557
來到	-10.5571
兼司僕	-10.5571
之父	-10.5574
徙	-10.5578
▁相繼	-10.5579
奏聞	-10.5579
吉州	-10.558
者甚多	-10.5583
必不	-10.5585
設酌	-10.5587
▁決難	-10.5589
▁未能	-10.5591
▁如此之人	-10.5592
上御晝講	-10.5597
馬匹	-10.5599
箚辭	-10.56
賜宴	-10.5601
嚴刑	-10.5605
辭免	-10.5608
知事	-10.5611
不可以	-10.5612
▁而況	-10.5613
政事	-10.5616
分明	-10.5618
金國光	-10.5619
梟示	-10.5621
▁亦甚	-10.5627
拜辭	-10.5632
▁前爲	-10.5632
未聞	-10.5636
亦然	-10.564
傳播	-10.5641
處斬	-10.5643
北京	-10.5646
循例	-10.5646
小學	-10.5647
▁轉	-10.565
▁書	-10.5652
▁此外	-10.5653
大妃殿	-10.5657
▁極其	-10.5657
依前	-10.566
不問	-10.5661
加設	-10.5662
朝講	-10.5662
謁聖	-10.5666
於經筵	-10.5668
於人	-10.5669
壻	-10.5671
館伴	-10.5672
▁無所不至	-10.5675
▁徐	-10.5675
▁謂之	-10.5679
五千	-10.5682
匿	-10.5684
有一	-10.5685
四拜	-10.5687
▁故敢啓	-10.5689
營建	-10.569
甚當	-10.5691
▁亦多	-10.5699
宮禁	-10.5703
內人	-10.5706
▁其子	-10.5713
群下	-10.5717
▁又敎曰	-10.572
庭請	-10.5726
供辭	-10.5729
區區	-10.5729
▁東	-10.5732
▁無一	-10.5738
辭朝	-10.574
求言	-10.5741
五品	-10.5744
見於	-10.5745
彰	-10.5746
竪	-10.5748
聲息	-10.5761
私奴	-10.5766
▁姜	-10.5766
卽爲	-10.577
旌	-10.5773
天之	-10.5775
久留	-10.5777
曉諭	-10.5777
馳報	-10.578
引咎	-10.5781
聖人	-10.5783
▁置	-10.5784
于義禁府	-10.5785
一行	-10.5786
紫	-10.5786
邀	-10.5786
皇甫仁	-10.5788
大朝	-10.5789
承宣	-10.5789
▁僅	-10.5792
▁授	-10.5794
速爲	-10.5799
其功	-10.5802
議大臣	-10.5804
慶州	-10.5806
▁高	-10.5809
肅拜	-10.581
柳洵	-10.5814
叛	-10.5815
慨然	-10.5821
往復	-10.5824
體面	-10.5824
洋	-10.5825
▁坐	-10.5833
羅州	-10.5838
二十五日	-10.5841
朝啓	-10.5841
塗	-10.5844
扈從	-10.5848
▁仰	-10.5849
隙	-10.585
梓宮	-10.5851
欲爲	-10.5852
好矣	-10.5852
▁上又	-10.5857
平復	-10.5857
安東	-10.5857
頻	-10.5858
▁決	-10.5859
▁法	-10.5859
▁私	-10.5865
初四日	-10.5867
▁臣等以爲	-10.5869
李彦	-10.5873
餞	-10.5877
三次	-10.5879
▁被	-10.5881
不顧	-10.5883
僉知中樞院事	-10.5884
百僚	-10.5888
爭執	-10.589
▁則臣	-10.5893
▁通	-10.59
効	-10.5901
▁莫此爲甚	-10.5903
一世	-10.5905
登第	-10.5909
還上	-10.591
都目	-10.5912
▁則非	-10.5913
簿	-10.5913
經年	-10.5914
▁載在	-10.5914
▁不待	-10.5917
掃	-10.5918
上曰	-10.5919
▁特進官	-10.5921
嘆	-10.5922
司諫院啓	-10.5923
彩	-10.5923
曺錫文	-10.5924
輪對	-10.5926
發行	-10.5927
等四人	-10.5927
致仕	-10.5929
朴弼	-10.593
未畢	-10.5931
十人	-10.5931
起復	-10.5937
更啓曰	-10.594
謨	-10.5941
更問	-10.5942
以其	-10.5945
▁故臣等	-10.5945
▁臣等不勝	-10.5948
湜	-10.5949
▁請遞臣職	-10.5949
之不暇	-10.5956
此也	-10.5957
▁不顧	-10.5957
寸	-10.5958
遐	-10.5958
▁物議	-10.5962
逃亡	-10.5966
▁冒	-10.5967
▁致有	-10.5969
▁而乃	-10.5974
資憲	-10.5975
罪惡	-10.5977
▁尙不	-10.5983
▁無異	-10.5983
乞免	-10.5984
予心	-10.5987
受命	-10.5988
工曹參判	-10.5989
▁陞	-10.5991
已過	-10.5995
上御集慶堂	-10.6001
▁情	-10.6002
憚	-10.6007
內地	-10.6011
殯	-10.6012
李顯	-10.6019
守令之	-10.602
本朝	-10.602
則必	-10.6023
一處	-10.6024
▁備局	-10.6025
了	-10.6025
▁以懲	-10.6028
觀射	-10.6032
!"	-10.6032
人馬	-10.6033
於卿	-10.6036
▁禁府	-10.6036
副應敎	-10.6046
爾瞻	-10.6046
司直	-10.6049
之災	-10.605
燁	-10.6053
▁祖宗朝	-10.6054
之體	-10.6057
▁莫如	-10.6061
▁姑待	-10.6062
正郞	-10.6063
去年	-10.6065
▁求	-10.6066
豈無	-10.6069
右道	-10.607
左道	-10.6071
添入	-10.6076
▁又啓言	-10.6076
等上箚子	-10.6079
西路	-10.6082
春坊	-10.6083
優容	-10.6086
三啓	-10.6098
不入	-10.6098
五六	-10.6105
▁似無	-10.6114
五日	-10.6116
▁命下	-10.6116
二三	-10.6117
聽聞	-10.6117
之嫌	-10.612
糾	-10.612
一百五十	-10.612
廉恥	-10.6121
又有	-10.6126
有間	-10.6128
爵賞	-10.6133
上裁	-10.6136
十四	-10.6138
譽	-10.6139
▁太宗	-10.6143
稟定	-10.6144
以爲不可	-10.6144
▁公議	-10.6146
民事	-10.6148
兩人	-10.6149
給馬	-10.6154
在此	-10.6154
不忠	-10.6155
不論	-10.6155
主將	-10.6156
采	-10.6158
楨	-10.6159
於上	-10.6162
軍務	-10.6163
▁仍請	-10.6164
▁皆有	-10.6164
之妻	-10.6166
殿下之	-10.6168
昨年	-10.6171
竟	-10.6175
斫	-10.6179
洪允成	-10.6182
許稠	-10.6182
▁殊	-10.6184
收稅	-10.6185
▁卒	-10.6186
之理乎	-10.6186
至於此	-10.6186
還入	-10.6189
李仁	-10.6194
墜	-10.6197
枯	-10.6199
讒	-10.62
粧	-10.6203
五部	-10.6208
西宮	-10.6208
問曰	-10.621
▁予之	-10.6211
大抵	-10.6211
敎之	-10.6212
猝	-10.6215
物膳	-10.6218
儀仗	-10.6221
終不	-10.6225
▁聽	-10.6229
不仕	-10.6231
檢閱	-10.6231
依施	-10.6238
洪鳳漢	-10.6239
呈狀	-10.624
忠勳府	-10.6241
韓致亨	-10.6241
無疑	-10.6248
冀	-10.6252
成服	-10.6253
戍	-10.6254
臣等之職	-10.6255
▁歲	-10.6256
義禁府啓曰	-10.6257
胎	-10.6259
▁而猶	-10.626
閤	-10.626
▁稱	-10.6261
總	-10.6264
猥	-10.6265
之科	-10.6265
▁其勿	-10.6267
請推	-10.6268
之大	-10.6271
宰樞	-10.6274
南原	-10.6274
恤民	-10.6276
黃海監司	-10.6278
傳諭	-10.628
琦	-10.6281
泮	-10.6282
等第	-10.6282
皆以	-10.6285
有政	-10.6292
惶	-10.6304
急速	-10.6309
蟲	-10.6315
突	-10.6315
一品	-10.6315
則可	-10.6317
▁向	-10.6317
亂後	-10.632
賀禮	-10.632
▁左右	-10.6322
▁妄	-10.6323
黃海道觀察使	-10.6324
辰時	-10.6327
逆獄	-10.6329
者頗多	-10.633
又言	-10.6332
綿	-10.6334
▁視事	-10.6336
朴宗	-10.6338
非矣	-10.634
爲一	-10.634
癘疫	-10.6341
途	-10.6347
斡朶里	-10.6362
元帥	-10.6363
悌	-10.6365
▁安有	-10.6367
▁孰	-10.6367
其弟	-10.6369
茶	-10.6377
則無	-10.6379
羊	-10.6381
玩	-10.6382
楮貨	-10.6383
有才	-10.6385
下批	-10.6386
遞兒	-10.6386
當爲	-10.6389
▁首	-10.639
▁臣意	-10.639
被擄	-10.6391
霖	-10.6399
橫行	-10.6399
受職	-10.6401
尊號	-10.6401
正兵	-10.6402
士習	-10.6405
軍器寺	-10.6406
入診	-10.641
▁而遽	-10.6417
想	-10.6419
朴承宗	-10.6425
▁遞	-10.6431
李景奭	-10.6431
特旨	-10.6432
於前	-10.6432
宿衛	-10.6433
不待	-10.6441
▁皆不	-10.6442
滿浦	-10.6443
飢饉	-10.6444
可嘉	-10.6444
日甚	-10.6445
初六日	-10.6446
弘文館副提學	-10.6447
何不	-10.6448
作賊	-10.6449
▁雖欲	-10.6451
▁下諭	-10.6451
▁而自	-10.6455
揀擇	-10.6459
▁大小	-10.646
不稱	-10.6462
越江	-10.6463
不以	-10.6465
▁知事	-10.6467
訪問	-10.6469
士族	-10.647
重罪	-10.6478
盈	-10.6479
所請	-10.648
之本	-10.648
不道	-10.6482
展	-10.6482
鮮	-10.6483
溥	-10.6486
久廢	-10.6486
之迹	-10.6487
訓導	-10.6487
許琮	-10.6488
卜相	-10.6491
用樂	-10.6491
▁誰	-10.6492
侯	-10.6494
▁又論	-10.6502
知中樞府事	-10.6503
張順孫	-10.6507
副司直	-10.6508
甲山	-10.6511
李珥	-10.6512
神主	-10.6512
大明	-10.6517
女子	-10.652
奮	-10.6521
▁予心	-10.6526
皷	-10.6526
謹按	-10.6531
無人	-10.6537
▁提調	-10.6537
子光	-10.6544
別坐	-10.6544
亦無	-10.6546
臺諫所啓	-10.6549
弓矢	-10.6551
宦	-10.6552
敷	-10.6554
柔	-10.6558
廩	-10.6559
▁而至	-10.6563
歐	-10.6568
遁	-10.6568
▁頗有	-10.6569
初九日	-10.6572
之言也	-10.6576
率爾	-10.6577
交通	-10.6578
▁擢	-10.6579
供饋	-10.658
聞知	-10.6581
摘	-10.6582
之批	-10.6584
距	-10.6585
陋	-10.6588
集賢殿	-10.6589
菜	-10.6589
初二日	-10.6594
外人	-10.6594
保放	-10.6595
本宮	-10.6598
詳問	-10.66
禁府堂上	-10.6606
▁盡爲	-10.6612
▁仁	-10.6618
固當	-10.6619
銀子	-10.662
愆	-10.662
取服	-10.6626
▁不以	-10.6628
之上	-10.6629
三軍	-10.6631
兵船	-10.6631
辭避	-10.6631
邊事	-10.6631
婦女	-10.6633
▁性	-10.6634
錄用	-10.6634
群情	-10.6634
中路	-10.6635
地方	-10.6637
▁亦是	-10.6638
▁刑曹	-10.6643
自前	-10.6644
得其	-10.6646
上召見	-10.6646
脩	-10.665
太白晝見	-10.6652
驛路	-10.6653
▁稱以	-10.6653
二日	-10.6662
三四	-10.6663
▁臨	-10.6664
▁當該	-10.6664
進酒	-10.6665
▁戶曹	-10.6669
議政	-10.6669
▁雖不可	-10.667
軍功	-10.6672
稀	-10.6672
迭	-10.6673
金礩	-10.6676
所生	-10.6676
米穀	-10.6676
琛	-10.6681
民怨	-10.6682
進香	-10.6682
之漸	-10.6684
爲不可	-10.6685
憐	-10.6686
不暇	-10.6692
育	-10.6692
帽	-10.6694
▁縱	-10.6698
傳旨戶曹	-10.6699
捕廳	-10.6703
▁罷	-10.6705
疏陳	-10.6709
施賞	-10.671
群議	-10.671
將帥	-10.6711
士卒	-10.6712
依例	-10.6714
名器	-10.6719
▁何不	-10.6723
▁而獨	-10.6729
辜	-10.673
▁則有	-10.6731
飮酒	-10.6731
勑使	-10.6733
皇朝	-10.6733
頌	-10.6737
▁恐或	-10.6739
京兆	-10.6739
▁都提調	-10.6739
此乃	-10.674
▁亟命	-10.6746
公道	-10.6746
至親	-10.6748
船隻	-10.6748
沿邊	-10.6752
孚	-10.6753
明春	-10.676
本官	-10.6763
鹿	-10.6765
稱號	-10.6766
判付	-10.6766
聯箚	-10.6767
▁景	-10.6772
粥	-10.6772
何人	-10.6776
磨勘	-10.678
▁又無	-10.678
▁眞	-10.6782
取招	-10.6784
有是	-10.6784
▁傳于政院曰	-10.6787
來朝	-10.6789
賞格	-10.6795
社	-10.6796
中官	-10.6796
▁念	-10.6798
禎	-10.6799
燮	-10.6799
墳	-10.6799
東萊府使	-10.6802
其名	-10.6802
高下	-10.6803
二十五	-10.681
參鞫	-10.6811
彼此	-10.6816
溢	-10.6819
諉以	-10.6819
論以	-10.6819
中樞院副使	-10.6822
譴	-10.6831
直赴殿試	-10.6838
▁卽今	-10.6839
珪	-10.6843
河崙	-10.6845
所供	-10.6847
▁朝家	-10.6847
改造	-10.6849
城內	-10.6852
祿俸	-10.6853
▁傳于	-10.6854
擾	-10.6854
爲民	-10.6855
十七日	-10.6857
▁上答以	-10.6857
臣職	-10.6857
▁語	-10.6858
▁不如	-10.6859
廬	-10.6861
▁共	-10.6862
▁國事	-10.6862
凌	-10.6863
片	-10.6864
守護	-10.6865
定州	-10.6866
租	-10.6868
與大臣	-10.687
▁識者	-10.6872
賢否	-10.6873
▁若無	-10.6873
▁國	-10.6874
冑	-10.6882
情狀	-10.6882
代言	-10.6883
情禮	-10.6884
進曰	-10.6886
瑜	-10.6886
所無	-10.6889
▁先王	-10.689
未妥	-10.689
御仁政殿	-10.6891
爲判尹	-10.6892
往審	-10.6892
請以	-10.6892
勒	-10.6898
二十一日	-10.6898
同生	-10.6899
▁檢討官	-10.6901
聖心	-10.6901
▁諭	-10.6903
鞍馬	-10.6905
是也	-10.6907
四字	-10.6907
▁强	-10.6914
▁量	-10.6914
終身	-10.6914
▁然此	-10.6914
▁入啓	-10.6915
李義	-10.6915
累月	-10.6915
從重推考	-10.6916
大罪	-10.6919
▁則豈	-10.6923
袍	-10.6926
受賀	-10.6927
停罷	-10.6927
句管	-10.6928
稟旨	-10.6929
告于	-10.6931
別遣	-10.6933
察任	-10.6933
言其	-10.6933
朱子	-10.6941
面質	-10.6941
時烈	-10.6941
之獄	-10.6943
朴楗	-10.6944
撤去	-10.6946
收職牒	-10.6948
遣官	-10.6948
文案	-10.6955
御思政殿	-10.6957
二十二日	-10.6962
▁獻納	-10.6962
絞	-10.6964
▁則無	-10.6967
虧	-10.6973
人口	-10.6974
館學儒生	-10.6975
李景	-10.6978
溪	-10.6981
之禁	-10.6981
所納	-10.6982
刷	-10.6983
一部	-10.6985
▁此等	-10.6987
兵馬	-10.6993
崔恒	-10.6993
三省	-10.6998
依所啓	-10.6998
▁卿宜	-10.6999
庭鞫	-10.7001
極爲	-10.7001
必多	-10.7004
▁而或	-10.7005
▁欲以	-10.7005
非之	-10.7007
▁收	-10.7009
之所以	-10.7011
▁尤極	-10.7012
情理	-10.7012
誓	-10.7013
賞罰	-10.7013
行宮	-10.7018
▁意	-10.7021
不絶	-10.7024
之邑	-10.7025
四寸	-10.7029
雖欲	-10.7033
而後已	-10.7035
不公	-10.7037
下敎曰	-10.704
▁推	-10.7042
四館	-10.7042
曾爲	-10.7044
豫	-10.7044
晝講	-10.7045
▁臣恐	-10.7046
一名	-10.705
色郞廳	-10.7052
培	-10.7054
▁亦必	-10.7055
凡事	-10.7055
之歸	-10.7056
中殿	-10.7056
府尹	-10.7058
遏	-10.706
等五人	-10.7061
及第	-10.7064
先王朝	-10.7065
▁纔	-10.7065
之術	-10.7066
模	-10.7069
太平館	-10.7069
漆	-10.7071
一向	-10.7072
悰	-10.7072
乞遞	-10.7073
金安老	-10.7075
債	-10.7076
拂	-10.7082
鄕吏	-10.7083
俯伏	-10.7087
引入	-10.7091
▁置之	-10.7095
▁只令	-10.7096
無忌	-10.7096
匠人	-10.7099
獸	-10.7101
談	-10.7104
丕	-10.7104
遷轉	-10.7106
後苑	-10.711
百餘	-10.7111
▁放	-10.7112
鍾城	-10.7115
則不	-10.7115
趁	-10.7115
更思之	-10.7117
啓本啓	-10.712
覓	-10.7124
則不可	-10.7124
迷	-10.7125
泂	-10.7126
箋	-10.7126
▁人臣	-10.7126
領議政鄭太和	-10.7128
譏察	-10.713
巨濟	-10.713
止於	-10.7131
移配	-10.7137
累年	-10.7139
關東	-10.7146
足矣	-10.7148
悌男	-10.7148
▁特爲	-10.715
行會	-10.7152
黃愼	-10.7154
▁此皆	-10.7154
試之	-10.7154
司諫院大司諫	-10.7157
宮人	-10.716
原任大臣	-10.7163
諸宰	-10.7166
爲吏曹正郞	-10.7169
之分	-10.7169
臺諫之言	-10.717
喩	-10.717
▁則此	-10.7172
事機	-10.7172
上聞	-10.7177
差人	-10.7178
一件	-10.7179
此擧	-10.7179
▁道臣	-10.7181
又請	-10.7181
于外	-10.7185
私意	-10.7188
沈澮	-10.7189
貳	-10.719
催促	-10.7193
相通	-10.7194
罷其職	-10.7198
▁密	-10.7198
▁居	-10.7203
▁似難	-10.7204
摠制	-10.7205
鄙	-10.721
圈	-10.7211
▁惟在	-10.7211
來告	-10.7211
黃喜	-10.7212
▁世祖	-10.7213
▁有同	-10.7216
何可	-10.7218
▁參酌	-10.7218
疏決	-10.7219
工匠	-10.7219
沈貞	-10.722
柳子光	-10.7222
之譏	-10.7223
▁而且	-10.7228
李廷	-10.7231
天聽	-10.7232
剌	-10.7233
推覈	-10.7236
司饔院	-10.7236
慙	-10.7236
宏	-10.7237
▁而有	-10.7237
謄	-10.7237
柳順汀	-10.7238
士子	-10.7239
分定	-10.7239
▁未幾	-10.7239
雷動	-10.7239
至當	-10.724
卿言	-10.724
▁則可	-10.7241
砲	-10.7244
係干	-10.7247
日暮	-10.7248
▁義	-10.7248
濡	-10.7251
影	-10.7253
之效	-10.7257
高麗	-10.7258
▁依例	-10.726
萬一	-10.726
▁言于該曹	-10.7262
僞造	-10.7265
二十四日	-10.7266
號牌	-10.7267
數百	-10.7268
絶島	-10.7275
帳	-10.7276
在逃	-10.7277
縛	-10.7279
遠方	-10.728
▁先朝	-10.7286
文衡	-10.7289
放還	-10.7289
▁豈敢	-10.7295
過中	-10.7295
曳	-10.7303
請之	-10.7304
宋軼	-10.7305
▁京外	-10.7305
滋	-10.7305
者有之	-10.7308
觀其	-10.7309
六千	-10.7309
腹	-10.7313
▁議政府	-10.7315
如京師	-10.7316
閭	-10.7317
謹愼	-10.732
古制	-10.732
蓄	-10.7322
及此	-10.7323
銘	-10.7326
爲是	-10.7326
尙州	-10.7326
軍律	-10.7327
▁從速	-10.7327
利害	-10.7327
失其	-10.7329
重治	-10.7334
爲嫌	-10.7334
▁不覺	-10.7335
侵虐	-10.7336
江原道觀察使	-10.7338
折受	-10.734
之員	-10.734
陰陽	-10.7341
爲事	-10.7343
世孫	-10.7347
韓應寅	-10.7349
旁	-10.7353
暗行御史	-10.7353
有如此	-10.737
饑	-10.7371
忤	-10.7371
景慕宮	-10.7371
考之	-10.7372
襄	-10.7372
發明	-10.7373
水災	-10.7375
缺望	-10.7376
傳旨義禁府	-10.7377
批答	-10.7378
付標	-10.738
綾	-10.7384
而罷	-10.7386
昌城	-10.7388
罷職不敍	-10.7389
慕華館	-10.7391
呈文	-10.7392
▁歸	-10.7392
▁卽命	-10.7392
民心	-10.7393
曖昧	-10.7394
職名	-10.7397
零	-10.7398
平生	-10.74
物力	-10.7404
不啓	-10.7405
十八	-10.7408
幽	-10.7412
十七	-10.7412
莅	-10.7417
之非	-10.7418
極重	-10.7419
▁累日	-10.742
疏曰	-10.7425
大學	-10.7426
缺然	-10.7428
▁三司	-10.7429
煩瀆	-10.743
江陵	-10.7431
▁早	-10.7431
淸國	-10.7432
脚	-10.7438
亦以爲	-10.7439
大變	-10.7439
遮	-10.7439
詆斥	-10.7441
鎭定	-10.7442
孰	-10.7442
關係	-10.7444
之軍	-10.7444
人所	-10.7447
▁右	-10.7448
▁不啻	-10.745
進言	-10.7453
▁人多	-10.7454
▁期於	-10.7454
送之	-10.7454
拿致	-10.7455
北方	-10.7456
▁以杜	-10.7458
之如何	-10.7459
洪命夏	-10.746
蹈	-10.7462
▁尤不可	-10.7463
器械	-10.7466
端川	-10.7467
匿名書	-10.7469
不中	-10.747
逮	-10.7471
復戶	-10.7472
復設	-10.7473
之美	-10.7473
張晩	-10.7474
▁皆令	-10.7475
萬萬	-10.7475
諸處	-10.748
▁喜	-10.7483
永寧殿	-10.7485
黜陟	-10.7485
申用漑	-10.7486
幾何	-10.7488
則雖	-10.7488
▁例也	-10.7493
造作	-10.7495
忱	-10.7495
許赴	-10.7496
有之	-10.7498
於心	-10.75
所達	-10.7501
魂	-10.7502
之號	-10.7504
察職	-10.7506
不少	-10.7507
領敦寧	-10.7507
芳	-10.7507
軒	-10.7508
▁幾至	-10.7509
▁漢	-10.7512
還送	-10.7513
西班	-10.7514
入番	-10.7518
不均	-10.7521
其主	-10.7521
將來	-10.7522
不能自	-10.7522
議曰	-10.7527
▁孝	-10.753
沐浴	-10.7531
江原監司	-10.7534
▁故不	-10.7539
課	-10.7542
答以	-10.7542
窮推	-10.7543
差下	-10.7543
砲手	-10.7549
太學	-10.755
驕	-10.7551
袖	-10.7553
▁今欲	-10.7554
▁啓下	-10.7555
別侍衛	-10.7556
闕庭	-10.7557
▁執	-10.756
而用之	-10.7561
前縣監	-10.7563
良人	-10.7565
考出	-10.7567
入對	-10.7568
知委	-10.7569
▁十	-10.7571
前事	-10.7572
扇	-10.7572
習陣	-10.7575
徐有	-10.7577
傳旨禮曹	-10.7585
二十六日	-10.7587
雖無	-10.7589
尼	-10.7595
樑	-10.7597
催	-10.7597
兩西	-10.76
柳成龍	-10.76
引見大臣	-10.7604
▁聖	-10.7607
今以	-10.7611
成宗	-10.7613
▁觀其	-10.7614
錄勳	-10.7617
頒赦	-10.7617
▁而第	-10.7618
引接	-10.7619
世宗朝	-10.7621
禮曹參議	-10.7623
▁觀察使	-10.7626
▁安心	-10.7626
俺	-10.7627
屬公	-10.7633
司譯院	-10.7634
不平	-10.7635
倭奴	-10.7635
可行	-10.7636
▁若是	-10.7638
近因	-10.764
潰	-10.7645
巾	-10.7646
賜米	-10.7647
任士洪	-10.7651
留意	-10.7653
李承	-10.7653
講究	-10.7655
▁拜	-10.7656
抗	-10.7656
女壻	-10.7658
釁	-10.7661
▁經筵	-10.7662
▁盡心	-10.7663
檢飭	-10.7665
涼	-10.7665
習儀	-10.7673
蕩減	-10.7675
邸下	-10.7675
▁且聞	-10.7678
之難	-10.768
吏判	-10.7683
自知	-10.7686
國忌	-10.7687
爲刑曹參判	-10.7687
僻	-10.7693
金世	-10.7695
難處	-10.7697
決杖一百	-10.7701
有疾	-10.7702
其兄	-10.7703
日前	-10.7706
領兵	-10.7708
賊變	-10.7709
得失	-10.771
▁少無	-10.771
劣	-10.7711
可據	-10.7725
垣	-10.7727
繕工監	-10.7728
出送	-10.7729
冤枉	-10.7733
▁而臣等	-10.7734
撿	-10.7736
所係	-10.7738
進排	-10.7739
▁故以	-10.7739
▁往來	-10.7741
▁不至	-10.7745
▁以副	-10.7746
城府院君	-10.7752
承旨等	-10.7756
▁開	-10.7757
包	-10.7761
▁載	-10.7761
▁忽	-10.7762
慝	-10.7763
兼帶	-10.7766
之儀	-10.7767
朴弘道	-10.7769
口傳	-10.7769
冊寶	-10.777
兵營	-10.777
增廣	-10.777
敎旨	-10.7772
二等	-10.7773
▁乘	-10.7774
誥	-10.7774
下書于	-10.7777
▁當爲	-10.778
軍籍	-10.7783
▁請命遞斥	-10.7787
濟用監	-10.7787
契	-10.7789
嘉靖	-10.7789
反正	-10.7802
▁韓明澮	-10.7806
生民	-10.7808
媚	-10.781
槍	-10.781
軫念	-10.7813
▁言于備邊司	-10.7813
帥	-10.7813
▁方在	-10.7814
公州	-10.7817
李世佐	-10.7824
特加	-10.7824
二次	-10.7829
天變	-10.7829
▁恐非	-10.7832
撥	-10.7834
不與	-10.7835
大祭	-10.7835
▁伏望殿下	-10.7838
▁以此觀之	-10.7839
病重	-10.7841
功勞	-10.7842
爲可	-10.7847
書入	-10.7847
▁自今以後	-10.7849
痛心	-10.7849
各異	-10.7851
▁斯速	-10.7853
軍糧	-10.7854
査出	-10.7863
意見	-10.7863
未見	-10.7872
刑獄	-10.7876
劃給	-10.7877
平山	-10.788
偶	-10.788
賑濟	-10.7885
拿囚	-10.7888
▁光	-10.7893
帛	-10.7896
正朝	-10.7898
所得	-10.7899
近年	-10.7901
▁都	-10.7903
崙	-10.7904
▁西	-10.7905
叵測	-10.7905
▁互相	-10.7909
初五日	-10.7912
兩司連啓	-10.7913
冠服	-10.7913
博士	-10.7914
等罪	-10.7915
▁若使	-10.7917
▁擅	-10.7918
有闕	-10.7921
▁問其	-10.7923
▁差	-10.7924
臣等伏見	-10.7926
賻	-10.7928
刃	-10.7929
廢朝	-10.7933
▁而自上	-10.7936
差備	-10.7938
之冤	-10.7939
九百	-10.7939
召還	-10.7939
▁仍敎曰	-10.794
執法	-10.7942
往還	-10.7942
▁且令	-10.7943
事變	-10.7944
▁三啓	-10.7944
▁誠極	-10.7944
中有	-10.7944
南漢	-10.7944
之病	-10.7945
自有	-10.7947
▁請推	-10.795
動駕	-10.7953
慶德宮	-10.7953
▁厥後	-10.7955
論劾	-10.7956
▁伏願殿下	-10.7956
其地	-10.7957
不雨	-10.796
我朝	-10.7963
冊禮	-10.7963
▁顯有	-10.7963
▁計	-10.7963
更請	-10.7964
大段	-10.7964
言責	-10.7965
時未	-10.7966
別樣	-10.7968
非徒	-10.7969
惕	-10.7969
移置	-10.797
▁則何	-10.7972
▁前頭	-10.7973
確	-10.7973
何時	-10.7975
赴役	-10.7977
一樣	-10.7977
互	-10.7979
成希顔	-10.798
綱目	-10.7981
祈禱	-10.7983
丞	-10.7986
莫大	-10.7986
爲宜	-10.799
者外	-10.7993
見遞	-10.7998
▁伏	-10.7998
闊	-10.7998
分義	-10.7999
已極	-10.8
列聖	-10.8001
貼	-10.8001
致賻	-10.8002
亦不可	-10.8003
暈	-10.8004
金氏	-10.8005
▁今宜	-10.8006
初不	-10.8006
上引見大臣	-10.8007
不善	-10.8007
太監	-10.8014
捧承傳	-10.8016
▁責	-10.8019
蔡濟恭	-10.8019
▁宗	-10.802
都正	-10.8021
痛憤	-10.8022
物件	-10.8022
體察使	-10.8024
專掌	-10.8024
之歎	-10.8024
▁兵曹判書	-10.8025
拙	-10.8025
▁有是命	-10.8026
虛疎	-10.8027
請還收	-10.8029
▁民生	-10.8031
六鎭	-10.8031
▁臣等亦	-10.8033
數少	-10.8034
金錫冑	-10.8034
原州	-10.8041
入朝	-10.8042
釜山	-10.8045
得人	-10.8046
分遣	-10.8047
岐	-10.8048
巳	-10.8049
區別	-10.8051
浹	-10.8051
不忘	-10.8051
李荇	-10.8052
▁非如	-10.8054
雙	-10.8063
於臣	-10.8063
爲禮曹參判	-10.8064
▁恣行	-10.8064
哨	-10.8066
▁而不爲	-10.807
李沆	-10.8071
成命	-10.8074
孟子	-10.8074
愁	-10.8076
無情	-10.8076
駭然	-10.8077
聖朝	-10.8078
不至於	-10.8082
▁遇	-10.8085
前年	-10.8087
▁將欲	-10.8089
朝參	-10.8089
告者	-10.809
州郡	-10.8093
大臣之	-10.8094
踏	-10.8096
抄出	-10.8098
瀋陽	-10.8099
淨	-10.8103
得中	-10.8109
▁弘文館	-10.811
爲戶曹判書	-10.811
誥命	-10.8111
受其	-10.8117
▁輪對	-10.812
狗	-10.8122
瀆擾	-10.8122
▁三公	-10.8123
囚人	-10.8126
水陸	-10.8132
相當	-10.8135
▁又不	-10.8136
▁遂命	-10.814
傳說	-10.8142
筵臣	-10.8142
疲	-10.8144
良久	-10.8146
軍餉	-10.8146
舡	-10.8147
一也	-10.8148
▁竝不允	-10.8148
進參	-10.8149
防戍	-10.8153
年前	-10.8157
議論	-10.8157
帝王	-10.8158
悟	-10.8159
無不	-10.8159
木綿	-10.8159
齎去	-10.816
歸順	-10.8163
禮曹以	-10.8164
▁謀	-10.8169
▁吏曹判書	-10.8169
踐	-10.817
腰	-10.8171
金佐明	-10.8171
中間	-10.8172
四五	-10.8173
批旨	-10.8178
向化	-10.8179
則曰	-10.8188
于政院曰	-10.8189
冕	-10.8192
供上	-10.8193
肥	-10.8194
無辜	-10.8194
綏	-10.8194
釋之	-10.8195
疏請	-10.8195
經幄	-10.8197
臺論	-10.82
兵曹據	-10.82
▁不足	-10.8201
▁最	-10.8207
一邑	-10.8211
▁古人	-10.8212
▁此言	-10.8213
官奴	-10.8214
臣罪	-10.8218
漫	-10.822
討賊	-10.8222
不美	-10.8225
腹心	-10.8225
秋曹	-10.8226
僉知	-10.8227
辭緣	-10.8228
預爲	-10.823
李光佐	-10.8231
慄	-10.8233
有識	-10.8233
在前	-10.8239
諫院啓	-10.8239
厲	-10.824
▁嚴	-10.8242
售	-10.8243
踵	-10.8245
李重	-10.8247
▁則自	-10.8249
仍冒	-10.825
自處	-10.825
▁施以	-10.8253
承傳色	-10.8255
▁禁	-10.8255
▁倘	-10.8262
物情	-10.8265
痛禁	-10.8267
▁臣與	-10.8269
秦	-10.8269
鏡	-10.827
不復	-10.8272
欲以	-10.8272
所致	-10.8274
配所	-10.8275
泛然	-10.8276
▁稍	-10.8277
賊勢	-10.8277
▁依律	-10.8277
藥房提調	-10.8279
勿煩	-10.8281
之門	-10.8285
▁量宜	-10.8286
▁副使	-10.8289
衷	-10.8291
令廟堂稟處	-10.8292
漁	-10.8292
祔	-10.8292
禪	-10.8292
▁而旣	-10.8293
▁而此	-10.8293
鼠	-10.8293
臣聞	-10.8295
學生	-10.8296
▁考	-10.8296
次第	-10.8297
依此	-10.8298
目見	-10.8299
堂下	-10.8304
五十匹	-10.8306
士洪	-10.8307
庶人	-10.8308
除拜	-10.8308
昔年	-10.8314
董	-10.8315
搜捕	-10.8315
▁則不	-10.8316
海靑	-10.8317
之力	-10.8319
歿	-10.8319
挽	-10.8319
▁而今則	-10.8321
伏閤	-10.8322
殿庭	-10.8324
爲司憲府持平	-10.8326
衰服	-10.8327
臣父	-10.8327
守禦	-10.8327
監試	-10.8328
▁凡干	-10.8329
▁隨其	-10.833
▁末	-10.8334
▁申飭	-10.8338
相持	-10.8339
▁此雖	-10.834
▁御	-10.8342
郊外	-10.8345
▁宗親	-10.8346
爲始	-10.8347
▁論以	-10.8347
聯名	-10.8349
▁有曰	-10.8349
不信	-10.835
雷電	-10.835
苟簡	-10.8351
靳	-10.8353
相會	-10.8358
異同	-10.8361
今方	-10.8362
▁臣等之意	-10.8363
鴻	-10.8363
元勳	-10.8366
爲政	-10.8367
▁平安道	-10.8367
伏聞	-10.8367
宦寺	-10.837
南北	-10.8371
應行	-10.8375
▁固非	-10.8375
▁素	-10.8376
晝停	-10.8378
歷代	-10.8379
誠心	-10.838
過擧	-10.838
陵上	-10.8382
士人	-10.8383
告變	-10.8385
尙在	-10.8386
以私	-10.8386
爲奴	-10.8388
文義	-10.8389
之具	-10.839
上箚辭職	-10.839
疏語	-10.8391
一時之	-10.8391
成宗朝	-10.8391
金銀	-10.8391
韻	-10.8394
尹殷輔	-10.8394
寡昧	-10.8394
水軍節度使	-10.8395
嘉禮	-10.8399
無實	-10.8399
營繕	-10.84
▁極	-10.84
交結	-10.8402
孝子	-10.8406
亦必	-10.8406
急務	-10.8407
擇遣	-10.8408
所進	-10.8409
鬪	-10.8411
規例	-10.8412
▁判書	-10.8412
▁欲使	-10.8415
▁移文	-10.8415
栗	-10.8418
▁自此	-10.8419
議者	-10.8419
千里	-10.842
二年	-10.8421
一心	-10.8423
判下	-10.8423
▁安知	-10.8423
諸承旨	-10.8424
可惜	-10.8425
大行	-10.8425
▁伏見	-10.8428
鄭麟趾	-10.8428
不肖	-10.843
▁自當	-10.8435
收納	-10.8435
▁依前例	-10.8436
不知其	-10.8439
▁庶幾	-10.844
鑿	-10.8444
徐必遠	-10.8445
魂殿	-10.8448
區處	-10.845
別單	-10.845
▁聚	-10.845
日氣	-10.8451
覆奏	-10.8451
放榜	-10.8452
闕門	-10.8453
先後	-10.8457
與同僚	-10.8457
王大妃	-10.8459
各人	-10.8461
世宗	-10.8462
臺諫合司	-10.8464
筵中	-10.8464
▁竝命	-10.8464
死囚	-10.8468
遣大臣	-10.8468
大駕	-10.8469
然也	-10.8472
投疏	-10.8475
迎勑	-10.8476
文具	-10.8478
逞	-10.8479
▁然而	-10.8481
受由	-10.8481
軍額	-10.8484
▁則或	-10.8487
命停	-10.8489
▁固無	-10.8491
▁已極	-10.8493
濟州牧使	-10.8496
陽君	-10.8498
其夫	-10.8502
而爲	-10.8505
▁預	-10.8505
余	-10.8505
刑問	-10.8506
今當	-10.8509
▁宣	-10.851
▁而終	-10.851
本廳	-10.8513
其餘	-10.8514
不合於	-10.8518
稽緩	-10.8521
治道	-10.8522
▁儒生	-10.8525
擇送	-10.8526
可知矣	-10.853
久不	-10.8531
翌日	-10.8535
容貸	-10.8539
民人	-10.854
沆	-10.8541
喧	-10.8542
勑書	-10.8542
李原	-10.8544
▁禮曹判書	-10.8546
蔚山	-10.8547
不孝	-10.8547
▁其弊	-10.8549
之跡	-10.8549
▁其心	-10.855
▁另加	-10.8553
防守	-10.8554
可矜	-10.8558
還宮時	-10.8558
遣人來獻土宜	-10.8559
番上	-10.856
三十日	-10.8566
金在魯	-10.8567
重試	-10.8568
之設	-10.857
悍	-10.857
雉	-10.857
狂妄	-10.8573
鄭致和	-10.8573
倭船	-10.8575
訓鍊	-10.8577
夕講	-10.8579
▁仍詣	-10.8579
始役	-10.858
入學	-10.8583
大風	-10.8584
主之	-10.8588
加給	-10.8589
不自	-10.8589
內司	-10.8589
寧邊	-10.859
禮物	-10.8592
故相	-10.8593
禾	-10.8593
處女	-10.8594
而有	-10.8596
灘	-10.8596
僥倖	-10.8596
議啓曰	-10.8598
雖非	-10.8599
苑	-10.86
亦難	-10.8606
七八	-10.8607
▁不亦	-10.8609
宴享	-10.861
得以	-10.8611
二名	-10.8611
笞	-10.8612
金海	-10.8614
善爲	-10.8615
入格	-10.8616
頗多	-10.8618
▁領相	-10.8621
無以	-10.8621
晟	-10.8622
影幀	-10.8622
知申事	-10.8622
捕盜廳	-10.8623
有是命	-10.8623
八千	-10.8624
▁參	-10.8629
副提調	-10.8632
倉卒	-10.8632
▁而使	-10.8635
兩南	-10.8636
當然	-10.8641
▁來獻土物	-10.8642
行刑	-10.8643
冗	-10.8645
犯禁	-10.8647
掌隷院	-10.8647
泥	-10.8647
進賀	-10.8648
請留	-10.8649
判事	-10.8649
吉日	-10.8651
檢擧	-10.8651
頻數	-10.8653
▁旣以	-10.8653
殿講	-10.8653
閱武	-10.8656
金尙憲	-10.8656
閫	-10.8658
▁凡有	-10.8659
未可	-10.866
諭于	-10.8661
尙未	-10.8661
量減	-10.8662
▁不可輕	-10.8663
之過	-10.8663
尹得	-10.8665
本主	-10.8666
依允	-10.8667
拜表	-10.8669
▁有難	-10.8669
▁慶尙道	-10.867
捕盜大將	-10.8672
▁伏惟上裁	-10.8673
▁未爲不可	-10.8674
上御熙政堂	-10.8676
▁第念	-10.8677
之兵	-10.8677
禁止	-10.8681
校正	-10.8683
聖候	-10.8684
不得不	-10.8689
汰去	-10.8691
予當	-10.8691
截	-10.8694
擬議	-10.8695
▁罔	-10.8696
付之	-10.8698
遇災	-10.8698
斛	-10.8699
揖	-10.8699
城上所	-10.8699
▁勉	-10.8699
遲滯	-10.8699
流移	-10.8704
▁曾已	-10.8709
凡人	-10.8709
更推	-10.8711
不滿	-10.8719
▁且今	-10.8719
推移	-10.872
國恤	-10.8721
中宮殿	-10.8721
之耳	-10.8721
璿	-10.8725
▁人主	-10.8725
李宗城	-10.8729
倅	-10.8729
溺死	-10.873
▁而上	-10.873
避辭	-10.8738
十九	-10.8739
會試	-10.8742
親耕	-10.8743
攸	-10.8743
私情	-10.8744
▁今將	-10.8747
駿	-10.8747
籌	-10.8749
罪囚	-10.8749
認	-10.875
禽獸	-10.8752
而啓之	-10.8753
悶迫	-10.8753
何以爲之	-10.8756
元良	-10.8756
修省	-10.8756
情勢	-10.876
夜一更	-10.8762
▁令本道	-10.8765
弘道	-10.8766
賞之	-10.8767
▁此是	-10.8768
前任	-10.8769
一疏	-10.8774
箴	-10.8776
訓鍊院	-10.8778
小事	-10.8779
夜深	-10.878
依前例	-10.8781
如彼	-10.8781
政院以	-10.8788
忠義	-10.879
▁何以處之	-10.8791
奉命	-10.8792
▁及至	-10.8793
▁凡事	-10.8793
▁今始	-10.8793
固請	-10.8794
科場	-10.8794
處事	-10.8795
供云	-10.8797
正法	-10.8798
印出	-10.8798
讓寧	-10.8799
▁各道	-10.88
聚會	-10.88
珠	-10.8801
穩城	-10.8803
未滿	-10.8804
權鈞	-10.8807
則有	-10.8807
未蒙	-10.881
收贖	-10.8812
聞其	-10.8814
戮	-10.8818
無期	-10.882
藤	-10.8827
磨	-10.8828
舌	-10.8828
賚	-10.8829
▁未可	-10.8833
歲抄	-10.8835
任意	-10.8839
▁極爲未安	-10.8843
備忘	-10.8843
主張	-10.8844
覩	-10.8847
稠	-10.8848
武人	-10.885
具致寬	-10.8852
▁或稱	-10.8853
」	-10.8854
摠護使	-10.8855
焦	-10.8855
閭巷	-10.8855
堤堰	-10.8855
▁而大臣	-10.8856
山郡	-10.8856
罷職事	-10.8858
鐸	-10.8858
在上	-10.8859
以南	-10.8861
去就	-10.8862
▁全羅道	-10.8862
大逆	-10.8864
置簿	-10.8864
講論	-10.8866
此等	-10.8867
崇政	-10.8867
▁則皆	-10.8868
追贈	-10.8869
都廳	-10.8872
▁付	-10.8873
三匹	-10.8874
禫	-10.8875
▁上不允	-10.8875
奈何	-10.8876
捕獲	-10.888
綸	-10.888
長湍	-10.888
艘	-10.8881
鎖	-10.8881
層	-10.8881
徐居正	-10.8882
宮家	-10.8884
之孫	-10.8887
受鍼	-10.8888
▁不忍	-10.8893
常參	-10.8897
敎授	-10.8897
此賊	-10.8897
上尊號	-10.8898
李萬	-10.8902
視之	-10.8903
猷	-10.8907
進去	-10.8917
▁後日	-10.8917
崩	-10.8921
齋戒	-10.8922
爲司諫院正言	-10.8926
本縣	-10.893
匪	-10.893
監役官	-10.8931
來往	-10.8932
行事	-10.8932
雍	-10.8934
藝文提學	-10.8934
▁詳細	-10.8934
▁不欲	-10.8934
尙震	-10.8935
尹元衡	-10.8938
▁別爲	-10.8938
無遺	-10.8939
賜祭	-10.8939
之所爲	-10.8944
▁期	-10.8945
之戒	-10.8947
爲右參贊	-10.8953
爲弘文館校理	-10.8954
▁性本	-10.8954
用意	-10.8955
等七人	-10.8957
向日	-10.8958
馬一匹	-10.8958
轎	-10.8959
伍	-10.8962
不敍	-10.8965
▁姑爲	-10.897
年久	-10.8972
▁亦豈	-10.8975
▁臣雖	-10.8976
三水	-10.8977
之田	-10.8978
朋	-10.898
悚	-10.898
預備	-10.8981
禱	-10.8982
▁則必有	-10.8983
而行之	-10.8985
頤	-10.8987
無禮	-10.8988
河演	-10.8989
從容	-10.8991
▁一邊	-10.8991
上引見大臣備堂	-10.8993
詳議	-10.8998
▁想	-10.8999
一月	-10.9
域	-10.9002
得見	-10.9005
順天	-10.9006
兩宗	-10.9006
憲司	-10.9006
之私	-10.9006
洩	-10.9013
▁惶恐敢啓	-10.9013
咸吉道都節制使	-10.9014
疏論	-10.9014
此而	-10.9014
朴元宗	-10.9014
▁申叔舟	-10.9016
禁錮	-10.9017
許筠	-10.9018
諸君	-10.9019
▁請停	-10.902
婦人	-10.9022
▁不意	-10.9025
受祿	-10.9028
勢難	-10.9034
▁請寢	-10.9034
嗟	-10.9038
該官	-10.9041
自新	-10.9043
星州	-10.9047
依舊例	-10.9049
仍留	-10.9049
不妨	-10.9053
胡人	-10.9054
救之	-10.9055
疋	-10.9056
▁請推考	-10.9057
聘	-10.9058
尹壕	-10.9059
溫陽	-10.9059
兆	-10.9063
洪彦弼	-10.9064
留置	-10.9067
對馬州太守宗貞國	-10.9067
仙	-10.9067
無形	-10.9068
訓局	-10.9069
▁銓曹	-10.9072
分數	-10.9074
利川	-10.9075
突入	-10.9075
▁冀	-10.9078
已成	-10.908
▁道內	-10.908
失刑	-10.9081
李滉	-10.9083
贊善	-10.9083
爀	-10.9084
事狀	-10.9084
瑣	-10.9085
備忘記曰	-10.9087
無嚴	-10.9091
宗臣	-10.9092
壓膝	-10.9093
朝著	-10.9094
▁是何	-10.9097
惜之	-10.9098
寧君	-10.9099
都鎭撫	-10.91
耆老	-10.9103
▁答以	-10.9104
▁亦已	-10.9104
▁時未	-10.9105
猶未	-10.9106
▁似不	-10.9107
病勢	-10.9108
之甚	-10.9109
▁足以	-10.911
麻布	-10.9114
流離	-10.9115
三萬	-10.9115
所送	-10.9117
紹	-10.912
定制	-10.9121
自別	-10.9123
聖恩	-10.9126
正字	-10.9128
再拜	-10.9129
中庸	-10.9129
▁萬萬	-10.9132
裝	-10.9132
窺	-10.9132
學校	-10.9132
數十	-10.9134
沃	-10.9139
元孫	-10.9141
▁托以	-10.9143
北兵使	-10.9144
不職	-10.9145
▁留	-10.9146
安邊	-10.9151
構陷	-10.9152
▁送于	-10.9152
蒙宥	-10.9153
偕來	-10.9153
標信	-10.9155
▁尙且	-10.9158
諸賊	-10.9158
大臣及	-10.916
重推	-10.916
輕易	-10.916
白氣	-10.9165
秋成	-10.9167
親見	-10.9167
無賴	-10.9169
備局諸臣	-10.917
宮闕	-10.917
成渾	-10.9171
軍政	-10.9171
別設	-10.9172
嫉	-10.9174
金鍾秀	-10.9174
楚	-10.9174
逃躱	-10.9174
不在	-10.9179
留都	-10.918
愼重	-10.9181
殆	-10.9181
政院曰	-10.9182
▁故今	-10.9182
私恩	-10.9184
被災	-10.9184
亞	-10.9189
經宿	-10.9191
蔭官	-10.9192
田結	-10.9194
不擧	-10.9194
島配	-10.9196
而歸	-10.9196
爾國	-10.9199
薰	-10.9201
梅	-10.9201
喉舌	-10.9202
箇滿	-10.9203
趙末生	-10.9205
有甚於	-10.9205
▁特賜	-10.9207
取用	-10.9208
安老	-10.9212
得聞	-10.9212
▁校理	-10.9214
下義禁府	-10.9215
以行	-10.9219
之氣	-10.922
典禮	-10.922
之費	-10.9224
像	-10.9224
明澮	-10.9225
殆盡	-10.9225
朔望	-10.9226
猾	-10.9227
掌樂院	-10.9229
殫	-10.9229
大臣之議	-10.9229
治民	-10.9231
過當	-10.9233
所出	-10.9238
鋒	-10.9238
▁而尙	-10.9242
文宗	-10.9245
已迫	-10.9245
定數	-10.9249
溺	-10.925
等六人	-10.9251
訥	-10.9253
特授	-10.9254
前郡守	-10.9254
梓	-10.9255
未蒙允	-10.9255
晴	-10.9256
絲	-10.9256
上之	-10.926
○	-10.926
朴文秀	-10.9261
迎詔	-10.9261
撫恤	-10.9262
▁忠	-10.9262
所重	-10.9263
書傳	-10.9264
本無	-10.9266
賞典	-10.9267
皆曰	-10.9268
進箋	-10.9271
服制	-10.9272
兩邑	-10.9272
全數	-10.928
偕	-10.928
豹皮	-10.928
綠	-10.9281
盛德	-10.9282
桂	-10.9283
闢	-10.9283
兵馬節度使	-10.9284
▁以除	-10.9287
際	-10.9287
尹昉	-10.9288
▁敢以	-10.9289
▁猶不	-10.9293
▁輕	-10.9294
▁由是	-10.9295
宋寅明	-10.9295
▁戶曹判書	-10.9296
▁有一	-10.9297
一刻	-10.9297
七千	-10.9301
金德	-10.9301
一度	-10.9303
▁旋卽	-10.9305
夙	-10.9308
糴	-10.9309
騰	-10.931
永屬	-10.931
金尙	-10.931
▁左相	-10.9311
李思	-10.9312
▁有司	-10.9313
下情	-10.9314
褒奬	-10.9315
▁臣聞	-10.9317
自然	-10.932
度支	-10.9323
海島	-10.9325
怨咨	-10.9325
▁使人	-10.9325
於我	-10.9328
之謀	-10.9329
理山	-10.9333
逆謀	-10.9334
州牧	-10.9335
論其	-10.9336
峰	-10.9338
所報	-10.9339
急於	-10.9339
▁每年	-10.9339
▁朝	-10.9343
殞命	-10.9345
百餘人	-10.9346
▁預爲	-10.9346
新進	-10.9346
珥	-10.9351
親鞫	-10.9352
▁仍賜	-10.9353
三代	-10.9353
婢子	-10.9354
今已	-10.9355
王世孫	-10.9356
隨參	-10.9359
▁東宮	-10.936
多矣	-10.9361
忿	-10.9366
▁餘皆不允	-10.9367
他事	-10.9367
▁或以爲	-10.9369
營建都監	-10.9369
逐日	-10.9369
勿令	-10.937
可見	-10.9371
試券	-10.9375
常規	-10.9376
甘心	-10.9376
私賤	-10.938
來月	-10.938
漢人	-10.9382
陛	-10.9383
不成	-10.9384
回答	-10.9385
▁隨卽	-10.9386
以處	-10.9386
祕密	-10.9388
發落	-10.939
承召	-10.939
▁深用	-10.939
數人	-10.9393
魚世謙	-10.9393
次知	-10.9395
處決	-10.9396
色承旨	-10.9397
尺許	-10.9397
裹	-10.9398
美事	-10.94
天災	-10.9402
煩擾	-10.9403
體貌	-10.9405
▁乃於	-10.9409
庚	-10.941
▁則可以	-10.941
▁肆	-10.9411
過於	-10.9411
齎來	-10.9412
太平	-10.9413
恬	-10.9414
爲心	-10.9417
甄	-10.9421
李惟淸	-10.9422
遣宣傳官	-10.9423
▁依允	-10.9423
他處	-10.9424
▁圖	-10.943
同謀	-10.943
▁京中	-10.9431
徵兵	-10.9434
爲司憲府掌令	-10.9435
甚難	-10.9435
慈聖	-10.9437
不備	-10.9439
▁今姑	-10.944
一朔	-10.9444
分等	-10.9445
痛懲	-10.9447
盧公弼	-10.9449
不計	-10.9449
▁勿以	-10.945
李尙眞	-10.945
鄭彦	-10.9452
落點	-10.9452
後宮	-10.9453
驚動	-10.9453
可堪	-10.9454
兵曹參議	-10.9455
▁曾爲	-10.9455
典籍	-10.9456
礙	-10.9456
▁爭	-10.9458
竄配	-10.9459
流亡	-10.9463
首倡	-10.9463
六人	-10.9464
求對	-10.9467
▁再三	-10.947
▁諸道	-10.9471
閔鎭遠	-10.9473
蛇	-10.9477
人蔘	-10.9479
於外	-10.9479
敢啓	-10.9482
▁且於	-10.9482
▁予雖	-10.9482
嘉之	-10.9484
▁罪人	-10.9486
爲首	-10.9489
▁下敎	-10.9492
冤抑	-10.9495
關於	-10.9496
詳悉	-10.9497
殯殿	-10.9498
恪	-10.9503
愛民	-10.9505
讓寧大君	-10.9505
締結	-10.9505
回咨	-10.9508
酒肉	-10.951
宣川	-10.9515
何爲	-10.9515
子女	-10.9518
尙書	-10.9518
六典	-10.952
許通	-10.9525
奪告身	-10.9526
袞	-10.9526
▁而一	-10.9528
政令	-10.9532
儻	-10.9533
杯	-10.9533
投畀	-10.9533
通行	-10.9534
賊之	-10.9534
有旨	-10.9538
守宰	-10.9538
▁初不	-10.9539
▁卿須	-10.9539
一朝	-10.9543
生事	-10.9544
▁乃敢	-10.9546
返	-10.9549
思愼	-10.955
▁張	-10.9551
兵器	-10.9552
數多	-10.9552
使令	-10.9553
▁俱以	-10.9555
▁臨時	-10.9555
盟	-10.9556
▁其勢	-10.9559
瘠	-10.9561
朴世采	-10.9564
慨	-10.9566
流三千里	-10.9566
▁臣等竊	-10.9571
庇	-10.9573
傳旨兵曹	-10.9574
逋	-10.9576
所經	-10.9576
▁唐	-10.9577
恣	-10.9578
何處	-10.9578
▁而因	-10.9579
論斷	-10.9579
啓覆	-10.9581
▁慈殿	-10.9584
加定	-10.9585
高陽	-10.9585
遑遑	-10.9589
汎濫	-10.9589
兼行	-10.959
▁雖未	-10.9592
忠臣	-10.9595
儒生等	-10.9599
聖學	-10.9601
違牌	-10.9601
▁衆	-10.9601
▁停	-10.9601
計之	-10.9602
一張	-10.9602
渰死	-10.9602
大行大王	-10.9602
見聞	-10.9604
渠輩	-10.9605
劾之	-10.9606
印信	-10.9608
▁而今者	-10.9611
▁物論	-10.9622
於事體	-10.9623
盡言	-10.9625
授之	-10.9627
失實	-10.9628
遣御史	-10.9628
推劾	-10.963
之本意	-10.963
境上	-10.9632
拯	-10.9634
不小	-10.9635
略曰	-10.9638
支供	-10.9639
勿推	-10.964
痼	-10.9641
爲判義禁	-10.9642
▁月暈	-10.9643
冷	-10.9645
前頭	-10.9648
古者	-10.965
▁明年	-10.9651
▁故予	-10.9652
國朝	-10.9652
不逮	-10.9653
太上王	-10.9653
李克墩	-10.9655
▁林	-10.9656
處置使	-10.9656
▁令曰	-10.9657
▁卿之	-10.9657
蘇復	-10.9658
天心	-10.9658
臣身	-10.9659
被囚	-10.9659
職在	-10.9662
總兵	-10.9667
爲兵曹參判	-10.967
鄭太和	-10.967
書曰	-10.9674
愍	-10.9674
李希	-10.9675
巽方	-10.9675
▁其數	-10.9676
都監堂上	-10.9676
劑	-10.9676
李慶全	-10.9677
▁今因	-10.9677
驪州	-10.968
王者	-10.968
▁且言	-10.968
江上	-10.9681
▁特除	-10.9683
遜	-10.9685
慮其	-10.9686
多事	-10.9688
月初三日	-10.9688
海南	-10.9693
問于大臣	-10.9694
則已矣	-10.9695
有武才	-10.9699
揮	-10.97
搢紳	-10.9702
諸鎭	-10.9702
此人等	-10.9703
▁肆然	-10.9703
李東	-10.9703
三名	-10.9704
驅逐	-10.9704
追論	-10.9708
充定	-10.9708
偶然	-10.971
▁野人	-10.9711
從事	-10.9712
陞職	-10.9713
已著	-10.9714
兩湖	-10.9715
獐	-10.9719
用事	-10.9719
▁逐日	-10.972
永興	-10.972
▁該	-10.9721
▁今觀	-10.9721
定屬	-10.9722
世昌	-10.9723
可畏	-10.9724
引嫌而退	-10.9725
向來	-10.9727
▁據	-10.9728
駄	-10.9728
遙	-10.9729
西方	-10.9731
可恕	-10.9731
荐	-10.9731
對馬州	-10.9731
冠禮	-10.9731
▁無論	-10.9732
閭延	-10.9732
職者	-10.9733
設科	-10.9734
全釋	-10.9735
▁有乖	-10.9737
▁會	-10.9737
獄中	-10.974
危急	-10.9741
無乃	-10.9742
弼商	-10.9746
▁累啓	-10.9746
定役	-10.9747
赴擧	-10.9747
必以	-10.9748
久在	-10.9749
聯	-10.9756
到任	-10.9757
暖	-10.9759
二十匹	-10.976
▁豈宜	-10.976
▁諭以	-10.9763
前府使	-10.9763
甚大	-10.9765
▁遣史官	-10.9766
眞僞	-10.9767
故相臣	-10.9768
▁作爲	-10.9769
定限	-10.977
▁然以	-10.9771
不忍聞	-10.9771
▁而其中	-10.9775
擔	-10.9777
果川	-10.9779
而言之	-10.9784
二十三日	-10.9785
補外	-10.9793
詳細	-10.9793
斥之	-10.9794
▁流	-10.9796
爲大	-10.9797
有言	-10.9797
世祖朝	-10.9798
吹	-10.9805
▁政	-10.9806
已死	-10.9808
奉敎	-10.9809
▁臣意以爲	-10.981
▁貴	-10.9811
▁姑勿	-10.9815
腐	-10.9817
不赴	-10.9817
▁日暈	-10.9818
之大者	-10.9818
胥	-10.9819
性本	-10.982
說話	-10.982
儒賢	-10.9825
犯者	-10.9826
▁今爲	-10.9827
▁許多	-10.9828
▁若非	-10.983
下番	-10.9831
▁公論	-10.9832
而發	-10.9837
不答	-10.9837
兵部	-10.9838
何必	-10.9839
幸矣	-10.9842
祉	-10.9843
贈職	-10.9845
綢繆	-10.9846
朴鼎吉	-10.9846
金應	-10.9846
▁勿爲煩論	-10.9847
貽弊	-10.985
之盛	-10.9853
所管	-10.9855
施行何如	-10.9858
千餘	-10.986
書冊	-10.9861
▁問安于	-10.9862
▁豈以	-10.9864
予欲	-10.9865
從權	-10.9865
之慶	-10.9865
▁請亟命	-10.9866
將軍	-10.9867
誤決	-10.9868
四書	-10.9868
武夫	-10.9868
懽	-10.987
驛吏	-10.9871
已悉	-10.9872
滌	-10.9875
崔鳴吉	-10.9875
喬桐	-10.9875
▁殊甚	-10.9875
▁全不	-10.9875
等皆	-10.9875
命下	-10.9881
檢校	-10.9883
損傷	-10.9884
方急	-10.9885
之親	-10.9885
收告身	-10.9889
健元陵	-10.9889
不容	-10.989
嬪宮	-10.989
削去仕版	-10.9891
典獄	-10.9892
不敷	-10.9893
▁請辭	-10.9894
於其	-10.9894
▁朝夕	-10.9895
正朝使	-10.9895
知中樞院事	-10.9896
仗	-10.9899
昌君	-10.9901
之罪也	-10.9901
軸	-10.9902
韓纘男	-10.9904
膽	-10.9904
調攝	-10.9904
徐宗泰	-10.9905
▁而不能	-10.9905
共議	-10.9906
柳廷顯	-10.9906
食肉	-10.9907
擧論	-10.9908
▁引見大臣備堂	-10.9909
傳旨吏曹	-10.9912
立朝	-10.9913
抵罪	-10.9913
伊時	-10.9915
▁勿復	-10.9915
主人	-10.9918
數千	-10.9919
嚴旨	-10.9919
雹	-10.992
宦者	-10.9922
特敎	-10.9922
議于政府	-10.9924
丙	-10.9924
輔德	-10.9925
▁此何	-10.9925
吐	-10.993
迂	-10.9933
佳	-10.9933
酬酢	-10.9933
慣	-10.9933
逾	-10.9933
軍資監	-10.9936
▁淸	-10.9936
民戶	-10.9937
趙絅	-10.9937
之報	-10.9939
苟充	-10.994
議于三公	-10.994
倍於	-10.9942
▁回	-10.9943
▁何足	-10.9943
令禁府	-10.9945
▁各司	-10.9949
不給	-10.995
禮也	-10.9951
十餘人	-10.9956
勦	-10.9956
織	-10.9959
咫尺	-10.9959
之價	-10.996
翼善冠	-10.9962
夾	-10.9963
李山海	-10.9963
胡椒	-10.9963
出給	-10.9965
陞資	-10.9965
月臺	-10.9967
觀勢	-10.9968
誠意	-10.9968
進御	-10.9969
自內	-10.997
縣監金	-10.997
皇上	-10.9973
事君	-10.9978
李溟	-10.998
省箚	-10.9981
大慶	-10.9981
一字	-10.9982
中樞	-10.9984
風憲	-10.9985
三覆	-10.9987
身爲	-10.9989
▁以是	-10.9989
無弊	-10.999
霽	-10.999
乍	-10.9992
御營大將	-10.9992
訓鍊大將	-10.9993
年七十	-10.9993
保全	-10.9994
之年	-10.9996
從仕	-10.9996
輟	-10.9997
平安道節度使	-11
田地	-11.0001
條件	-11.0004
▁中朝	-11.0006
▁仍行	-11.0006
收還	-11.0007
奉祀	-11.0007
哭臨	-11.0007
軍機	-11.0007
文章	-11.0012
搶	-11.0021
穿	-11.0021
▁送	-11.0022
▁群情	-11.0023
何異	-11.0023
聰	-11.0024
明使	-11.0025
▁蓋欲	-11.0026
不擇	-11.0028
位版	-11.0029
射侯	-11.0029
防納	-11.0031
於國家	-11.0033
副護軍	-11.0034
疑其	-11.0034
▁然後可以	-11.0038
▁領	-11.0038
縱恣	-11.0041
偃然	-11.0042
憂慮	-11.0043
今春	-11.0045
▁決非	-11.0048
賞賜	-11.0048
籲	-11.005
閫帥	-11.0051
飢餓	-11.0051
鄭文炯	-11.0053
▁王世孫	-11.0053
指嗾	-11.0053
着實	-11.0054
敎官	-11.0055
▁於戲	-11.0056
赴試	-11.0059
黨論	-11.006
予意已諭	-11.0062
等二人	-11.0065
良民	-11.0065
無一	-11.0067
▁減	-11.0067
相考	-11.0068
罷榜	-11.0068
定送	-11.0072
力請	-11.0074
時任	-11.0075
非不知	-11.0075
▁忠淸道	-11.0081
柳輊	-11.0081
色吏	-11.0081
問其	-11.0084
姜渾	-11.0084
之卒	-11.0087
三度	-11.0089
▁甚不可	-11.009
▁未必	-11.009
善治	-11.0095
直言	-11.0096
大王大妃殿	-11.0097
都監啓曰	-11.0101
容易	-11.0101
有前例	-11.0102
依舊	-11.0103
不貲	-11.0105
逃來	-11.0107
猛	-11.0108
罹	-11.0109
日候	-11.0109
聃	-11.011
灼	-11.011
▁請勿留難	-11.011
正其罪	-11.0111
聖廟	-11.0111
竊聞	-11.0111
權縉	-11.0111
得雨	-11.0112
卽今	-11.0114
摠兵	-11.0114
援引	-11.0116
結案	-11.0118
七日	-11.0118
亂言	-11.012
坤方	-11.0121
不改	-11.0126
▁皆以爲	-11.013
仁弘	-11.0136
爲左參贊	-11.0138
弼善	-11.0138
難免	-11.0139
睿宗	-11.0139
▁不勝幸甚	-11.0141
老爺	-11.0141
快從公論	-11.0141
▁陳疏	-11.0142
▁極爲寒心	-11.0142
溫井	-11.0143
▁禾穀	-11.0143
舊規	-11.0144
▁備邊司	-11.0144
無端	-11.0144
李弘老	-11.0144
兇謀	-11.0145
郡縣	-11.0145
嚴明	-11.0147
▁上使	-11.0149
空虛	-11.0149
迎送	-11.0152
提學	-11.0152
趙復陽	-11.0152
卯時	-11.0153
之道乎	-11.0161
聖節	-11.0161
所藏	-11.0167
見罷	-11.0168
猶可	-11.0169
浴	-11.0169
灝	-11.0169
丸	-11.0169
求請	-11.017
金壽童	-11.017
▁伏願聖明	-11.017
▁請幷	-11.0171
皇壇	-11.0172
前期	-11.0172
爲說書	-11.0175
錯誤	-11.0176
來獻土物	-11.0178
李文	-11.0179
朴氏	-11.0179
具由	-11.018
李命	-11.0182
胥命	-11.0182
予聞	-11.0183
駭異	-11.0187
禁酒	-11.0189
濫刑	-11.0189
知會	-11.0189
則以爲	-11.019
▁又爲	-11.0191
憲府申前啓	-11.0191
▁或云	-11.0192
何所	-11.0193
虹	-11.0193
原任	-11.0194
北路	-11.0196
岡	-11.0197
▁至是卒	-11.0202
▁以安	-11.0203
伏覩	-11.0204
差定	-11.0204
▁徑先	-11.0212
本寺	-11.0212
被虜	-11.0213
逃散	-11.0214
謂曰	-11.0214
事務	-11.0214
還御	-11.0216
禁令	-11.0216
古之	-11.0218
妾子	-11.0219
難於	-11.0219
以是	-11.0219
淮	-11.0221
大水	-11.0223
作米	-11.0223
仁宗	-11.0224
無恥	-11.0224
▁春	-11.0225
同知中樞府事	-11.0228
時方	-11.0229
▁非爲	-11.0229
尹根壽	-11.0229
▁至於此極	-11.023
▁待其	-11.0233
皇后	-11.0234
▁不可謂	-11.0235
報復	-11.0236
業已	-11.0239
新設	-11.0239
退而	-11.0247
節義	-11.025
出外	-11.0251
不避	-11.0251
▁更無	-11.0252
▁欽	-11.0253
州縣	-11.0257
當時	-11.0258
納之	-11.0259
豊	-11.026
修葺	-11.026
原從	-11.0261
朴元亨	-11.0262
▁亦依	-11.0264
道理	-11.0266
注簿	-11.0267
▁無意	-11.0269
被推	-11.0269
禮單	-11.0271
敢不	-11.0271
▁委	-11.0272
鄭蘊	-11.0272
暹	-11.0277
▁終至	-11.0284
尤重	-11.0285
▁國人	-11.0287
飮食	-11.0288
亦非	-11.0288
冒居	-11.0288
歛	-11.029
者及	-11.029
之死	-11.0291
素服	-11.0291
李季仝	-11.0294
水原府使	-11.0296
鉤	-11.0298
慰悅	-11.0298
所及	-11.0299
大小臣僚	-11.0301
使者	-11.0302
命遞	-11.0303
李健命	-11.0304
▁周	-11.0305
耕種	-11.0305
貌	-11.0309
旣無	-11.031
政曹	-11.0311
移屬	-11.0311
▁餘皆	-11.0312
光弼	-11.0313
不久	-11.0313
▁將何以	-11.0315
舊制	-11.0316
嘉納	-11.0317
尹斗壽	-11.0317
薦擧	-11.0317
解送	-11.0318
▁而今此	-11.0319
鷄	-11.032
李克增	-11.0321
▁專爲	-11.0323
軍馬	-11.0324
▁事極	-11.0324
▁急	-11.0329
請出	-11.0331
追捕	-11.0331
賑廳	-11.0332
北關	-11.0335
▁則非但	-11.0336
昨見	-11.0336
外間	-11.034
解由	-11.0343
三邑	-11.0344
▁下諭于	-11.0346
▁若其	-11.0346
目今	-11.0346
受點	-11.0347
俯	-11.0349
畀	-11.035
疇	-11.035
託	-11.0351
▁以快	-11.0351
怠慢	-11.0353
▁曲	-11.0353
遑	-11.0353
寧海	-11.0354
恐懼修省	-11.0357
李時	-11.0357
供職	-11.0358
▁請加	-11.0358
本郡	-11.0358
輔導	-11.0359
丈	-11.0359
▁伏乞	-11.036
還寢	-11.0365
實狀	-11.0366
▁猶且	-11.0367
者矣	-11.0367
▁太祖	-11.0368
艱難	-11.037
爲世子	-11.0373
▁"(	-11.0375
顚	-11.0376
權大運	-11.0377
▁各賜	-11.038
渙	-11.038
其由	-11.038
狡	-11.038
胸	-11.038
朴崇質	-11.0381
粉	-11.0381
上御景賢堂	-11.0381
遵行	-11.0381
十里	-11.0382
▁他	-11.0385
▁今於	-11.0388
閔維重	-11.0389
▁臣何敢	-11.0391
聖躬	-11.0394
追刑	-11.0399
老成	-11.04
擒	-11.04
之治	-11.0402
削去	-11.0402
▁旣無	-11.0404
▁固宜	-11.0405
形止	-11.0405
糶	-11.0405
國人	-11.0407
啓意	-11.041
▁更令	-11.041
領敦寧府事	-11.0412
▁果爲	-11.0412
太守	-11.0412
▁投	-11.0413
營造	-11.0413
褒賞	-11.0417
衣冠	-11.0418
同知中樞院事	-11.0419
修治	-11.042
監董	-11.0421
其日	-11.0427
羅將	-11.0429
眩	-11.043
布置	-11.0434
先正臣	-11.0434
舊基	-11.0435
不念	-11.0435
力爭	-11.0438
倒	-11.0438
涕	-11.0438
涵	-11.0439
譎	-11.0439
重論	-11.0441
爛	-11.0442
慟	-11.0442
尹仁鏡	-11.0443
陞爲	-11.0444
勤慢	-11.0445
所望	-11.0445
及諸	-11.0448
捕盜	-11.0449
復立	-11.0449
煩論	-11.0451
▁若於	-11.0452
▁晩	-11.0452
我等	-11.0453
從便	-11.0453
成憲	-11.0453
護逆	-11.0454
金光	-11.0454
未知其	-11.0457
任之	-11.0459
敎誨	-11.0459
之害	-11.0461
需	-11.0462
所宜	-11.0462
▁尹弼商	-11.0463
爲慮	-11.0464
▁不在	-11.0464
▁告	-11.0466
帥臣	-11.0468
別爲	-11.0469
武才	-11.0471
▁引避遞	-11.0472
商賈	-11.0474
本家	-11.0474
奢侈	-11.0475
大明律	-11.0476
趙光祖	-11.0476
▁仍以	-11.0477
▁一朝	-11.0478
益甚	-11.0481
齋宿	-11.0482
下鄕	-11.0485
▁當時	-11.0488
草野	-11.0491
▁猶可	-11.0494
▁獲	-11.0495
白衣	-11.0499
爲之事	-11.0499
梨	-11.0504
可得	-11.0507
▁且無	-11.0507
▁而予	-11.0507
吏曹正郞	-11.0508
榻前	-11.0508
贓吏	-11.0509
裔	-11.0509
竊盜	-11.0511
再昨	-11.0511
要害	-11.0515
李濡	-11.0515
諫臣	-11.0515
臺體	-11.0515
輿情	-11.052
二十餘	-11.052
之斥	-11.0524
▁故令	-11.0525
地方官	-11.0527
倖	-11.0527
僕	-11.0528
鈞	-11.0529
極邊	-11.0532
限年	-11.0533
▁而今乃	-11.0533
裂	-11.0534
泄	-11.0535
芻	-11.0535
全家徙邊	-11.0535
絹	-11.0535
請停	-11.0535
江華留守	-11.0536
永安道	-11.0538
人及	-11.054
▁雖是	-11.054
雨澤	-11.0542
其價	-11.0543
上引見	-11.0549
戢	-11.0549
退定	-11.055
文武科	-11.0552
下諭于	-11.0552
▁是亦	-11.0555
▁令廟堂	-11.0557
旣被	-11.0559
無一人	-11.0561
手書	-11.0563
千萬	-11.0563
莫敢	-11.0564
瑢	-11.0566
含默	-11.0567
▁可不	-11.0568
戾	-11.0568
給價	-11.0571
遞職	-11.0572
駕前	-11.0572
▁揆以	-11.0573
我殿下	-11.0574
爲戶曹參判	-11.0575
金堉	-11.0575
▁予則	-11.0579
筵席	-11.0584
痛駭	-11.0584
▁其一	-11.0589
勿施	-11.0589
朝廷之	-11.0589
不可也	-11.059
▁今旣	-11.0592
前進	-11.0592
生徒	-11.0594
亦宜	-11.0595
禽	-11.0595
趾	-11.0596
詭	-11.0597
寺刹	-11.0598
綿紬	-11.0598
▁不幸	-11.0599
民田	-11.0599
▁然後可	-11.06
軍令	-11.0603
老母	-11.0608
月二十八日	-11.0608
鄭知和	-11.0614
▁詳	-11.0614
八路	-11.0617
軍國	-11.0621
審理	-11.0624
話	-11.0624
▁請皆	-11.0627
▁宜速	-11.0627
瓜	-11.0627
棺	-11.0628
宣惠廳	-11.063
勸勵	-11.0633
客星	-11.0633
家長	-11.0633
齋室	-11.0634
邦憲	-11.0634
延安	-11.0634
李翊	-11.0635
其才	-11.0635
▁同僚	-11.0636
▁其父	-11.0636
▁或因	-11.0637
所産	-11.0639
上候	-11.064
尹氏	-11.0641
▁苟有	-11.0644
鹿皮	-11.0647
賊人	-11.0649
泳	-11.065
獄囚	-11.0651
▁則民	-11.0654
受罪	-11.0654
▁斷不可	-11.0654
▁專不	-11.0654
拱	-11.066
孝寧大君	-11.066
特恩	-11.066
難便	-11.0661
之不可	-11.0665
直爲	-11.0666
成川	-11.0667
之作	-11.0668
伸救	-11.0669
兇賊	-11.0672
鄭造	-11.0673
備禦	-11.0675
金勘	-11.0676
先行	-11.0679
各道監司	-11.0679
以北	-11.0681
預知	-11.0681
命推考	-11.0683
憂國	-11.0687
▁令兵曹	-11.069
古禮	-11.069
▁奚	-11.0691
巡邊使	-11.0691
承政院曰	-11.0692
方張	-11.0693
漕運	-11.0693
收米	-11.0694
金尙魯	-11.0694
敢言	-11.0694
瑛	-11.0695
兪彦	-11.0699
之苦	-11.0699
▁上不答	-11.0699
而遞	-11.07
於法	-11.07
似難	-11.07
侍臣	-11.0701
▁非特	-11.0701
英陵	-11.0702
啓事	-11.0702
傳旨刑曹	-11.0703
臣與	-11.0703
李鐵堅	-11.0706
災傷	-11.071
聞於	-11.071
▁而爲	-11.0712
亦欲	-11.0714
各品	-11.0714
未定	-11.0715
▁休煩	-11.0715
兩宮	-11.0719
崔有源	-11.0721
驚愕	-11.0722
詩傳	-11.0726
先爲	-11.0727
漂流	-11.0729
▁都監	-11.0731
速出	-11.0732
移設	-11.0733
興淸	-11.0737
▁胡	-11.0738
相換	-11.0739
之位	-11.074
診	-11.0741
爲主	-11.0741
奏請使	-11.0743
北征	-11.0744
之極	-11.0745
▁捧承傳	-11.0747
▁予以	-11.0749
▁初非	-11.0753
▁雖出於	-11.0754
▁率皆	-11.0754
猪	-11.0754
昌慶宮	-11.0754
守門將	-11.0754
當以	-11.0755
▁只是	-11.0755
▁上然之	-11.0755
親試	-11.0756
萬石	-11.0758
▁諡	-11.0758
▁遍	-11.0759
鄭澈	-11.076
諺	-11.0763
痛惋	-11.0764
再疏	-11.0764
弑	-11.0765
交河	-11.0766
▁則以爲	-11.0766
誨	-11.0767
古事	-11.0771
▁此誠	-11.0773
▁群臣	-11.0775
▁請遞差	-11.0776
濱	-11.0777
▁封	-11.0777
大祝	-11.0778
只有	-11.0778
▁月	-11.0778
恩典	-11.078
押送	-11.078
開城	-11.0782
賊兵	-11.0785
晨	-11.0786
修補	-11.0786
朽	-11.0786
琴	-11.0786
任元濬	-11.0788
命婦	-11.079
事大	-11.079
鐵山	-11.0791
▁皇帝	-11.0792
頃因	-11.0794
段子	-11.0794
未經	-11.0795
欲使	-11.0796
公私賤	-11.0796
制度	-11.0799
▁姑令	-11.0799
垕	-11.08
行幸時	-11.0804
外任	-11.0805
君命	-11.0806
本營	-11.0809
後悔	-11.0809
▁希	-11.0809
日字	-11.0811
▁不肯	-11.0813
騎馬	-11.0814
▁姑停	-11.0815
低	-11.0816
怯	-11.0817
▁果如	-11.0817
棺槨	-11.0818
▁一年	-11.0818
日期	-11.082
▁黃海道	-11.0821
禮曹正郞	-11.0822
五匹	-11.0823
逆魁	-11.0825
騎射	-11.0825
▁勿許	-11.0829
今之	-11.0831
登對	-11.0836
▁此正	-11.0837
輸情	-11.084
▁倭人	-11.084
非偶然	-11.084
陞授	-11.0841
有可	-11.0842
上將	-11.0842
徒三年	-11.0843
廂	-11.0843
擢用	-11.0845
國勢	-11.0845
軍職	-11.0847
無功	-11.0847
鎬	-11.085
皆言	-11.085
尹承勳	-11.085
釀	-11.085
拷訊	-11.085
▁請更	-11.085
武弁	-11.0851
改定	-11.0852
孝行	-11.0852
李氏	-11.0853
▁盛	-11.0854
員役	-11.0855
若以	-11.0855
力戰	-11.0856
取其	-11.0857
▁嶺南	-11.0858
調發	-11.0862
▁成宗	-11.0864
不允批答	-11.0867
出城	-11.0868
金永	-11.0868
掛	-11.087
妻妾	-11.0871
實效	-11.0875
吉服	-11.0875
之人也	-11.0877
收捧	-11.0879
棍	-11.0879
南陽	-11.088
卽見	-11.0881
諧	-11.0882
瓚	-11.0882
冊子	-11.0882
▁請命遞斥臣職	-11.0882
▁道臣以聞	-11.0884
水路	-11.0886
▁予將	-11.0888
▁專以	-11.0888
弊瘼	-11.089
六七	-11.0891
登科	-11.0892
趙挺	-11.0893
幾人	-11.0894
策應	-11.0895
金詮	-11.0899
盡職	-11.09
爲名	-11.0908
不順	-11.0911
▁身爲	-11.0911
▁力	-11.0912
▁本非	-11.0913
籍沒	-11.0913
第二	-11.0913
不分	-11.0913
三字	-11.0914
下獄	-11.0914
緯	-11.0914
法也	-11.0914
妙	-11.0914
疵	-11.0914
讐	-11.0914
連年	-11.0914
身病	-11.0914
蒙恩	-11.0915
的知	-11.0915
國有	-11.0917
鄕校	-11.0919
慶興	-11.0923
▁或至	-11.0924
島中	-11.0924
用刑	-11.0925
深重	-11.0926
溟	-11.0927
檢詳	-11.0927
卒哭	-11.0929
他司	-11.0929
勳臣	-11.0932
三尺	-11.0934
▁大如	-11.0934
考前例	-11.0941
▁先爲	-11.0942
引疾	-11.0942
網	-11.0944
頉	-11.0945
熊	-11.0945
穢	-11.0945
鵬	-11.0946
柳慶宗	-11.0946
李繼孟	-11.0947
便宜	-11.0947
農民	-11.0949
遲延	-11.0949
不時	-11.0949
內閣	-11.095
伏誅	-11.0951
一邊	-11.0952
▁每於	-11.0952
如許	-11.0954
下禁府	-11.0954
之見	-11.0954
刑曹三覆啓	-11.0956
得罪於	-11.0959
某人	-11.0961
交章	-11.0961
▁日夜	-11.0964
▁徑	-11.0964
▁苟非	-11.0965
金萬基	-11.0966
上謂	-11.0973
▁則今	-11.0973
一資	-11.0974
▁將爲	-11.0974
不應	-11.098
不急	-11.098
泛濫	-11.098
致此	-11.0981
配享	-11.0986
▁漸	-11.0987
▁以爲恒式	-11.0988
辨誣	-11.0988
極言	-11.0989
犯贓	-11.0989
箚曰	-11.099
雷震	-11.0991
侍女	-11.0991
廟社	-11.0994
之黨	-11.0994
▁云矣	-11.0997
漢城府尹	-11.0998
連日	-11.0999
等以爲	-11.1002
愚民	-11.1003
疏章	-11.1008
淹	-11.1008
疑之	-11.1008
碧潼	-11.1011
▁予豈	-11.1011
▁嚴加	-11.1016
大丘	-11.1021
客人	-11.1022
▁故敢	-11.1025
兵曹堂上	-11.1025
嚴加	-11.1028
擅便	-11.1029
未易	-11.1033
徽號	-11.1035
▁爾其	-11.1035
▁其不	-11.1036
前銜	-11.1037
諸執事	-11.104
及其	-11.1041
品官	-11.1041
▁似乎	-11.1041
試士	-11.1043
愴	-11.1044
其法	-11.1046
琉球國	-11.1047
移送	-11.1049
卿以	-11.1049
請出仕	-11.1051
▁迎	-11.1053
風雨	-11.1059
旣不	-11.106
五年	-11.106
心術	-11.1063
不可廢也	-11.1066
考諸	-11.1067
▁前已	-11.1069
回自	-11.1069
李昌	-11.1073
親問	-11.1073
屠	-11.1074
▁命賜	-11.1074
賜死	-11.1074
下馬	-11.1074
士氣	-11.1075
紋	-11.1076
各樣	-11.1078
元斗杓	-11.1078
復職	-11.108
▁而必	-11.1083
賜之	-11.1083
告之	-11.1085
▁橫	-11.1085
其黨	-11.109
不直	-11.1093
稔	-11.1094
▁答	-11.1095
朝賀	-11.1096
人望	-11.1097
乞解	-11.1099
平安兵使	-11.11
▁還給	-11.1103
遞其職	-11.1106
雖以	-11.1106
安集	-11.1106
長城	-11.1107
藝文	-11.1107
峯	-11.1108
症	-11.1108
揀	-11.1108
南公轍	-11.1109
擁	-11.1109
伴	-11.1109
▁下敎曰	-11.1113
京倉	-11.1113
▁上竝	-11.1116
新舊	-11.112
朴燁	-11.1121
司馬	-11.1121
坦	-11.1123
使命	-11.1123
優批	-11.1126
更鞫	-11.1128
御書	-11.1131
後來	-11.1132
皆然	-11.1133
矜	-11.1133
蒼	-11.1133
可遞	-11.1134
蠶	-11.1135
嗾	-11.1137
▁痛	-11.1137
何也	-11.1138
不可廢	-11.114
金藎國	-11.1142
禮賓寺	-11.1143
石零	-11.1143
洪瑞鳳	-11.1143
察之	-11.1144
末減	-11.1144
公賤	-11.1145
死生	-11.1146
失當	-11.1147
留難	-11.115
▁奪	-11.1154
之態	-11.1155
雖重	-11.1159
覈實	-11.116
七品	-11.116
賊徒	-11.1161
▁則臣等	-11.1166
此心	-11.1167
李秉模	-11.1169
致齋	-11.1171
攀	-11.1174
摧折	-11.1175
伏承	-11.1176
不畏	-11.1177
門內	-11.1177
通計	-11.1178
從而	-11.1179
亂臣	-11.1184
的實	-11.1185
托以	-11.1187
情節	-11.1193
▁快	-11.1194
諉	-11.1197
▁誠以	-11.1198
女樂	-11.1198
畢役	-11.1199
▁皆爲	-11.1201
此論	-11.1202
近臣	-11.1205
入寇	-11.1206
凝	-11.1208
女人	-11.1209
回自京師	-11.1209
奔競	-11.1209
差之	-11.1209
▁臣不勝	-11.121
云爾	-11.1211
洪貴達	-11.1211
人命	-11.1213
魯山	-11.1213
▁誤	-11.1213
察啓	-11.1214
犬	-11.1217
安潤德	-11.1219
拔去	-11.1221
狀請	-11.1223
不審	-11.1223
痛治	-11.1227
吏曹佐郞	-11.1229
朴信	-11.123
▁每當	-11.1232
來見	-11.1233
之聲	-11.1233
赫	-11.1235
請寢	-11.1237
多寡	-11.1238
免役	-11.1239
艮方	-11.1241
魚有沼	-11.1242
論也	-11.1242
▁各有	-11.1242
俺等	-11.1243
恣行	-11.1243
大臣議	-11.1244
七人	-11.1246
肇	-11.1246
而然耶	-11.1247
行茶禮	-11.1248
無由	-11.1248
未敢	-11.1249
存亡	-11.125
▁事多	-11.1252
居人	-11.1257
▁降	-11.1258
爲檢閱	-11.1258
▁終無	-11.1259
待敎	-11.1262
允當	-11.1264
聰明	-11.1264
▁寧有	-11.1264
▁假	-11.1266
濬	-11.1266
之發	-11.1267
議藥	-11.1267
授職	-11.1272
成冊	-11.1273
▁則所當	-11.1274
▁則宜	-11.1274
宣諭	-11.1277
▁毋庸	-11.1278
朴訔	-11.1278
衣一襲	-11.1278
天理	-11.1282
大官	-11.1284
懲惡	-11.1287
相望	-11.1288
冒濫	-11.1288
近密	-11.1291
▁擧國	-11.1293
▁其情	-11.1293
從實	-11.1299
之需	-11.1299
瑾	-11.13
嚴敎	-11.13
仍存	-11.1302
傳聞	-11.1302
客使	-11.1303
金尙喆	-11.1303
卿宰	-11.1306
綵	-11.1306
爲弘文館副提學	-11.1308
籠	-11.1308
塵	-11.1308
派	-11.1308
瘡	-11.1308
治其罪	-11.1308
停朝市	-11.1309
李德泂	-11.1309
慶尙左道	-11.1309
酋長	-11.131
金尙容	-11.131
徑斃	-11.1311
所未聞	-11.1312
▁卽日	-11.1312
▁殊極	-11.1313
敎以	-11.1313
遣朝官	-11.1316
▁如此則	-11.1317
▁請改差	-11.132
▁必是	-11.1322
申時	-11.1322
宣廟	-11.1322
勤勞	-11.1326
侍宴	-11.1327
勸農	-11.1327
失信	-11.1328
▁以便	-11.1328
擬於	-11.1328
勿問	-11.1331
一毫	-11.1333
唐官	-11.1335
中使	-11.1336
▁宜加	-11.1339
▁是時	-11.134
碎	-11.1341
蹙	-11.1342
▁狀如鉢	-11.1342
親受	-11.1343
忠義衛	-11.1343
上使	-11.1346
不可已	-11.1348
▁豈能	-11.1349
我國人	-11.1349
及期	-11.1349
上有	-11.1352
虞祭	-11.1353
之手	-11.1354
起居	-11.1355
正卿	-11.1361
命罷	-11.1361
▁同知事	-11.1362
家人	-11.1366
戎服	-11.1366
上番	-11.1367
陪從	-11.1367
市民	-11.1368
朝服	-11.1368
詰問	-11.1369
權停	-11.1371
逝	-11.1372
之稱	-11.1373
判中樞院事	-11.1375
金謹思	-11.1375
黃廷彧	-11.1376
熟馬一匹	-11.1376
貪鄙	-11.1377
求之	-11.1378
▁乃命	-11.1378
▁是必	-11.1379
庶孽	-11.138
皆有	-11.1381
▁其意有在	-11.1381
仕進	-11.1387
宮官	-11.1388
李夏	-11.1388
免罪	-11.1388
陳所懷	-11.1388
尹壕議	-11.1388
隅	-11.1389
遠配	-11.139
▁右相	-11.1393
民瘼	-11.1395
▁請罷職不敍	-11.1395
於大臣	-11.1397
命罷職	-11.1399
▁承政院	-11.14
隨後	-11.1401
山林	-11.1405
西邊	-11.1407
城底	-11.1408
處斷	-11.1409
栢	-11.1409
大學衍義	-11.1409
哥	-11.1409
▁不勝惶恐	-11.1411
▁毋使	-11.1411
姑先	-11.1413
上達	-11.1414
御筆	-11.1423
▁則乃	-11.1423
減一等	-11.1425
諭書	-11.1426
不書	-11.1432
▁然今	-11.1432
節制	-11.1435
驛馬	-11.1435
澈	-11.1436
烟	-11.144
難矣	-11.144
▁汝等	-11.144
月初八日	-11.1441
俱以	-11.1441
好惡	-11.1442
窘	-11.1442
筒	-11.1443
係於	-11.1443
僉知中樞府事	-11.1443
悖戾	-11.1444
鄕曲	-11.1444
▁以安宗社	-11.1444
判中樞	-11.1444
▁昭	-11.1444
雨雪	-11.1445
之念	-11.1449
通書	-11.145
知此意	-11.1451
先王之	-11.1451
▁聖明	-11.1451
洪州	-11.1453
鳳山	-11.1455
爲限	-11.1455
從二品	-11.1456
▁呈	-11.1456
坡州	-11.1457
賜第	-11.1458
所引	-11.1458
無用	-11.146
國綱	-11.146
日昨	-11.1461
倭寇	-11.1461
於朝	-11.1462
以大臣	-11.1463
於榻前	-11.1465
予非	-11.1465
渴	-11.1465
▁不知其	-11.1467
▁殊非	-11.1468
不告	-11.1468
昌孫	-11.1468
之主	-11.1469
之弟	-11.1475
蓍	-11.1477
坪	-11.1477
載於	-11.1477
咀呪	-11.1477
涕泣	-11.1477
淹滯	-11.1477
對以	-11.1478
人事	-11.1478
韓孝純	-11.1478
五更	-11.1479
應旨	-11.148
違豫	-11.148
避嫌之辭	-11.1481
官職	-11.1482
戶曹參議	-11.1482
洪暹	-11.1483
示之	-11.1483
安瑭	-11.1484
蕩平	-11.1484
祗	-11.1484
供招	-11.1485
▁似有	-11.1485
金相	-11.1488
▁似非	-11.1489
▁藥房	-11.149
合辭	-11.1491
不恤	-11.1491
塞責	-11.1491
肯	-11.1491
兼春秋	-11.1496
家奴	-11.1498
彼中	-11.1498
成就	-11.1498
亦皆	-11.1498
▁未知其	-11.15
▁士	-11.1504
用情	-11.1504
年八十	-11.1505
▁將以	-11.1506
券	-11.1507
趙翼	-11.151
兢	-11.1511
尹士昕	-11.1511
岸	-11.1511
奚	-11.1512
麤鄙	-11.1513
埋沒	-11.1513
艱苦	-11.1513
仕版	-11.1514
動搖	-11.1514
▁平	-11.1515
回禮	-11.1516
▁上優批	-11.1517
除之	-11.1517
北靑	-11.1518
▁任意	-11.1519
湛	-11.1521
和平	-11.1522
道伯	-11.1523
聖祖	-11.1525
▁義州	-11.1528
堂郞	-11.1531
水營	-11.1531
▁以此意	-11.1534
屬於	-11.1534
每年	-11.1537
允之	-11.1538
九萬	-11.1539
▁曾有	-11.154
隨從	-11.1541
自以爲	-11.1542
不可無	-11.1542
鴨	-11.1545
卵	-11.1545
鄭經世	-11.1546
仁慶宮	-11.1546
▁古人云	-11.1546
錄名	-11.1546
講學	-11.1547
之罰	-11.1548
詔獄	-11.1549
李浣	-11.1549
▁然不可	-11.1549
▁萬無	-11.1551
▁萬一	-11.1552
將何	-11.1554
爲未便	-11.1558
▁每一	-11.156
▁非他	-11.1562
▁願殿下	-11.1564
四匹	-11.1565
治事	-11.1565
一二人	-11.1566
可考	-11.1566
明政殿	-11.1566
爾言	-11.1568
禮曹堂上	-11.1568
頒布	-11.157
財産	-11.1571
▁倭	-11.1572
龍仁	-11.1572
三十餘	-11.1575
魏	-11.1577
發怒	-11.1578
關防	-11.1578
▁無一人	-11.158
雌	-11.158
詐稱	-11.1581
洪樂	-11.1581
京官	-11.1582
不離	-11.1582
尹漑	-11.1583
鐵原	-11.1587
議政府據禮曹呈啓	-11.1588
尹訒	-11.1588
究問	-11.159
軍需	-11.159
安危	-11.159
此任	-11.1591
旣爲	-11.1593
掌務	-11.1597
▁道路	-11.1597
李明	-11.16
審察	-11.1601
▁古今	-11.1601
之急	-11.1602
供億	-11.1602
▁久不	-11.1604
避殿	-11.1604
優待	-11.1605
▁至于	-11.1607
▁竝與	-11.1608
上章	-11.1608
陳奏	-11.1608
體予意	-11.1611
祝文	-11.1613
有大	-11.1613
天意	-11.1615
姜孟卿	-11.1615
趙泰耉	-11.1616
帶去	-11.162
進爵	-11.1621
▁我朝	-11.1621
漢城	-11.1623
▁推考	-11.1624
取士	-11.1626
此是	-11.1629
有一毫	-11.1629
推治	-11.163
雜人	-11.1632
▁恩	-11.1635
▁諫院啓	-11.1637
都摠制	-11.1637
焰	-11.1638
右尹	-11.1639
酋	-11.1641
體予	-11.1642
于仁政殿	-11.1646
祭祀	-11.1646
崔錫鼎	-11.1648
▁斯	-11.1649
▁玉	-11.1649
霧	-11.1649
〈	-11.1649
奄	-11.1649
苗	-11.1649
卞季良	-11.1649
醜詆	-11.1649
開城府留守	-11.165
巡行	-11.165
禮義	-11.1651
取考	-11.1653
月初七日	-11.1653
本以	-11.1653
▁厚	-11.1653
絶無	-11.1653
無路	-11.1654
▁果有	-11.1654
淸人	-11.1655
▁則將	-11.1655
立於	-11.1659
▁上亦	-11.1659
李基	-11.1661
擔當	-11.1663
退待物論	-11.1663
聞而	-11.1665
儀節	-11.1666
▁而敢	-11.1666
▁按	-11.1668
▁勿煩	-11.1668
惻	-11.1669
▁上怒	-11.167
其志	-11.167
▁故不得	-11.1673
常例	-11.1675
從前	-11.1677
在朝	-11.1679
▁足	-11.1679
摠戎使	-11.1681
都監提調	-11.1683
枳	-11.1684
▁甚於	-11.1685
出迎	-11.1686
沿	-11.1691
乏人	-11.1694
犯越	-11.1695
▁脫有	-11.1696
上箋	-11.1696
反復	-11.1696
京職	-11.17
內局	-11.1705
行酒	-11.1705
代行	-11.1705
有曰	-11.1709
▁而今日	-11.171
疫	-11.171
招致	-11.1714
應製	-11.1714
▁固已	-11.1715
氣力	-11.1715
街	-11.1716
苧布	-11.1716
其書	-11.1717
置酒	-11.1717
伺	-11.1718
復舊	-11.1718
〉	-11.1718
拆	-11.1718
崔錫恒	-11.1718
其間	-11.1719
金命元	-11.1719
會于	-11.1719
領敦寧以上	-11.172
▁命召	-11.172
各營	-11.172
父兄	-11.1722
▁專事	-11.1723
▁以病	-11.1723
柳灌	-11.1724
遠地	-11.1726
病死	-11.1726
月十八日	-11.1726
賊情	-11.1727
其狀	-11.1728
相遞	-11.1728
▁內外	-11.1728
畿內	-11.173
之誚	-11.1733
轝	-11.1735
私用	-11.1736
所敢	-11.1739
初欲	-11.174
奏文	-11.1742
▁皆用	-11.1743
無過	-11.1744
暉	-11.1744
有乖於	-11.1745
▁爲其	-11.1745
之奴	-11.1745
▁今玆	-11.1746
命放	-11.1746
孝宗	-11.175
拾	-11.175
此疏	-11.1751
賞職	-11.1751
等八人	-11.1752
諴	-11.1753
▁趁	-11.1754
沿路	-11.1755
齊會	-11.1756
人畜	-11.1757
自首	-11.176
武藝	-11.1763
▁安心勿辭	-11.1764
辭連	-11.1766
功役	-11.1767
酌定	-11.1768
▁況其	-11.1768
不死	-11.1772
釐	-11.1772
依此例	-11.1772
太子	-11.1772
殿內	-11.1772
寺社	-11.1773
漕	-11.1773
而入	-11.1774
稱之	-11.1775
▁病	-11.1775
管下	-11.1776
汲	-11.1776
紳	-11.1777
虐	-11.178
財物	-11.1781
吾等	-11.1782
趁卽	-11.1782
▁又何	-11.1783
端緖	-11.1784
▁更勿	-11.1785
▁弊	-11.1786
喪制	-11.1787
侫	-11.1789
大政	-11.1789
肅廟	-11.179
超授	-11.1792
虛踈	-11.1793
臣本	-11.1794
李尙	-11.1794
▁從容	-11.1797
酬應	-11.1797
隱諱	-11.1798
▁憲府啓	-11.1798
筵奏	-11.18
趁時	-11.1801
之利	-11.1802
來者	-11.181
之色	-11.181
▁令禮曹	-11.1811
役使	-11.1812
奉事	-11.1812
還屬	-11.1814
近地	-11.1816
裨	-11.1816
等上箚	-11.1817
學士	-11.1817
誡	-11.1817
▁其速	-11.1818
▁左	-11.1819
▁故不得已	-11.1819
▁與其	-11.1821
鳥	-11.1823
晉	-11.1824
樸	-11.1824
弘文提學	-11.1824
南下	-11.1825
稷山	-11.1825
憑藉	-11.1826
守陵官	-11.1826
頒賜	-11.1828
▁推鞫	-11.1829
弭	-11.183
▁如其	-11.1833
▁凡在	-11.1834
臣爲	-11.1837
及時	-11.1838
禮曹據	-11.1839
司正	-11.1842
▁凡所	-11.1844
▁而欲	-11.1844
▁宰相	-11.1845
▁本無	-11.1845
馳往	-11.1849
豈不知	-11.1849
未至	-11.1851
白川	-11.1852
大臣等	-11.1858
▁雨雹	-11.1859
金元	-11.1859
闔	-11.1859
兪拓基	-11.1859
慶尙右道	-11.186
金悌男	-11.1861
稱病	-11.1861
建州衛	-11.1862
▁則只	-11.1862
直赴	-11.1864
面諭	-11.1865
▁時人	-11.1868
數三	-11.1868
義倉	-11.1868
▁關係	-11.1868
安國	-11.1869
雞	-11.1869
地面	-11.187
卒哭後	-11.1873
使行	-11.1873
如舊	-11.1874
▁請速遞	-11.1875
跟捕	-11.1875
▁不思	-11.1881
全無	-11.1884
于上	-11.1885
行護軍	-11.1885
相接	-11.1887
雖已	-11.1887
衝	-11.189
伴人	-11.1891
▁來獻土宜	-11.1892
畿	-11.1895
▁亦難	-11.1896
▁若或	-11.1896
整齊	-11.1897
饒	-11.1897
▁則與	-11.1899
密陽	-11.1901
後人	-11.1902
▁定爲	-11.1902
▁敢此	-11.1905
進告	-11.1906
咸吉	-11.1906
仰體	-11.1907
使送	-11.1908
東朝	-11.1909
與焉	-11.1909
故判書	-11.1912
第三	-11.1912
臣所	-11.1914
東北面	-11.1917
璧	-11.1919
▁初以	-11.192
其爲人	-11.1922
賑資	-11.1923
幅	-11.1925
一依	-11.1925
量移	-11.1926
行長	-11.1927
薛	-11.1929
狼狽	-11.193
元景夏	-11.193
刈	-11.193
金若魯	-11.193
無隱	-11.193
置於	-11.193
寡躬	-11.1931
於下	-11.1932
柳希奮	-11.1932
乘馬	-11.1936
授本職	-11.1938
於國	-11.1938
成風	-11.194
疏批	-11.1941
洪湜	-11.1942
▁略無	-11.1942
自此	-11.1943
以實	-11.1945
中和	-11.1948
二百餘	-11.1948
薦之	-11.195
開門	-11.195
權奸	-11.1951
▁亦未	-11.1952
之米	-11.1953
軍器監	-11.1954
噫	-11.1956
科次	-11.1958
其役	-11.1958
於是	-11.196
滯獄	-11.1961
爲兵曹佐郞	-11.1963
藥房都提調	-11.1965
枕	-11.1966
鄭羽良	-11.1966
賄賂	-11.1966
一岐州	-11.1968
往年	-11.1971
語之曰	-11.1973
刑官	-11.1975
一千五百	-11.1975
▁其日	-11.1975
詢問	-11.1976
宗社之	-11.1976
▁不計	-11.1978
是時	-11.1979
▁憲府又啓	-11.1979
金克成	-11.1981
新造	-11.1982
▁分給	-11.1983
巫	-11.1984
▁律該	-11.1987
依律定罪	-11.1988
▁不容	-11.1988
逆變	-11.1989
捕之	-11.1991
▁施賞有差	-11.1992
目之	-11.1994
孝廟	-11.1996
▁以防	-11.1996
大臣以下	-11.1997
灰	-11.1998
氓	-11.1998
攸司	-11.2
▁公私	-11.2001
霑	-11.2002
臨瀛大君	-11.2002
李浚慶	-11.2002
稍稔	-11.2003
賑恤廳	-11.2004
土地	-11.2007
上率百官	-11.2008
▁讀	-11.2009
將臣	-11.2009
擇定	-11.201
評事	-11.201
四萬	-11.2011
種子	-11.2011
▁不可一日	-11.2011
只以	-11.2011
兩司啓	-11.2012
爲兵曹參議	-11.2013
懲討	-11.2017
尸	-11.2018
果有	-11.2019
詮	-11.2019
▁偃然	-11.202
現出	-11.202
過失	-11.2021
金安國	-11.2023
▁反爲	-11.2024
王府	-11.2024
乘時	-11.2027
▁原	-11.2028
竄逐	-11.2028
昇	-11.2029
少尹	-11.2032
▁雖已	-11.2034
駭憤	-11.2034
命令	-11.2034
邊上	-11.2036
忙	-11.2038
誇	-11.2038
熊川	-11.2039
帖裏	-11.2039
待變	-11.2041
被劾	-11.2042
李坡	-11.2042
今日之事	-11.2043
封君	-11.2044
漸次	-11.2044
據此	-11.2044
吏文	-11.2044
去夜	-11.2044
從祀	-11.2045
無前之	-11.2045
甚少	-11.2045
富寧	-11.2047
發言	-11.2047
令廟堂	-11.2048
軍中	-11.2049
推閱	-11.205
學者	-11.205
▁造	-11.2052
情由	-11.2053
山海	-11.2054
所製	-11.2055
地理	-11.2056
而言	-11.2057
圖書	-11.2057
不有	-11.2058
▁太	-11.2058
免稅	-11.2059
▁摠	-11.206
夜對	-11.2061
紛	-11.2067
取信	-11.2068
▁令該司	-11.2069
不可爲	-11.2069
用法	-11.2069
沂	-11.2069
販	-11.207
堤	-11.2072
請囑	-11.2072
否德	-11.2072
▁俄而	-11.2072
燈	-11.2074
▁捧	-11.2074
▁無有	-11.2076
逭	-11.2077
匡救	-11.2077
▁叔舟	-11.2079
目覩	-11.2081
朋黨	-11.2081
贓汚	-11.2081
昇平	-11.2082
竊發	-11.2082
▁則予	-11.2089
被殺	-11.2092
日寒	-11.2095
朔州	-11.2097
勸奬	-11.2097
▁非不	-11.2097
前判書	-11.2098
依法	-11.2102
收布	-11.2105
殺害	-11.2106
麟趾	-11.2106
壤	-11.2106
斯文	-11.2108
其君	-11.2109
括	-11.211
不遵	-11.211
璘	-11.211
李崇元	-11.211
黃守身	-11.2111
浦萬戶	-11.2112
金相福	-11.2112
趙泰采	-11.2112
得之	-11.2113
無前	-11.2116
殘弊	-11.2116
三陟	-11.2119
尹鑴	-11.212
知情	-11.212
▁太和	-11.2121
▁屬	-11.2123
白上曰	-11.2124
決不可	-11.2124
▁不然則	-11.2124
言地	-11.2125
都目政	-11.2125
左右曰	-11.2126
可慮也	-11.2127
雖多	-11.2127
上變	-11.2129
徑先	-11.213
已有	-11.213
一書	-11.2131
▁請依律	-11.2131
一斗	-11.2131
雖或	-11.2132
隨宜	-11.2132
洪淑	-11.2132
應變	-11.2135
拿鞫定罪	-11.2139
嘗爲	-11.2139
設鞫	-11.214
備擬	-11.2144
館學	-11.2144
歲月	-11.2144
牲	-11.2145
淚	-11.2146
禮房承旨	-11.2146
永不敍用	-11.2146
▁尾長	-11.2147
何害	-11.2147
洪汝諄	-11.2148
流來	-11.2148
趙泰億	-11.2149
▁特以	-11.2149
駭怪	-11.2151
重典	-11.2154
刑曹參議	-11.2155
對馬島主	-11.2155
司憲府執義	-11.2157
任其	-11.2158
以備忘記	-11.2158
取之	-11.2158
申晦	-11.216
▁國之	-11.2162
平安道監司	-11.2162
女眞	-11.2163
自少	-11.2165
當之	-11.2166
不解	-11.2167
論語	-11.2172
臣等聞	-11.2172
指爲	-11.2172
當日	-11.2173
▁杖一百	-11.2176
珍島	-11.218
▁係是	-11.2181
穎	-11.2183
徐命膺	-11.2183
▁四方	-11.2183
鄭士龍	-11.2185
倫紀	-11.219
成世昌	-11.2191
▁代	-11.2192
▁此甚	-11.2192
者多矣	-11.2193
▁已盡	-11.2195
議政府據兵曹呈啓	-11.2196
致祭于	-11.2196
發論	-11.2197
▁非獨	-11.2198
▁同議	-11.22
諫長	-11.2202
覲	-11.2204
捉囚	-11.2208
叔父	-11.2211
琳	-11.2211
▁當有	-11.2211
換差	-11.2212
厚待	-11.2213
假托	-11.2213
札	-11.2214
雜穀	-11.2214
疏放	-11.2216
▁從重推考	-11.2216
洪樂性	-11.2218
者亦多	-11.2218
柴	-11.2219
與他	-11.2219
宸	-11.2219
▁不一而足	-11.2219
饑饉	-11.2219
目前	-11.222
申晩	-11.2222
▁不可使	-11.2223
▁反以	-11.2224
金炳	-11.2224
楊根	-11.2228
▁殊失	-11.2234
此例	-11.2236
負犯	-11.2236
未曉	-11.224
▁民間	-11.2241
李稷	-11.2244
各一匹	-11.2244
戚里	-11.2244
察其	-11.2244
驟	-11.2245
▁亦不可不	-11.2248
禱雨	-11.2251
主事	-11.2251
資級	-11.2251
李時秀	-11.2253
給祿	-11.2253
之機	-11.2255
炭	-11.2256
惡之	-11.2256
吳允謙	-11.2256
慾	-11.2256
頂	-11.2256
笑之	-11.2256
擊錚	-11.2256
稍有	-11.2257
紛擾	-11.2258
畿邑	-11.2259
之懷	-11.226
巡審	-11.2261
過半	-11.2263
其能	-11.2266
削奪	-11.2266
遺敎	-11.2266
十餘年	-11.2266
▁非不知	-11.227
誅之	-11.2272
▁此意言于	-11.2272
蕩然	-11.2273
東西班	-11.2273
物望	-11.2275
▁近因	-11.2275
欺君	-11.2275
▁一不	-11.2276
腸	-11.2277
無名	-11.228
糾正	-11.2281
時原任大臣	-11.2284
王大妃殿	-11.2288
之母	-11.2289
聽理	-11.2291
水田	-11.2291
洪重普	-11.2291
璟	-11.2293
多端	-11.2293
▁敬	-11.2293
婚姻	-11.2294
獻陵	-11.2295
▁是非	-11.2295
李覮	-11.2295
奉承	-11.2296
二十四	-11.2296
開城留守	-11.23
▁慮有	-11.2301
靈光	-11.2302
▁必待	-11.2309
深入	-11.2309
希望	-11.2309
私相	-11.2311
講書	-11.2313
備員	-11.2314
瑞興	-11.2314
亦已	-11.2315
實難	-11.2315
不思	-11.2319
他邑	-11.232
引義	-11.232
親自	-11.2324
辭陛也	-11.2324
築之	-11.2325
初以	-11.2326
從重	-11.2326
辭退	-11.2326
謄書	-11.2328
賈	-11.2329
所告	-11.233
貂皮	-11.2331
副司正	-11.2332
驚惶	-11.2333
國儲	-11.2337
▁故其	-11.2337
遷延	-11.2338
鞫獄	-11.2339
以禮	-11.2341
▁庶可	-11.2342
毫	-11.2343
幼學李	-11.2343
議得	-11.2343
別諭	-11.2344
非細	-11.2345
深思	-11.2347
便當	-11.2347
未幾	-11.2348
超資	-11.2349
其本	-11.2349
慈敎	-11.235
盡力	-11.2351
元數	-11.2351
▁世宗	-11.2354
之旨	-11.2355
▁夙夜	-11.2356
一面	-11.2358
金孝	-11.2361
萬死	-11.2362
弊習	-11.2362
工曹參議	-11.2363
臣伏見	-11.2364
子也	-11.2365
不重	-11.2366
旣往	-11.2366
▁上聞之	-11.2366
可惡	-11.2366
娼	-11.2367
四更	-11.2367
邁	-11.2367
▁上覽	-11.2367
韓效元	-11.2367
絡繹	-11.2367
南以恭	-11.2368
僉節制使	-11.2368
不易	-11.2368
弊端	-11.2368
被捉	-11.2369
▁無他	-11.2374
不可勝言	-11.2374
初喪	-11.2375
姑息	-11.2375
李海	-11.2378
幕次	-11.2384
可當	-11.2385
予所	-11.2385
上御朝講	-11.2386
萬里	-11.2387
正憲	-11.2388
▁莫非	-11.2391
▁連日	-11.2392
減省	-11.2393
可言	-11.2395
守令等	-11.2397
無前例	-11.2398
▁史官	-11.2399
則不然	-11.2399
自守	-11.24
▁奉審	-11.2401
詳考	-11.2402
載寧	-11.2403
▁請命罷斥	-11.2404
忭	-11.2405
永膺大君	-11.2405
義州牧使	-11.2408
亦嘗	-11.2408
黃赫	-11.2408
此書	-11.2409
該道	-11.2412
▁士林	-11.2412
可尙	-11.2412
賊倭	-11.2414
▁勿用	-11.2414
額數	-11.2417
南海	-11.2417
迎接都監	-11.2417
▁動	-11.2419
樂章	-11.242
也哉	-11.2421
▁延	-11.2421
士風	-11.2422
排設	-11.2422
今來	-11.2422
前規	-11.2425
肩	-11.2427
口子	-11.2436
守城	-11.2436
勿禁	-11.2438
一石	-11.244
則只	-11.2441
蹟	-11.2442
王言	-11.2443
究竟	-11.2443
司宰監	-11.2443
輪次	-11.2446
晝夜	-11.2447
牙山	-11.2448
▁未便	-11.2449
▁伏聞	-11.2449
更論	-11.245
▁不復	-11.2452
其可	-11.2453
陵參奉	-11.2454
覆試	-11.2456
捕賊	-11.2457
喪禮	-11.2457
▁親傳	-11.2458
不聞	-11.246
▁且臣	-11.246
倉庫	-11.2463
連續	-11.2465
欲見	-11.2469
罪重	-11.247
委任	-11.2473
辭意	-11.2475
竟不	-11.2476
臺諫論	-11.2477
渭	-11.2478
薪	-11.248
▁上優批不許	-11.2481
艱虞	-11.2481
柳根	-11.2485
遷陵	-11.2485
▁而如	-11.2485
使喚	-11.2486
▁至若	-11.2487
改正事	-11.2487
金昌集	-11.2489
諺書	-11.2494
代點	-11.2494
情迹	-11.2495
於我國	-11.2497
筠	-11.2498
亦令	-11.25
九千	-11.2501
恐懼	-11.2503
▁他日	-11.2504
二十人	-11.2505
平康	-11.2505
裁減	-11.2505
控	-11.2507
令本道	-11.2511
▁又賜	-11.2512
城尉	-11.2513
捕告	-11.2517
中止	-11.2517
敺	-11.2517
腫	-11.2517
畝	-11.2517
喘	-11.2517
夬	-11.2517
稻	-11.2517
馴	-11.2517
價布	-11.2518
摠管	-11.2518
吳挺緯	-11.2518
收敍	-11.2519
▁秋	-11.2521
出處	-11.2521
惻然	-11.2524
▁古者	-11.2524
▁多般	-11.2526
洞燭	-11.2527
百戶	-11.2528
已令	-11.2529
辨明	-11.2529
尹拯	-11.2531
主管	-11.2535
陪祭	-11.2535
▁率多	-11.2536
其後	-11.2539
▁聞者	-11.254
天威	-11.254
變服	-11.254
窮問	-11.2541
人主之	-11.2543
僉議	-11.2543
▁凡係	-11.2545
此後	-11.2545
謀殺	-11.2547
于京	-11.2548
其奴	-11.2549
怡	-11.255
▁則不無	-11.255
萬世之	-11.2551
雖在	-11.2551
拿處	-11.2553
關白	-11.2553
昆	-11.2554
祠宇	-11.2554
忌晨	-11.2555
]	-11.2555
鈍	-11.2555
▁上疏請	-11.2557
幡然	-11.2557
高靈君	-11.2557
春宮	-11.2558
▁卿何	-11.256
申欽	-11.2561
盡爲	-11.2561
苟冒	-11.2561
定配罪人	-11.2563
▁無復	-11.2566
度日	-11.2567
三員	-11.2567
允從	-11.2569
伊川	-11.257
▁而徒	-11.257
兩使	-11.257
銓郞	-11.2571
稱以	-11.2571
城門	-11.2574
禮曹啓言	-11.2575
▁本國	-11.2578
▁措辭	-11.2581
竝爲	-11.2581
▁啓聞	-11.2581
規避	-11.2585
御醫	-11.2586
▁退	-11.2589
濂	-11.2589
墩	-11.2589
旱乾	-11.2591
未下	-11.2591
▁藥房入診	-11.2592
珽	-11.2593
不禁	-11.2593
君德	-11.2593
所能	-11.2594
▁甚非	-11.2594
聳動	-11.2594
高荊山	-11.2594
靈巖	-11.2596
陳慰	-11.2597
不虞	-11.2597
例擧行	-11.2598
李樑	-11.2599
塡差	-11.2599
▁乞依	-11.26
推鞫廳啓曰	-11.2603
前監司	-11.2604
邊方	-11.2609
▁大失	-11.261
宥之	-11.2611
減等	-11.2612
▁事覺	-11.2613
行私	-11.2617
或以	-11.2617
秩高	-11.2619
陳請	-11.2619
回天	-11.262
沖	-11.262
土官	-11.2622
修正	-11.2622
▁此輩	-11.2623
未果	-11.2624
▁區區	-11.2627
一國之	-11.2628
都民	-11.2629
張皇	-11.2629
論思	-11.2629
藍	-11.263
竹山	-11.2631
祖宗之	-11.2631
銃筒	-11.2632
吳道一	-11.2632
遲速	-11.2636
都堂	-11.2636
之境	-11.2636
▁則又	-11.2637
允成	-11.2638
▁故命	-11.2638
參下	-11.2638
續錄	-11.2638
李端夏	-11.264
▁而終不	-11.264
囚之	-11.2642
▁弘	-11.2643
玉體	-11.2643
誤國	-11.2644
貿來	-11.2649
無所失	-11.265
一遵	-11.2651
▁命承旨	-11.2651
都官	-11.2652
▁其略曰	-11.2652
書于	-11.2654
有妨	-11.2655
金履	-11.2656
藥物	-11.2656
▁賜批	-11.2659
傳之	-11.2663
▁非所以	-11.2664
綃	-11.267
承政院奉旨馳書于	-11.267
罪也	-11.267
桓	-11.267
▁擧措	-11.267
酌獻禮	-11.2671
▁其勿辭	-11.2672
月二十九日	-11.2673
▁何其	-11.2673
▁臺閣	-11.2673
▁上年	-11.2673
尹弼商議	-11.2674
陷於	-11.2675
大臣之意	-11.2677
外官	-11.2681
▁竊恐	-11.2682
考講	-11.2683
迫於	-11.2684
▁處事	-11.2685
▁以嚴	-11.2687
開坐	-11.2689
經書	-11.2689
炯	-11.269
免賤	-11.2691
自爲	-11.2692
▁皆已	-11.2693
▁鄭麟趾	-11.27
▁旣不	-11.2701
緝	-11.2702
曙	-11.2703
苦心	-11.2707
宵	-11.2708
澍	-11.2709
!"】	-11.271
▁此人等	-11.271
揭帖	-11.271
犯法	-11.271
兩麥	-11.271
侵漁	-11.2711
附近	-11.2711
史局	-11.2712
領議政李元翼	-11.2712
久遠	-11.2713
危亡	-11.2714
防塞	-11.2717
▁則非徒	-11.2717
元情	-11.2717
▁必無	-11.272
則可矣	-11.2722
處絞	-11.2722
▁皆曰	-11.2725
無咎	-11.2727
▁請令廟堂	-11.2728
大計	-11.273
直招	-11.273
臣嘗	-11.2734
爲工曹參判	-11.2734
▁欲其	-11.2735
▁璆	-11.2736
▁申明	-11.2738
再避	-11.2739
▁其妻	-11.274
擎	-11.2742
未收	-11.2743
▁切勿	-11.2744
之請也	-11.2744
持難	-11.2745
近觀	-11.2745
李濟	-11.2745
之慘	-11.2746
葛	-11.2747
各二	-11.2747
藥院入診	-11.2747
爲司憲府執義	-11.2748
都摠管	-11.2749
衰耗	-11.2749
▁入南方	-11.2751
待秋	-11.2751
培養	-11.2751
無忌憚	-11.2751
給糧	-11.2753
誓戒	-11.2753
拘留	-11.2755
輸運	-11.2755
襦衣	-11.2755
天使時	-11.2756
▁考其	-11.2758
諸侯	-11.2758
妄言	-11.2758
問答	-11.2761
孝孫	-11.2762
何哉	-11.2763
同知經筵	-11.2764
舅	-11.2765
上司	-11.2765
樂工	-11.277
▁倍	-11.2771
六年	-11.2772
邸	-11.2775
每月	-11.2775
▁予所	-11.2775
無私	-11.2776
啓前事	-11.2778
三殿	-11.2783
▁特令	-11.2786
從良	-11.2787
着實擧行	-11.2789
浚吉	-11.279
厭避	-11.279
他餘	-11.2791
都萬戶	-11.2797
宋昌	-11.2798
九品	-11.28
權軫	-11.28
卯	-11.28
▁又出	-11.28
而設	-11.2805
兩臣	-11.2805
▁予已	-11.2805
訟者	-11.2805
皇恩	-11.2806
▁一如	-11.2809
三賊	-11.2809
物貨	-11.2811
邇	-11.2811
之量	-11.2812
▁已經	-11.2812
▁實有	-11.2812
▁臣子	-11.2817
▁則庶	-11.2817
競	-11.2818
書員	-11.282
未遑	-11.282
卽日	-11.2821
次于	-11.2821
瑗	-11.2821
▁誠可	-11.2823
泯	-11.2824
閔鎭厚	-11.2824
抽	-11.2825
𥙷	-11.2825
▁使無	-11.2825
李敬輿	-11.2825
▁難於	-11.2825
請依	-11.2826
校書館	-11.2827
營護	-11.2829
蔡壽	-11.2831
請令	-11.2834
爲左副承旨	-11.2836
吳斗寅	-11.2836
孔子	-11.2837
所行	-11.2838
▁安敢	-11.2839
堪任	-11.284
李忠	-11.2842
▁一向	-11.2842
末端	-11.2843
請上尊號	-11.2844
▁予不	-11.2847
日益	-11.2847
▁亦不得	-11.2847
▁實出	-11.2848
▁有何不可	-11.2849
無倫	-11.285
其失	-11.285
▁何等	-11.2851
▁時烈	-11.2851
有司堂上	-11.2852
▁到處	-11.2854
不報	-11.2855
▁而實	-11.2857
▁則尤	-11.2858
無異同	-11.2861
司憲掌令	-11.2864
莫同	-11.2864
典獄署	-11.2865
行次	-11.2865
金石	-11.2867
都護府使	-11.2868
相職	-11.2868
▁未可知也	-11.2869
點馬	-11.287
而起	-11.287
掃地	-11.2871
▁以次	-11.2872
相距	-11.2874
之爲人	-11.2875
惠廳	-11.2875
掩置	-11.2878
參於	-11.2879
爲舍人	-11.2879
谷山	-11.2879
除出	-11.2879
於朝廷	-11.2882
四啓	-11.2883
猶不	-11.2883
開政	-11.2886
▁令禮官	-11.2886
答云	-11.2891
做出	-11.2891
良女	-11.2893
▁欲令	-11.2894
者哉	-11.2896
居住	-11.2897
廢之	-11.2897
族屬	-11.2898
來復命	-11.2898
搖	-11.2899
法外	-11.2899
査問	-11.2901
劫	-11.2903
廡	-11.2903
鄭昌孫	-11.2904
開市	-11.2904
所欲	-11.2906
屬之	-11.2913
▁托	-11.2913
▁此固	-11.2914
國之大事	-11.2915
呂聖齊	-11.2917
刑罰	-11.2917
國舅	-11.2924
▁事涉	-11.2924
▁死亡	-11.2925
恩命	-11.2927
昌盛	-11.2928
▁輿情	-11.2929
▁命遞	-11.293
▁各以	-11.293
無可避之嫌	-11.2931
不義	-11.2933
獻壽	-11.2933
事及	-11.2934
停退	-11.2937
凍	-11.2938
特遣	-11.2938
淸風	-11.2938
▁祭	-11.2939
庄	-11.294
知卿	-11.2941
更改	-11.2941
金升卿	-11.2942
沈之源	-11.2943
斫伐	-11.2943
各鎭	-11.2943
▁晝夜	-11.2945
▁使民	-11.2946
外戚	-11.2946
勉諭	-11.2949
機務	-11.2949
▁無遺	-11.2952
回報	-11.2953
▁臣旣	-11.2954
强請	-11.2955
兩司長官	-11.2955
公文	-11.2956
等以	-11.2957
不可用	-11.2958
等三	-11.2959
迄	-11.2959
金致仁	-11.296
通信使	-11.296
會計	-11.2964
所掌	-11.2964
▁多行	-11.2965
灌	-11.2972
兇書	-11.2974
赦之	-11.2974
二十七	-11.2976
非禮	-11.2977
自安	-11.2979
摧	-11.2981
等上言	-11.2981
留後司	-11.2982
保首領	-11.2982
▁罔有紀極	-11.2982
自謂	-11.2983
方面	-11.2984
圓點	-11.2984
▁少有	-11.2984
▁遠	-11.2986
尹暉	-11.299
路傍	-11.2991
誌	-11.2993
亦知	-11.2994
▁平壤	-11.2994
渰	-11.2997
▁親鞫	-11.2997
狂悖	-11.2997
庇護	-11.2998
松都	-11.2998
十九日	-11.2998
請勿	-11.2998
答書	-11.3
▁請先	-11.3
宗親及	-11.3001
仰稟	-11.3001
廢棄	-11.3005
設立	-11.3005
各陵	-11.3006
之源	-11.3007
之異	-11.3008
其官	-11.3009
聽政	-11.3009
盡其	-11.301
▁甚至	-11.301
▁上松浦	-11.3011
拿問定罪	-11.3012
淸正	-11.3012
切迫	-11.3013
親戚	-11.3015
月十九日	-11.3016
▁以答	-11.3016
問諸	-11.3016
洪致中	-11.3017
工役	-11.3018
捧招	-11.302
捏	-11.302
漂沒	-11.3023
遲緩	-11.3024
命遞差	-11.3025
已例	-11.3025
趙珩	-11.3027
分配	-11.3029
甁	-11.3029
▁則彼	-11.3029
軍丁	-11.303
▁上箚	-11.3031
學術	-11.3032
權知	-11.3033
陳告	-11.3033
通鑑	-11.3033
參考	-11.3034
前席	-11.3034
保護	-11.3036
鎭將	-11.3038
南龍翼	-11.3038
失禮	-11.3038
已知	-11.3039
是職	-11.3042
▁寔	-11.3044
決罪	-11.3045
政院啓	-11.3045
先發	-11.3048
伊日	-11.3049
在先朝	-11.3049
▁擇其	-11.305
朔祭	-11.3051
賑政	-11.3052
積年	-11.3052
▁民之	-11.3054
▁某	-11.3054
上食	-11.3054
載錄	-11.3055
軾	-11.3055
嶺東	-11.3056
▁只爲	-11.3057
曾以	-11.3057
緘	-11.3059
屑	-11.306
郁	-11.3061
大獄	-11.3062
當體念	-11.3064
于熙政堂	-11.3064
通于	-11.3065
窮民	-11.3067
別立	-11.3067
捕將	-11.3067
本土	-11.3069
▁必有所	-11.3075
▁而惟	-11.3077
今雖	-11.3079
之至意	-11.3079
獄體	-11.308
優給	-11.3084
之疾	-11.3085
根本	-11.3087
處所	-11.3088
世子嬪	-11.3089
徙民	-11.3091
某事	-11.3092
▁地震	-11.3092
炳	-11.3096
▁其以	-11.3096
切隣	-11.3097
寡人	-11.3098
金萬	-11.3098
爲右尹	-11.3099
▁天朝	-11.3099
設置	-11.31
彙	-11.3101
薺浦	-11.3101
諭之曰	-11.3103
宋瑛	-11.3105
命以	-11.3106
積滯	-11.3106
渠之	-11.3107
至情	-11.3108
置於法	-11.3109
立異	-11.311
兵曹正郞	-11.3111
勿復	-11.3111
兇逆	-11.3111
李畬	-11.3112
玉候	-11.3114
▁侵	-11.3117
一十	-11.3118
之亂	-11.3119
事宜	-11.3119
全然	-11.3122
▁審	-11.3123
吏典	-11.3124
昌寧	-11.3125
省疏	-11.3125
年歲	-11.3128
▁但其	-11.3129
▁在前	-11.3129
壓死	-11.313
雇	-11.313
牙	-11.313
凶逆	-11.3133
爲右副承旨	-11.3133
爲僧	-11.3137
▁時方	-11.3139
閑良	-11.314
嘉山	-11.314
鄙之	-11.3141
瑠	-11.3141
捐	-11.3141
瘦	-11.3141
赤子	-11.3142
踈虞	-11.3143
具宬	-11.3143
鄭佸	-11.3143
柳潚	-11.3146
中樞院使	-11.3146
龍川	-11.3146
勸懲	-11.3147
仰達	-11.3148
▁賞	-11.3149
事係	-11.315
失稔	-11.3151
營救	-11.3151
▁人之	-11.3151
控辭	-11.3152
小子	-11.3152
定額	-11.3153
爲京畿觀察使	-11.3154
遞臣職	-11.3154
異端	-11.3157
▁前年	-11.3157
鎭江	-11.3159
藥材	-11.316
而復	-11.316
▁具由	-11.316
可知也	-11.3161
▁聖敎	-11.3162
下旨	-11.3164
李惺	-11.317
其議	-11.3171
重加	-11.3171
風水	-11.3172
▁上召	-11.3175
曾聞	-11.3175
建白	-11.3175
朝鮮國王	-11.3176
鄭昌衍	-11.3177
恂	-11.3178
意以爲	-11.3179
累次	-11.3179
無間	-11.3179
人子	-11.318
奉常	-11.3181
▁久未	-11.3181
虧損	-11.3181
▁朝野	-11.3181
迷劣	-11.3182
黽勉	-11.3182
特拜	-11.3183
金山	-11.3183
祭之	-11.3183
抱川	-11.3184
閭里	-11.3184
醫女	-11.3185
錄案	-11.3186
政丞等	-11.3189
必須	-11.319
金大來	-11.3191
▁接見	-11.3192
所在官	-11.3193
邪說	-11.3193
乘輿	-11.3195
▁速令	-11.3196
竝推考	-11.3196
某某	-11.3196
多官	-11.3196
▁以臣	-11.3199
▁請遞之	-11.3201
囚繫	-11.3201
▁志	-11.3202
金義	-11.3205
祗送	-11.3206
鄭同	-11.3211
太僕	-11.3211
奈	-11.3211
家産	-11.3212
日久	-11.3213
盛禮	-11.3213
姑勿	-11.3214
鋪	-11.3215
▁以盡	-11.3218
偃	-11.3218
移安	-11.3221
▁具悉	-11.3221
膝	-11.3222
刼	-11.3222
李頣命	-11.3222
國家多事	-11.3223
徭役	-11.3223
▁恒	-11.3224
賢能	-11.3224
國初	-11.3228
李時白	-11.3228
穀物	-11.3228
渡海	-11.323
赴京使臣	-11.3231
▁則其於	-11.3232
將此意	-11.3233
李滿住	-11.3235
朴師	-11.3236
臣曾	-11.3238
上疏辭	-11.324
入格者	-11.3242
原從功臣	-11.3244
而得	-11.3244
▁江原道	-11.3244
近年以來	-11.3247
流民	-11.3251
立案	-11.3253
▁而皆	-11.3255
武將	-11.3255
取來	-11.3258
徐命善	-11.3259
身役	-11.3259
正殿	-11.326
仍爲	-11.3262
爲急	-11.3262
二百年	-11.3263
鞭	-11.3263
塚	-11.3263
披	-11.3263
楊汀	-11.3263
折衝	-11.3264
人材	-11.3264
鄭苯	-11.3265
李蓀	-11.3265
徒流	-11.3265
上項	-11.3266
不加	-11.3266
詳定所	-11.3266
加一資	-11.3267
白苧布	-11.3268
得病	-11.3274
▁哀	-11.3278
陞遷	-11.3278
▁太上王	-11.3279
▁故雖	-11.3281
▁未卽	-11.3282
誣陷	-11.3282
八人	-11.3283
往諭	-11.3284
處義	-11.3285
▁上皆	-11.3285
路上	-11.3288
疏略曰	-11.3288
聽之	-11.3289
咸陽	-11.3289
各官守令	-11.3291
敎化	-11.3292
留在	-11.3293
禁防	-11.3294
康津	-11.3296
減半	-11.3296
納招	-11.3297
▁乃所以	-11.3298
祖父母	-11.33
舒	-11.3303
法官	-11.3303
陶	-11.3304
倦	-11.3304
肝	-11.3304
鞍	-11.3304
孫舜孝	-11.3305
▁寅明	-11.3305
幾許	-11.3306
正二品	-11.3308
觀武才	-11.331
二更	-11.3311
同入	-11.3312
侍郞	-11.3312
彈劾	-11.3314
科田	-11.3315
太濫	-11.3315
宮闈	-11.3318
鑴	-11.3319
之盛意	-11.3321
鐫	-11.3322
▁上從	-11.3323
任事	-11.3323
賊中	-11.3324
訛	-11.3324
直講	-11.3325
擇人	-11.3327
各殿	-11.3327
驪	-11.3329
勿許	-11.333
憑考	-11.333
金允	-11.3332
李明德	-11.3332
▁武	-11.3336
似可	-11.3337
故耳	-11.3338
▁選	-11.334
請於	-11.334
不辨	-11.3343
饋之	-11.3344
下令	-11.3344
·	-11.3345
爲慶尙道觀察使	-11.3345
爲兵曹參知	-11.3345
頃年	-11.3348
▁則爲	-11.3353
備局堂上	-11.3353
今秋	-11.3357
司諫院獻納	-11.3358
生等	-11.3359
臨海	-11.3361
人倫	-11.3362
如之何	-11.3364
▁敎	-11.3366
有意	-11.3368
▁不可仍冒	-11.3375
別祭	-11.3375
▁上乃	-11.3375
▁興	-11.3376
▁請當該	-11.3376
▁一從	-11.338
誠孝	-11.338
而置之	-11.3383
之箚	-11.3384
月山大君	-11.3386
判漢城府事	-11.3386
兵馬都節制使	-11.3387
所由	-11.3387
是月	-11.3387
淮陽	-11.3387
長淵	-11.3388
監役	-11.3389
來詣	-11.339
▁恐不	-11.3394
各有	-11.3395
金自點	-11.3397
涉於	-11.3397
少有	-11.3398
倂	-11.3399
▁不有	-11.34
每以	-11.3401
通津	-11.3403
應龍	-11.3403
把守	-11.3404
▁理	-11.3404
入歸	-11.3405
▁相與	-11.3406
成習	-11.3406
痛哭	-11.3409
當先	-11.3409
無常	-11.3412
見上	-11.3413
身居	-11.3413
闕下	-11.3414
在鄕	-11.3415
還朝	-11.342
疏斥	-11.342
妥	-11.342
亦豈無	-11.3422
臘	-11.3422
備給	-11.3422
戶判	-11.3423
上體	-11.3425
玉堂處置	-11.3425
▁浚	-11.3425
于此	-11.3426
璋	-11.3427
詬辱	-11.3428
李觀命	-11.3428
隨事	-11.3429
▁其議	-11.3429
兼官	-11.3429
宣陵	-11.3431
忝在	-11.3432
▁予用	-11.3432
▁俯	-11.3436
穩	-11.3438
▁莫若	-11.3439
國喪	-11.3439
置諸	-11.3439
所答	-11.344
孝源	-11.344
其處	-11.344
未詳	-11.3441
斷之	-11.3442
正論	-11.3443
西郊	-11.3443
四年	-11.3445
遂安	-11.3446
違召	-11.3446
原府院君	-11.3447
▁未聞	-11.3449
▁係	-11.3452
元氣	-11.3454
千餘石	-11.3455
加階	-11.3456
▁予實	-11.3457
因緣	-11.3458
扶安	-11.3459
▁毋令	-11.346
韓翼謩	-11.346
同然	-11.346
內乘	-11.3461
阜	-11.3463
賜諡	-11.3463
乳	-11.3464
運平	-11.3465
中道	-11.3466
▁以絶	-11.3467
▁太白見於巳地	-11.3469
助防將	-11.3469
萌	-11.3469
爲議政府右參贊	-11.3469
逈	-11.3469
▁直赴殿試	-11.3471
在下	-11.3471
進豐呈	-11.3472
魚鹽	-11.3472
四日	-11.3472
格例	-11.3472
到京	-11.3474
孝元	-11.3475
▁上嘉納之	-11.3476
▁至爲未便	-11.3478
還本	-11.3478
守禦使	-11.348
▁以答天譴	-11.3482
之謂也	-11.3483
堂下官	-11.3484
爲副使	-11.3484
▁今殿下	-11.3485
依議	-11.3485
關後弊	-11.3486
一應	-11.3488
牒呈	-11.3489
泰安	-11.349
濫授	-11.3494
亦以此	-11.3495
被誣	-11.3496
轉輸	-11.3496
諂	-11.3496
交代	-11.3497
▁而其時	-11.3499
新除	-11.3501
計其	-11.3501
登筵	-11.3501
銳	-11.3502
庶務	-11.3504
▁司憲府	-11.3506
▁國家之	-11.3506
李承召	-11.3508
▁其代	-11.3508
杖六十	-11.351
納于	-11.351
囊	-11.351
日微暈	-11.351
䄄	-11.351
剩	-11.351
傾軋	-11.351
沈煥之	-11.3511
親迎	-11.3511
▁逮	-11.3511
姜希孟	-11.3512
賜物	-11.3513
何故	-11.3513
▁惟以	-11.3514
上御仁政殿	-11.3514
敦勉	-11.3518
知有	-11.3519
▁往在	-11.352
▁請移	-11.352
其非	-11.3521
中批	-11.3521
▁固不足	-11.3522
仁廟	-11.3522
▁遣承旨	-11.3525
▁故不允	-11.3526
誠謹	-11.3527
尹光	-11.3528
至爲	-11.3528
出示	-11.3528
▁良用	-11.3529
土田	-11.3531
得一	-11.3531
臨御	-11.3533
萬餘	-11.3534
酌量	-11.3534
之服	-11.3536
予亦	-11.3537
臣家	-11.3539
乾方	-11.354
▁禔	-11.3541
▁臺臣	-11.3542
▁勒	-11.3543
會同	-11.3543
其代	-11.3543
三品以下	-11.3544
各穀	-11.3546
其責	-11.3547
瓘	-11.3547
爲兼	-11.3548
妻父	-11.3548
改書	-11.3548
去處	-11.3548
▁事係	-11.3548
公家	-11.3548
海外	-11.3549
儒者	-11.355
瀚	-11.3552
徐命均	-11.3552
鄭民始	-11.3552
各浦	-11.3553
成俔	-11.3555
▁爰	-11.3556
▁上下敎曰	-11.3556
安得	-11.3558
懲戒	-11.3562
譏之	-11.3563
▁令備邊司	-11.3563
掌之	-11.3565
準職	-11.3566
軍法	-11.3568
佇	-11.3568
▁宗社	-11.3569
從速	-11.357
▁撫	-11.3571
何心	-11.3572
給米	-11.3574
給牒	-11.3575
長興	-11.3575
權管	-11.3575
數遞	-11.3577
第宅	-11.3578
獨免	-11.358
一半	-11.358
傳于禮曹	-11.3581
▁肥前州	-11.3581
還來	-11.3582
▁可見	-11.3583
▁似不可	-11.3583
爲全羅道觀察使	-11.3585
▁越	-11.3585
▁況於	-11.3586
六曹堂上	-11.3588
所入	-11.3589
邑城	-11.3589
▁亦似	-11.359
知敦寧府事	-11.3591
天下之	-11.3591
極論	-11.3592
等請	-11.3592
栽	-11.3594
士庶	-11.3594
朝政	-11.3595
作挐	-11.3596
▁恣意	-11.3596
君臣上下	-11.3596
鄭澔	-11.3596
諡號	-11.3597
眞殿	-11.3597
規矩	-11.3597
蒼黃	-11.3597
予以	-11.36
臨津	-11.3603
立功	-11.3604
其位	-11.3605
役民	-11.3606
於此時	-11.3609
不甚	-11.361
疑惑	-11.361
有物論	-11.3611
▁專委	-11.3612
▁及今	-11.3613
來參	-11.3614
却之	-11.3617
點考	-11.3619
豈敢	-11.3621
他官	-11.3621
一領	-11.3622
▁沈澮	-11.3622
▁今不	-11.3624
許其	-11.3625
▁聞者莫不	-11.3625
隨時	-11.3626
遣敬差官	-11.3627
不干	-11.3627
詳審	-11.3628
▁請鞫之	-11.3632
違法	-11.3633
▁抄	-11.3633
承政院啓	-11.3635
不但	-11.3635
待令	-11.3636
笠靴	-11.3636
▁許積	-11.3636
逵	-11.3636
怵	-11.3636
慷慨	-11.3636
佯	-11.3636
橘	-11.3636
金陽澤	-11.3636
▁批	-11.3637
綸音	-11.3638
鄭基	-11.3638
專不	-11.364
革之	-11.3641
浮薄	-11.3641
金克	-11.3642
權勢	-11.3643
祭香祝	-11.3643
李春	-11.3644
來獻土宜	-11.3645
不勤	-11.3646
▁門外黜送	-11.3646
諸宮家	-11.3647
究覈	-11.3647
非如	-11.3647
月十四日	-11.3649
▁大妃	-11.3649
神人	-11.3649
賜批	-11.3654
過限	-11.3654
內醫院	-11.3658
斷以	-11.3658
應之	-11.3661
三朔	-11.3662
當該	-11.3662
陟	-11.3665
忠元	-11.3665
▁暫	-11.3667
詹	-11.3669
▁良	-11.3671
書中	-11.3671
可憂	-11.3672
▁本院	-11.3673
體統	-11.3673
▁使其	-11.3673
▁曷	-11.3674
▁距	-11.3676
濁	-11.3676
愼承善	-11.3679
貪婪	-11.3679
适	-11.3679
鄭廣成	-11.3679
兪棨	-11.3679
保障	-11.368
李挺元	-11.3681
履歷	-11.3681
許頊	-11.3681
憂悶	-11.3682
遲晩	-11.3683
播種	-11.3683
持身	-11.3683
都會	-11.3685
亦甚	-11.3687
▁而不知	-11.3689
▁邊將	-11.369
參將	-11.3691
正軍	-11.3692
洪重	-11.3692
勉副	-11.3693
從自願	-11.3694
奸人	-11.3695
二十六	-11.3695
等上箚曰	-11.3696
等亦	-11.3696
以次	-11.3697
請托	-11.3698
禁府都事	-11.37
千秋使	-11.3701
加於	-11.3702
疑懼	-11.3702
其說	-11.3702
陷人	-11.3706
非不	-11.3709
轍	-11.3714
剛明	-11.3715
顒	-11.3718
輸入	-11.3719
失所	-11.3719
喬	-11.3721
涯	-11.3721
凋弊	-11.3722
尤爲	-11.3722
十四人	-11.3722
弓箭	-11.3723
儒疏	-11.3725
皆是	-11.3726
四十餘	-11.3726
於彼	-11.3726
兪音	-11.3727
▁實爲未便	-11.3727
都觀察使	-11.3727
▁一倂	-11.3728
▁雖然	-11.3732
二十八	-11.3732
特賜	-11.3733
盆	-11.3733
之要	-11.3733
沿江	-11.3734
▁旣爲	-11.3734
內醫	-11.3734
二所	-11.3736
錢穀	-11.3738
憂懼	-11.3739
可虞	-11.374
領經筵	-11.3741
宮城	-11.3741
廉謹	-11.3742
其邑	-11.3742
朴說	-11.3743
李敬	-11.3744
昌原	-11.3745
▁湖南	-11.3745
臣意	-11.3745
人吏	-11.3747
韓氏	-11.3749
救活	-11.3749
被駁	-11.3751
安崇善	-11.3752
司果	-11.3753
有所失	-11.3753
▁逐	-11.3754
望祭	-11.3757
向者	-11.3758
憲府論	-11.376
遣禮官	-11.3761
探問	-11.3762
我軍	-11.3762
郡邑	-11.3763
尹趾善	-11.3764
仁川	-11.3765
時御所	-11.3765
對辨	-11.3766
銅鐵	-11.3766
▁一皆	-11.3767
黃海兵使	-11.3768
卓異	-11.3772
延燒	-11.3773
李時發	-11.3774
田畓	-11.3775
此禮	-11.3777
▁何用	-11.3777
散官	-11.3778
▁贊	-11.3779
漕船	-11.378
之罪大矣	-11.3783
▁均	-11.3785
▁照	-11.3785
▁而臺諫	-11.3786
之忱	-11.3787
皆不	-11.3787
時論	-11.3787
永柔	-11.3787
所任	-11.3792
遞易	-11.3793
珩	-11.3793
▁故有是	-11.3793
八九	-11.3796
梗	-11.3801
絅	-11.3801
獻土宜	-11.3802
邈	-11.3803
▁非以	-11.3805
廊	-11.3805
刦	-11.3805
毋得	-11.3805
寐	-11.3806
昭格署	-11.3807
醮	-11.3807
琚	-11.3807
爲刑曹參議	-11.3807
句語	-11.3807
上敎至當	-11.3808
賜物有差	-11.3808
▁則固	-11.3808
嚴鞫得情	-11.3808
毛將	-11.3808
之章	-11.3809
市井	-11.381
▁庸	-11.3812
雖未	-11.3812
領議政申叔舟	-11.3812
受賂	-11.3812
▁設使	-11.3814
▁以充	-11.3817
納粟	-11.3818
未必	-11.3819
申槪	-11.382
受朝參	-11.382
▁古之	-11.382
僚屬	-11.3821
▁功	-11.3821
賑恤使	-11.3822
嚴覈	-11.3823
以上者	-11.3823
陳章	-11.3823
開國	-11.3824
我國之	-11.3826
▁但當	-11.3826
▁稱爲	-11.3827
典刑	-11.3828
出沒	-11.3829
諸島	-11.3836
左議政李恒福	-11.3836
▁言念	-11.3837
告訴	-11.3838
如常	-11.3839
推考治罪	-11.3843
▁向者	-11.3843
書於	-11.3843
甚嚴	-11.3844
師儒	-11.3845
已下	-11.3845
▁論議	-11.3846
▁爲國	-11.3846
▁旣而	-11.3846
施以	-11.3846
▁帝	-11.3848
失宜	-11.3848
戀	-11.3849
臂	-11.385
沈象奎	-11.385
疲軟	-11.385
衿川	-11.385
月令	-11.3851
罔措	-11.3851
姑爲	-11.3852
▁下詢	-11.3852
克均	-11.3853
部落	-11.3853
大王大妃敎曰	-11.3855
永安	-11.3855
▁以濟	-11.3855
緣臣	-11.3856
▁縷縷	-11.3856
不獲已	-11.3857
嘉尙	-11.3859
許琛	-11.3861
尹汲	-11.3861
隨行	-11.3862
赦宥	-11.3863
不用心	-11.3863
之權	-11.3865
倉穀	-11.3869
▁請削去仕版	-11.3869
不敢言	-11.3869
給料	-11.387
百司	-11.3871
語曰	-11.3871
乘夜	-11.3872
伸冤	-11.3873
黃豆	-11.3874
典翰	-11.3875
李孝	-11.3876
仍用	-11.3877
▁愼	-11.3877
勘定	-11.3877
禮判	-11.3881
擊鼓	-11.3885
庶幾	-11.3885
於筵中	-11.3886
請鞫	-11.3888
無謂	-11.389
不學	-11.3891
所獲	-11.3892
該府	-11.3892
叙	-11.3893
蘇世讓	-11.3893
尹蓍東	-11.3893
盃	-11.3893
澟	-11.3893
玷	-11.3893
盧守愼	-11.3893
李台佐	-11.3893
玉冊	-11.3894
親製	-11.3894
千石	-11.3895
▁不可改也	-11.3896
柵	-11.3897
博川	-11.3897
爲弘文館修撰	-11.3898
離宮	-11.39
怨苦	-11.3903
▁以副予	-11.3905
寬典	-11.3905
各驛	-11.3906
嚴批	-11.3907
胡書	-11.3908
▁壽	-11.3909
請改	-11.391
▁又聞	-11.3912
之妾	-11.3912
得體	-11.3913
爲右承旨	-11.3922
左右相	-11.3922
李玄	-11.3923
罷推	-11.3923
判決事	-11.3924
▁亦且	-11.3925
▁尤當	-11.393
爲司諫院獻納	-11.3931
官軍	-11.3931
李好閔	-11.3933
三十匹	-11.3934
量宜	-11.3934
元宗	-11.3935
拳	-11.3937
俶	-11.3937
洪啓禧	-11.3937
▁請命罷斥臣等之職	-11.3937
遞改	-11.3937
許硡	-11.3938
事實	-11.3938
黑麻布	-11.3938
司鑰	-11.3939
痼弊	-11.3939
消息	-11.394
柳赫然	-11.3941
不可爲也	-11.3941
領議政李德馨	-11.3945
決訟	-11.3946
無疾	-11.3947
李震	-11.3948
訃	-11.3949
▁宜以	-11.3949
與聞	-11.395
奏聞使	-11.3953
將行	-11.3953
東南	-11.3955
還收成命	-11.3956
府啓	-11.3956
移轉	-11.3956
成給	-11.3957
十六人	-11.3958
上行	-11.3958
金壽	-11.3958
金致	-11.3959
治亂	-11.396
▁唯在	-11.3963
▁特許	-11.3965
各一員	-11.3965
造家	-11.3967
亦言	-11.3967
者少	-11.3967
平民	-11.397
不食	-11.3971
固城	-11.3974
孟思誠	-11.3974
永川	-11.3975
以定	-11.3977
者皆	-11.3977
仁政殿	-11.3979
由此	-11.3979
漢語	-11.398
偁	-11.398
羸	-11.3981
桃	-11.3981
徐渻	-11.3981
巡撫	-11.3981
光陵	-11.3982
板蕩	-11.3982
▁監	-11.3982
勸課	-11.3983
詞訟	-11.3983
扈駕	-11.3983
▁私自	-11.3984
不忍言	-11.3984
爲黃海道觀察使	-11.3984
因山	-11.3985
邊報	-11.3987
宗簿	-11.3987
多數	-11.3988
康純	-11.3988
建州	-11.399
挾私	-11.3991
校生	-11.3992
引避之辭	-11.3992
兩使臣	-11.3992
所率	-11.3993
▁臣不敢	-11.3994
國無	-11.3994
藏之	-11.3996
遣重臣	-11.3996
都政	-11.3996
▁尙有	-11.3998
▁何能	-11.3998
闕門外	-11.3999
▁若欲	-11.3999
天道	-11.4
方有	-11.4002
已到	-11.4003
▁猥	-11.4004
通訓	-11.4007
一念	-11.4007
强爲	-11.4008
發兵	-11.4009
光海	-11.4009
慶會樓	-11.401
四面	-11.4012
進膳	-11.4012
發引	-11.4012
一百二十	-11.4015
▁亦何	-11.4017
▁且此	-11.4018
慶科	-11.4018
興陽	-11.402
郊迎	-11.4021
奪其	-11.4021
▁位至	-11.4021
▁宗廟	-11.4022
▁死者	-11.4022
七年	-11.4022
廟號	-11.4024
墀	-11.4024
嵩	-11.4024
疹	-11.4024
之兄	-11.4025
申琓	-11.4026
▁不念	-11.4026
不近	-11.4027
大功	-11.403
陵夷	-11.4031
▁上欲	-11.4032
奉公	-11.4034
年月	-11.4036
于政院	-11.4036
提擧	-11.4037
出榜	-11.4037
末孫	-11.4037
▁李克培	-11.4037
全家	-11.4037
爲同知中樞府事	-11.4037
爲司諫院司諫	-11.4039
▁第以	-11.4039
▁猝	-11.4039
公除	-11.4041
事言之	-11.4043
博考	-11.4043
全不	-11.4045
丁字閣	-11.4045
海中	-11.4047
不覺	-11.4049
獄訟	-11.405
▁命饋	-11.4052
有他	-11.4052
▁每以	-11.4052
馬島	-11.4053
考官	-11.4053
▁惟卿	-11.4054
姑待	-11.4056
有限	-11.4056
殞	-11.4057
致仁	-11.4057
論功	-11.4057
未決	-11.4059
▁是乃	-11.4059
昉	-11.406
招集	-11.4061
擬之	-11.4062
之出	-11.4067
▁以定	-11.4067
蝗	-11.4068
塔	-11.4068
▁廢	-11.4068
金質幹	-11.4068
殲	-11.4068
好生之德	-11.4069
詳覈	-11.4069
祖母	-11.4072
尹善道	-11.4074
▁其人	-11.4075
例爲之	-11.4077
▁臣以爲	-11.4078
李得	-11.4078
年凶	-11.4079
鑄錢	-11.4079
朴淳	-11.4081
▁承政院啓	-11.4082
勿遞	-11.4084
▁最爲	-11.4084
▁而今又	-11.4086
到今	-11.4087
三處	-11.4088
▁以紓	-11.4088
漂到	-11.4089
鄭孝	-11.4089
一百四十	-11.409
▁未見	-11.409
訛言	-11.409
諸具	-11.4094
此地	-11.4094
亦有之	-11.4095
科第	-11.4097
▁或爲	-11.41
爲提調	-11.4101
▁提督	-11.4103
▁俺	-11.4103
▁此所以	-11.4107
朞	-11.4107
先自	-11.4107
兩司啓曰	-11.4107
代納	-11.411
惇	-11.4113
禿	-11.4113
▁名曰	-11.4113
等十人	-11.4114
乘轎	-11.4115
▁壽恒	-11.4115
敢以	-11.4121
衣食	-11.4121
復爲	-11.4122
通官	-11.4124
停論	-11.4124
親審	-11.4125
去之	-11.4125
官事	-11.4125
刪	-11.4129
吉凶	-11.413
淑儀	-11.4131
▁自祖宗朝	-11.4133
兼判	-11.4133
許穆	-11.4136
後孫	-11.4137
齊陵	-11.414
朴泰	-11.4141
李永	-11.4143
▁必先	-11.4144
邊境	-11.4144
▁爲此	-11.4146
乃爾	-11.4147
壬	-11.4147
大兵	-11.4147
進表裏	-11.4147
▁予意以爲	-11.4148
結陣	-11.4148
廢事	-11.4149
▁鞫廳	-11.4152
▁而不得	-11.4152
開筵	-11.4153
軍役	-11.4153
▁故如是	-11.4153
紏	-11.4154
奢	-11.4154
頣	-11.4156
進見	-11.4157
愷	-11.4157
李晩秀	-11.4157
璿源殿	-11.4157
憎	-11.4157
夤緣	-11.4157
漸不可長	-11.4157
紵絲	-11.4157
圍籬安置	-11.4157
李尙毅	-11.4157
安知	-11.4158
公廨	-11.4158
冬至正使	-11.4158
▁依律定罪	-11.416
不得爲	-11.4161
▁俄	-11.4165
而言也	-11.4166
李惟泰	-11.4168
▁議大臣	-11.4169
官婢	-11.4171
靦然	-11.4175
還授	-11.4176
▁嚴飭	-11.4176
百年	-11.4177
▁濟州	-11.4177
▁惟當	-11.4178
▁命以	-11.4179
當番	-11.4183
▁余	-11.4183
▁蓋出於	-11.4186
憂之	-11.4186
査啓	-11.4187
司成	-11.4188
切於	-11.4188
河東	-11.4188
言根	-11.4189
闕中	-11.4189
洞口	-11.4189
相訟	-11.419
其論	-11.4193
珙	-11.4196
▁另	-11.4196
辭說	-11.4196
便殿	-11.4198
百里	-11.4199
春川	-11.42
八方	-11.4201
▁各自	-11.4201
曺繼商	-11.4202
渥	-11.4202
韓纉男	-11.4202
遞免	-11.4202
李彦迪	-11.4203
▁入巽方	-11.4204
▁非有	-11.4204
旌表	-11.4204
有傷	-11.4205
稱冤	-11.4205
遭此	-11.4207
守僕	-11.4208
?】	-11.421
輪回	-11.4212
礪山	-11.4212
諳	-11.4221
剝	-11.4222
▁恐未	-11.4225
勞苦	-11.4225
賢者	-11.4225
此等事	-11.4228
與知	-11.4229
▁次第	-11.423
謀議	-11.4231
意也	-11.4233
失時	-11.4234
犯夜	-11.4236
辭氣	-11.4236
一口	-11.4239
洪原	-11.4239
輯	-11.4239
蔓	-11.424
不載	-11.4241
皆知	-11.4241
▁亦足	-11.4242
▁次次	-11.4243
無理	-11.4245
紗	-11.4245
▁崇	-11.4246
廓	-11.4247
瘞	-11.4247
蒸	-11.4247
弘文館連箚	-11.4247
▁大駕	-11.4247
造朝	-11.4247
皇太子	-11.4247
至大	-11.4249
更稟	-11.4251
尹絳	-11.4251
全羅兵使	-11.4252
▁御書	-11.4253
吾民	-11.4256
遣史官傳諭	-11.4258
▁其弊不貲	-11.4259
親祭時	-11.426
感動	-11.4261
訝	-11.4263
自恣	-11.4264
接濟	-11.4265
▁準	-11.4266
▁似是	-11.4267
喪葬	-11.4267
▁亦在	-11.4268
▁言于都監	-11.4268
▁聖人	-11.4268
國是	-11.4269
因其	-11.4271
▁恐不可	-11.4271
爲禮曹參議	-11.4273
不能盡	-11.4273
▁將至	-11.4273
發賣	-11.4275
逃避	-11.4276
謀害	-11.4279
近以	-11.4279
▁是後	-11.4279
條陳	-11.4282
▁則不得	-11.4285
▁上疏辭職	-11.4286
留宿	-11.4287
巽	-11.4287
詗	-11.4289
先大王	-11.4289
自取	-11.4289
稚	-11.4291
蓮	-11.4292
圓覺寺	-11.4292
金克愊	-11.4292
塊	-11.4292
貪饕	-11.4292
靜攝	-11.4292
徐有隣	-11.4292
豐壤	-11.4293
政廳	-11.4293
▁仍言	-11.4294
▁安可	-11.4294
備局諸宰	-11.4294
十萬	-11.4295
之務	-11.4297
必至	-11.4299
封爵	-11.4302
昨夜	-11.4303
火藥	-11.4304
微勞	-11.4306
▁意謂	-11.4306
亟收成命	-11.4307
來會	-11.4308
出而	-11.431
二十二	-11.4311
▁命議于領敦寧以上	-11.4312
草草	-11.4314
陳其	-11.4316
量給	-11.4317
爲之矣	-11.4318
赦前	-11.4318
咸鏡道觀察使	-11.4318
予言	-11.4319
三寸	-11.432
欲行	-11.4321
審視	-11.4322
霈	-11.4322
▁彼此	-11.4323
議薦	-11.4323
安岳	-11.4324
守之	-11.4324
▁憲司	-11.4326
拿入	-11.4328
著作	-11.4328
堅守	-11.4331
▁奔走	-11.4331
▁依舊	-11.4333
臣之所	-11.4333
李天輔	-11.4334
不以實	-11.4334
親閱	-11.4335
痕	-11.4336
之月	-11.4336
隘	-11.4337
李敏叙	-11.4337
皇太后	-11.4337
旌閭	-11.4337
▁鳳漢	-11.4338
莫大之	-11.4338
究其	-11.4339
御書曰	-11.4339
▁行酌獻禮	-11.434
丘史	-11.434
素膳	-11.4341
▁祖宗	-11.4341
取舍	-11.4343
分屬	-11.4343
翔	-11.4344
傷人	-11.4344
專擅	-11.4344
李植	-11.4349
報恩	-11.4349
禮記	-11.4349
李長坤	-11.435
于禮曹	-11.4351
推戴	-11.4351
等說	-11.4352
天怒	-11.4354
失業	-11.4354
禮堂	-11.4355
尹東	-11.4356
金慶	-11.4358
乃罷	-11.4359
饋酒	-11.436
▁在所	-11.4361
言乎	-11.4361
昏朝	-11.4361
▁請改	-11.4362
有違	-11.4362
相傳	-11.4364
久曠	-11.4365
先儒	-11.4366
爲江原道觀察使	-11.4367
如是也	-11.4367
於予	-11.4368
之故也	-11.4369
步兵	-11.4369
之一端	-11.4369
重矣	-11.437
李允	-11.4371
私第	-11.4371
系	-11.4374
院啓	-11.4375
無厭	-11.4376
親享	-11.4378
予於	-11.4378
詠	-11.4379
瑩	-11.4382
慶運宮	-11.4382
朴東亮	-11.4383
儀軌	-11.4383
李顯英	-11.4386
接伴官	-11.4386
裳	-11.4387
見輕	-11.4388
講官	-11.4388
動靜	-11.4388
農時	-11.4388
亂逆	-11.4389
上疏乞免	-11.439
提起	-11.4391
宗戚	-11.4393
亞卿	-11.4393
▁皆在	-11.4396
▁色承旨	-11.4396
▁左承旨	-11.4396
宗貞盛	-11.4397
禁中	-11.4397
▁群	-11.4399
職分	-11.44
議諸大臣	-11.4403
北郊	-11.4403
金彦	-11.4404
氣候	-11.4404
吳始壽	-11.4405
名分	-11.4405
之久	-11.4406
鍼	-11.4406
甲冑	-11.4407
▁若曰	-11.4408
安業	-11.4408
心經	-11.4409
名號	-11.4409
再箚	-11.4412
▁故特	-11.4413
爲己	-11.4413
▁良可	-11.4413
登聞	-11.4415
率來	-11.4417
▁混	-11.4417
仕路	-11.442
▁但今	-11.4421
徑出	-11.4422
▁判府事	-11.4423
▁示	-11.4424
掌令朴	-11.4425
原情	-11.4426
八品	-11.4426
▁好	-11.4427
▁異於	-11.4428
櫃	-11.4428
凌遲處死	-11.4428
姿	-11.4428
揷	-11.4428
李志完	-11.4428
祈雨祭	-11.443
李鼎	-11.443
▁至爲駭愕	-11.443
特進官	-11.4431
鄕里	-11.4431
▁狀如	-11.4432
從此	-11.4432
凶言	-11.4432
同居	-11.4432
虛僞	-11.4433
鄭眉壽	-11.4434
▁臣等意	-11.4434
勤政殿	-11.4435
▁兩珥	-11.4436
營門	-11.4436
命還給	-11.4436
不失	-11.4437
如是乎	-11.4438
李守	-11.4439
場屋	-11.444
親屬	-11.444
差等	-11.4441
明陵	-11.4442
天文	-11.4443
松木	-11.4444
誤矣	-11.4445
▁當依	-11.4449
▁物情莫不	-11.4452
之無	-11.4453
荒唐	-11.4455
▁王法	-11.4455
付諸	-11.4456
版	-11.4456
貿穀	-11.4456
而不得	-11.4457
▁雖不得	-11.4457
等對曰	-11.4458
難掩	-11.4459
毓祥宮	-11.4459
▁精神	-11.446
▁上優答之	-11.446
廢主	-11.446
親傳	-11.4462
無所妨	-11.4462
領軍	-11.4463
生靈	-11.4466
新授	-11.4467
不決	-11.4467
▁奉安	-11.447
柳尙運	-11.447
▁其所以	-11.4472
自便	-11.4472
珒	-11.4472
必遠	-11.4473
膏	-11.4473
不廢	-11.4474
窄	-11.4474
軟	-11.4474
𥙿	-11.4474
叚	-11.4474
鳥銃	-11.4474
漕轉	-11.4475
廉隅	-11.4475
金浦	-11.4475
禦敵	-11.4476
尙方	-11.4477
▁親臨	-11.4477
儀賓	-11.4478
魂宮	-11.4479
未解	-11.4479
施恤典	-11.448
勿復言	-11.4481
焚香	-11.4481
佛堂	-11.4483
失於	-11.4484
隄防	-11.4484
今朝	-11.4485
▁才	-11.4487
殘邑	-11.4487
▁參判	-11.449
▁今可	-11.4491
李墪	-11.4491
▁年少	-11.4495
光州	-11.4496
▁竝勿	-11.4496
何等	-11.4497
▁分遣	-11.4498
議大臣定奪	-11.4501
刷出	-11.4502
安城	-11.4502
▁臣未知	-11.4504
▁奸	-11.4504
爲定	-11.4505
▁親自	-11.4506
▁而至今	-11.4506
其子孫	-11.4506
入之	-11.4507
兼輔德	-11.4509
襦	-11.451
▁以謝	-11.4511
孝禮	-11.4513
前臺諫	-11.4513
而罪之	-11.4513
歸養	-11.4514
亥	-11.4514
監營	-11.4515
可從之事	-11.4516
相應	-11.4517
自祖宗朝	-11.4517
難支	-11.4518
守護軍	-11.4519
狼	-11.4519
臺諫合司啓	-11.4519
堅執	-11.452
騫	-11.452
豐海道	-11.452
踏驗	-11.4521
叩頭	-11.4522
王室	-11.4522
邊釁	-11.4524
▁已過	-11.4524
金德遠	-11.4524
何能	-11.4524
所帶	-11.4527
爲右議政	-11.4527
不錄	-11.4529
東北	-11.4529
兩處	-11.4532
▁感	-11.4533
得參	-11.4533
山谷	-11.4534
其父母	-11.4534
隨班	-11.4534
儀注	-11.4534
▁寧不	-11.4535
臺省	-11.4536
捕得	-11.4536
猶在	-11.4537
▁仍舊	-11.4538
▁請須	-11.4538
▁而未	-11.4538
▁伏以	-11.4538
陳疏辭職	-11.454
宣慰	-11.454
沈悅	-11.4544
▁先自	-11.4545
長子	-11.4546
於世	-11.4547
而遣之	-11.4552
還歸	-11.4552
畢推	-11.4552
書寫官	-11.4552
千古	-11.4552
足下	-11.4553
法例	-11.4554
當今	-11.4558
難測	-11.4558
其死	-11.4559
一方	-11.4559
何由	-11.4559
防牌	-11.456
▁莫重	-11.4562
矩	-11.4563
三分	-11.4563
臆	-11.4563
和氣	-11.4564
啓辭中	-11.4564
▁意在	-11.4564
戌	-11.4565
問啓	-11.4565
▁其亦	-11.4565
水旱	-11.4566
請討	-11.4566
所遣	-11.4566
鍮	-11.4566
張善澂	-11.4566
韓浚謙	-11.4566
塾	-11.4566
爲議政府左參贊	-11.4566
自言	-11.4567
金履素	-11.4568
蕩竭	-11.4568
安心調理	-11.4568
柳澗	-11.4569
▁恐無	-11.4569
權擥	-11.4569
▁試官	-11.457
▁雖似	-11.457
▁乃曰	-11.457
慈旨	-11.457
中興	-11.457
黃孝源	-11.4571
▁不報	-11.4574
一百三十	-11.4577
▁莫大於	-11.4579
▁滿	-11.4579
發程	-11.4581
莫知	-11.4581
自服	-11.4586
久滯	-11.4588
傳于吏曹	-11.4589
聖明之	-11.459
▁楊	-11.459
▁則人	-11.459
節用	-11.459
▁已至	-11.4591
還下	-11.4591
爲說	-11.4593
素有	-11.4597
法令	-11.4598
之義也	-11.4598
▁未易	-11.46
淸明	-11.4603
▁曾無	-11.4605
不齒	-11.4606
▁摘發	-11.4608
難容	-11.4608
▁予嘗	-11.4608
勝於	-11.4609
李應	-11.4611
十五匹	-11.4612
▁臣等雖	-11.4612
知之矣	-11.4612
脯	-11.4613
輅	-11.4613
榦	-11.4613
斧	-11.4613
知製敎	-11.4613
剝割	-11.4613
▁隱然	-11.4614
之馬	-11.4615
面對	-11.4616
司饔	-11.4616
銓衡	-11.4616
▁伏惟	-11.4616
▁對馬州	-11.4617
精兵	-11.4617
忠淸兵使	-11.4618
只令	-11.4618
友愛	-11.4619
情外	-11.4622
▁勿使	-11.4622
▁當於	-11.4622
別加	-11.4623
變怪	-11.4624
賦役	-11.4624
仰請	-11.4625
挺身	-11.4625
司書	-11.4625
難知	-11.4626
穆陵	-11.4627
作亂	-11.4628
早晩	-11.4628
悶鬱	-11.4629
加減	-11.4629
臨機	-11.4629
啓目	-11.463
可問	-11.4633
能文	-11.4634
▁居首	-11.4636
得請	-11.464
辨之	-11.4641
文記	-11.4642
目下	-11.4644
西向	-11.4644
司謁	-11.4645
致疑	-11.4645
之所在	-11.4645
勒令	-11.4645
隕	-11.4647
刑政	-11.465
還自	-11.4653
至意	-11.4653
▁而適	-11.4655
錄啓	-11.4655
以一時	-11.4655
▁管押	-11.4655
雖是	-11.4656
韓用龜	-11.4659
鄭蘭宗	-11.4659
濯	-11.4659
股肱	-11.4659
迨	-11.466
金東弼	-11.466
行上護軍	-11.4663
▁恐爲	-11.4663
要衝	-11.4663
▁亦或	-11.4663
一司	-11.4665
先務	-11.4666
補充軍	-11.4667
所受	-11.4668
李茁	-11.467
▁祗	-11.4671
淸朝	-11.4673
不以爲	-11.4674
▁書狀官	-11.4674
金睟	-11.4674
遵守	-11.4675
領事	-11.4675
罪案	-11.4675
憤鬱	-11.4675
定之	-11.4675
此職	-11.4676
▁鞫	-11.4677
日次	-11.4677
何難	-11.4678
何益	-11.4678
▁近年以來	-11.468
差倭	-11.4681
▁則不可不	-11.4683
豈偶然	-11.4684
▁驟	-11.4685
▁已成	-11.4685
永昌	-11.4687
難之	-11.4689
百世	-11.4689
嚴處	-11.469
必無	-11.4692
李柙	-11.4693
掌令尹	-11.4694
兵曹佐郞	-11.4694
此敎	-11.4696
察處	-11.4696
救解	-11.4697
前爲	-11.4697
▁事勢	-11.4698
白丁	-11.4699
▁古云	-11.4699
十石	-11.47
于宗廟	-11.47
貧民	-11.47
奸詐	-11.4701
自辨	-11.4702
▁則豈不	-11.4703
戶曹據	-11.4704
許令	-11.4705
窟	-11.4706
鈴	-11.4706
書筵官	-11.4706
廁	-11.4706
斁	-11.4706
檜	-11.4706
謟	-11.4706
飽	-11.4706
出宮	-11.4707
臧獲	-11.4707
▁得以	-11.4708
弭災	-11.4708
▁只在	-11.4709
副司果	-11.4709
偸竊	-11.4709
▁北	-11.471
無可據	-11.471
大關	-11.4711
母子	-11.4711
儀物	-11.4714
遐方	-11.4714
百歲	-11.4715
▁未知何	-11.4716
設祭	-11.4716
折給	-11.4717
學官	-11.4719
端午	-11.472
哨官	-11.4721
訴冤	-11.4722
▁御經筵	-11.4723
辭陛	-11.4723
可論	-11.4723
文籍	-11.4725
縱恣無忌	-11.4725
官家	-11.4725
十八日	-11.4725
能否	-11.4727
▁遣人來獻土宜	-11.4729
開言路	-11.4729
巫女	-11.473
▁連續	-11.4734
雜役	-11.4735
▁臺官	-11.4736
▁只欲	-11.4739
周公	-11.4741
不精	-11.4744
覆逆	-11.4749
刑杖	-11.4749
隨現	-11.475
景禧	-11.4751
閔德男	-11.4752
昕	-11.4754
蔡𥙿後	-11.4754
金思穆	-11.4754
▁依舊例	-11.4754
狹窄	-11.4754
文正公	-11.4754
敬天	-11.4755
扶植	-11.4756
李一相	-11.4757
溫泉	-11.4758
㺚子	-11.4758
與同	-11.4759
昌集	-11.4761
之族	-11.4761
通信	-11.4763
二十一	-11.4764
藥餌	-11.4764
祀典	-11.4766
報于	-11.4766
如此之人	-11.4767
禮經	-11.4767
銀兩	-11.4768
依律處斷	-11.4768
▁上特命	-11.4768
營建都監啓	-11.4768
庶官	-11.4769
▁呼	-11.477
遣醫	-11.4773
侍坐	-11.4773
李慶億	-11.4774
▁何也	-11.4775
仁孫	-11.4775
▁照律	-11.4776
憲長	-11.4777
聞此	-11.4777
▁兩使	-11.4779
乘機	-11.4779
德意	-11.4781
▁惶恐	-11.4782
陳勉	-11.4784
極擇	-11.4784
雖小	-11.4788
難繼	-11.4788
薦望	-11.4789
而致	-11.479
以給	-11.479
異議	-11.4791
▁不然	-11.4794
丑	-11.4796
同姓	-11.4796
▁登	-11.4797
李䎘	-11.4798
壅	-11.4801
套	-11.4801
瑕	-11.4801
纘	-11.4801
鉅	-11.4801
具義剛	-11.4801
削版	-11.4802
登時	-11.4802
▁棄	-11.4805
等入侍	-11.4807
政官	-11.4807
爲守令者	-11.4808
設賑	-11.4817
等書	-11.4819
常事	-11.4819
領中樞	-11.482
不關	-11.4822
高山	-11.4825
大興	-11.4825
石乙	-11.4826
譴罷	-11.4826
已畢	-11.4828
如一	-11.4829
▁比前	-11.4829
一百匹	-11.4829
▁非欲	-11.4829
▁偶	-11.4829
發還	-11.4829
勞動	-11.483
輕遞	-11.4834
變亂	-11.4834
同日	-11.4838
金繼	-11.4838
門外黜送	-11.4838
推鞫廳	-11.484
賜馬	-11.4841
唐將	-11.4842
尹任	-11.4842
▁其何以	-11.4842
田土	-11.4843
李澤	-11.4844
棘	-11.4845
癘	-11.4846
崔天健	-11.4849
仕滿	-11.4849
米豆幷	-11.4849
追奪	-11.4851
肥己	-11.4851
未行	-11.4852
御慶會樓下	-11.4852
▁積曰	-11.4854
公然	-11.4854
苟同	-11.4855
淸白	-11.4855
▁仍問	-11.4856
胡差	-11.4856
靑松	-11.4856
平安道都節制使	-11.4857
帳殿	-11.4858
又爲	-11.4858
矜惻	-11.4859
▁竝加資	-11.4861
追慕	-11.4862
▁其母	-11.4864
亦不敢	-11.4865
已經	-11.4865
吏曹堂上	-11.4867
行晝講	-11.4869
于議政府	-11.4869
湯劑	-11.487
不意	-11.487
翁	-11.4871
甚急	-11.4873
▁是何等	-11.4874
▁專在	-11.4875
前導	-11.4877
勿遣	-11.4878
邊民	-11.4879
邊警	-11.4881
左尹	-11.4882
上御宣政殿	-11.4883
復有	-11.4883
▁則不必	-11.4886
▁問于大臣	-11.4887
製述官	-11.4887
▁副提學	-11.4888
之仁	-11.4888
瑚	-11.4889
冒處	-11.489
申商	-11.489
糜費	-11.4892
說書	-11.4893
紊	-11.4895
司贍寺	-11.4897
▁諫院申前啓	-11.4897
漏洩	-11.4898
墓所	-11.4899
▁請遞臣等之職	-11.4899
▁常懷	-11.4899
隨便	-11.4899
弘文錄	-11.4899
▁而後	-11.49
艱危	-11.49
▁明澮	-11.4901
咸吉道觀察使	-11.4902
金澄	-11.4902
母后	-11.4903
得矣	-11.4903
奸僞	-11.4903
何以處之	-11.4903
悶慮	-11.4904
罔赦	-11.4904
招問	-11.4904
大軍	-11.4906
外孫	-11.4907
置于	-11.4908
▁朕	-11.4908
復官	-11.4909
之意乎	-11.4917
迎勅	-11.4918
牒報	-11.4918
論駁	-11.4918
天安	-11.4919
席上	-11.492
大臣之言	-11.492
酉	-11.492
生存	-11.4924
宰列	-11.4925
我境	-11.4925
賊路	-11.4927
三更	-11.4928
錦山	-11.4929
大怒	-11.4931
▁請鞫	-11.4931
兼弼善	-11.4932
痛革	-11.4933
先后	-11.4933
善道	-11.4937
按法	-11.4937
▁已曾	-11.4938
墾	-11.4938
昵	-11.4938
吏民	-11.4939
所不忍	-11.4942
▁堂上	-11.4942
姜栢年	-11.4942
眉	-11.4942
給事	-11.4943
弘濟	-11.4943
爲國家	-11.4944
瘳	-11.4945
胄	-11.4945
炎	-11.4945
茅	-11.4945
體念	-11.4946
▁宜當	-11.4948
爲戶曹參議	-11.4948
御札	-11.4951
頒祿	-11.4951
廢閣	-11.4951
至三	-11.4952
之別	-11.4953
逃匿	-11.4954
通諭	-11.4954
安君	-11.4954
亡命	-11.4955
不自安	-11.4956
同心	-11.4956
視學	-11.4957
柳溥	-11.4958
▁如是而	-11.496
固守	-11.4961
自盡	-11.4963
▁毋或	-11.4965
設於	-11.4968
祭物	-11.4969
不及於	-11.497
諸臺	-11.497
規模	-11.4971
加之	-11.4972
▁皆出於	-11.4972
賑穀	-11.4972
致斃	-11.4972
敎訓	-11.4977
不盡	-11.4977
咸吉道監司	-11.498
見此	-11.498
三使臣	-11.4981
▁然若	-11.4982
縣人	-11.4982
▁遂以	-11.4983
爲書狀官	-11.4984
祥原	-11.4986
▁後世	-11.4986
火星	-11.4987
▁武科	-11.4988
▁向來	-11.4989
人心之	-11.4989
▁固難	-11.499
自獻	-11.4991
▁進退	-11.4991
一百六十	-11.4992
貯	-11.4993
李命植	-11.4994
定於	-11.4996
迎慰	-11.4997
▁設令	-11.4997
入去	-11.4997
廬次	-11.4998
▁任其	-11.4999
原疏	-11.4999
爲上	-11.5003
▁一應	-11.5004
▁豈但	-11.5004
前月	-11.5005
田野	-11.5006
五十餘	-11.5006
命囚	-11.5007
限三年	-11.5011
▁卽當	-11.5017
▁而仍	-11.5017
▁其次	-11.5017
重律	-11.5017
▁亦不無	-11.5018
▁同參	-11.5018
區	-11.5019
固然	-11.5021
▁待秋	-11.5021
▁依法	-11.5021
陵所	-11.5024
同知事	-11.5026
題主	-11.5026
不可輕	-11.5027
朕	-11.5029
人君之	-11.503
弔祭	-11.5031
臨民	-11.5034
時刻	-11.5035
二事	-11.5035
私婢	-11.5035
▁素無	-11.5035
賜賻	-11.5035
廣寧	-11.5038
命承旨	-11.5038
仍囚	-11.504
黃景源	-11.5041
趙明鼎	-11.5041
顚錯	-11.5042
笞五十	-11.5043
安有	-11.5043
魚箭	-11.5045
決棍	-11.5045
慘酷	-11.5045
諳練	-11.5046
之樂	-11.5047
李正英	-11.5048
梁山	-11.5049
當死	-11.5049
▁斬	-11.505
飮福	-11.505
上親行	-11.505
▁不可以此	-11.5051
自來	-11.5051
尹孝孫	-11.5051
考其	-11.5051
捉致	-11.5051
▁至使	-11.5053
擧動時	-11.5054
間事	-11.5055
亦豈	-11.5055
▁在所當	-11.5056
杖九十	-11.5056
一罪	-11.5059
不果	-11.5061
▁神	-11.5061
成群	-11.5062
據法	-11.5063
▁欲於	-11.5066
▁設有	-11.5066
曾有	-11.5068
尤大	-11.5069
元肅	-11.5069
仍置	-11.507
▁誣	-11.507
不輕	-11.5072
▁預先	-11.5072
▁徒以	-11.5074
本島	-11.5074
會盟	-11.5074
懲艾	-11.5075
王氏	-11.5076
▁卿可	-11.5077
未成	-11.5077
任權	-11.5077
▁又使	-11.5078
▁錫	-11.5079
李殷相	-11.5079
▁方今	-11.508
諸醫	-11.5081
職秩	-11.5083
領議政金在魯	-11.5083
元衡	-11.5083
聊	-11.5084
▁請出	-11.5085
之形	-11.5085
另加	-11.5085
都監都提調	-11.5086
卿等之言	-11.5088
牟	-11.5088
上書曰	-11.5088
褻	-11.5089
政體	-11.5089
傳習	-11.5089
臻	-11.509
淺淡服	-11.509
官物	-11.5091
貪虐	-11.5091
凡干	-11.5092
申光漢	-11.5092
受針	-11.5093
尹淳	-11.5093
▁何至	-11.5094
▁杖	-11.5094
置重典	-11.5094
自初	-11.5094
卒逝	-11.5094
▁豈不知	-11.5096
領議政鄭光弼	-11.5097
彗星	-11.5097
在官	-11.5098
彌留	-11.5098
傳旨司憲府	-11.5099
飢寒	-11.51
一所	-11.5101
文券	-11.5102
筵敎	-11.5103
分辨	-11.5104
乘船	-11.5104
供曰	-11.5105
權宜	-11.5105
臣民之望	-11.5105
修擧	-11.5106
之目	-11.5107
藩臣	-11.5108
復請	-11.5109
之口	-11.511
善事	-11.5111
驟陞	-11.5112
陞六	-11.5113
爲妾	-11.5113
道里	-11.5114
朝議	-11.5116
李昌臣	-11.5117
採取	-11.512
興德	-11.5121
告官	-11.5122
私自	-11.5124
左右道	-11.5125
▁昌	-11.5126
▁予以爲	-11.5126
敎云	-11.5128
▁始爲	-11.5128
晳	-11.513
之惡	-11.513
▁而乃敢	-11.5131
叔舟	-11.5131
▁頃年	-11.5132
文秀	-11.5132
縷縷	-11.5133
枚	-11.5133
俄	-11.5133
酒禁	-11.5134
▁無端	-11.5135
▁是則	-11.5135
父老	-11.5135
晏	-11.5136
▁或曰	-11.5137
督運	-11.5137
宋諄	-11.5139
襄陽	-11.5139
▁良久乃滅	-11.5139
崔閏德	-11.5139
徐龍輔	-11.5139
李懿信	-11.5139
爲弘文館副校理	-11.5139
槐院	-11.514
▁待罪	-11.5141
永安道觀察使	-11.5141
永平	-11.5142
武擧	-11.5143
▁極爲可慮	-11.5143
韓確	-11.5146
。」’	-11.5149
醞	-11.515
所執	-11.5151
休戚	-11.5152
減其	-11.5152
▁故只	-11.5153
四時	-11.5156
▁自知	-11.5156
朴世	-11.5157
輸納	-11.5158
黨習	-11.5159
地勢	-11.516
▁上問左右	-11.5163
▁犯	-11.5164
二斗	-11.5165
得實	-11.5168
▁一切勿	-11.517
柩	-11.5171
▁琰	-11.5172
盡信	-11.5174
敦寧府	-11.5174
▁難免	-11.5175
金載瓚	-11.5178
▁彗星	-11.5178
農務	-11.5181
於前日	-11.5181
繕	-11.5182
瀋	-11.5187
陽德	-11.5188
貞熹王后	-11.5188
抃	-11.5188
抹	-11.5188
搜括	-11.5189
慢不	-11.519
▁後因	-11.519
▁體	-11.519
以文官	-11.519
婚嫁	-11.519
推擇	-11.5191
申請	-11.5194
尊崇	-11.5195
致書	-11.5198
所爲之事	-11.5198
領議政許積	-11.5199
上行晝講	-11.52
▁義禁府	-11.5201
▁汲汲	-11.5201
禁標	-11.5201
▁尙無	-11.5202
▁憲府申前啓	-11.5202
於他	-11.5205
▁承旨等	-11.5205
已多	-11.5206
李世白	-11.5206
托病	-11.5206
老弱	-11.5206
不可不慮	-11.5206
及今	-11.5208
上旨	-11.5208
聽納	-11.521
▁而先	-11.5211
誣罔	-11.5216
▁監察	-11.5218
熟馬	-11.5219
▁當用	-11.5222
廷議	-11.5222
不軌	-11.5222
況	-11.5224
風化	-11.5224
有別	-11.5225
到此	-11.5225
▁旣不能	-11.5229
再請	-11.5229
朝鮮國	-11.5231
則非	-11.5232
富平	-11.5233
▁而每	-11.5235
闕外	-11.5235
倭變	-11.5236
彝	-11.5237
墮	-11.5238
成石璘	-11.5238
鄭弘淳	-11.5238
鞋	-11.5238
韓光會	-11.5238
闡	-11.5238
上黨府院君	-11.5238
▁律該斬不待時	-11.5238
梁誠之	-11.5238
▁以備不虞	-11.5239
賞賜有差	-11.5239
▁各其	-11.5239
▁光佐	-11.524
姜弘立	-11.524
矇然	-11.524
▁各加一資	-11.5242
▁還收	-11.5242
無論	-11.5242
此數	-11.5243
所持	-11.5243
儺禮	-11.5244
三百餘	-11.5247
沈梓	-11.5248
之備	-11.5248
九人	-11.5248
▁命罷	-11.5254
李敏	-11.5255
▁張皇	-11.5255
之宜	-11.5256
圈點	-11.5256
幸慕華館	-11.5256
未備	-11.5257
下詢	-11.5257
▁相議	-11.5259
每每	-11.5261
特遞	-11.5261
箚中	-11.5264
重難	-11.5264
▁必多	-11.5265
諫院申前啓	-11.5266
柳活	-11.527
一疋	-11.5271
度僧	-11.5273
祭官	-11.5274
賤人	-11.5274
潤德	-11.5276
贈諡	-11.5279
兩司合啓曰	-11.528
資窮	-11.5283
語及	-11.5283
黯	-11.5285
相位	-11.5286
逆黨	-11.5286
亏	-11.5287
恊	-11.5288
潝	-11.5288
沾	-11.5288
惹	-11.5288
柳希春	-11.5288
尹宣擧	-11.5288
玩愒	-11.5288
幼沖	-11.5288
糾檢	-11.5289
將校	-11.5289
▁尾長三四尺許	-11.529
書雲觀	-11.529
誕辰	-11.529
耳目之官	-11.5291
內隱	-11.5292
▁徒爲	-11.5292
勤幹	-11.5292
輔養	-11.5293
三十石	-11.5293
▁勿拘	-11.5294
府夫人	-11.5298
李施愛	-11.5299
隱匿	-11.53
▁中宮	-11.53
舊臣	-11.5301
▁則豈可	-11.5301
更考	-11.5302
海邊	-11.5305
聖體	-11.5305
相同	-11.5305
曾已	-11.5306
勉出	-11.5306
▁非惟	-11.5307
於殿下	-11.5308
何足	-11.5309
今始	-11.5309
最多	-11.531
獨不	-11.5311
緘問	-11.5313
▁還宮	-11.5318
誤事	-11.5318
▁終日	-11.5321
遣內官	-11.5321
國本	-11.5322
禮貌	-11.5324
▁又非	-11.5326
亦同	-11.5327
行廊	-11.5327
年正月	-11.5327
繕修都監	-11.5329
李茂	-11.5329
初仕	-11.533
其妻子	-11.5332
下雨	-11.5332
針	-11.5332
神明	-11.5332
▁斥	-11.5333
兼察	-11.5335
儐	-11.5338
帷	-11.5338
瑋	-11.5338
藪	-11.5338
吳命恒	-11.5338
金得	-11.5338
鼎重	-11.5338
置而不問	-11.5338
當遞	-11.5339
手足	-11.5339
▁予何	-11.534
▁將有	-11.5341
啓聞後	-11.5343
順安	-11.5345
金應瑞	-11.5347
火砲	-11.5347
江華府	-11.535
五萬	-11.535
之君	-11.5351
退在	-11.5351
過激	-11.5351
四學	-11.5353
▁右承旨	-11.5354
繼述	-11.5355
將何以	-11.5355
其門	-11.5358
▁至爲未安	-11.5359
嚴問	-11.5359
試講	-11.536
李伯	-11.5362
豐川	-11.5362
下陸	-11.5363
避亂	-11.5366
▁他無	-11.5367
數外	-11.5368
依律科罪	-11.5368
▁雖或有	-11.5369
雨水	-11.5369
射殺	-11.5369
▁且請	-11.537
之道矣	-11.5373
而除	-11.5373
同罪	-11.5373
擧劾	-11.5374
南兵使	-11.5376
▁不料	-11.5377
自是	-11.5378
可取	-11.5379
三浦	-11.538
亟停	-11.5383
▁而卿	-11.5384
▁臣等未知	-11.5385
依禮文	-11.5385
遣承旨敦諭	-11.5386
▁舊	-11.5386
許施	-11.5387
蹤	-11.5387
楫	-11.5388
所撰	-11.5388
圍籬	-11.5388
叫	-11.5388
徐志修	-11.5388
眇	-11.5388
輕議	-11.5389
爲請	-11.5389
參知	-11.5389
申晸	-11.539
熙川	-11.5394
▁宜勿	-11.5394
賜酒樂	-11.5394
▁曾在	-11.5395
譴責	-11.5396
二十石	-11.5396
▁久而	-11.5396
兩朝	-11.5398
若無	-11.5399
女妓	-11.54
▁則令	-11.54
樹木	-11.54
爲答	-11.5401
▁似爲未安	-11.5402
▁而朝廷	-11.5404
滉	-11.5404
經史	-11.5405
無比	-11.5406
其親	-11.5406
▁而非	-11.5407
百餘石	-11.5407
爲忠淸道觀察使	-11.5409
▁不與	-11.5409
盡矣	-11.5411
年滿	-11.5411
還家	-11.5411
▁獨於	-11.5412
▁郞廳	-11.5413
▁擬	-11.5414
書送	-11.5414
五名	-11.5414
愕	-11.5416
擧事	-11.5416
▁請竝命	-11.5417
良役	-11.5417
宗瑞	-11.5418
未著	-11.5419
誌文	-11.5419
寶城	-11.5423
知印	-11.5424
被人	-11.5424
籍田	-11.5426
珣	-11.5426
▁令道臣	-11.5427
妹夫	-11.5429
取見	-11.5429
無子	-11.5431
㺚	-11.5432
▁着	-11.5433
亢	-11.5433
媒	-11.5433
卿意	-11.5433
淸議	-11.5434
▁使得	-11.5437
▁皆非	-11.5438
灑	-11.5438
揣	-11.5438
當直	-11.5438
那	-11.5438
黎	-11.5438
晝茶禮	-11.5439
回鑾	-11.5439
不可輕議	-11.544
▁則在	-11.544
竝令	-11.5442
忠孝	-11.5442
陰嗾	-11.5442
李翊相	-11.5443
▁于今	-11.5443
竝行	-11.5443
▁故已	-11.5444
金汝	-11.5444
力辭	-11.5445
刺字	-11.5445
謹悉	-11.5445
態	-11.5445
直啓	-11.5446
▁無以爲	-11.5448
承旨等入侍	-11.5449
戰亡	-11.5449
聖慮	-11.5452
致詞	-11.5452
當行	-11.5453
神位	-11.5455
鄭道	-11.5457
北向	-11.5459
餓死	-11.546
希顔	-11.5461
聽從	-11.5463
▁溥	-11.5463
以臣爲	-11.5466
江西	-11.5467
百人	-11.5468
見在	-11.5469
快從	-11.5472
皇明	-11.5474
▁下至	-11.5476
大節	-11.5478
于中	-11.5479
從祀文廟	-11.548
▁亦將	-11.5481
畏忌	-11.5481
司憲執義	-11.5481
朝見	-11.5482
言辭	-11.5483
駕至	-11.5484
椒	-11.5485
次次	-11.5485
天日	-11.5486
之次	-11.5486
不省	-11.5486
宴禮	-11.5487
▁備局回啓	-11.5488
之證	-11.5489
▁晝講	-11.5489
曁	-11.5489
孝敬殿	-11.5489
鄭元容	-11.5489
南以俊	-11.549
現告	-11.549
陜川	-11.549
黃儼	-11.5492
逢迎	-11.5493
分送	-11.5494
▁言于禮曹	-11.5495
爲兵曹正郞	-11.5496
▁將無以	-11.5496
帝王之	-11.5496
▁明白	-11.5496
田民	-11.5497
大國	-11.5499
▁或於	-11.5499
坐於	-11.55
當該承旨	-11.5502
▁未敢	-11.5503
閭家	-11.5503
奉先	-11.5503
郞中	-11.5503
▁則實	-11.5504
可觀	-11.5505
▁漸至	-11.5506
天地之	-11.5507
驛丞	-11.5509
例施行	-11.5512
將至	-11.5512
便益	-11.5513
本心	-11.5514
疑似	-11.5514
李士	-11.5514
陽川	-11.5515
▁情狀	-11.5515
不動	-11.5517
▁擧皆	-11.5518
▁竝命罷職	-11.5519
別薦	-11.5519
自引	-11.5519
土兵	-11.552
▁請罷其職	-11.5521
▁爾瞻	-11.5522
諸子	-11.5523
朝綱	-11.5523
欲得	-11.5524
無君	-11.5526
東郊	-11.5527
越邊	-11.5528
錄於	-11.5528
祿官	-11.5529
當律	-11.553
孝文	-11.5531
五十石	-11.5534
▁貽弊	-11.5535
奭	-11.5536
大擧	-11.5539
諛	-11.5539
上御養心閤	-11.554
坰	-11.554
瞿然	-11.5541
之祭	-11.5541
希孟	-11.5541
抱冤	-11.5543
▁至爲非矣	-11.5544
左代言	-11.5545
勳舊	-11.5546
雖云	-11.5547
謀叛	-11.5547
以爲非	-11.5549
亦重	-11.5549
權格	-11.5549
住持	-11.555
可恃	-11.5551
以他	-11.5552
異姓	-11.5553
不取	-11.5554
▁臣誠	-11.5555
舊習	-11.5558
船運	-11.5559
爲公事	-11.5559
各該司	-11.556
輔國	-11.556
不諒	-11.5563
▁非謂	-11.5563
▁實由於	-11.5565
內官金	-11.5565
可稱	-11.5566
▁引見大臣	-11.5566
衰老	-11.5571
鄭遵	-11.5571
巡禁司	-11.5573
特下	-11.5573
▁安能	-11.5575
門下	-11.5575
憲臣	-11.5576
固執	-11.5577
信之	-11.5578
海路	-11.5579
微細	-11.5582
之學	-11.5583
承順	-11.5586
祖父	-11.5588
安民	-11.5588
放遣	-11.5588
三十年	-11.5589
申嚴	-11.5589
三十餘人	-11.559
貂	-11.5591
爕	-11.5592
歆	-11.5592
剪	-11.5592
宋世珩	-11.5592
溝壑	-11.5592
三分之一	-11.5592
▁日昨	-11.5592
藉藉	-11.5592
楊州牧使	-11.5593
邪正	-11.5593
專意	-11.5593
擧國	-11.5597
肆行	-11.5597
甚好	-11.56
▁此其	-11.5601
領議政黃喜	-11.5601
金宗	-11.5601
闌入	-11.5601
對揚	-11.5602
▁遽爾	-11.5604
莫大之慶	-11.5604
邊地	-11.5606
傳旨議政府	-11.5608
自備	-11.561
將領	-11.5611
帶行	-11.5611
四名	-11.5612
還穀	-11.5612
二十三	-11.5613
僧軍	-11.5615
二十年	-11.5615
憤惋	-11.5617
繡衣	-11.5621
刷馬	-11.5627
▁士大夫	-11.563
▁累次	-11.563
今因	-11.5631
瞻聆	-11.5636
▁掌	-11.5637
都護府	-11.5637
儆	-11.5637
▁卿亦	-11.5638
▁以警	-11.5638
都監郞廳	-11.5638
私家	-11.564
憲府以	-11.5641
▁不足以	-11.5642
熹	-11.5643
敝	-11.5643
濤	-11.5643
痘	-11.5643
雀	-11.5643
全州府尹	-11.5644
任兗	-11.5644
日暈兩珥	-11.5644
箭串	-11.5644
圖報	-11.5646
奴酋	-11.5646
▁幸賴	-11.5647
李聖求	-11.5647
匪輕	-11.5647
▁令戶曹	-11.5649
嚴重	-11.5649
親往	-11.5651
▁而其所	-11.5652
相知	-11.5653
之吏	-11.5654
逃走	-11.5655
更無	-11.5657
難得	-11.5662
重建	-11.5662
嘉奬	-11.5662
四邑	-11.5664
圖畫	-11.5664
弓馬	-11.5664
計也	-11.5665
▁違者	-11.5673
特放	-11.5673
再辭	-11.5673
▁極擇	-11.5675
稱慶	-11.5675
憚於	-11.5676
虎皮	-11.5676
同辭	-11.5676
令該司	-11.5678
▁竝以	-11.5679
館所	-11.568
宗盛	-11.5681
過多	-11.5684
可任	-11.5687
安世	-11.5687
改擇日	-11.5687
不快	-11.5687
▁僉議	-11.5688
▁況以	-11.5689
▁因其	-11.569
廣取	-11.5692
經營	-11.5693
正直	-11.5694
狐	-11.5694
惰	-11.5695
傲	-11.5695
爲任	-11.5695
洪景舟	-11.5695
朴彛叙	-11.5695
鄭維岳	-11.5695
朴弘耉	-11.5695
所求	-11.5695
偃息	-11.5696
兩銓	-11.5697
伏念	-11.5698
末生	-11.5698
明知	-11.5698
亦以爲然	-11.5698
祭于	-11.5698
▁臣等竊謂	-11.5699
之會	-11.57
沒官	-11.57
更審	-11.5701
在喪	-11.5701
南瑾	-11.5703
本事	-11.5704
李克	-11.5704
惕然	-11.5704
▁故不敢	-11.5704
有難	-11.5704
時羅	-11.5704
草木	-11.5704
盡誠	-11.5705
▁初無	-11.5705
承宗	-11.5707
繕工	-11.571
書籍	-11.5711
事發	-11.5713
▁慮	-11.5713
▁甚爲不可	-11.5713
▁予於	-11.5714
▁更無可	-11.5715
▁約	-11.5717
旱甚	-11.5717
▁一道	-11.5717
▁又問	-11.5718
▁允合	-11.572
▁固是	-11.5721
在彼	-11.5722
太上	-11.5722
飭敎	-11.5724
諸道監司	-11.5725
前承旨	-11.5726
莫能	-11.5727
已爲推考	-11.5728
潛邸	-11.5729
于禁府	-11.5731
不可改	-11.5732
▁實由	-11.5732
▁換	-11.5733
一歲	-11.5733
釜	-11.5734
▁臣等聞	-11.5735
困於	-11.5735
▁彦	-11.5736
▁而近日	-11.5736
尹行	-11.5736
相詰	-11.5737
得此	-11.5738
文王	-11.5739
沓	-11.574
平海	-11.574
稼	-11.5741
令有司	-11.5742
眉壽	-11.5742
伏兵	-11.5743
其勢	-11.5743
而下	-11.5744
聽訟	-11.5745
之有無	-11.5746
苛	-11.5746
居官	-11.5747
兀	-11.5747
潜	-11.5747
懦	-11.5747
犢	-11.5747
訐	-11.5747
司憲持平	-11.5747
牢拒	-11.5749
詳盡	-11.575
實惠	-11.5751
肅川	-11.5751
推諉	-11.5752
▁略不	-11.5752
取旨	-11.5753
李承孫	-11.5754
霜降	-11.5755
亦是	-11.5756
全義	-11.5757
以疾	-11.5757
▁領議政洪鳳漢	-11.5759
擇其	-11.576
爲嘉善	-11.576
十五人	-11.576
用度	-11.5761
▁固爲	-11.5763
判敦寧	-11.5764
歐打	-11.5764
治績	-11.5765
開閉	-11.5765
▁雖使	-11.5765
予觀	-11.5766
鎰	-11.5766
銀臺	-11.5766
徒配	-11.577
行査	-11.577
元額	-11.5771
差誤	-11.5773
曾任	-11.5773
無一毫	-11.5774
相顧	-11.5774
立役	-11.5774
何顔	-11.5776
無策	-11.5777
京都	-11.5779
告狀	-11.5783
生進	-11.5784
▁實合	-11.5787
金淨	-11.5788
李益	-11.5788
▁如啓	-11.5789
一律	-11.5789
孟孫	-11.579
禁府啓曰	-11.579
▁政院以	-11.5791
啓下矣	-11.5793
▁殿下之	-11.5793
祭器	-11.5795
▁上項	-11.5795
昔日	-11.5796
仍在	-11.5797
拭	-11.5798
聳	-11.5798
考例	-11.5799
夔	-11.5799
昇遐	-11.58
斷以大義	-11.58
黜之	-11.58
▁有以	-11.5801
▁恭惟	-11.5801
相對	-11.5801
崔奎瑞	-11.5801
申瀞	-11.5802
佛事	-11.5802
惕念	-11.5803
不識事體	-11.5803
▁元無	-11.5804
所恃	-11.5806
▁而昨日	-11.5806
假注書	-11.5806
進前	-11.5809
▁以資	-11.5814
▁專在於	-11.5816
規畫	-11.5816
▁幷令	-11.5817
至再	-11.5818
▁京	-11.5818
碩輔	-11.5819
會飮	-11.5819
除服	-11.582
▁實無	-11.5821
測	-11.5821
發配	-11.5823
李秞	-11.5824
今若	-11.5824
書寫	-11.5825
比來	-11.5828
爲左承旨	-11.5831
激勸	-11.5831
君父之	-11.5834
金敬	-11.5834
獨爲	-11.5835
祭酒	-11.5835
有罪者	-11.5835
申光	-11.5837
如臣	-11.5838
▁請從	-11.5838
▁然當	-11.5839
▁各官	-11.584
▁急於	-11.584
事覺	-11.584
托故	-11.5841
供稱	-11.5842
李翔	-11.5844
之誅	-11.5844
十名	-11.5845
玉堂上箚	-11.5845
月課	-11.5846
崇政殿	-11.5846
依所啓施行	-11.5847
不敏	-11.5847
纂	-11.585
禁亂	-11.585
前牧使	-11.5851
徇	-11.5851
▁日月	-11.5852
携	-11.5852
姜龜孫	-11.5852
貰	-11.5852
鄭顯祖	-11.5852
炬	-11.5852
兩陵	-11.5852
羅州牧使	-11.5853
盛事	-11.5853
淸洪道	-11.5853
彼賊	-11.5854
違端	-11.5855
打量	-11.5857
趙師錫	-11.5857
歸咎	-11.5858
申渫	-11.5858
枚擧	-11.5858
▁若此	-11.586
直請	-11.5866
有輕重	-11.5866
左議政宋寅明	-11.5867
戰船	-11.5868
還都	-11.5868
大祥	-11.5869
▁其無	-11.5869
武班	-11.587
南行	-11.587
鄭氏	-11.5871
爲之乎	-11.5872
西北面	-11.5873
聖鑑	-11.5873
八十餘	-11.5874
▁此不過	-11.5874
近例	-11.5875
李仲	-11.5877
十餘日	-11.5877
降號	-11.5881
減數	-11.5883
役事	-11.5883
面目	-11.5883
▁不問	-11.5883
高城	-11.5884
竝遞	-11.5884
天氣	-11.5885
予病	-11.5886
▁人情	-11.5886
▁尙今	-11.5887
復以	-11.5888
李敏迪	-11.589
不是	-11.5891
其利	-11.5891
結末	-11.5893
交隣	-11.5893
▁又從而	-11.5894
等九人	-11.5896
而不能	-11.5896
宣政殿	-11.5897
愛君	-11.5897
所共	-11.5898
功德	-11.5898
煎	-11.5899
檀	-11.5899
纔經	-11.5901
特陞	-11.5901
于慕華館	-11.5901
申前達	-11.5902
郭山	-11.5903
檄	-11.5904
仝	-11.5904
致傷	-11.5905
函	-11.5905
芝	-11.5905
李福源	-11.5905
禾稼	-11.5905
▁命給	-11.5905
▁一日爲急	-11.5905
金南重	-11.5905
趙文命	-11.5905
▁勿爲更煩	-11.5905
慶州府尹	-11.5905
改量	-11.5907
▁隨事	-11.5907
南別宮	-11.5908
隨之	-11.591
罔測	-11.5911
危懼	-11.5911
▁取考	-11.5911
亂賊	-11.5913
密符	-11.5913
千餘人	-11.5914
侍藥	-11.5914
別賜	-11.5915
尙宮	-11.5916
留防	-11.5917
者非一	-11.5917
宣廟朝	-11.5918
可用者	-11.5919
誠是	-11.5919
豈忍	-11.592
兩年	-11.5922
有失	-11.5924
尹讓	-11.5926
誕生	-11.5928
爲守令	-11.5931
▁不可輕易	-11.5931
▁旣非	-11.5932
留中	-11.5933
火災	-11.5934
浮言	-11.5936
金自	-11.5937
大小人員	-11.5937
飢困	-11.5939
特爲	-11.5939
▁而政院	-11.5941
石城	-11.5943
太多	-11.5944
病未	-11.5945
定平	-11.5946
與大臣議	-11.5947
王政	-11.5948
逃還	-11.5948
行狀	-11.595
▁具致寬	-11.595
不寧	-11.5951
▁注書	-11.5952
金澍	-11.5953
咸安	-11.5954
未晩也	-11.5954
通淸	-11.5955
廣議	-11.5956
沈連源	-11.5956
崔漢	-11.5956
令兵曹	-11.5957
關重	-11.5957
廛	-11.5957
絡	-11.5958
耀	-11.5958
不齊	-11.5958
西南	-11.5958
李端錫	-11.5959
▁入坤方	-11.596
經席	-11.5961
家屬	-11.5961
繼後	-11.5962
包容	-11.5962
未可知	-11.5962
秩卑	-11.5963
書下	-11.5964
四學儒生	-11.5964
鄭岦	-11.5964
古阜	-11.5966
於斯	-11.5966
先聖	-11.5967
刑曹佐郞	-11.5968
李慶	-11.5968
旌義	-11.5969
▁一至於此	-11.5969
廷弼	-11.5969
道觀察使	-11.5969
非其人	-11.5969
成泳	-11.5969
▁領議政金在魯	-11.5969
時月	-11.597
點檢	-11.597
誠敬	-11.5971
新及第	-11.5971
奴僕	-11.5972
例批	-11.5973
之在	-11.5974
令攸司	-11.5975
▁從長	-11.5975
評	-11.5976
之刑	-11.5976
▁令攸司	-11.5977
世子宮	-11.5977
▁自內	-11.598
還京	-11.598
本鎭	-11.5981
歸之於	-11.5981
▁在我	-11.5981
首尾	-11.5982
絶島定配	-11.5984
不可不嚴	-11.5985
倭使	-11.5988
▁大君	-11.5988
城子	-11.5991
運糧	-11.5992
▁上不聽	-11.5993
地部	-11.5993
安敢	-11.5994
重於	-11.5994
所薦	-11.5994
繼宗	-11.5996
鳳城	-11.5997
▁一國	-11.5999
權健	-11.6
▁不拘	-11.6
▁而未及	-11.6001
陵君	-11.6001
身犯	-11.6002
責其	-11.6005
辱國	-11.6005
分授	-11.6005
哈等	-11.6005
進賀使	-11.6006
李興	-11.6008
成籍	-11.6009
奉足	-11.6009
所無之事	-11.6011
篆	-11.6012
講筵	-11.6012
.	-11.6012
三省交坐	-11.6012
判敦寧府事	-11.6012
韓亨允	-11.6012
瀛	-11.6012
下雪	-11.6012
漂流人	-11.6012
泗川	-11.6012
▁請命遞臣職	-11.6012
姜澂	-11.6014
生理	-11.6014
舊章	-11.6014
造給	-11.6015
固不可	-11.6015
未暇	-11.6015
鄭淵	-11.6015
調度	-11.6016
捉來	-11.6016
千秋	-11.6016
▁不使	-11.6016
等職	-11.6017
事面	-11.602
撤毁	-11.602
▁伏乞亟	-11.6021
伐木	-11.6022
表表	-11.6023
受賞	-11.6024
除弊	-11.6025
薦新	-11.6025
入往	-11.6027
自外	-11.6028
▁請還收成命	-11.6028
重究	-11.6028
淸顯	-11.6029
崔有	-11.6029
預先	-11.603
救民	-11.6031
貴賤	-11.6031
金時	-11.6031
閔熙	-11.6033
李師	-11.6035
請免	-11.6037
凶年	-11.6038
久未	-11.6038
施罰	-11.6039
審其	-11.604
▁不可不慮	-11.604
前古所無	-11.604
之將	-11.6041
不恭	-11.6041
有名	-11.6041
固有	-11.6043
收養	-11.6044
黃衡	-11.6044
箇月	-11.6045
黃延	-11.6046
▁凡於	-11.6046
豈至於	-11.6048
漢城府判尹	-11.6049
▁宜卽	-11.6051
▁曾經	-11.6052
以爲未便	-11.6052
居中	-11.6054
善山	-11.6056
▁以實	-11.6056
上送事	-11.6056
慶尙道監司	-11.6058
勘罪	-11.606
史草	-11.6062
爲治	-11.6062
構誣	-11.6063
恙	-11.6064
巢	-11.6065
宋相琦	-11.6065
撕捱	-11.6065
▁未蒙兪允	-11.6065
壙	-11.6065
擯	-11.6065
敕	-11.6065
潦	-11.6065
朴安性	-11.6065
省疏具悉	-11.6065
李偉卿	-11.6066
米太	-11.6066
些少	-11.6066
▁臣等恐	-11.6066
▁皆無	-11.6067
▁律	-11.6067
杆城	-11.6067
閔宗道	-11.6068
綾城君	-11.6069
斯速	-11.607
濟世	-11.6072
安玹	-11.6072
鷹犬	-11.6073
嗣位	-11.6074
不好	-11.6074
司諫院上疏	-11.6075
傳旨于	-11.6078
▁民多	-11.6081
▁曹	-11.6082
解事	-11.6083
十斗	-11.6083
左遷	-11.6084
張維	-11.6084
具悉	-11.6086
銑	-11.6086
▁猶有	-11.6086
▁分爲	-11.6087
令該府	-11.6088
奉承傳	-11.609
▁亦不能	-11.6091
正典刑	-11.6093
給分	-11.6097
承款	-11.6098
▁亦出於	-11.6099
形迹	-11.61
竝罷職	-11.61
▁妻子	-11.6101
娶妻	-11.6101
密啓	-11.6102
隣里	-11.6103
罔上	-11.6104
經赦	-11.6106
▁當與	-11.6107
遠道	-11.6107
行首	-11.6108
到泊	-11.611
賊黨	-11.611
方略	-11.6111
姻	-11.6112
上御思政殿	-11.6113
▁揆之	-11.6113
瑊	-11.6113
之時乎	-11.6114
不救	-11.6115
王旨	-11.6115
爐	-11.6116
上箚子	-11.6118
懇請	-11.6119
不靖	-11.6119
油芚	-11.6119
▁百姓	-11.6119
拒之	-11.6119
李元禎	-11.612
吳億齡	-11.6122
▁竝命出仕	-11.6122
其祖	-11.6124
▁囚	-11.6124
歲首	-11.6127
操鍊	-11.613
▁故有此	-11.613
繕修	-11.6131
需用	-11.6131
▁小臣	-11.6131
大路	-11.6132
▁紀綱	-11.6133
流竄	-11.6134
▁而我國	-11.6135
鎭川	-11.6138
▁則何以	-11.6142
▁豈意	-11.6143
李寅	-11.6144
▁傳敎	-11.6144
則皆	-11.6146
相續	-11.6146
所云	-11.6147
欽賜	-11.6148
不喜	-11.615
昭著	-11.615
今玆	-11.615
別宮	-11.6151
▁引避退待	-11.6151
則似	-11.6152
旣久	-11.6153
所難免	-11.6153
曾在	-11.6153
所願	-11.6154
三年內	-11.6154
後爲之	-11.6154
▁其問	-11.6155
慶昌	-11.6155
▁往往	-11.6156
▁終不得	-11.6159
▁猶爲	-11.6162
開錄	-11.6163
遞來	-11.6164
石物	-11.6164
久居	-11.6164
黃憲	-11.6166
奏本	-11.6166
以對	-11.6169
侍講	-11.6171
役軍	-11.6173
不出於	-11.6173
家在	-11.6173
垠	-11.6174
摯	-11.6174
諾	-11.6174
樂天亭	-11.6174
永順君	-11.6174
鴉靑	-11.6174
李憲國	-11.6174
遽加	-11.6174
李奎齡	-11.6174
▁詔使	-11.6175
疎虞	-11.6175
尹東度	-11.6176
國典	-11.6176
▁莫甚於此	-11.6176
兵曹參知	-11.6178
朴榟	-11.6178
得其人	-11.6178
▁軍士	-11.6178
李曙	-11.6179
所推	-11.6179
兇徒	-11.6184
闕失	-11.6185
職掌	-11.6185
未納	-11.6186
陳奏使	-11.6187
備邊司回啓曰	-11.6188
父王	-11.6189
無是理	-11.619
節度	-11.619
▁知經筵	-11.619
諫院論	-11.6193
貪黷	-11.6193
不送	-11.6194
戶籍	-11.6194
放火	-11.6194
告於	-11.6195
▁人民	-11.6195
人器	-11.6195
司藝	-11.6195
昭陵	-11.6195
北門	-11.6196
▁天兵	-11.6196
保人	-11.6197
乃已	-11.6197
▁乃其	-11.6199
未安之敎	-11.6199
上晝講	-11.62
應天	-11.6201
俸	-11.6201
其女	-11.6202
一經	-11.6203
▁孟	-11.6203
可悶	-11.6203
李季男	-11.6205
希載	-11.6206
上殿	-11.6212
三斗	-11.6212
悖慢	-11.6214
▁事之	-11.6215
互相	-11.6215
▁無可	-11.6215
竭力	-11.6216
成健	-11.6217
▁姑以	-11.6219
四道	-11.6219
十八人	-11.622
交差	-11.6221
泓	-11.6221
行司直	-11.6222
司諫院司諫	-11.6222
賛	-11.6224
進善	-11.6224
▁前例	-11.6225
申景	-11.6225
撰出	-11.6225
將順	-11.6226
▁罔知攸	-11.6228
成奉祖	-11.6228
弦	-11.6228
萃	-11.6228
猜	-11.6228
申命圭	-11.6228
李自健	-11.623
饋餉	-11.623
▁外方則	-11.6231
五十人	-11.6232
鳳齡	-11.6234
觀稼	-11.6235
義兵	-11.6235
領議政李光佐	-11.6235
階上	-11.6236
由於此	-11.6237
之限	-11.6239
充差	-11.6241
▁幾盡	-11.6242
下御書曰	-11.6243
異常	-11.6246
名目	-11.6246
來京	-11.6247
亦如之	-11.6248
▁俟	-11.6249
送西	-11.6249
安於	-11.625
醫藥	-11.6253
▁不謹	-11.6254
中樞府	-11.6255
▁曾以	-11.6256
罪目	-11.6257
▁以圖	-11.6258
▁告于	-11.6258
敦召	-11.6258
卑微	-11.6258
擬律	-11.626
副摠	-11.626
▁古有	-11.6262
名稱	-11.6263
▁刑曹判書	-11.6263
部官	-11.6265
其司	-11.6265
農桑	-11.6266
竄謫	-11.6266
聖世	-11.6267
專對	-11.6268
節日	-11.6268
墻外	-11.6268
謬例	-11.6268
▁而該曹	-11.6269
救護	-11.627
軍布	-11.6272
謀避	-11.6272
徙邊	-11.6273
茫	-11.6274
緜	-11.6275
▁又欲	-11.6275
三館	-11.6276
禁戢	-11.6276
安山	-11.6277
馬政	-11.6277
購	-11.6278
電光	-11.6278
充數	-11.6279
停役	-11.628
反覆思之	-11.6282
邦本	-11.6282
德源	-11.6282
▁多數	-11.6282
鍊兵	-11.6282
斜	-11.6283
賄	-11.6283
柳聃年	-11.6283
▁上顧問左右	-11.6283
騃	-11.6283
朴從愚	-11.6283
呈啓	-11.6284
爲監司	-11.6284
無賴之徒	-11.6285
▁不可復	-11.6285
減之	-11.6286
弘文館提學	-11.6286
▁殊涉	-11.6286
無所忌憚	-11.6287
兩班	-11.6287
於同僚	-11.6287
勿用	-11.6287
初八日	-11.6287
感泣	-11.6287
年號	-11.6288
君臣之間	-11.6291
▁擅自	-11.6292
下攸司	-11.6293
行路	-11.6294
輕囚	-11.6296
禫祭	-11.6296
▁疑	-11.6296
李舜臣	-11.6299
▁假使	-11.6303
審定	-11.6306
類此	-11.6308
▁一國臣民	-11.6308
弘文	-11.631
▁乃反	-11.6312
專管	-11.6312
此一款	-11.6313
出於不得已	-11.6314
金堤	-11.6315
留滯	-11.6315
官敎	-11.6317
付祿	-11.6317
二張	-11.632
罪人李	-11.6321
二十餘人	-11.6323
略陳	-11.6324
▁故啓之	-11.6325
禮制	-11.6325
隨其	-11.6328
兒馬	-11.6328
▁以開	-11.6329
復位	-11.6329
無逸	-11.6329
右獻納	-11.633
尙不	-11.6331
三朝	-11.6331
所需	-11.6331
一級	-11.6332
掖	-11.6334
▁獻	-11.6336
而往	-11.6336
三十人	-11.6337
▁今無	-11.6337
▁人言	-11.6338
壺	-11.6339
睡	-11.6339
皐	-11.6339
豐儲倉	-11.6339
權尙夏	-11.6339
趙相愚	-11.6339
耋	-11.6339
李晩成	-11.6339
▁請命削去仕版	-11.634
片箭	-11.634
失誤	-11.634
卽位之初	-11.6341
潰散	-11.6341
靈座	-11.6342
勘處	-11.6342
糾劾	-11.6343
督令	-11.6344
朴大	-11.6344
休息	-11.6346
行召對	-11.6346
其術	-11.6348
有妨於	-11.6349
成效	-11.6349
妻李氏	-11.6351
崇品	-11.6352
擄	-11.6352
生釁	-11.6353
母喪	-11.6354
義禁府堂上	-11.6354
相鬪	-11.6355
燕山	-11.6356
法府	-11.6357
我聖上	-11.6358
廐	-11.6358
罕有	-11.6358
多日	-11.6359
追錄	-11.636
士論	-11.6365
▁然予	-11.6365
達于	-11.6366
正言尹	-11.6366
孝友	-11.6369
深矣	-11.637
▁如臣	-11.637
芑	-11.6371
家禮	-11.6372
八字	-11.6372
誣服	-11.6373
十七人	-11.6374
服招	-11.6375
抄選	-11.6375
春等	-11.6376
不能堪	-11.6377
陽城	-11.6378
觀光	-11.6379
受任	-11.6381
病民	-11.6382
▁該司	-11.6382
貴達	-11.6384
來歷	-11.6384
遞代	-11.6385
望闕禮	-11.6385
世佐	-11.6385
▁代以	-11.6386
當該堂上	-11.639
虔	-11.6392
▁此而不	-11.6393
毆	-11.6394
僖	-11.6394
帙	-11.6394
憊	-11.6394
柳夢寅	-11.6394
狎	-11.6394
金宇杭	-11.6394
醇	-11.6394
金止男	-11.6394
稽滯	-11.6396
陞嘉善	-11.6396
淸道	-11.6396
六曹判書	-11.6396
有所聞	-11.6397
申鏛	-11.6397
▁卿勿	-11.6398
投進	-11.6399
旣知	-11.6399
此律	-11.6399
時勢	-11.64
刀子	-11.64
振威	-11.64
不厭	-11.6401
賜額	-11.6401
鄭誠謹	-11.6402
還納	-11.6402
月犯	-11.6405
傳旨曰	-11.6407
東壁	-11.6408
躬行	-11.6408
吾君	-11.6408
備邊司啓言	-11.6408
居昌	-11.6409
統營	-11.6409
經學	-11.641
稱爲	-11.6411
往參	-11.6411
無辭	-11.6412
折半	-11.6414
重賞	-11.6415
擅自	-11.6416
趙憲	-11.6419
▁南方	-11.6419
先送	-11.6419
廟庭	-11.6421
爲典翰	-11.6421
林川	-11.6423
國庫	-11.6427
北漢	-11.6429
兪允	-11.6431
▁請竝遞	-11.6431
不敢擅便	-11.6431
申明擧行	-11.6432
之福也	-11.6433
可罪	-11.6434
金玉	-11.6435
▁國王	-11.6436
▁聞其	-11.6439
頗有	-11.6439
▁刑	-11.644
無失	-11.644
讜	-11.6442
留連	-11.6443
韓忠	-11.6443
▁宣傳官	-11.6444
私室	-11.6444
浣	-11.6444
宗親府	-11.6445
旣與	-11.6445
正統	-11.6446
戈	-11.6446
不可一日	-11.6447
知其非	-11.6448
法宮	-11.6448
▁亦勿	-11.6449
之供	-11.6449
同知摠制	-11.6449
▁民皆	-11.6449
祺	-11.645
光海君日記卷第	-11.645
鄭順朋	-11.645
趙錫胤	-11.645
瓊	-11.645
團領	-11.645
遣使來獻土物	-11.6451
李思哲	-11.6451
章奏	-11.6452
踈漏	-11.6453
副元帥	-11.6454
宗系	-11.6454
許詡	-11.6455
議諡	-11.6455
有名望	-11.6456
各色	-11.6457
▁雖云	-11.6457
鄭曄	-11.6458
已遞	-11.6458
寢成命	-11.6458
弊不貲	-11.646
令該曹稟處	-11.646
耳掩	-11.646
爲戒	-11.646
▁疏入	-11.6461
▁伏願亟	-11.6461
機關	-11.6463
衛士	-11.6465
朝會	-11.6466
申聞	-11.6466
造船	-11.6466
右議政宋寅明	-11.6467
▁則果	-11.6467
▁猶恐	-11.6467
咸從	-11.6467
寺僧	-11.6468
沈滯	-11.6469
黨與	-11.6469
▁鑴	-11.647
成廟	-11.647
飢荒	-11.6472
賊船	-11.6474
降資	-11.6474
▁比之	-11.648
九州	-11.648
蒙上恩	-11.648
顧恤	-11.6481
▁曾未	-11.6483
聖上之	-11.6484
御供	-11.6485
贈遺	-11.6486
▁本司	-11.6486
飢死	-11.6489
光載	-11.6489
私黨	-11.6489
朝令	-11.6491
必以爲	-11.6491
勿辭察職	-11.6493
以爲常	-11.6494
內庭	-11.6494
▁而聞	-11.6495
奏樂	-11.6497
還內	-11.6497
衆議	-11.6498
睦來善	-11.6499
囚徒	-11.65
渫	-11.65
時在	-11.65
▁暗	-11.65
移居	-11.65
瓔	-11.6506
譜	-11.6506
翻	-11.6506
樵	-11.6506
窓	-11.6506
徴	-11.6506
趙元紀	-11.6506
迤	-11.6506
梟首	-11.6507
光明	-11.651
曷	-11.6511
會寧府使	-11.6512
外議	-11.6512
五鎭	-11.6514
變故	-11.6514
內帑	-11.6515
密雲	-11.6516
體探	-11.6516
麻田	-11.6517
▁而亦不	-11.6517
▁終至於	-11.6517
人臣之	-11.6519
▁號	-11.6521
參外	-11.6522
▁諸生	-11.6523
無疆	-11.6523
不體	-11.6523
出題	-11.6523
肥前州	-11.6524
之首	-11.6526
臣見	-11.6526
許接	-11.6528
名字	-11.6531
己見	-11.6531
雨勢	-11.6531
有能	-11.6532
▁殺	-11.6534
▁自今日	-11.6534
京江	-11.6536
爲左尹	-11.6536
遽下	-11.6538
▁是故	-11.6538
百日	-11.6539
至公	-11.6539
金守	-11.6539
果如	-11.6541
精神	-11.6541
間有	-11.6543
▁則例	-11.6543
農形	-11.6543
終無	-11.6545
爲務	-11.6548
▁經理	-11.6548
從享	-11.6548
國中	-11.655
洵	-11.6554
將至於	-11.6556
陳訴	-11.6557
紛紛	-11.6557
復讎	-11.6558
禮曹佐郞	-11.6559
信川	-11.656
同慶	-11.6562
嫡長	-11.6562
峙	-11.6562
冥	-11.6562
慤	-11.6562
臣等俱以無狀	-11.6563
光照地	-11.6563
望拜禮	-11.6563
醴泉	-11.6563
耆社	-11.6563
構捏	-11.6563
之虞	-11.6564
搖動	-11.6564
爲平安道觀察使	-11.6565
所着	-11.6565
臣亦	-11.6565
藤原	-11.6566
疲弊	-11.6566
▁上嘉納	-11.6566
付軍職	-11.6566
蕩敗	-11.6568
若問	-11.6568
車駕	-11.6568
蔑法	-11.6569
▁知其	-11.6569
▁年前	-11.6569
奴婢身貢	-11.6572
乃止	-11.6572
停當	-11.6573
尹深	-11.6573
封章	-11.6574
之痛	-11.6574
刻期	-11.6575
童蒙	-11.6577
聞命	-11.6577
居多	-11.6578
竭誠	-11.6579
右議政沈喜壽	-11.6579
不悅	-11.658
領議政金壽恒	-11.658
臣等伏聞	-11.6581
所書	-11.6583
▁如欲	-11.6583
陞品	-11.6583
齋殿	-11.6584
夙夜	-11.6584
到遼東	-11.6584
支應	-11.6585
文武百官	-11.6588
寧越	-11.6588
給復	-11.6589
兩零	-11.6593
臣等將	-11.6594
流散	-11.6594
異矣	-11.6594
▁以救	-11.6595
▁牧使	-11.6599
訊問	-11.66
▁各給	-11.66
睟	-11.6601
▁婷	-11.6603
▁竝推考	-11.6604
所收	-11.6605
有三	-11.6606
或可	-11.6607
之壻	-11.6608
戶口	-11.6608
蒙聖恩	-11.6609
合坐	-11.6611
田里	-11.6611
▁循例	-11.6612
鎭安	-11.6613
▁邊	-11.6614
立後	-11.6614
未晩	-11.6615
鄕試	-11.6616
古人云	-11.6618
留館	-11.6619
逕	-11.6619
▁則殿下	-11.6621
焚蕩	-11.6622
賡進	-11.6622
內局入侍	-11.6622
來獻	-11.6623
▁豈可使	-11.6626
許浚	-11.6627
敗露	-11.6629
▁未滿	-11.6629
▁勢將	-11.663
▁申時	-11.6631
之誤	-11.6631
龜城	-11.6633
▁請與	-11.6633
信使	-11.6633
▁上自	-11.6633
賊筠	-11.6634
欽恤	-11.6635
今年農事	-11.6637
啓以	-11.6638
爲弘文館應敎	-11.6639
▁若令	-11.6639
嚴訊	-11.664
疆	-11.664
金廷	-11.6642
心腹	-11.6643
奸吏	-11.6643
連歲	-11.6644
御宣政殿	-11.6644
忠信	-11.6648
政院啓辭	-11.6652
氣象	-11.6653
至此極	-11.6654
耕作	-11.6654
正一品	-11.6654
▁極陳	-11.6655
▁上遂	-11.6657
冤悶	-11.6657
兼之	-11.6657
觔	-11.6657
繼母	-11.6658
价	-11.6658
責以	-11.6659
▁議于	-11.6662
妄作	-11.6663
設局	-11.6666
從願	-11.6667
二十八日	-11.667
臺言	-11.6671
吁	-11.6675
▁下于政院	-11.6675
巷	-11.6676
元翼	-11.6676
力疾	-11.6676
伴送使	-11.6677
沈壽賢	-11.6677
李季甸	-11.6677
顚仆	-11.6677
羊甲	-11.6677
彌縫	-11.6677
直赴會試	-11.6677
掖隷	-11.6677
不悛	-11.6677
席藁	-11.6677
兪泓	-11.6678
內資寺	-11.6678
工曹佐郞	-11.6678
喉司	-11.6678
逆臣	-11.6679
義孫	-11.6679
閔黯	-11.6679
▁極爲可駭	-11.668
鄭忠信	-11.6683
流涕	-11.6683
秋冬	-11.6684
內侍府	-11.6686
家丁	-11.6687
▁兵使	-11.6688
李潑	-11.6688
朝廷之上	-11.6688
行判中樞府事	-11.6688
本監	-11.6692
親病	-11.6693
箚請	-11.6694
相率	-11.6694
▁似涉	-11.6696
闕直	-11.6696
▁兀狄哈	-11.6697
二十九	-11.6698
酉時	-11.6699
喪事	-11.6699
年過	-11.6699
果然	-11.67
▁則依	-11.6701
古有	-11.6701
托稱	-11.6703
李㙫	-11.6704
有加	-11.6706
逬	-11.6709
御前	-11.671
傳旨承政院	-11.671
伏地	-11.6711
惡逆	-11.6712
初昏	-11.6713
▁竝不從	-11.6713
▁曾於	-11.6715
▁儼	-11.6715
▁在魯	-11.6716
所不容	-11.6717
仁壽	-11.6718
上恩	-11.6719
選上	-11.6719
留待	-11.6719
善惡	-11.672
▁禮曹請	-11.6721
設場	-11.6722
二度	-11.6725
灸	-11.6726
議以爲	-11.6728
示警	-11.6728
此等人	-11.6729
▁益加	-11.6729
與臣	-11.673
▁請收	-11.673
蕭	-11.6731
是任	-11.6732
衣一領	-11.6732
洪達孫	-11.6733
洪象漢	-11.6734
盞	-11.6734
饗	-11.6734
株	-11.6734
▁其來已久	-11.6734
偵探	-11.6734
逋欠	-11.6735
畿伯	-11.6736
百端	-11.6736
骨肉	-11.6737
加通政	-11.6738
▁務要	-11.6739
碩圭	-11.6739
于承政院	-11.6741
竝論	-11.6741
之濫	-11.6742
▁分定	-11.6743
鄭希	-11.6744
閱月	-11.6744
狀告	-11.6744
自縊	-11.6746
▁三日	-11.6746
强顔	-11.6747
邊鎭	-11.6747
▁兩麥	-11.6747
老臣	-11.6749
點閱	-11.675
起舞	-11.6752
▁豈容	-11.6753
▁移送	-11.6753
與賊	-11.6754
賤隷	-11.6754
相値	-11.6755
家財	-11.6756
高靈	-11.6756
▁實涉	-11.6756
事干人	-11.6757
若何	-11.6757
兩國	-11.6757
李時言	-11.6759
有嫌	-11.676
作耗	-11.676
中樞院	-11.6762
仁同	-11.6763
行都政	-11.6763
堂堂	-11.6764
武科殿試	-11.6764
從人	-11.6765
生民之	-11.6766
獨斷	-11.6766
立廟	-11.6766
從其	-11.6766
已服	-11.6767
知中樞	-11.6769
宣旨	-11.677
闓	-11.6771
春塘臺	-11.6772
凡察	-11.6772
軍情	-11.6774
臺諫啓辭	-11.6774
驛子	-11.6774
一百八十	-11.6775
布政	-11.6776
錫冑	-11.6777
曲直	-11.6777
公洪	-11.6777
▁矧	-11.6778
譏斥	-11.6779
考見	-11.678
知義禁	-11.678
李程	-11.6782
救恤	-11.6783
同事	-11.6784
其道觀察使	-11.6784
之所當	-11.6785
傳于兵曹	-11.6785
不遑	-11.6785
微賤	-11.6786
退歸	-11.6786
無所懲	-11.6788
樂器	-11.6788
▁配	-11.6789
新闕	-11.679
捲	-11.679
昌臣	-11.679
徐邁修	-11.6792
韓繼美	-11.6792
▁批答封下	-11.6792
柳寅吉	-11.6792
渝	-11.6792
鄭載嵩	-11.6792
豕	-11.6792
遘	-11.6792
爲人臣	-11.6792
頹圮	-11.6792
李好信	-11.6792
祈雨于	-11.6793
束伍	-11.6793
▁在所不已	-11.6793
▁此賊	-11.6793
者必多	-11.6793
▁而今番	-11.6793
而不言	-11.6793
窘迫	-11.6793
)[	-11.6794
淹延	-11.6794
政府六曹	-11.6794
下直	-11.6794
御勤政殿	-11.6795
成任	-11.6795
▁及授本職	-11.6795
▁止	-11.6797
▁間有	-11.6798
序立	-11.6801
十九人	-11.6803
取實	-11.6803
居下	-11.6805
以慰	-11.6805
館中	-11.6805
日食	-11.6805
亦不得	-11.6806
李提督	-11.6806
條列	-11.6811
召見大臣	-11.6813
▁承旨等啓	-11.6813
習射	-11.6817
▁有不可	-11.6818
懈	-11.6819
切實	-11.6819
南山	-11.682
傍近	-11.682
宮奴	-11.6822
勑諭	-11.6822
得知	-11.6824
傳敎之意	-11.6825
自作	-11.6827
▁又復	-11.6828
放鷹	-11.6828
本情	-11.6831
之戰	-11.6831
幼學金	-11.6832
旣發	-11.6833
職任	-11.6833
無地	-11.6834
▁或不無	-11.6834
爲殿下	-11.6836
處置請出	-11.6837
卜定	-11.6839
械	-11.684
▁都廳	-11.6844
賊魁	-11.6846
▁凡百	-11.6846
陳白	-11.6846
何傷	-11.6848
伏法	-11.6849
▁皆得	-11.685
延恩殿	-11.685
鄭賜湖	-11.685
鄭昌順	-11.685
宋錫慶	-11.685
壽康宮	-11.685
宋時喆	-11.685
硫黃	-11.685
金始振	-11.685
▁日就	-11.685
李性源	-11.685
▁恬不	-11.6851
李弘冑	-11.6851
▁上優批答之	-11.6851
厭憚	-11.6851
侍藥廳	-11.6852
李徽之	-11.6852
具壽永	-11.6852
續續	-11.6852
傾陷	-11.6853
操縱	-11.6853
江界府使	-11.6858
虛竭	-11.6858
爲然	-11.6858
科斷	-11.6858
年分	-11.6859
好生	-11.6859
▁畢竟	-11.6862
年紀	-11.6862
▁分送	-11.6863
訟冤	-11.6864
趨附	-11.6865
稱病不	-11.6866
乖當	-11.6869
管領	-11.687
旣受	-11.6871
才望	-11.6871
奴隷	-11.6871
指斥	-11.6873
律詩	-11.6875
申浚	-11.6875
繼之	-11.6877
▁災變	-11.6878
候望	-11.6878
召之	-11.6879
勿捧	-11.6879
召命	-11.6879
分疏	-11.688
▁尤宜	-11.6881
▁其與	-11.6881
疏箚	-11.6882
相戰	-11.6882
官庫	-11.6883
受朝	-11.6883
文士	-11.6884
乃職	-11.6886
季男	-11.6886
同黨	-11.6886
律外	-11.6887
俾	-11.6887
開釋	-11.6887
爲議政府舍人	-11.6888
▁上以爲	-11.6888
城池	-11.6889
裁處	-11.689
典書	-11.6892
▁則彼必	-11.6893
又上箚	-11.6893
敎誘	-11.6894
▁參議	-11.6895
之選	-11.6895
▁故不爲	-11.6896
二千石	-11.6896
疏下	-11.6897
▁諸大臣	-11.6898
李碩	-11.6899
泰慶	-11.6899
童子	-11.6899
▁俱是	-11.6903
姑留	-11.6904
護黨	-11.6904
速決	-11.6904
東堂	-11.6907
歲前	-11.6907
儕	-11.6907
書題	-11.6908
禳	-11.6908
呈訴	-11.6908
妣	-11.6908
嚮	-11.6909
絃	-11.6909
衢	-11.6909
李益炡	-11.6909
歌謠	-11.6909
李周鎭	-11.6909
許筬	-11.6909
調劑	-11.691
居正	-11.691
養老宴	-11.691
烟臺	-11.6911
▁以成	-11.6911
兇慘	-11.6912
▁又與	-11.6914
駄載	-11.6914
▁居官	-11.6914
▁每日	-11.6914
酒饌	-11.6915
諸般	-11.6919
期年	-11.6919
作散	-11.6922
▁國勢	-11.6922
失中	-11.6926
刑曹正郞	-11.6926
施措	-11.6927
尹致	-11.6928
一空	-11.6928
輿望	-11.6928
師表	-11.6929
安琛	-11.6929
▁甚不可也	-11.6929
爲藝文館提學	-11.693
生擒	-11.693
試所	-11.6931
赴京時	-11.6932
給災	-11.6935
▁安得	-11.6937
以此引避	-11.6937
忠烈	-11.6938
不推	-11.6939
▁置諸	-11.6941
日新	-11.6942
年限	-11.6942
詳聞	-11.6944
受弊	-11.6946
▁敢爲	-11.6948
之甚者	-11.6948
之末	-11.6949
而不爲	-11.6951
孝誠	-11.6953
巨鎭	-11.6955
齋任	-11.6956
相容	-11.6958
朴長遠	-11.6962
諸色	-11.6962
有關於	-11.6962
時例	-11.6962
▁雖未知	-11.6963
春夏	-11.6963
未還	-11.6964
情願	-11.6967
飜	-11.6967
徐浩修	-11.6967
趣	-11.6967
吾都里	-11.6967
坎	-11.6967
嬰	-11.6967
金鎭圭	-11.6967
多滯	-11.6967
翊衛司	-11.6968
論人	-11.6968
該房	-11.6969
遭喪	-11.697
思政殿	-11.697
未卽	-11.697
眩亂	-11.6971
▁始知	-11.6971
刑房承旨	-11.6971
▁豈爲	-11.6973
李士慶	-11.6973
放恣	-11.6974
一鏡	-11.6974
機會	-11.6975
連有	-11.6976
亂離	-11.6976
撰進	-11.6976
知經筵事	-11.6977
金興	-11.6978
奮發	-11.6978
涼德	-11.6979
攻斥	-11.6979
五分	-11.698
徵納	-11.6982
被斥	-11.6982
覆載	-11.6982
何耶	-11.6984
曾孫	-11.6985
備局啓言	-11.6986
小祥	-11.6986
留門	-11.6989
退居	-11.6995
右正言	-11.6995
竄黜	-11.6995
振作	-11.6996
其故	-11.6997
慶事	-11.6997
邪論	-11.7
最重	-11.7
何獨	-11.7
明川	-11.7001
待後日	-11.7004
金徽	-11.7008
朝報	-11.7009
一從	-11.7009
▁而猶不	-11.701
▁近聞	-11.701
▁處處	-11.7011
負罪	-11.7013
講和	-11.7013
畢後	-11.7014
惡名	-11.7015
此二人	-11.7015
深慮	-11.7016
難行	-11.7018
爭訟	-11.7021
寧陵	-11.7021
分輕重	-11.7022
鄭維城	-11.7023
電	-11.7024
曺挺立	-11.7026
球	-11.7026
李瓊仝	-11.7026
召對玉堂官	-11.7026
廣興倉	-11.7026
戇	-11.7027
▁以戒後來	-11.7027
器皿	-11.7027
▁罪當	-11.7027
網打	-11.7027
洪武	-11.7027
公共之論	-11.7028
行用	-11.7028
申景禛	-11.7028
陟降	-11.7028
五升	-11.7029
命賜	-11.7029
幄次	-11.7029
外邑	-11.7029
羅織	-11.7029
五經	-11.703
天聰	-11.703
措辦	-11.703
李廷濟	-11.703
萬民	-11.7032
慢忽	-11.7032
不修	-11.7033
禮賓	-11.7037
拘忌	-11.7039
推捉	-11.7039
▁甚可	-11.704
遺在	-11.7041
方爲	-11.7042
▁不可在職	-11.7043
入保	-11.7043
▁何忍	-11.7044
臣之罪	-11.7044
右議政趙顯命	-11.7044
▁命皆	-11.7045
▁宴	-11.7046
▁請命拿鞫	-11.7047
▁又因	-11.7047
因傳敎	-11.7048
▁而只以	-11.7048
李叔蕃	-11.7048
公服	-11.705
▁不及	-11.7051
▁而今見	-11.7051
禁其	-11.7052
左軍	-11.7052
故犯	-11.7053
左司諫	-11.7055
冊使	-11.7056
▁則雖有	-11.7056
竝遞差	-11.7059
所定	-11.7059
論難	-11.7059
餘人	-11.7062
竝擧	-11.7062
▁乞賜	-11.7063
冒受	-11.7065
士民	-11.7065
御便殿	-11.7066
本道觀察使	-11.7066
樂安	-11.7067
日本國王	-11.7068
益加	-11.707
開說	-11.7072
還鄕	-11.7073
杖之	-11.7077
願納	-11.7078
知予意	-11.7079
▁其以此意	-11.7079
牌不進	-11.708
▁加資	-11.7081
所指	-11.7081
傷損	-11.7081
甚盛	-11.7081
靦面	-11.7081
任重	-11.7082
請兵	-11.7082
南智	-11.7082
奸臣	-11.7083
纏	-11.7086
恐動	-11.7086
崔東式	-11.7086
忽剌溫	-11.7086
杭	-11.7086
燦	-11.7086
訣	-11.7086
金宇亨	-11.7086
典醫監	-11.7086
金謙光	-11.7086
爲承政院同副承旨	-11.7086
避正殿	-11.7088
彗星見	-11.7089
三省推鞫	-11.7089
▁日漸	-11.7089
各加一資	-11.7089
李繼	-11.709
約條	-11.709
糜	-11.7092
領相鄭太和	-11.7092
未可知也	-11.7092
位田	-11.7093
辨其	-11.7093
王京	-11.7093
時急	-11.7094
丹木	-11.7094
當議處	-11.7094
▁竊念	-11.7094
彼國	-11.7094
斬獲	-11.7095
會坐	-11.7096
次郞	-11.7099
再度	-11.7099
泰川	-11.7099
據實	-11.7099
晩矣	-11.7099
李宜顯	-11.71
▁休煩可	-11.71
上官	-11.7102
喪服	-11.7103
▁天下之	-11.7103
風采	-11.7103
某處	-11.7105
逮捕	-11.7108
▁自下	-11.7108
下議政府	-11.7109
群下之	-11.7109
于內	-11.711
訊鞫	-11.7111
▁顧今	-11.7111
▁各於	-11.7111
禮曹言	-11.7112
洪萬容	-11.7115
之心乎	-11.7115
玉堂箚	-11.7116
極惡	-11.7116
宋欽	-11.7116
賜樂	-11.7117
後患	-11.7118
遣注書	-11.7118
詣臺	-11.7119
高皇帝	-11.712
物色	-11.712
監考	-11.7121
著矣	-11.7121
枰	-11.7122
呈疏	-11.7124
警責	-11.7125
遣都承旨	-11.7125
連章	-11.7126
一本	-11.7126
其勞	-11.7126
世豪	-11.7128
公罪	-11.7129
有後弊	-11.713
司憲府請	-11.7132
虐民	-11.7135
泰仁	-11.7137
萊	-11.7138
實無	-11.7139
內史	-11.714
▁方可	-11.714
▁然非	-11.714
融	-11.7141
沔	-11.7145
招來	-11.7145
璜	-11.7146
娛	-11.7146
初度呈辭	-11.7146
范	-11.7146
羈縻	-11.7146
鄭甲孫	-11.7146
宋眞明	-11.7146
徐文重	-11.7146
▁不可一日在官	-11.7146
聞此言	-11.7146
乘馹	-11.7147
先正臣宋時烈	-11.7147
吳伯昌	-11.7148
致勤	-11.7148
嚴治	-11.7149
而然乎	-11.715
捧納	-11.715
奉祀孫	-11.7152
金應南	-11.7152
▁國有	-11.7152
崔淑生	-11.7153
欽仰	-11.7155
落後	-11.7155
不職之罪	-11.7157
先來	-11.7158
傳言	-11.7161
防禁	-11.7162
此處	-11.7163
恩數	-11.7165
試場	-11.7166
柑	-11.7167
於君	-11.7168
兵符	-11.717
▁成宗朝	-11.717
▁時議	-11.7171
任情	-11.7171
自下	-11.7172
分置	-11.7174
築墻	-11.7174
東國	-11.7174
許遲	-11.7177
▁則凡	-11.7178
於政院	-11.718
欽差	-11.718
卒哭前	-11.7182
明辨	-11.7183
都憲	-11.7184
旬日	-11.7184
遷就	-11.7186
徵贖	-11.7188
數十人	-11.7188
會講	-11.7193
兼任	-11.7193
下手	-11.7193
未安之意	-11.7195
一開	-11.7197
不廉	-11.7198
致弔	-11.7198
差除	-11.7199
▁必將	-11.72
素稱	-11.72
大作	-11.72
傳啓	-11.72
爽	-11.7203
澂	-11.7204
爲之也	-11.7204
非一二	-11.7204
望見	-11.7205
傳于戶曹	-11.7205
藁	-11.7205
天命	-11.7205
拒諫	-11.7206
歧	-11.7206
懍	-11.7206
票	-11.7206
証	-11.7206
浸	-11.7206
興天寺	-11.7206
金起宗	-11.7206
苧麻布	-11.7206
▁何待	-11.7206
都試	-11.7206
才能	-11.7206
金信元	-11.7206
烏紗帽	-11.7206
▁近古所無	-11.7207
勤於	-11.7207
加嘉善	-11.7208
李肇源	-11.7208
匹段	-11.7208
外補	-11.7209
渙散	-11.7209
初三日	-11.7209
拈出	-11.7209
▁元非	-11.7211
▁以勵	-11.7212
洞照	-11.7215
用酒	-11.7215
無窮之弊	-11.7216
費辭	-11.7217
門蔭	-11.7217
▁令該府	-11.7219
兼差	-11.7219
▁則朝廷	-11.7226
優數	-11.7227
安在	-11.7227
用之物	-11.7228
▁領議政金致仁	-11.723
護送軍	-11.7231
二百五十	-11.7232
通奸	-11.7232
保其	-11.7234
雜色	-11.7234
▁心常	-11.7235
文化	-11.7236
竝依啓	-11.7237
泮宮	-11.7242
致察	-11.7243
靖難	-11.7245
等議曰	-11.7246
過慮	-11.7246
▁及時	-11.7246
不願	-11.7246
垂死	-11.7252
服藥	-11.7252
侃	-11.7252
嘗聞	-11.7253
竝命出仕	-11.7253
豐德	-11.7254
而逃	-11.7257
本兵	-11.7259
▁誠有	-11.726
詣太廟	-11.726
▁當日	-11.7262
忠貞	-11.7262
罄	-11.7262
坐次	-11.7263
敞	-11.7264
淆	-11.7266
垓	-11.7267
什	-11.7267
廣孝殿	-11.7267
耐	-11.7267
蠢	-11.7267
恰	-11.7267
何以知之	-11.7267
潘	-11.7267
倚毗	-11.7267
籍沒家産	-11.7267
李思鈞	-11.7267
金長生	-11.7267
騰播	-11.7268
吉州牧使	-11.7268
喉院	-11.7268
刑曹堂上	-11.727
韓詠	-11.7271
許磁	-11.7271
勘勳	-11.7272
浩大	-11.7273
窠闕	-11.7274
申景禧	-11.7276
推考事	-11.7278
浮費	-11.7279
令王府	-11.728
卽起	-11.728
▁而渠	-11.728
藏于	-11.728
失儀	-11.728
▁禮畢	-11.7282
奉聖旨	-11.7282
邊臣	-11.7286
貧窮	-11.7289
辭遞	-11.7289
金城	-11.7292
▁昔在	-11.7294
▁彼若	-11.7294
爲災	-11.7295
般	-11.7297
引儀	-11.7298
差員	-11.7298
有二	-11.7299
打殺	-11.73
繫獄	-11.7301
近聞	-11.7302
領議政柳洵	-11.7302
從征	-11.7302
動樂	-11.7304
▁則國家	-11.7304
似宜	-11.7305
爲定式	-11.7307
▁固知	-11.7307
不可勝	-11.7307
殿坐	-11.7307
資窮者	-11.7308
爲他日	-11.7308
金興慶	-11.7309
▁以予	-11.731
如法	-11.731
避役	-11.731
封書	-11.7311
之候	-11.7314
知敦寧	-11.7314
▁獨不	-11.7315
爲知中樞府事	-11.7316
張大	-11.7317
待大臣	-11.7319
▁心甚	-11.732
赴戰	-11.7321
改過	-11.7322
爲憂	-11.7324
必矣	-11.7326
▁果是	-11.7326
終日	-11.7326
韓繼禧	-11.7326
尹趾完	-11.7328
閔應洙	-11.7328
㤼	-11.7328
柳公亮	-11.7328
趙英茂	-11.7328
鼻	-11.7328
拓	-11.7328
趙明履	-11.7328
鄭廣敬	-11.7328
永安北道節度使	-11.7328
沈守慶	-11.7328
韓致禮	-11.7328
右副賓客	-11.7328
搆捏	-11.7328
變異	-11.7328
价川	-11.7329
搜訪	-11.7329
伺候	-11.7329
上疏論	-11.733
沃川	-11.733
▁極爲非矣	-11.7331
▁甚爲未便	-11.7332
顒望	-11.7332
受灸	-11.7333
訓鍊觀	-11.7334
藏置	-11.7334
都巡察使	-11.7334
親子	-11.7335
審愼	-11.7336
無別	-11.7338
輔養官	-11.7339
詳覆	-11.7339
順孫	-11.734
▁至請	-11.7344
凶書	-11.7344
許沆	-11.7344
農作	-11.7345
▁明有	-11.7346
抄發	-11.7349
楗	-11.7349
或有之	-11.735
所無之	-11.7351
叛逆	-11.7351
▁有不可勝言	-11.7354
六匹	-11.7354
▁若然則	-11.7356
遞任	-11.7358
死節	-11.7359
沈澮議	-11.736
常刑	-11.736
則一也	-11.7362
箋文	-11.7366
量處	-11.7367
行祈雨祭	-11.7367
▁上始	-11.7368
公卿	-11.7368
爲證	-11.7369
一百石	-11.737
罔念	-11.737
作詩	-11.7371
捧傳旨	-11.7371
出陸	-11.7375
天性	-11.7376
▁毋致	-11.7377
而發也	-11.7378
本末	-11.7379
四員	-11.738
改付標	-11.7381
琮	-11.7381
良賤	-11.7383
染病	-11.7383
我國之人	-11.7385
宋朝	-11.7386
司憲府上疏	-11.7386
籤	-11.7386
李泰	-11.7387
本非	-11.7388
因此而	-11.7388
嶽	-11.7389
慼	-11.7389
耄	-11.7389
握	-11.7389
首領官	-11.7389
昧爽	-11.7389
唾罵	-11.7389
李厚源	-11.7389
驪州牧使	-11.739
李昌誼	-11.739
士族婦女	-11.739
內贍寺	-11.739
懇惻	-11.739
芳幹	-11.739
▁予甚嘉之	-11.739
金熤	-11.7392
曉諭中外	-11.7392
諸卿	-11.7393
約束	-11.7393
發覺	-11.7394
烙刑	-11.7395
蠲免	-11.7395
權橃	-11.7396
整理	-11.7396
史庫	-11.7397
維持	-11.7398
損實	-11.7399
潭	-11.7399
慈宮	-11.7399
初覆	-11.7399
知義禁府事	-11.7401
▁期於必	-11.7401
▁請遣	-11.7401
無愧	-11.7402
治國	-11.7402
▁士論	-11.7403
鄭招	-11.7404
承襲	-11.7404
義城	-11.7404
生時	-11.7405
荒政	-11.7405
水原府	-11.7407
下官	-11.741
奉表	-11.7411
生長	-11.7413
?」	-11.7414
坐起	-11.7415
未捧	-11.7415
一尺	-11.7416
紓	-11.7417
▁今次	-11.742
近有	-11.7421
奸夫	-11.7421
▁人無	-11.7423
關宗社	-11.7424
亦如此	-11.7424
可紀	-11.7425
▁令各	-11.7427
賜祭于	-11.7427
連山	-11.7427
非細故	-11.7429
獨子	-11.7429
安心勿辭	-11.743
▁今若不	-11.743
▁竝從之	-11.7431
華城	-11.7431
將卒	-11.7432
臣等之言	-11.7433
又上疏	-11.7433
▁豈可以此	-11.7435
于賓廳	-11.7439
▁朝議	-11.744
宜寧	-11.744
今歲	-11.744
疑獄	-11.744
旁近	-11.7441
遠人	-11.7441
▁請減	-11.7441
留念	-11.7443
太重	-11.7445
摩	-11.7445
院中	-11.7445
旣定	-11.7446
爲注書	-11.7446
克培	-11.7446
蜜	-11.7449
醬	-11.745
璽	-11.7451
▁太白見於未地	-11.7451
請㼁按律	-11.7451
閔應亨	-11.7451
低昻	-11.7451
會禮宴	-11.7451
鞠躬	-11.7451
臨陂	-11.7451
舒川	-11.7452
年幼	-11.7453
飭勵	-11.7455
亦請	-11.7455
不得不爾	-11.7455
柳鳳輝	-11.7456
驚懼	-11.7457
之性	-11.7457
戶曹正郞	-11.7457
攻擊	-11.7458
伏以	-11.7459
優恤	-11.7459
俱在	-11.7461
賓對	-11.7462
鄭晳	-11.7462
李英	-11.7463
以獻	-11.7464
從軍	-11.7464
潛通	-11.7464
久旱	-11.7464
銓長	-11.7465
有過	-11.7466
▁仍傳于政院曰	-11.7466
有聲	-11.7467
永樂	-11.7468
邊鄙	-11.7468
不坐	-11.7468
出使	-11.747
停廢	-11.747
見敗	-11.747
▁請拿問定罪	-11.7471
前參判	-11.7472
輕蔑	-11.7475
▁而不卽	-11.7475
不去	-11.7476
▁此何等	-11.748
委諸	-11.7481
失體	-11.7481
▁竝引嫌而退	-11.7482
諸陵	-11.7482
繼孫	-11.7482
平壤府	-11.7483
爲咸鏡道觀察使	-11.7484
▁而不敢	-11.7485
極力	-11.7485
以奏	-11.7485
帝命	-11.7488
所御	-11.7489
朔日	-11.7489
金大	-11.7489
齊衰	-11.7489
所賜	-11.7491
靖國	-11.7492
金錫	-11.7492
齎宣醞	-11.7493
被抄	-11.7494
到記	-11.7495
從其請	-11.7495
▁恐難	-11.7495
宋氏	-11.7497
本處	-11.7503
極難	-11.7503
新恩	-11.7503
安得不	-11.7504
李漢	-11.7505
餞于	-11.7506
▁而獨於	-11.7506
朝象	-11.7506
不細	-11.7506
直閣	-11.7507
▁當今	-11.7508
平心	-11.7509
諱之	-11.7511
▁自可	-11.7511
只罷其職	-11.7512
悃	-11.7513
▁上賜優批	-11.7513
棚	-11.7513
甕	-11.7513
痰	-11.7513
丁玉亨	-11.7513
瀣	-11.7513
窺覘	-11.7513
橫罹	-11.7515
仁祖朝	-11.7516
此習	-11.7516
▁請速改正	-11.7516
容貌	-11.7517
待罪言地	-11.7517
▁而第念	-11.7517
李昌壽	-11.7517
押解	-11.7519
卽刻	-11.752
挾雜	-11.752
觀望	-11.7522
殺手	-11.7524
離異	-11.7525
歲時	-11.7526
竝錄	-11.7526
宗社大計	-11.7528
嚴峻	-11.7528
該廳	-11.7528
▁然旣	-11.7529
方以	-11.7529
州府	-11.7529
聲色	-11.753
優答	-11.7532
▁俾得	-11.7532
勑行	-11.7533
迫切	-11.7534
知識	-11.7535
喜事	-11.7535
圖形	-11.7535
李枰	-11.7537
夜半	-11.7538
難堪	-11.7538
慈山	-11.7538
之工	-11.7541
聲勢	-11.7542
率去	-11.7542
終制	-11.7548
首發	-11.7549
▁予未知	-11.7549
係是	-11.755
囚私奴	-11.7552
緘辭	-11.7552
變辭	-11.7553
▁臣答曰	-11.7554
大熾	-11.7554
下敎矣	-11.7555
之聖意	-11.7555
傳授	-11.7556
安靜	-11.7558
明朝	-11.7558
▁人或	-11.7558
每於	-11.756
敎導	-11.7563
居處	-11.7563
尙魯	-11.7567
在予	-11.7567
召儒臣	-11.7568
橃	-11.7569
海美	-11.7569
國葬	-11.7569
膠	-11.7569
▁以貽	-11.757
羲	-11.757
廚	-11.757
與我	-11.7571
仍前	-11.7571
賤疾	-11.7571
緊關	-11.7572
明日當	-11.7572
持來	-11.7572
異己	-11.7574
捄	-11.7575
都巡問使	-11.7575
▁日以	-11.7575
核	-11.7575
李秉鼎	-11.7575
藎	-11.7575
賁	-11.7575
金祖淳	-11.7575
忻	-11.7575
鄭載禧	-11.7575
謹天戒	-11.7576
黑團領	-11.7576
把截	-11.7576
得其情	-11.7577
雖似	-11.7577
遣宦官	-11.7578
閉門	-11.7578
尹暄	-11.7579
金壽賢	-11.7579
鄭琢	-11.7582
金仲	-11.7582
牛疫	-11.7582
貢賦	-11.7583
査考	-11.7584
冠帶	-11.7586
自現	-11.7587
長短	-11.7587
沈攸	-11.7588
隣國	-11.7589
六名	-11.7589
▁其將	-11.759
附會	-11.7591
鼓吹	-11.7592
愛惜	-11.7592
安接	-11.7594
▁不惟	-11.7595
遣中使	-11.7596
角弓	-11.7596
▁太半	-11.7596
六曹郞官	-11.7597
箕子	-11.7597
高祖	-11.7599
曲盡	-11.76
致奠	-11.7601
大內殿	-11.7603
顯陵	-11.7603
爲賊所	-11.7603
咸平	-11.7604
上親臨	-11.7605
禁火	-11.7605
推恩	-11.7606
參商	-11.7608
納供	-11.7608
趙觀彬	-11.761
王獄	-11.7612
不起	-11.7612
▁非予	-11.7614
預定	-11.7615
干預	-11.7615
▁彼必	-11.7615
致敗	-11.7618
親親	-11.7619
昏夜	-11.7619
自在	-11.7621
下嚴敎	-11.7622
有所未安	-11.7624
于京畿	-11.7625
▁上聞	-11.7626
盡知	-11.7628
而問之	-11.7628
李繼孫	-11.7628
擧其	-11.7628
九日	-11.7631
加數	-11.7632
木柵	-11.7633
看病	-11.7634
▁臣等不敢	-11.7635
援例	-11.7636
一百七十	-11.7636
依律施行	-11.7637
祜	-11.7638
▁太白見於午地	-11.7638
圃	-11.7638
響	-11.7638
風雲雷雨	-11.7638
斬待時	-11.7638
李頤命	-11.7638
瓮津	-11.7638
惻怛	-11.7638
上詣延和門	-11.7639
南以雄	-11.7639
▁似爲便當	-11.7639
前古	-11.7639
遣人來獻土物	-11.7639
李克基	-11.764
全減	-11.764
出於不得已也	-11.7642
于資政殿	-11.7642
至于今	-11.7644
▁願自今	-11.7644
乳母	-11.7645
柳儼	-11.7645
通文	-11.7646
被擄人	-11.7647
其制	-11.7648
纔過	-11.7648
司勇	-11.7648
旌門	-11.7649
儼	-11.7649
擬差	-11.7652
德山	-11.7653
來請	-11.7654
無意	-11.7655
金緻	-11.7656
圍置	-11.7656
命減	-11.7656
姑置之	-11.7657
潛商	-11.7657
之累	-11.7659
入己	-11.766
刊行	-11.7664
幾盡	-11.7664
遣近臣	-11.7664
黨人	-11.7665
指授	-11.7666
經用	-11.7666
流配	-11.7667
勞民	-11.7667
還集	-11.7668
宮僚	-11.7668
知禮	-11.7669
年六十	-11.7671
周易	-11.7676
通禮	-11.7677
▁自上亦	-11.7678
會賓廳	-11.7678
▁歷臨	-11.7678
木星	-11.7681
李潤	-11.7682
駁之	-11.7683
曄	-11.7684
古昔	-11.7684
降倭	-11.7685
止此	-11.7687
共濟	-11.7688
戰馬	-11.769
高原	-11.769
哀痛	-11.769
爲良	-11.7693
▁旣曰	-11.7695
▁而彼	-11.7697
鄭存謙	-11.7697
時弊	-11.7698
日官	-11.77
攷	-11.7702
褥	-11.7702
興利	-11.7702
二道	-11.7702
朴宗薰	-11.7702
祈晴	-11.7702
收取	-11.7703
按覈	-11.7704
▁啓下備邊司	-11.7704
橋梁	-11.7706
勤謹	-11.7706
肄習	-11.7706
魚肉	-11.7706
▁其令該曹	-11.7707
朴承	-11.771
臺諫論啓	-11.7711
有違於	-11.7713
有日	-11.7715
麾下	-11.7715
被謫	-11.7716
遼東都司	-11.7717
月晦日	-11.7717
未已	-11.7717
權慄	-11.7717
加律	-11.7717
▁方爲	-11.772
機張	-11.772
侵斥	-11.7721
昨者	-11.7721
南宮	-11.7721
詣毓祥宮	-11.7722
判官李	-11.7724
再造	-11.7724
斬之	-11.7724
贈給	-11.7724
▁備局請	-11.7726
遊街	-11.7726
潛入	-11.7726
▁以勸	-11.7729
特罷	-11.7729
疾苦	-11.7731
▁必致	-11.7731
▁曾不	-11.7732
▁方許	-11.7734
益勳	-11.7734
旣令	-11.7735
趙秉	-11.7735
之訓	-11.7736
事端	-11.7737
馬兵	-11.7739
金益	-11.7739
投入	-11.774
▁皆當	-11.774
▁當更	-11.7742
監試官	-11.7743
請辭	-11.7743
殄	-11.7744
舍利	-11.7745
擬入	-11.7746
補用	-11.7746
亦不可不	-11.7747
發告	-11.7748
韓山	-11.7748
大赦	-11.7749
相與	-11.775
武備	-11.775
下傳旨	-11.7751
所造	-11.7753
不可從也	-11.7754
▁則無以	-11.7754
爲兼司書	-11.7756
已發	-11.7758
▁未聞有	-11.7759
請亟	-11.7761
此議	-11.7762
莫如	-11.7764
▁輟朝	-11.7765
蹇	-11.7765
岑	-11.7765
咽	-11.7765
夭	-11.7765
暢	-11.7765
趙希逸	-11.7765
壼	-11.7765
閥	-11.7765
攅	-11.7765
金文淳	-11.7765
兪彦鎬	-11.7766
金益廉	-11.7766
▁肅宗	-11.7766
衣冠之列	-11.7766
徐宗玉	-11.7767
▁皆可	-11.7767
少無	-11.7768
▁在所難免	-11.7768
曺偉	-11.7768
准職	-11.7769
▁適値	-11.7769
酬勞	-11.7769
太輕	-11.777
不饒	-11.7771
祈穀	-11.7772
藉口	-11.7773
親蠶	-11.7774
憂愛	-11.7775
入廟	-11.7777
創開	-11.7777
於君父	-11.7779
金尙星	-11.778
通仕路	-11.7781
月食	-11.7782
之致也	-11.7782
坊民	-11.7782
私通	-11.7783
和賣	-11.7784
金宗直	-11.7786
不致察	-11.7786
堂上推考	-11.7786
雖不可	-11.7786
▁則其爲	-11.7786
爾等之言	-11.7788
相爭	-11.7789
有變	-11.7791
▁或言	-11.7791
引見時	-11.7792
書名	-11.7794
督納	-11.7795
▁例以	-11.7795
無所據	-11.7797
金構	-11.7799
不定	-11.7799
事在赦前	-11.78
初無	-11.7801
爲親	-11.7802
禮遇	-11.7803
▁則反	-11.7804
遺失	-11.7806
軍威	-11.7808
▁命除	-11.7809
迎接	-11.7812
▁請以此	-11.7813
加刑訊	-11.7813
南斗	-11.7817
于思政殿	-11.7818
皆已	-11.7818
董役	-11.7821
峽	-11.7822
登極	-11.7822
情實	-11.7822
視朝	-11.7823
臭	-11.7824
弁	-11.7827
非敢	-11.7828
跋	-11.7828
奎章閣	-11.7829
嘻	-11.7829
袞龍袍	-11.7829
屹	-11.7829
鄭光績	-11.7829
申厚載	-11.7829
沈星鎭	-11.7829
愼守勤	-11.7829
省箚具悉	-11.783
▁一則曰	-11.783
送人	-11.783
銘旌	-11.783
十四日	-11.783
▁若此不已	-11.783
睿裁	-11.7831
彈壓	-11.7831
診候	-11.7831
問禮官	-11.7831
採訪	-11.7832
禮曹判書申商	-11.7832
輕改	-11.7833
飮福宴	-11.7834
甚厚	-11.7834
勿罷	-11.7835
熾盛	-11.7835
李坫	-11.7836
遲留	-11.7839
▁而當此	-11.7842
爲弘文館副修撰	-11.7843
卽令	-11.7843
三公議啓曰	-11.7843
遷葬	-11.7843
疏釋	-11.7844
陵官	-11.7846
雖微	-11.7847
穡	-11.7848
尊賢	-11.7852
有傳敎	-11.7853
糧料	-11.7855
監造官	-11.7855
情事	-11.7855
另	-11.7856
卽還	-11.7857
周禮	-11.7857
大無	-11.7859
都承旨權瑊	-11.7859
▁宜先	-11.786
旱氣	-11.786
日就	-11.7861
▁而及其	-11.7862
▁聽其	-11.7863
宗道	-11.7864
淸選	-11.7865
大役	-11.7865
容隱	-11.7867
金化	-11.7867
罷臣職	-11.7868
金萬重	-11.7871
御夜對	-11.7871
困苦	-11.7872
徐宗	-11.7872
匹夫	-11.7872
待年	-11.7875
一視	-11.7875
洞知	-11.7875
享官	-11.7879
挈	-11.7881
▁大臣以爲	-11.7882
章疏	-11.7884
▁此由	-11.7884
每當	-11.7886
敘	-11.7886
▁王命	-11.7887
▁諫院又啓	-11.7888
朔寧	-11.7889
禁物	-11.789
下該曹	-11.7891
棨	-11.7893
解體	-11.7893
▁雨雹交下	-11.7894
緇	-11.7894
俘	-11.7894
逡巡	-11.7894
鄭惟吉	-11.7894
金禹錫	-11.7894
擊毬	-11.7895
土木之役	-11.7895
姜鋧	-11.7895
▁尾長四五尺許	-11.7895
工曹正郞	-11.7895
▁尾長二三尺許	-11.7895
金益精	-11.7895
一禁	-11.7896
右賓客	-11.7897
而然歟	-11.7897
鬼神	-11.7898
茶禮	-11.7898
卽位以來	-11.7899
洪羲	-11.7899
于平安道	-11.79
告急	-11.7901
懷德	-11.7901
敎養	-11.7901
雲山	-11.7901
邊邑	-11.7901
領議政奇自獻	-11.7902
宋駿	-11.7902
在位	-11.7903
▁於義	-11.7906
▁竝直赴殿試	-11.7906
六品以上	-11.7906
同坐	-11.7907
邇來	-11.7907
責成	-11.7907
官府	-11.7908
錄功	-11.7908
▁今承	-11.7909
可怪	-11.7912
雖如此	-11.7912
爲京畿監司	-11.7912
一切禁斷	-11.7914
京畿水使	-11.7914
停捧	-11.7914
削科	-11.7914
逃去	-11.7915
供給	-11.7918
諭善	-11.792
尙多	-11.7921
杖七十	-11.7922
爲宗社	-11.7923
敬謹	-11.7925
親幸	-11.7927
▁不若	-11.7931
定日	-11.7932
不易之	-11.7932
免死	-11.7933
引見大臣備堂	-11.7935
迎合	-11.7936
之化	-11.7936
日滋	-11.7938
百餘名	-11.7938
爵祿	-11.7939
撓改	-11.794
讀之	-11.7941
又如此	-11.7942
西壁	-11.7943
從諫	-11.7944
不捧	-11.7945
赴召	-11.7945
彦春	-11.7945
會圈	-11.7945
習俗	-11.7946
不立	-11.7946
罷散	-11.7947
上祗迎	-11.7948
金鼎	-11.795
細事	-11.7952
勸之	-11.7953
土宜	-11.7953
爵命	-11.7953
進饌	-11.7954
誾	-11.7954
攻之	-11.7954
尤甚邑	-11.7954
二石	-11.7955
依法典	-11.7955
攘	-11.7956
障	-11.7957
特送	-11.7957
北邊	-11.7957
蠟	-11.7959
鉛	-11.7959
璔	-11.7959
▁比比有之	-11.7959
㙉	-11.7959
叢	-11.7959
李喆輔	-11.7959
紗帽	-11.7959
閔鍾顯	-11.7959
興起	-11.7959
記憶	-11.796
赫然	-11.796
金守溫	-11.796
踐歷	-11.796
牟利	-11.7961
諸囚	-11.7961
餘存	-11.7961
李敏求	-11.7962
請還寢	-11.7963
忠淸水使	-11.7964
霖雨	-11.7964
大行王	-11.7965
催督	-11.7966
李德壽	-11.7967
來泊	-11.7968
考閱	-11.7969
副萬戶	-11.7969
任章	-11.7969
不難	-11.797
防啓	-11.797
環刀	-11.797
▁而今聞	-11.7971
下玄宮	-11.7972
悖惡	-11.7973
之怨	-11.7973
按獄	-11.7975
希達	-11.7977
接待都監	-11.7978
慘矣	-11.7979
撤樂	-11.798
無聞	-11.7981
孝思	-11.7982
格天	-11.7983
有疾病	-11.7983
▁臣等謂	-11.7984
久近	-11.7986
賜衣	-11.799
杜門	-11.7991
訊杖	-11.7991
嘗以	-11.7993
▁然後始	-11.7993
同處	-11.7993
▁終必	-11.7996
戒後	-11.7997
至尊	-11.7998
留住	-11.8002
▁今復	-11.8002
啓沃	-11.8003
天際	-11.8003
▁合有	-11.8003
亨孫	-11.8005
爲左議政	-11.8006
▁豈必	-11.8007
可信	-11.8008
改題	-11.8009
日晩	-11.801
行常參	-11.801
鷹子	-11.8011
華人	-11.8011
來呈	-11.8013
戊	-11.8015
之甚也	-11.8016
親密	-11.8016
夏月	-11.8016
嘗試	-11.8017
琢	-11.8018
惡其	-11.8019
圻	-11.8019
慮有	-11.8021
別有	-11.8021
▁其問于	-11.8022
無根	-11.8023
煽	-11.8023
未完	-11.8023
朴光	-11.8023
殖	-11.8024
洪奭周	-11.8024
在天之靈	-11.8024
柟	-11.8024
兔	-11.8024
金取魯	-11.8024
軒架	-11.8024
金湜	-11.8024
糶糴	-11.8025
予將	-11.8025
曾於	-11.8025
測候	-11.8025
重其事	-11.8025
論遞	-11.8026
▁俱有	-11.8026
馹孫	-11.8027
▁辭旨	-11.8027
結綵	-11.8028
文昭	-11.8031
陞擢	-11.8031
▁請命出仕	-11.8032
萬餘石	-11.8033
▁承旨等啓曰	-11.8033
五十餘人	-11.8034
身布	-11.8034
興仁門	-11.8035
▁事體未安	-11.8036
弘文館箚子	-11.8036
▁及見	-11.8036
限內	-11.8037
別殿	-11.8038
預差	-11.8039
生員李	-11.8039
私親	-11.8039
居喪	-11.804
恩津	-11.804
濫加	-11.8042
頃刻	-11.8042
▁以解	-11.8043
兩日	-11.8044
能堪	-11.8045
非我	-11.8047
才行	-11.8049
于朝	-11.805
所共憤	-11.8051
依此擧行	-11.8053
國光	-11.8053
盲	-11.8053
邑宰	-11.8054
記事	-11.8055
不察之失	-11.8056
欲待	-11.8056
分左右	-11.8056
▁爭相	-11.8057
▁今亦依此	-11.8058
一日之內	-11.8059
所捉	-11.806
賀聖節	-11.8061
覲親	-11.8061
徵布	-11.8062
濫受	-11.8064
同類	-11.8064
外庭	-11.8064
刑章	-11.8064
該吏	-11.8065
而不用	-11.8066
允許	-11.8067
磨鍊以啓	-11.8068
獲罪	-11.807
大紅	-11.807
▁而竟	-11.807
▁唯以	-11.8071
爭辨	-11.8072
之義乎	-11.8072
當留念	-11.8073
旣出	-11.8074
孝悌	-11.8076
自列	-11.8077
常典	-11.8078
上幸慕華館	-11.8079
聖賢	-11.8082
別置	-11.8083
▁極可	-11.8085
一定	-11.8085
德馨	-11.8085
杖殺	-11.8085
尤難	-11.8086
璡	-11.8086
曼	-11.8087
▁遂至	-11.8087
無悔	-11.8087
聒	-11.8088
豹	-11.8088
綽	-11.8089
碧蹄	-11.8089
三十三	-11.809
忠厚	-11.809
仆	-11.809
哂	-11.809
南泰齊	-11.809
瀷	-11.809
沽	-11.809
馭	-11.809
鳩	-11.809
凈	-11.809
忠順衛	-11.809
訑	-11.809
崔興源	-11.809
鄭錫五	-11.809
李克堪	-11.809
尹慜	-11.8092
捲堂	-11.8092
惶懼	-11.8092
先賢	-11.8093
登途	-11.8093
▁請命罷職不敍	-11.8094
李蕆	-11.8096
悖妄	-11.8096
▁臣意則	-11.8099
三聘	-11.8104
左議政金尙魯	-11.8105
財力	-11.8106
在我	-11.8106
尹珣	-11.8106
▁臣又	-11.8107
者久矣	-11.8108
冬月	-11.8108
▁如是則	-11.8109
漲	-11.8109
甚焉	-11.8109
存問	-11.8111
狃於	-11.8112
之過也	-11.8112
無他意	-11.8112
諸員	-11.8112
參榜	-11.8113
丹陽	-11.8116
妻孥	-11.8116
進駐	-11.8117
壯元	-11.8119
金仁	-11.8119
望哭	-11.812
來此	-11.8126
死傷	-11.8126
▁臣卽	-11.8127
嘉義	-11.8129
陞拜	-11.813
生死	-11.8131
嚴密	-11.8132
今將	-11.8132
▁皆由	-11.8133
諸僚	-11.8133
蒙放	-11.8133
議施行	-11.8135
事傳敎矣	-11.8138
表箋	-11.8138
報監司	-11.8138
幾年	-11.8141
關啓	-11.8141
前代	-11.8141
仰奏	-11.8141
▁勢不可	-11.8142
九重	-11.8142
常仕	-11.8142
茂長	-11.8143
無節	-11.8143
李肇	-11.8144
行在	-11.8144
來待	-11.8145
行止	-11.8145
致謝	-11.8145
此類	-11.8145
玄碩圭	-11.8147
復用	-11.8148
潚	-11.8149
詡	-11.815
幄	-11.8151
辭章	-11.8151
彩花席	-11.8152
鑰	-11.8153
孝昌	-11.8153
擲	-11.8155
珖	-11.8155
彦弼	-11.8155
▁人莫不	-11.8155
壑	-11.8156
薨	-11.8156
簇	-11.8156
筑	-11.8156
崔士康	-11.8156
熏	-11.8156
▁回賜正布	-11.8156
俌	-11.8156
囹圄	-11.8156
廣延樓	-11.8156
放歸田里	-11.8156
賫	-11.8156
洪茂績	-11.8156
潮	-11.8156
燃	-11.8156
吳挺一	-11.8156
▁無乃不可乎	-11.8156
大院君	-11.8156
沃溝	-11.8156
李書九	-11.8157
筋力	-11.8157
▁惶恐待罪	-11.8157
問其由	-11.8157
爲兼文學	-11.8157
孰不	-11.8158
▁僅得	-11.8158
金有慶	-11.8158
▁入乾方	-11.8158
▁入艮方	-11.8159
諂附	-11.8159
根柢	-11.8159
▁亦與	-11.816
捕倭	-11.8161
不可輕改	-11.8162
眼疾	-11.8163
鳳瑞	-11.8164
言送	-11.8165
冬雷	-11.8165
裁決	-11.8166
光祖	-11.8167
不稔	-11.8167
各一領	-11.817
▁至於如此	-11.8172
▁毋論	-11.8172
設廳	-11.8173
加上尊號	-11.8175
崇祿	-11.8175
▁則其所	-11.8175
接戰	-11.8176
▁凡諸	-11.8176
陳言	-11.8178
王子君	-11.818
接待所	-11.818
三十六	-11.8182
牌文	-11.8183
▁雖不能	-11.8183
▁只緣	-11.8183
▁一竝	-11.8184
忌日	-11.8184
登山	-11.8185
隨闕	-11.8185
趁不	-11.8186
有未盡	-11.8187
期限	-11.8187
▁非臣	-11.8188
金輔	-11.8189
英廟	-11.8189
而推之	-11.8189
▁因而	-11.8195
遼陽	-11.8196
多般	-11.8196
不罪	-11.8197
之計也	-11.8197
李泰淵	-11.8202
高明	-11.8202
司中	-11.8202
堉	-11.8203
其第	-11.8205
遣官致祭	-11.8207
不撓	-11.8207
旣承	-11.8208
▁常以	-11.8208
錮	-11.821
三石	-11.821
▁而有此	-11.8212
執禮	-11.8213
上疏略曰	-11.8215
蔚	-11.8218
成龍	-11.822
乃還	-11.822
可推	-11.8221
緞	-11.8223
沐	-11.8223
吝	-11.8223
絳紗袍	-11.8223
芒	-11.8223
洪宇遠	-11.8223
六日	-11.8223
金貴榮	-11.8223
綴	-11.8223
金履喬	-11.8223
鞍具馬一匹	-11.8223
兢惕	-11.8223
凋殘	-11.8223
廣州府尹	-11.8224
箭竹	-11.8225
浩繁	-11.8226
實職除授	-11.8226
一同	-11.8227
來問安	-11.8227
李溵	-11.8228
崇禮門	-11.8228
韓恂	-11.8229
世英	-11.8229
觀象監提調	-11.823
斂散	-11.823
小心	-11.8231
鎭堡	-11.8231
▁若待	-11.8231
爲人所	-11.8232
讀書堂	-11.8232
別軍職	-11.8233
其律	-11.8234
艱食	-11.8235
十二人	-11.8236
畢露	-11.8236
四十餘人	-11.8238
予小子	-11.8239
▁政院回啓	-11.8239
季良	-11.824
入闕	-11.824
滋甚	-11.8241
御營	-11.8242
極歡	-11.8243
初七日	-11.8243
身在	-11.8244
城基	-11.8246
▁悉皆	-11.8248
大旱	-11.8248
兇疏	-11.8251
頃以	-11.8251
林下	-11.8252
吏胥	-11.8253
仍帶	-11.8255
遊觀	-11.8257
任所	-11.8261
▁決無	-11.8261
▁於禮	-11.8263
慰安	-11.8264
親功臣	-11.8266
允下	-11.8267
黃金	-11.8267
代言等	-11.8268
上箚乞免	-11.8268
瑞山	-11.8268
祭需	-11.8269
分掌	-11.8271
小官	-11.8273
譴罰	-11.8273
▁令政院	-11.8273
執政	-11.8273
德川	-11.8273
大聖人	-11.8275
王章	-11.8276
徒黨	-11.8276
▁罪在	-11.8276
之孫也	-11.8277
白雲	-11.8278
相親	-11.828
▁以憑	-11.828
亦不能	-11.8282
所捕	-11.8282
橫城	-11.8284
所傳	-11.8284
療	-11.8285
可用之人	-11.8287
一擧	-11.8287
爲領議政	-11.8287
相近	-11.8287
李汝	-11.8289
衣資	-11.8289
舛	-11.8289
勛	-11.829
穰	-11.829
鐘	-11.829
徧	-11.829
渚	-11.829
鍵	-11.829
兪伯曾	-11.829
捽	-11.829
鄙陋	-11.8291
▁極爲悶慮	-11.8291
資生	-11.8291
娼妓	-11.8291
順付	-11.8292
副摠管	-11.8292
無難	-11.8292
凌辱	-11.8293
成化	-11.8294
死後	-11.8294
禪科	-11.8294
李時彦	-11.8295
孫澍	-11.8295
▁臣欲	-11.8295
延訪	-11.8296
▁豈不寒心	-11.8296
嘉悅	-11.8296
土産	-11.8298
不和	-11.8299
製詩	-11.8299
所不知	-11.8299
先入	-11.8301
兵力	-11.8302
緜紬	-11.8302
事涉	-11.8306
良法	-11.8306
誣引	-11.8306
現捉	-11.8306
水邊	-11.8307
回還時	-11.8308
太常	-11.8308
傳香	-11.8308
回程	-11.8309
扈	-11.831
▁語意	-11.831
暗行	-11.8313
左議政許積	-11.8314
瀆天聽	-11.8314
冬節	-11.8316
人力	-11.8316
餘黨	-11.8317
給由	-11.8317
金魯	-11.8318
在下者	-11.8319
農月	-11.8319
廐馬	-11.8319
▁然後乃	-11.832
國家不幸	-11.832
傳語	-11.8322
不由	-11.8324
▁此後則	-11.8325
安然	-11.8326
大賊	-11.8327
險阻	-11.8327
盲人	-11.8328
金何	-11.8331
見棄	-11.8331
抄擇	-11.8332
土木	-11.8333
三十八	-11.8333
財用	-11.8336
解職	-11.8336
存恤	-11.8338
擇吉	-11.8339
各年	-11.8341
作變	-11.8342
言論	-11.8343
▁官至	-11.8344
益深	-11.8344
相似	-11.8346
崇信	-11.8346
別提	-11.8348
玹	-11.8349
直告	-11.835
可改	-11.8352
▁故如此	-11.8352
柳雲	-11.8353
內需	-11.8353
寂	-11.8356
李陸	-11.8356
出置	-11.8356
黍	-11.8358
亘	-11.8358
耦	-11.8358
赧	-11.8358
趙雲逵	-11.8358
涇	-11.8358
尹德駿	-11.8358
藿	-11.8358
衫	-11.8358
金鎭龜	-11.8358
李匡德	-11.8358
置而不論	-11.8358
下書諸道觀察使	-11.8358
不經	-11.8358
禁衛大將	-11.8358
之所致	-11.8359
沔川	-11.8359
弘濟院	-11.8359
退出	-11.8361
李希輔	-11.8361
韓堰	-11.8361
五百餘	-11.8361
成婚	-11.8367
囚鞫	-11.8368
重修	-11.8369
皇天	-11.8369
▁時有	-11.837
精抄	-11.837
布貨	-11.8371
召募	-11.8372
克成	-11.8373
密城君	-11.8373
冒占	-11.8376
▁上特	-11.8377
製造	-11.8379
▁起自	-11.838
爲禮曹佐郞	-11.838
承旨推考	-11.8382
不能支	-11.8392
特減	-11.8392
陳荒	-11.8393
謂臣	-11.8393
觀瞻	-11.8394
大建	-11.8395
欲免	-11.8396
發身	-11.8397
大略	-11.8397
喜怒	-11.8397
領率	-11.8398
尹銑	-11.8399
名在	-11.8402
痛惡	-11.8404
▁今更	-11.8405
慶業	-11.8405
放砲	-11.8406
可議	-11.8406
外祖	-11.8406
骸	-11.8407
愚妄	-11.8407
予已知之	-11.8409
入門	-11.841
▁而其後	-11.8413
令禮官	-11.8413
貢法	-11.8418
母病	-11.8423
凍死	-11.8423
嬖	-11.8426
柳思訥	-11.8426
麿	-11.8426
搏	-11.8426
苞	-11.8426
姻婭	-11.8426
彰義宮	-11.8426
洪處亮	-11.8426
纓	-11.8426
線	-11.8426
▁昭不可掩	-11.8426
數十年	-11.8426
▁略無顧忌	-11.8426
滋蔓	-11.8426
留中不下	-11.8426
蔚珍	-11.8426
衰絰	-11.8426
熒惑	-11.8426
父喪	-11.8426
隕越	-11.8427
李聖	-11.8427
李自堅	-11.8428
同氣	-11.8428
治療	-11.8429
權景祐	-11.843
朴仲孫	-11.843
左賓客	-11.8431
于本府	-11.8431
布天	-11.8431
吾輩	-11.8432
受香	-11.8433
前日所	-11.8433
極選	-11.8433
策勳	-11.8433
軫慮	-11.8434
恬然	-11.8435
李世華	-11.8435
臣隣	-11.8435
獨當	-11.8436
聽斷	-11.8437
陰險	-11.8437
行望闕禮	-11.8437
鄙瑣	-11.8437
所啓之意	-11.8438
其冤	-11.8438
▁命依	-11.8439
倭館	-11.844
徵斂	-11.844
誤書	-11.844
▁只行	-11.8442
請對入侍	-11.8442
門下府	-11.8442
雷變	-11.8442
富貴	-11.8442
立碑	-11.8442
絶悖	-11.8442
一句	-11.8442
婢夫	-11.8442
現發	-11.8443
來自	-11.8444
兵馬使	-11.8445
廉察	-11.8446
無可疑	-11.8447
人所共知	-11.8447
乃是	-11.8447
於後世	-11.8449
▁遂使	-11.845
渭原	-11.845
保民	-11.8452
州太守	-11.8455
李昌後	-11.8455
爲逆	-11.8455
宴飮	-11.8456
齊坐	-11.8457
臺職	-11.8458
常人	-11.8458
禮樂	-11.8458
源義	-11.8463
光佐	-11.8465
羞辱	-11.8467
百執事	-11.8468
近似	-11.8468
相左	-11.847
陳情	-11.8473
意謂	-11.8473
▁命都承旨	-11.8473
下刑曹	-11.8473
慰宴	-11.8475
▁上遣	-11.8475
應入	-11.8477
小小	-11.8478
收聚	-11.8478
▁況當	-11.8479
寬厚	-11.8479
崇祖	-11.848
果何如	-11.8481
日數	-11.8481
比於	-11.8482
罪戾	-11.8485
顧忌	-11.8486
代理	-11.8487
穫	-11.8487
申氏	-11.8492
常情	-11.8492
手本	-11.8493
囂	-11.8494
彛	-11.8494
拏	-11.8494
朴汝樑	-11.8494
翕	-11.8494
複	-11.8494
黃昇源	-11.8494
簋	-11.8494
軀	-11.8494
金宇顒	-11.8494
餽	-11.8494
耿耿	-11.8494
兪㯙	-11.8494
隄備	-11.8494
非便	-11.8495
兪大建	-11.8495
掛榜	-11.8496
不容少緩	-11.8496
軍裝	-11.8497
代官	-11.8499
橫看	-11.85
數萬	-11.8501
銀貨	-11.8502
戶曹佐郞	-11.8502
傳命	-11.8505
齊憤	-11.8505
亂打	-11.8506
金集	-11.8506
昭雪	-11.8506
顧問	-11.8507
等上書	-11.8508
邦刑	-11.8509
甚苦	-11.851
啓請還收	-11.851
知人	-11.8511
諸浦	-11.8513
可笑	-11.8514
致雲	-11.8514
奏達	-11.8515
內間	-11.8518
趙尙絅	-11.8518
不得行	-11.8519
▁又將	-11.8519
李沃	-11.852
萬機	-11.8521
▁悉令	-11.8522
詩文	-11.8523
長陵	-11.8524
直斥	-11.8526
正犯	-11.8527
將欲	-11.8528
罪責	-11.8528
諫諍	-11.8532
李奎	-11.8532
問疾	-11.8533
山陵都監	-11.8533
陳田	-11.8533
可見矣	-11.8535
待秋成	-11.8535
到義州	-11.8536
李鎰	-11.8537
伸雪	-11.8538
謹稽	-11.8538
此理	-11.8538
前望	-11.8538
等四	-11.8539
▁若又	-11.854
一條	-11.8541
臣頃	-11.8542
▁則輒	-11.8544
主第	-11.8545
遠來	-11.8546
爭論	-11.8547
切至	-11.855
于東宮	-11.8552
出來時	-11.8555
務安	-11.8555
李相璜	-11.8557
不干於	-11.8559
禍福	-11.8561
朴文	-11.8562
靖陵	-11.8562
▁崇善	-11.8563
莽	-11.8563
楮	-11.8563
碧	-11.8563
裌	-11.8563
爲知經筵	-11.8563
李孟畇	-11.8563
雛	-11.8563
橐	-11.8563
烽燧	-11.8563
蠱	-11.8563
高彦伯	-11.8563
吳命峻	-11.8563
吳始復	-11.8563
行四拜禮	-11.8563
孥籍	-11.8564
來投	-11.8564
▁然後方可	-11.8564
整頓	-11.8564
不可測	-11.8565
於明日	-11.8565
一族	-11.8566
搜討	-11.8566
關北	-11.8569
貞陵	-11.8569
徐祉	-11.8569
石灰	-11.8571
鼎席	-11.8571
投屬	-11.8572
如初	-11.8572
不樂	-11.8572
依他例	-11.8574
仁政門	-11.8575
前一日	-11.8575
▁上召見之	-11.8577
我國之事	-11.8578
劾問	-11.8578
中一人	-11.8578
逐年	-11.8579
尹淮	-11.8579
扶餘	-11.858
之域	-11.8584
之稅	-11.8586
木川	-11.8587
不遞	-11.8587
臺疏	-11.8587
不能無	-11.8587
二百匹	-11.8588
其是非	-11.859
收錄	-11.8591
偸取	-11.8592
爲慶尙監司	-11.8592
木緜	-11.8593
同經筵	-11.8593
▁惟爾	-11.8594
參班	-11.8596
竝與	-11.8596
▁令承文院	-11.8598
年已	-11.8599
優於	-11.86
生還	-11.8602
▁設或	-11.8603
肆然	-11.8605
給送	-11.8606
▁而當初	-11.8609
停朝	-11.8609
皆如啓	-11.861
守法	-11.861
入見	-11.8611
導之	-11.8612
師錫	-11.8614
弓一張	-11.8614
按問	-11.8614
宗學	-11.8616
市人	-11.8617
穗	-11.8618
各一人	-11.8618
根因	-11.8619
靈山	-11.8622
凡有	-11.8624
親禱	-11.8627
勉留	-11.8628
敬陵	-11.8628
屢經	-11.8628
完畢	-11.8629
鬧	-11.8629
▁不可不愼	-11.8632
泗	-11.8632
褊	-11.8632
千載	-11.8632
枷	-11.8632
輦轂之下	-11.8632
謇	-11.8632
閒	-11.8632
關王廟	-11.8632
攬	-11.8633
瑀	-11.8633
鄭尙淳	-11.8633
趙榮國	-11.8633
朴永文	-11.8633
宋成明	-11.8633
驍勇	-11.8633
所捧	-11.8633
激惱	-11.8633
尹孝先	-11.8634
衆所共知	-11.8635
物議譁然	-11.8635
撫綏	-11.8635
隊副	-11.8636
一例	-11.8636
悔悟	-11.8636
驚怪	-11.864
誰肯	-11.864
李潤慶	-11.864
所遭	-11.8641
直路	-11.8642
▁靡不	-11.8643
盡瘁	-11.8643
尊卑	-11.8644
嗚呼	-11.8644
敗船	-11.8651
恒福	-11.8652
私廟	-11.8653
奸濫	-11.8653
別般	-11.8654
率領	-11.8654
請竄	-11.8655
收租	-11.8656
各司奴婢	-11.8657
出往	-11.8657
潛邸時	-11.8659
崇德	-11.8664
十結	-11.8664
持去	-11.8666
武官	-11.8666
▁惟其	-11.8668
成熟	-11.8671
渠等	-11.8672
雷雨	-11.8672
超拜	-11.8672
多謝	-11.8673
發軍	-11.8674
參上	-11.8674
賊臣	-11.8674
百官陳賀	-11.8675
善類	-11.8678
▁請停之	-11.868
更査	-11.8683
▁人有	-11.8683
幾至	-11.8685
親政	-11.8686
請罷職	-11.8686
亦豈不	-11.8686
▁亦恐	-11.8687
通川	-11.8688
移給	-11.8692
監造	-11.8692
泮儒	-11.8693
斬首	-11.8694
之甚乎	-11.8694
之暇	-11.8694
一端	-11.8697
址	-11.8697
臣等伏覩	-11.8699
回駕	-11.87
捍	-11.8702
唾鄙	-11.8702
鉢	-11.8702
體予至懷	-11.8702
左副賓客	-11.8702
淪	-11.8702
簽	-11.8702
宵旰	-11.8702
大明會典	-11.8703
尙州牧使	-11.8703
彝倫	-11.8703
徐命臣	-11.8703
光化門	-11.8704
濫觴	-11.8704
入屬	-11.8704
李秉常	-11.8705
紊亂	-11.8705
豐歉	-11.8706
餞宴	-11.8706
窮詰	-11.8707
▁第其	-11.8707
捕盜將	-11.8708
▁遂有是命	-11.8708
冒據	-11.8709
感歎	-11.871
▁今年則	-11.8711
解氷	-11.8711
臘享	-11.8711
變幻	-11.8713
不得已也	-11.8718
▁臣等以謂	-11.8719
▁尤非	-11.872
林健	-11.872
之憤	-11.8721
飾辭	-11.8723
李景曾	-11.8724
夫子	-11.8725
不設	-11.8726
殺獄	-11.8727
錄券	-11.8729
▁亦可以	-11.8729
參差	-11.873
還俗	-11.873
事體重大	-11.873
强煩	-11.8731
[...]
