<pad>	0
<unk>	0
,	-2.9524
.	-3.28658
을	-3.69488
의	-3.97172
를	-4.28237
▁"	-4.45408
."	-4.6022
가	-4.63298
이	-4.79833
는	-4.82304
·	-4.88908
▁	-5.01436
▁그	-5.22066
▁하였다	-5.23289
▁하니	-5.30593
은	-5.32167
에	-5.37743
도	-5.37768
▁수	-5.48403
▁아뢰기를	-5.57644
▁것이	-5.60551
과	-5.74335
하게	-5.77185
고	-5.83177
한	-5.837
▁또	-5.87131
▁임금이	-5.92638
▁모두	-5.92915
▁이	-5.93853
▁한	-5.9507
할	-5.96737
▁것은	-5.97248
로	-5.99175
▁하고	-6.06976
▁것을	-6.09099
히	-6.11546
하는	-6.15796
▁이미	-6.19312
으로	-6.23817
와	-6.27423
하여	-6.27503
▁말하기를	-6.32742
에게	-6.34648
▁일을	-6.37821
▁어찌	-6.37988
▁하라	-6.38267
?	-6.41421
게	-6.4594
▁것입니다	-6.46322
▁할	-6.48168
▁다시	-6.49229
▁하여금	-6.4963
하고	-6.49827
서	-6.50199
▁있는	-6.51463
▁것이다	-6.53228
▁상이	-6.58466
▁지금	-6.59668
▁때문에	-6.60888
▁1	-6.6387
▁전교하기를	-6.66379
▁일이	-6.68652
▁등이	-6.69329
▁때	-6.70569
▁하는	-6.71202
▁또한	-6.71328
▁하여	-6.71378
하도록	-6.71924
하지	-6.7292
▁여러	-6.73129
▁비록	-6.73644
만	-6.74439
▁매우	-6.77895
에서	-6.81196
▁반드시	-6.82632
▁그대로	-6.83193
▁없습니다	-6.84463
▁하소서	-6.87274
▁삼았다	-6.87841
▁말을	-6.88595
?"	-6.89184
하였다	-6.89575
지	-6.91107
▁일은	-6.952
▁않았다	-6.96357
▁따랐다	-6.97812
▁다	-6.9932
도록	-6.99425
▁두	-7.00327
▁전교하였다	-7.01954
▁것이니	-7.02711
▁마땅히	-7.03118
▁그러나	-7.0351
▁때에	-7.04336
▁죄를	-7.04495
백	-7.06689
▁이르기를	-7.07368
▁감히	-7.08618
▁있으니	-7.09252
▁않고	-7.11293
▁있을	-7.12706
인	-7.14084
▁자가	-7.14371
▁사람을	-7.14818
▁사람이	-7.15505
▁없는	-7.16741
▁나라	-7.18519
▁따라	-7.19472
▁3	-7.19818
▁않을	-7.21068
▁뒤에	-7.21307
▁없다	-7.21932
▁있습니다	-7.2447
▁그런데	-7.26526
다	-7.26953
▁하였는데	-7.27005
▁이제	-7.2701
▁명하여	-7.27261
▁내가	-7.27325
▁뜻을	-7.27377
▁다만	-7.27512
▁답하기를	-7.27738
▁만약	-7.28693
야	-7.28731
▁와서	-7.29003
▁2	-7.29004
▁보내어	-7.30237
▁하지	-7.30962
▁이는	-7.31425
▁서로	-7.32042
▁전	-7.32146
▁윤허하지	-7.33835
▁합니다	-7.34082
▁더욱	-7.34093
▁아뢴	-7.34297
▁명하였다	-7.3706
▁없으니	-7.37603
▁우리	-7.38097
▁신	-7.38221
▁것	-7.3839
▁등	-7.38613
▁청컨대	-7.40013
▁이를	-7.40272
▁나아가	-7.40903
▁말이	-7.41291
▁그리고	-7.418
▁않은	-7.41921
▁자는	-7.42372
▁수가	-7.43597
▁하였습니다	-7.43643
▁신이	-7.44174
▁마음	-7.44698
▁안	-7.45349
▁다른	-7.47318
▁등의	-7.47866
▁함께	-7.48037
▁가지고	-7.4876
▁대로	-7.49508
기	-7.50461
▁곧	-7.52299
▁특별히	-7.52592
▁내려	-7.53096
해	-7.54321
▁될	-7.54563
▁전에	-7.55823
▁판서	-7.5642
▁먼저	-7.56777
자	-7.57328
▁스스로	-7.57589
이다	-7.57908
▁번	-7.58741
▁큰	-7.59239
일	-7.59817
▁아울러	-7.59983
▁속	-7.60597
▁잘	-7.60742
▁지	-7.61005
▁같이	-7.61062
천	-7.6214
▁이에	-7.62385
▁인하여	-7.62408
하니	-7.63
▁및	-7.64027
▁못한	-7.64373
▁것인데	-7.64522
▁같은	-7.6469
▁있다	-7.64759
▁세	-7.65262
▁답하였다	-7.65809
▁어떻게	-7.66194
▁데	-7.66474
▁대신	-7.6671
라고	-7.66901
된	-7.67043
▁않는	-7.67218
▁이와	-7.67404
▁청하니	-7.67701
▁일찍이	-7.68103
나	-7.68227
▁더	-7.69065
▁한다	-7.69823
▁바로	-7.70142
▁있겠는가	-7.70256
▁진실로	-7.70857
▁5	-7.71104
▁것으로	-7.7175
▁하였으니	-7.71805
▁있겠습니까	-7.73567
▁온	-7.74305
▁사람들이	-7.74602
▁백성	-7.74605
까지	-7.7477
▁말라	-7.74883
▁고	-7.75656
하소서	-7.75801
▁각	-7.75932
▁이런	-7.76472
▁있는데	-7.76983
▁역시	-7.77815
하였는데	-7.78687
▁명을	-7.79247
▁아니라	-7.79334
▁가서	-7.7934
▁올려	-7.79745
하기를	-7.80605
▁4	-7.81709
▁있어	-7.82064
▁일에	-7.83305
▁이조	-7.83419
▁되어	-7.8415
▁신의	-7.84975
▁보고	-7.86885
▁아직	-7.87137
▁하였으나	-7.87879
▁내	-7.88551
▁즉시	-7.90024
▁하더라도	-7.90045
▁만한	-7.90862
신	-7.91123
면	-7.91378
▁대간이	-7.91488
하였으니	-7.91534
▁바가	-7.92248
입니다	-7.92288
▁실로	-7.92393
▁자	-7.92712
▁비	-7.93007
▁하교하기를	-7.93014
▁영의정	-7.93662
▁없을	-7.93908
▁알	-7.9444
▁이르러	-7.95652
▁된	-7.95836
▁말	-7.96105
해야	-7.96304
▁의논하여	-7.96435
▁만일	-7.96557
▁줄	-7.9673
▁10	-7.97028
▁조금	-7.97074
▁감사	-7.97243
▁각각	-7.97382
▁뜻이	-7.97397
▁상소하여	-7.97636
해서	-7.97843
하며	-7.98312
▁법을	-7.98691
▁것도	-7.99083
▁등은	-7.99374
▁못하고	-7.99785
▁사람은	-7.99794
여	-7.99924
▁바	-7.99971
▁하나	-8.0009
▁죄가	-8.00201
▁많이	-8.00209
▁중국	-8.00459
▁삼가	-8.00879
▁나누어	-8.00917
▁대해	-8.01014
▁보니	-8.0136
▁일	-8.01916
▁가운데	-8.02489
▁하는데	-8.0249
월	-8.03238
▁고을	-8.03768
▁승지	-8.04077
▁장차	-8.04252
▁대한	-8.04331
하였습니다	-8.04622
▁있게	-8.04741
라	-8.05178
▁무슨	-8.053
▁혹	-8.05434
▁말고	-8.05682
▁신은	-8.05804
▁가	-8.06117
▁더구나	-8.06513
▁의하여	-8.07294
▁크게	-8.07296
▁이어	-8.07526
▁있었다	-8.0867
▁보내	-8.08763
▁있고	-8.0885
▁알지	-8.10344
▁일로	-8.10446
▁6	-8.10777
▁있으면	-8.11365
▁장	-8.11603
▁정	-8.11612
▁중	-8.11702
합니다	-8.12179
▁해	-8.1258
▁있어서	-8.12801
▁등을	-8.13242
▁장령	-8.14456
▁의	-8.14608
▁혹은	-8.15491
신이	-8.15648
▁가지	-8.15682
▁도로	-8.15873
▁지평	-8.16018
▁차자를	-8.16507
▁모든	-8.17063
▁자를	-8.17398
▁우선	-8.17466
함이	-8.17685
어	-8.17753
리	-8.18023
▁참으로	-8.19173
▁좌의정	-8.19364
▁국가	-8.19561
▁해야	-8.1961
▁듯합니다	-8.19714
▁성	-8.1984
▁불러	-8.19967
▁나의	-8.20362
▁것과	-8.20488
▁너무	-8.20658
▁나이	-8.21016
▁않으니	-8.21059
▁없고	-8.21544
하면	-8.21623
▁의거하여	-8.21907
전	-8.21928
▁친히	-8.22243
▁병조	-8.2226
▁글	-8.22347
▁하라고	-8.22444
▁소	-8.22603
인데	-8.22633
▁갑자기	-8.22817
▁정언	-8.2347
▁단지	-8.23904
▁사람의	-8.24146
이나	-8.24249
▁무	-8.24344
▁이것은	-8.24383
사	-8.24938
▁예에	-8.25113
▁나머지	-8.25204
▁예조	-8.25428
▁역적	-8.25725
▁나	-8.2573
▁폐단이	-8.25837
▁주고	-8.26012
▁정원에	-8.26132
▁따르지	-8.26716
▁우의정	-8.2736
▁끝내	-8.28856
니	-8.28906
▁지극히	-8.28936
▁마음이	-8.29081
▁사람	-8.29117
▁알고	-8.29974
▁중에	-8.30194
▁거듭	-8.30504
들이	-8.3073
▁사	-8.31526
정	-8.31623
▁오히려	-8.31673
기를	-8.31987
▁이러한	-8.32319
▁잘못	-8.32979
▁아뢰었으나	-8.33026
년	-8.33541
▁뒤	-8.33899
▁들어	-8.3431
과연	-8.34594
▁빨리	-8.34648
▁나아갔다	-8.34899
▁오래	-8.34937
▁그가	-8.35394
▁아닙니다	-8.35418
▁없이	-8.355
▁동안	-8.35543
지금	-8.35815
▁어떻겠습니까	-8.36068
▁7	-8.36119
▁있었는데	-8.36132
▁보건대	-8.36713
▁성상	-8.37032
하기	-8.37051
▁능	-8.37209
▁하면	-8.37231
▁못하여	-8.37939
▁거느리고	-8.38101
▁대사헌	-8.38548
▁못하게	-8.38806
▁에	-8.38876
일에	-8.38882
▁대개	-8.38989
하면서	-8.39293
▁전지하기를	-8.39428
▁듣고	-8.3951
▁않는다	-8.39661
진	-8.40026
습니다	-8.4016
▁나온	-8.40193
▁이렇게	-8.40211
▁대간	-8.40238
▁다음	-8.40632
▁날	-8.40755
▁되는	-8.40946
▁못할	-8.40999
이니	-8.41194
▁받고	-8.4139
며	-8.41537
▁대신과	-8.41554
▁수는	-8.41835
▁아뢰니	-8.4189
▁이것이	-8.42072
▁집에	-8.422
▁말은	-8.43028
▁8	-8.43091
▁경	-8.4329
▁전하께서	-8.43503
▁백성들이	-8.44027
▁헌부가	-8.44272
▁있으면서	-8.44581
▁한다면	-8.44627
▁자세히	-8.44982
명	-8.45065
▁폐단을	-8.45081
수	-8.45279
▁군사를	-8.45345
▁나와	-8.45434
▁않습니다	-8.45566
장	-8.45706
▁없게	-8.45848
▁오늘	-8.45924
대로	-8.46693
던	-8.46747
▁앞서	-8.47275
▁마침내	-8.47571
▁자기	-8.47829
▁아뢰었다	-8.48077
▁하자	-8.48081
▁본래	-8.4827
▁때에는	-8.48512
소	-8.48569
▁명하소서	-8.4871
▁조정의	-8.48828
▁정원이	-8.49533
▁그렇게	-8.4963
▁거의	-8.49817
▁신들이	-8.49826
▁어제	-8.49929
▁도리어	-8.50298
처럼	-8.5037
▁몸	-8.50533
하였고	-8.50557
▁해서	-8.5065
▁병이	-8.50896
▁제	-8.51177
▁내렸다	-8.51389
▁예를	-8.51519
▁대하여	-8.51604
▁사신이	-8.52022
▁되면	-8.52074
▁써서	-8.52099
▁만들어	-8.52349
릇	-8.52695
▁이때에	-8.52751
▁말라고	-8.52756
▁대신이	-8.5284
▁그들	-8.53155
▁사이에	-8.53349
▁대답하기를	-8.53419
▁많은	-8.5375
▁죄는	-8.53793
▁지평으로	-8.54008
이라	-8.54142
▁정언으로	-8.54258
▁본	-8.54625
▁죽은	-8.54983
하라	-8.55103
▁배	-8.55474
▁비답	-8.55517
품	-8.55537
▁아니다	-8.55787
▁공	-8.56138
▁대사간	-8.56521
▁뜻으로	-8.56844
에는	-8.56845
▁일입니다	-8.56998
▁대해서는	-8.57077
▁장령으로	-8.57292
▁길이	-8.5813
▁경우	-8.58138
치	-8.58237
▁오직	-8.58645
▁번거롭게	-8.58836
▁않아	-8.59148
▁채	-8.59216
▁이어서	-8.59224
▁쓸	-8.59232
▁더불어	-8.59315
▁도	-8.5949
경	-8.59684
성	-8.5969
인을	-8.59758
▁데에	-8.59988
▁받아	-8.60171
부터	-8.60198
▁아	-8.60278
▁삼고	-8.60336
▁받은	-8.60424
▁따라서	-8.60493
단	-8.605
▁뿐만	-8.60504
▁명이	-8.60717
▁경은	-8.60784
▁사직하지	-8.60799
세	-8.61247
▁대사간으로	-8.61493
▁없는데	-8.61601
▁됩니다	-8.6173
▁말할	-8.61745
▁곳에	-8.61773
▁말한	-8.6188
▁않았으니	-8.61901
▁듣건대	-8.61931
▁적에	-8.6206
▁시켜	-8.62133
▁사람들	-8.62462
▁지금은	-8.62668
▁차례	-8.62688
필	-8.62875
▁임금의	-8.63071
▁집의	-8.63392
▁않으면	-8.64017
▁오로지	-8.64109
▁옮겨	-8.64142
▁벼슬	-8.64212
▁주었다	-8.64372
▁임금	-8.64376
흐	-8.64411
▁은혜	-8.64495
▁비로소	-8.64628
▁위하여	-8.64688
되어	-8.64775
▁안에	-8.64885
▁곳이	-8.64979
▁작은	-8.64994
었다	-8.65033
상	-8.65051
▁예조에서	-8.65078
▁군사	-8.65123
▁예조가	-8.65388
▁후에	-8.65465
▁있다고	-8.65523
▁아뢰라	-8.65884
▁이때	-8.66105
는데	-8.66175
하였으나	-8.66375
▁형조	-8.66424
▁달	-8.6655
▁경기	-8.66578
▁양사가	-8.66723
▁있으므로	-8.66974
▁없다고	-8.67006
내가	-8.67121
▁20	-8.6715
▁것이며	-8.67299
한다면	-8.67522
▁아들	-8.67651
▁미리	-8.67746
▁아룁니다	-8.67765
▁하며	-8.67907
로써	-8.67913
▁파직	-8.68034
▁아무	-8.68056
무	-8.68212
▁홍문관	-8.68273
▁판서로	-8.68425
유	-8.68689
▁분부	-8.68787
▁보면	-8.68905
▁간원이	-8.68986
▁강	-8.69402
▁드디어	-8.69869
로서	-8.6987
▁당하여	-8.69954
▁행하였다	-8.70042
▁없었다	-8.70065
▁관한	-8.7011
▁적이	-8.70301
▁주는	-8.70396
▁오	-8.70786
원	-8.70826
▁되었으니	-8.70959
▁몇	-8.70988
▁9	-8.71008
▁것에	-8.7109
대	-8.71311
▁사간	-8.71327
▁사헌부	-8.71348
▁비답하기를	-8.71397
토록	-8.71399
석	-8.71406
▁일이다	-8.7144
조	-8.71584
▁필요	-8.71622
▁이번	-8.71933
▁나는	-8.72318
▁종	-8.72604
▁아니하였다	-8.72644
▁승지로	-8.72716
▁그런	-8.72745
▁주어	-8.72893
▁하므로	-8.73246
▁갈	-8.73285
▁새로	-8.73403
▁쌀	-8.73433
에게는	-8.73471
▁대사헌으로	-8.73662
보다	-8.74117
▁때문이었다	-8.74272
▁못하는	-8.74882
▁않아서	-8.75057
아	-8.75074
▁사는	-8.75174
동	-8.75195
▁이유로	-8.75313
▁여겨	-8.75367
▁어떤	-8.75492
하라고	-8.75568
▁상을	-8.75572
구	-8.75636
주	-8.75791
▁고을에	-8.76093
▁조정에	-8.7611
▁이번에	-8.7612
▁대신에게	-8.76201
으로서	-8.76663
▁평안도	-8.77676
시	-8.7782
▁되니	-8.78054
▁옳지	-8.78097
▁하물며	-8.781
▁그것	-8.78135
▁신하	-8.78328
하려고	-8.78465
▁어려운	-8.78531
▁하였고	-8.78819
▁몹시	-8.78901
▁호조	-8.78964
▁참판	-8.79043
▁아뢰고	-8.79302
▁함부로	-8.79477
▁받들어	-8.79487
▁준	-8.79847
▁이처럼	-8.79884
▁조정	-8.801
▁대략	-8.80195
라는	-8.80345
▁자리에	-8.804
▁볼	-8.80404
▁못합니다	-8.80407
만을	-8.80626
▁간	-8.80677
▁지난	-8.80725
▁은	-8.80786
▁영	-8.80802
▁밤에	-8.80975
▁허락하지	-8.80985
▁경상도	-8.81
▁되고	-8.81029
▁도승지	-8.81056
부	-8.81309
▁조정에서	-8.81317
▁하늘	-8.81393
▁깊이	-8.81475
문	-8.81545
▁후	-8.81789
▁되었다	-8.81914
▁옛	-8.81995
함을	-8.82132
▁먼	-8.82385
▁왕이	-8.82553
▁한결같이	-8.82558
▁50	-8.82588
▁대	-8.82791
하므로	-8.82892
하였으므로	-8.83395
▁청하였으나	-8.83742
▁처음에	-8.83855
▁등에게	-8.83903
▁성상께서	-8.84004
▁것이고	-8.84015
▁물러가	-8.84065
▁일체	-8.841
▁가장	-8.84538
▁사신은	-8.84626
▁되었습니다	-8.84787
▁행	-8.84838
▁관찰사	-8.84921
▁전의	-8.84936
▁것이었다	-8.84945
▁차마	-8.85015
▁술을	-8.85031
▁염려	-8.85261
윤	-8.85324
▁바라건대	-8.85374
인이	-8.85428
▁없어	-8.85479
거나	-8.85503
▁받지	-8.85742
▁두고	-8.85774
▁지어	-8.85786
▁듣지	-8.85839
명을	-8.85996
▁자리	-8.86595
▁30	-8.86603
우	-8.86667
▁주	-8.86711
▁생각	-8.86722
▁해당	-8.86754
▁정사를	-8.86794
▁비변사가	-8.87004
▁백성이	-8.87511
▁부사	-8.87603
▁말로	-8.87841
▁말하지	-8.87849
보	-8.87993
▁같습니다	-8.88176
▁네	-8.88192
▁그래서	-8.88387
▁하루	-8.88729
이라고	-8.88862
▁전혀	-8.88995
▁이름을	-8.89174
▁가는	-8.89203
▁금	-8.89241
한다	-8.89468
▁유	-8.89469
하려	-8.89474
▁명	-8.89602
▁명령	-8.89723
▁양	-8.89874
▁죄인	-8.8999
▁겸	-8.9005
▁구	-8.90171
▁사간원	-8.9026
하	-8.90267
▁항상	-8.90303
▁있었습니다	-8.9035
시킬	-8.90351
▁쓰는	-8.90607
▁없었습니다	-8.90628
▁화	-8.90678
▁전하	-8.90732
▁상께서	-8.90746
▁의논을	-8.90908
▁사람에게	-8.90919
▁본디	-8.90931
▁없지	-8.90945
▁직접	-8.91142
▁아비	-8.91197
▁같다	-8.91205
▁의논하기를	-8.91295
▁않았습니다	-8.91632
▁오랫동안	-8.91671
▁범한	-8.91821
▁앞으로	-8.92006
▁길을	-8.92079
▁초	-8.92271
▁하지만	-8.92458
▁사헌부에서	-8.9263
▁마음대로	-8.92692
▁오늘날	-8.92698
▁멀리	-8.92748
▁어느	-8.92816
▁것인가	-8.9284
소서	-8.92975
▁경연에	-8.93037
관	-8.93047
▁밖에	-8.93281
▁처	-8.93333
▁되지	-8.9344
▁전라도	-8.93461
▁자신	-8.93465
▁윤허하였다	-8.93491
▁병을	-8.93506
▁날로	-8.93675
▁위에서	-8.94295
▁서울에	-8.94352
하자	-8.94702
▁비국	-8.94738
▁유성이	-8.94875
▁않는다면	-8.95091
▁신들	-8.95151
▁각기	-8.95241
▁당시	-8.95302
▁헌납	-8.95333
▁있기	-8.95402
▁그러니	-8.95494
▁곧바로	-8.95762
▁마땅합니다	-8.95799
▁올린	-8.96013
▁계사	-8.96036
▁뿐	-8.96501
▁경이	-8.96539
▁심	-8.96551
▁들어가	-8.9665
▁나서	-8.97045
▁의정부	-8.97055
▁사헌부가	-8.97083
으로써	-8.97126
두	-8.97126
▁중에서	-8.97232
▁살	-8.97364
▁제사를	-8.97491
▁된다	-8.97529
▁부	-8.97565
▁못하니	-8.9766
▁저	-8.9804
▁헌납으로	-8.98074
▁청한	-8.98209
▁죄수	-8.98222
▁주소서	-8.98229
▁계책	-8.9832
▁이보다	-8.98342
양	-8.9849
▁미처	-8.98517
▁본도	-8.98518
▁없어서	-8.98545
하고자	-8.98586
▁널리	-8.98667
▁내어	-8.98835
필을	-8.98901
하였으며	-8.99088
선	-8.99235
들을	-8.99335
▁승정원에	-8.9952
▁의논이	-8.99536
라도	-8.99573
▁잡아	-8.99663
▁상	-8.99803
▁청	-8.99901
했던	-8.99977
▁그러므로	-9.00178
▁하겠다	-9.00349
▁마치	-9.00494
▁처음	-9.00621
▁사실을	-9.00647
▁결코	-9.00712
▁뜻은	-9.00794
▁물건을	-9.00941
▁아니하고	-9.00981
▁날이	-9.01326
▁아니니	-9.0141
▁아는	-9.01517
▁삼	-9.01526
▁같지	-9.01886
▁동	-9.02047
케	-9.02109
▁정지	-9.02221
▁못하였다	-9.02259
산	-9.02308
▁몰래	-9.02321
▁수찬으로	-9.02328
▁밤	-9.02848
될	-9.02976
▁상소를	-9.02985
▁의리	-9.03062
▁사간으로	-9.03153
운	-9.03163
▁있지	-9.03175
▁관직을	-9.03235
▁사람으로	-9.03251
▁하매	-9.03324
▁헤아려	-9.03515
▁내린	-9.03615
▁갖추어	-9.0367
다면	-9.03712
▁장수	-9.03714
▁위에	-9.03775
▁서	-9.03874
란	-9.04047
▁소장	-9.04149
▁남	-9.04179
▁보내는	-9.04202
▁덕	-9.04232
▁위해	-9.04324
▁못	-9.04447
▁좋은	-9.04509
화	-9.04575
▁위로	-9.04831
▁말도록	-9.0503
▁조	-9.0504
▁하면서	-9.05104
▁형	-9.05133
▁청하였다	-9.05278
▁현재	-9.05362
▁바를	-9.05398
중	-9.05598
▁체직	-9.05794
▁내리고	-9.05831
개	-9.0588
신은	-9.05893
▁쓰지	-9.05917
▁이것을	-9.06071
▁집의로	-9.06137
▁원	-9.06169
▁만나	-9.06185
오	-9.06237
▁도의	-9.06259
데	-9.06329
▁때문이다	-9.06495
▁약	-9.06504
▁참판으로	-9.0651
었습니다	-9.06659
▁보	-9.06834
▁계하기를	-9.07009
▁논한다	-9.07097
▁나아가서	-9.07209
▁들으니	-9.07255
▁엄히	-9.0742
다가	-9.07441
▁여기고	-9.07454
▁옛날	-9.07567
하되	-9.07661
▁권	-9.0771
▁유생	-9.07883
▁아니고	-9.08076
▁만	-9.08198
현	-9.08239
▁물론	-9.08296
▁마음에	-9.08432
마다	-9.08434
▁의논	-9.08502
▁법에	-9.08714
안	-9.08715
▁제조	-9.08734
▁하겠습니다	-9.0874
▁곳	-9.089
▁장계	-9.08955
▁이상	-9.08966
▁별도	-9.08976
▁말에	-9.09205
▁머물러	-9.09398
▁누가	-9.09431
▁직임	-9.0944
▁김	-9.0945
▁상세히	-9.09617
▁들은	-9.0969
▁겨우	-9.09766
▁상소하기를	-9.09787
▁교리로	-9.09828
▁사간원이	-9.09851
▁것만	-9.09952
으니	-9.10134
내	-9.10286
▁형벌	-9.1044
▁거행	-9.10479
▁들어주지	-9.10513
▁못하였습니다	-9.10554
▁마침	-9.1069
▁있어서는	-9.10723
▁어렵습니다	-9.11016
▁충청도	-9.11113
!	-9.11289
▁문	-9.11528
홍	-9.11533
▁법이	-9.11597
이미	-9.11666
이고	-9.11724
▁나라에	-9.11812
▁위한	-9.11967
▁중한	-9.12052
▁하게	-9.12194
▁상의	-9.12201
▁직무	-9.12332
▁향	-9.12426
▁관계되는	-9.12456
▁되었는데	-9.12666
박	-9.12754
▁달려	-9.12797
군	-9.12995
▁보지	-9.13111
영	-9.1312
▁있었으니	-9.13221
▁여겼다	-9.13275
▁아마	-9.13278
▁해조로	-9.1331
▁힘을	-9.13346
▁뜻에	-9.13351
었는데	-9.13381
▁것이므로	-9.13468
▁대저	-9.13665
▁없으므로	-9.13665
▁사신	-9.13933
▁인견하였다	-9.14127
▁같으니	-9.14154
▁뽑아	-9.14218
▁의정부에서	-9.14269
되지	-9.14269
▁않았는데	-9.14305
▁전하께서는	-9.14324
▁주지	-9.14531
▁청합니다	-9.14636
▁지방	-9.14739
▁산	-9.14749
연	-9.14829
강	-9.14887
못	-9.14911
하던	-9.14947
▁아주	-9.15042
했는데	-9.15067
들	-9.1509
▁않다	-9.15093
▁것이라고	-9.1517
▁명하고	-9.1521
▁곳을	-9.15229
공	-9.1523
▁윤허	-9.15247
질	-9.15333
▁공사를	-9.15342
▁자도	-9.15421
이므로	-9.15429
▁이른바	-9.15466
▁공조	-9.15605
▁데리고	-9.15682
▁변	-9.1579
▁하되	-9.15981
호	-9.16052
▁말게	-9.16068
제	-9.16097
▁아뢰게	-9.16116
시켜	-9.1615
▁신들은	-9.16171
▁에서	-9.16248
▁말하는	-9.16303
▁오는	-9.16317
▁정성	-9.16326
▁고쳐	-9.16439
▁듯하다	-9.16475
요	-9.1668
▁사사로이	-9.16756
▁의당	-9.16852
▁한번	-9.17102
▁백	-9.17117
▁상고하여	-9.17181
▁굳이	-9.1719
▁기	-9.17199
므로	-9.17295
▁전례에	-9.17325
▁국문	-9.17328
▁수령	-9.17409
▁사체	-9.17695
▁날마다	-9.17713
려	-9.17789
▁있으나	-9.17862
▁열	-9.18079
▁신을	-9.1818
▁집을	-9.18202
▁경계	-9.18219
▁사관	-9.18242
▁연	-9.18324
하는데	-9.1838
▁관계	-9.18459
▁각별	-9.18463
▁않게	-9.18582
▁가까운	-9.18663
더라도	-9.18735
▁진	-9.1874
▁어찌하여	-9.18843
▁황해도	-9.18871
▁사람들을	-9.18914
면서	-9.1895
▁힘써	-9.19016
▁그때	-9.1902
▁바쳤다	-9.19106
▁임무	-9.19138
▁병조에서	-9.19227
한다는	-9.19446
▁관원을	-9.19582
▁주게	-9.19898
▁편	-9.19914
재	-9.19927
▁근래에	-9.20149
▁두어	-9.20159
▁노	-9.20278
▁여	-9.2037
▁아뢰어	-9.20382
▁여기는	-9.20397
▁받들고	-9.2051
▁감사가	-9.20539
▁복	-9.20611
▁억지로	-9.20627
▁이후로	-9.20639
▁점이	-9.20678
▁모	-9.20726
김	-9.208
▁백성들의	-9.20833
▁모름지	-9.20938
▁성명	-9.2095
이란	-9.21098
하다	-9.21353
▁선비	-9.21389
하신	-9.21407
필시	-9.21433
▁자주	-9.21522
▁당	-9.21571
▁왕세자가	-9.21713
어제	-9.21729
▁가려	-9.21742
아뢴	-9.21754
▁거두어	-9.21815
▁전계	-9.21896
▁살펴서	-9.21905
▁전례	-9.21908
▁어려울	-9.21927
다고	-9.22015
▁15	-9.22054
▁대비	-9.22087
▁사신을	-9.22246
▁차등	-9.22272
▁정하여	-9.22304
▁호	-9.22305
▁의논하게	-9.22558
종	-9.22621
이었다	-9.22682
▁세자가	-9.22752
▁아래에서	-9.22793
▁과거	-9.22945
▁끝까지	-9.23003
▁죄	-9.23137
당	-9.23138
▁아닌	-9.2319
▁일과	-9.23291
▁주도록	-9.23348
▁참의로	-9.23494
▁의논드리기를	-9.23531
▁감	-9.23805
엄하게	-9.23813
▁행하고	-9.23821
▁실정	-9.23882
▁석	-9.23906
까	-9.23915
▁신하들이	-9.23966
▁기다려	-9.24174
하라는	-9.24437
했다	-9.24488
▁병사	-9.24543
▁경의	-9.24547
▁살펴	-9.24574
▁따른	-9.24575
▁곡식을	-9.25055
서는	-9.25116
▁조사하여	-9.25205
▁직을	-9.25214
▁한두	-9.25296
▁잔치	-9.25372
이제	-9.25395
▁보낸	-9.25527
▁사람과	-9.25725
▁박	-9.25762
▁해가	-9.25776
▁시	-9.25813
겠는가	-9.25871
▁두루	-9.25878
간	-9.25884
▁나가	-9.25981
권	-9.25997
▁옳다	-9.26004
▁따로	-9.26024
근	-9.26164
▁없으나	-9.26263
▁윤허한다	-9.26363
▁수령이	-9.26484
순	-9.26573
▁처리	-9.26722
승	-9.26903
▁않겠습니까	-9.26947
▁청하고	-9.27088
▁인재	-9.27108
▁처치	-9.27111
▁말하였다	-9.27371
▁지나치	-9.27436
▁있으며	-9.27567
겠습니까	-9.27583
▁청하였는데	-9.27716
▁부수찬으로	-9.27821
▁허물	-9.27888
▁하도록	-9.27966
기가	-9.28
니다	-9.28067
▁얼마	-9.28348
남	-9.28383
▁분	-9.28543
▁무릅쓰고	-9.28558
▁이유	-9.28687
없이	-9.28736
▁살피지	-9.28831
▁그들이	-9.28914
▁조사	-9.28917
▁당초에	-9.28999
▁재상	-9.29012
▁으레	-9.29116
▁심히	-9.29131
▁율에	-9.29393
▁내일	-9.29528
▁부교리로	-9.29644
신들이	-9.29684
▁아니면	-9.29702
▁당상을	-9.29899
하였기	-9.29947
▁둘	-9.30066
▁사람도	-9.30092
▁수령을	-9.30115
▁어떠하겠습니까	-9.30118
되	-9.30223
▁지금까지	-9.30291
▁심한	-9.30365
▁임	-9.30393
▁신하들	-9.30414
런	-9.30423
▁밖	-9.30716
▁지난번	-9.30762
백여	-9.30889
▁근래	-9.30893
▁지극한	-9.30963
▁한다고	-9.30979
▁여기에	-9.31034
▁형조에서	-9.31054
복	-9.31138
으며	-9.31144
▁급히	-9.31329
민	-9.31371
▁80	-9.31372
▁적	-9.3138
▁하교	-9.31439
▁상소	-9.3152
▁그대	-9.31593
▁계속	-9.31636
▁의금부에	-9.31772
▁이하	-9.31859
▁받았다	-9.31993
▁때는	-9.32057
▁전일	-9.32071
▁윤	-9.32295
▁공이	-9.32308
▁보아	-9.32313
▁사정을	-9.32474
▁적을	-9.32496
▁청하는	-9.32611
▁일도	-9.32637
▁선	-9.32644
▁위	-9.32744
심	-9.32851
▁예조에	-9.32854
▁논하지	-9.32875
▁번째	-9.32892
▁활	-9.32915
▁바랍니다	-9.32939
▁일이니	-9.32973
▁대체로	-9.32973
▁기다렸다	-9.33005
▁불러서	-9.33006
▁병	-9.33087
금	-9.33095
▁사람들은	-9.33116
▁짓을	-9.33168
▁새	-9.33203
▁종묘	-9.33278
▁못하였으니	-9.33284
▁다스리는	-9.33306
▁재주	-9.33309
하거나	-9.33345
▁관	-9.33456
▁직책	-9.33532
▁오래도록	-9.33679
▁예가	-9.33736
▁정상	-9.33768
했으니	-9.33781
하기에	-9.33792
▁어사	-9.34064
▁집	-9.341
▁공로	-9.34174
▁뿐입니다	-9.34205
▁일의	-9.34261
▁전일에	-9.34439
마는	-9.34462
▁아뢰지	-9.34501
▁회계하기를	-9.34548
▁서계	-9.34635
▁반열에	-9.34659
▁아니	-9.35023
▁지가	-9.35038
▁관원이	-9.35046
▁쓰고	-9.35072
▁우	-9.35081
▁올리는	-9.35127
방	-9.35128
▁노비	-9.35358
▁있었던	-9.35364
위	-9.35383
▁지경에	-9.35456
▁타고	-9.35516
▁의주	-9.3578
▁인해	-9.35784
▁이르러서는	-9.35968
하다가	-9.35996
들은	-9.36029
▁과	-9.36083
송	-9.36201
▁흉년이	-9.3633
▁엎드려	-9.36331
▁금년	-9.36416
▁않겠는가	-9.36494
▁있다가	-9.36528
▁잡아다	-9.36859
▁공초	-9.36994
▁자들이	-9.37055
거	-9.37397
▁있다면	-9.3742
▁들어와	-9.37521
임	-9.37583
▁제수	-9.37613
▁정사	-9.3764
▁많으니	-9.37686
▁천	-9.37756
▁하였으며	-9.37828
▁삼아	-9.37926
▁간사한	-9.381
▁잘못이	-9.38128
▁공신	-9.38201
▁환	-9.38246
▁12	-9.38455
▁하	-9.38644
▁성균관	-9.3878
함에	-9.38791
▁쓴	-9.38959
▁매양	-9.3896
▁재차	-9.39308
▁40	-9.39407
이며	-9.39416
▁신하가	-9.39564
▁점점	-9.39671
▁이로	-9.39757
▁개정	-9.39826
▁상소하였는데	-9.39926
▁주강에	-9.40034
▁않았고	-9.40089
▁다하여	-9.40141
▁뒤로	-9.4019
▁홍	-9.40273
▁제대로	-9.40303
▁가볍게	-9.4042
▁말인가	-9.40629
▁올리고	-9.40845
▁당초	-9.40895
▁보았다	-9.40982
▁당상	-9.41002
▁잇따라	-9.41003
▁자문	-9.41079
▁중대한	-9.41087
▁귀	-9.41144
▁하겠습니까	-9.41298
▁대장	-9.41313
▁하겠는가	-9.41396
▁방	-9.41461
▁백성들	-9.41461
▁최	-9.41627
▁실	-9.41664
하려는	-9.417
청	-9.41715
▁승정원에서	-9.41746
▁많고	-9.41749
으므로	-9.41896
▁불	-9.41953
황	-9.41965
하겠다	-9.41982
▁올리기를	-9.42015
▁막	-9.421
▁뒤에는	-9.42122
▁없다는	-9.42209
▁다음에	-9.42227
▁입고	-9.42233
▁해도	-9.42431
▁경우에는	-9.42586
다는	-9.42675
▁물으니	-9.42677
▁서울	-9.42957
▁오지	-9.43123
▁부모	-9.4316
▁뒤에야	-9.43237
삼가	-9.43239
▁한다는	-9.43322
▁혐의	-9.43332
▁부득이	-9.43361
▁시호를	-9.43414
▁나오지	-9.43417
▁참의	-9.43506
▁가려서	-9.43626
그	-9.43763
▁못하겠습니다	-9.43865
▁단서	-9.43999
▁황	-9.44009
▁숫자	-9.44107
▁알았다	-9.44133
▁없으며	-9.44151
▁출사	-9.44181
▁것이라	-9.44238
▁없기	-9.4448
▁나라에서	-9.44598
▁아닌데	-9.44702
▁맞지	-9.44736
▁받는	-9.44794
▁했는데	-9.44842
▁꼭	-9.44877
▁생각건대	-9.4488
▁각도	-9.44909
덕	-9.45082
▁그런데도	-9.45143
▁하기	-9.45222
▁하였으므로	-9.45308
미	-9.45487
▁들	-9.45499
▁매	-9.45542
▁들어갔다	-9.45558
▁서용하지	-9.45569
▁도리	-9.45652
▁소리	-9.45829
▁남의	-9.45913
되고	-9.4594
▁혹시	-9.4626
▁중하게	-9.46267
▁하기를	-9.46315
되는	-9.46357
▁있다는	-9.46393
온	-9.46412
▁70	-9.46436
▁그리하여	-9.4649
▁시기	-9.46509
▁묻기를	-9.46559
희	-9.46611
▁도리에	-9.46615
한다고	-9.46763
▁지금부터	-9.46969
▁적의	-9.47018
기는	-9.47074
▁감사에게	-9.47088
▁파	-9.47106
▁전후	-9.47121
▁선왕	-9.47173
▁잠시	-9.47204
▁도성	-9.47231
계	-9.47238
▁낭청	-9.47259
현감	-9.47275
▁반	-9.47459
▁전지를	-9.47621
▁인견하고	-9.47796
▁공론	-9.47941
명이	-9.47978
▁대해서	-9.48039
▁병으로	-9.48125
▁감사로	-9.48154
▁형신	-9.48259
▁생각하지	-9.48271
▁때문입니다	-9.48316
▁이르렀으니	-9.48433
▁전교를	-9.48558
▁원래	-9.48725
▁농사	-9.48765
하기가	-9.48812
▁인심이	-9.49032
▁외방에	-9.49069
▁징계	-9.49079
함은	-9.49098
▁직첩	-9.49125
▁아뢰도록	-9.49144
기에	-9.49209
▁무엇	-9.49325
▁경상	-9.49382
장을	-9.4944
▁송	-9.49444
▁평안	-9.49519
▁이루	-9.49527
▁마땅할	-9.4965
▁정한	-9.49737
▁올	-9.49869
▁뒷날	-9.49924
▁사직	-9.4994
▁관리	-9.49961
▁이익	-9.49967
▁잡아다가	-9.50019
▁엄	-9.50044
▁있는가	-9.50084
차	-9.50114
▁좋겠다	-9.50116
▁높은	-9.50174
▁알게	-9.50227
응	-9.50232
▁즈음에	-9.50295
▁면	-9.50345
▁어	-9.50448
▁침	-9.5056
▁그것이	-9.50814
▁일어나	-9.50863
▁역사를	-9.50908
월에	-9.51262
▁변방의	-9.51315
▁이날	-9.51413
▁종이	-9.51594
▁명나라	-9.51674
▁책임을	-9.51745
▁병조에	-9.5175
령	-9.51787
모	-9.51899
목	-9.51917
▁늘	-9.51933
▁맡은	-9.51944
▁차이	-9.51963
▁벌을	-9.51991
▁여부를	-9.52027
었으니	-9.52136
▁둔	-9.52224
전에	-9.5229
척	-9.52297
▁유독	-9.52313
마	-9.52516
▁등과	-9.52528
▁정승	-9.52725
▁아니하여	-9.52786
▁다섯	-9.52804
▁홍문관이	-9.52869
▁있어야	-9.52911
▁치계하기를	-9.52921
▁일일이	-9.52945
▁아름다운	-9.53087
▁편안	-9.53134
오늘	-9.53208
▁청하여	-9.53352
▁경중	-9.5345
▁유시하기를	-9.53486
였다	-9.53505
하더라도	-9.5354
▁차	-9.53583
▁마소서	-9.5359
▁모두가	-9.53621
▁보는	-9.53633
▁옳	-9.53668
▁소견	-9.53676
▁함이	-9.53696
▁말하라	-9.53703
각	-9.53758
▁음식	-9.53792
▁교리	-9.53819
▁생각하건대	-9.53835
효	-9.53848
봉	-9.53879
▁온당치	-9.53937
▁보내고	-9.53941
▁율	-9.53952
▁모아	-9.54027
경이	-9.54034
▁것이나	-9.54082
▁거행하지	-9.54185
▁제도	-9.54196
▁강원도	-9.54328
▁미치지	-9.54379
▁통	-9.54392
하겠는가	-9.54422
▁죽었다	-9.54508
▁비밀	-9.54521
▁변방	-9.54595
▁이정	-9.54623
▁참작하여	-9.54663
▁변고	-9.54718
▁일본국	-9.54719
▁처음에는	-9.54728
후	-9.54743
▁했습니다	-9.54859
▁국문하여	-9.54918
▁대궐	-9.55046
▁난	-9.55093
▁당연히	-9.55127
하시어	-9.55137
▁조종	-9.55223
▁신에게	-9.55236
삼	-9.55329
▁시종	-9.55387
▁개	-9.55453
▁역	-9.55478
▁올렸다	-9.55581
▁계	-9.55615
▁분명히	-9.55693
▁빈	-9.55711
▁날에	-9.5574
이라도	-9.55747
▁절	-9.55754
▁여깁니다	-9.55778
▁조강에	-9.5583
▁지은	-9.55896
▁정상이	-9.55913
▁속에	-9.55931
년이	-9.55935
시킨	-9.55947
▁참	-9.55959
▁다름이	-9.55964
▁여기지	-9.56003
준	-9.56006
▁목	-9.5601
하여야	-9.5601
▁예	-9.5602
생	-9.56032
▁잘못된	-9.56072
▁곳으로	-9.56129
▁조정이	-9.56173
▁의금부에서	-9.56194
하였을	-9.56247
▁관찰사로	-9.56341
▁형장	-9.56433
▁알았다고	-9.5649
용	-9.56501
▁어려우니	-9.5665
▁논할	-9.56662
▁모르겠습니다	-9.56775
포	-9.56808
▁유학	-9.56849
릴	-9.56907
광	-9.56988
▁그렇지	-9.57111
▁때에도	-9.57299
▁인	-9.57348
▁허	-9.57368
▁리	-9.57374
▁60	-9.57528
▁모르는	-9.5759
석을	-9.57595
▁이름이	-9.5761
▁생각이	-9.57722
▁와	-9.57804
▁때가	-9.57822
▁까닭으로	-9.57833
▁집에서	-9.57869
▁보내지	-9.57893
들의	-9.58004
▁지나친	-9.58036
▁제수하였다	-9.58107
▁사람됨이	-9.5812
▁해마다	-9.58123
▁한갓	-9.58206
▁심지어	-9.5837
▁전례가	-9.58649
▁바꾸어	-9.58786
▁않으므로	-9.58862
▁강을	-9.58946
▁햇무리	-9.58948
▁마치자	-9.59081
▁관계된	-9.59107
▁마땅하다	-9.59147
▁내용을	-9.5915
▁정부	-9.59153
만이	-9.59159
▁문안	-9.592
▁홀로	-9.59331
익	-9.59333
▁추고	-9.59414
이라는	-9.59463
▁놓아	-9.59625
지를	-9.59652
▁아들이	-9.5983
▁은전	-9.59855
▁나와서	-9.59871
▁석을	-9.59914
▁직에	-9.60041
했습니다	-9.60054
▁국가에서	-9.60074
▁합사하여	-9.60094
▁정원	-9.60159
▁한명회	-9.60239
▁의심	-9.60308
▁있더라도	-9.60416
▁세상	-9.60418
함으로써	-9.60505
▁있었고	-9.60582
▁형세가	-9.60619
▁듯하니	-9.60638
▁칙서	-9.60663
하겠습니까	-9.60674
▁이달	-9.60791
▁조처	-9.60792
▁우러러	-9.60843
▁도리가	-9.60901
▁올렸는데	-9.60998
▁대신들이	-9.61065
▁마음으로	-9.61121
▁안으로	-9.61132
▁버리고	-9.61163
▁했다	-9.6122
▁생각하여	-9.6126
▁순	-9.61267
▁합당하지	-9.61287
▁훈련	-9.61304
▁꼬리	-9.61324
▁엄중히	-9.61388
▁일렀다	-9.61389
▁무엇이	-9.61425
매	-9.61517
▁곳에서	-9.61547
일이	-9.61555
▁뿐이다	-9.61648
됩니다	-9.61661
▁하교를	-9.61679
▁지나지	-9.61693
▁백성에게	-9.62009
▁황제	-9.62374
▁재물	-9.62387
회	-9.62389
▁없었으니	-9.62512
▁논한	-9.62621
하다고	-9.6274
적	-9.62755
코	-9.62827
▁듣는	-9.62874
▁모여	-9.62901
▁물어	-9.63009
▁허락	-9.63084
▁만든	-9.63114
▁문득	-9.6318
▁유시	-9.63192
▁11	-9.63251
▁파직하고	-9.63258
▁말하고	-9.6335
▁근거	-9.63404
▁못하다	-9.63414
▁품고	-9.63444
▁넉넉	-9.63461
신의	-9.63523
▁달이	-9.63703
▁간혹	-9.63711
▁옥당	-9.63716
▁있던	-9.63725
▁중요한	-9.6376
▁조용	-9.6384
▁밖으로	-9.63894
▁도사	-9.64032
▁삼사	-9.64037
▁일인데	-9.64266
▁허락하였다	-9.6437
▁없던	-9.64525
로부터	-9.64568
▁아뢰는	-9.64581
▁말과	-9.64606
▁있었으므로	-9.64656
▁않는다고	-9.64681
손	-9.64726
▁뇌물	-9.64825
노	-9.64864
▁다스리	-9.64946
▁무리들이	-9.6508
▁주기를	-9.65112
▁파직하소서	-9.6517
향	-9.65253
▁탄핵	-9.6526
▁왕	-9.65315
국	-9.65341
▁부제학	-9.65392
▁수도	-9.65397
행	-9.65446
▁상하	-9.65525
▁무리가	-9.65564
▁명하였는데	-9.65564
창	-9.65579
▁죽을	-9.65646
▁대소	-9.65705
▁근심	-9.65808
▁추고하소서	-9.65854
▁마련	-9.65862
▁자급을	-9.65917
▁밖에서	-9.6597
▁처분	-9.65982
▁만들	-9.66086
겸	-9.66189
▁멋대로	-9.66221
▁논	-9.66224
▁누차	-9.66245
▁논박	-9.66278
초	-9.6633
▁어렵다	-9.66355
▁형세	-9.66395
▁원수	-9.66476
▁한성부	-9.66662
▁봉	-9.66682
▁좌우	-9.66709
▁지난번에	-9.66752
▁폐	-9.66808
좌	-9.66844
▁가상	-9.66898
려고	-9.66965
▁추고하라	-9.67008
▁보낼	-9.67033
▁물어서	-9.67097
▁우박이	-9.67334
▁이조에서	-9.67344
▁다스리지	-9.67452
▁들어갔는데	-9.67473
▁차지	-9.67675
▁땅에	-9.67732
에서는	-9.67952
▁피	-9.68019
비	-9.68022
▁행할	-9.6813
▁뒤로는	-9.68195
▁용서할	-9.68201
▁악	-9.68424
▁별로	-9.68468
▁어미	-9.68514
옥	-9.68554
▁앞에	-9.68592
▁사사로운	-9.68662
▁없도록	-9.68702
▁단	-9.6871
▁남아	-9.68748
▁돌	-9.6876
부사	-9.68802
▁거둥하여	-9.68844
해서는	-9.68904
▁의해	-9.69131
▁있었기	-9.69203
▁일찍	-9.6924
▁사이	-9.69249
▁결정	-9.69318
▁체모	-9.69338
▁받게	-9.69369
난	-9.69424
▁경연	-9.69441
▁의금부	-9.69485
하시는	-9.69497
▁적지	-9.69507
같이	-9.69602
▁받을	-9.69654
하였던	-9.69661
▁길	-9.6998
달	-9.70051
▁도감	-9.70154
▁자와	-9.7023
▁되는데	-9.70304
하겠습니다	-9.70348
▁세워	-9.70438
▁없었던	-9.70513
▁재	-9.70515
▁머리를	-9.70689
▁많습니다	-9.70724
▁현	-9.70818
▁토산물을	-9.70887
▁제사	-9.70917
▁하기에	-9.70938
▁하사하였다	-9.71003
▁것이요	-9.71027
▁입시	-9.71087
▁면포	-9.7114
배	-9.71154
▁고신을	-9.71184
▁아내	-9.71252
▁성의	-9.71339
▁사유를	-9.71383
▁방어	-9.7141
▁조금이라	-9.71436
▁생원	-9.71469
▁한때	-9.71527
▁물러나	-9.71679
▁봄	-9.7169
▁잇달아	-9.71803
▁영남	-9.71847
▁세자	-9.72131
▁생각해	-9.72181
▁당한	-9.72188
태	-9.72283
▁임금에게	-9.72308
▁호조에	-9.72434
▁경솔	-9.72466
▁자신이	-9.72517
▁호조에서	-9.72527
하시고	-9.7253
▁참여하지	-9.72542
▁수찬	-9.72632
▁함길도	-9.72635
▁생각으로는	-9.72721
▁입은	-9.7287
파	-9.72901
▁감당할	-9.72925
▁시행	-9.72962
▁점차	-9.72984
▁응당	-9.7299
▁오랑캐	-9.72997
스러운	-9.73061
▁모르겠다	-9.73074
지만	-9.73095
▁아니한	-9.73102
▁남은	-9.73105
▁계문	-9.73189
▁대왕	-9.73239
▁것처럼	-9.73266
▁시행하게	-9.73378
▁품처	-9.73413
▁않았기	-9.73451
▁지난해	-9.7348
▁걱정	-9.73488
▁유시하였다	-9.73501
▁굳게	-9.73514
병	-9.73525
▁중지	-9.73602
▁관작을	-9.73645
▁없었는데	-9.73708
▁어진	-9.7377
하기도	-9.73785
▁된다면	-9.73796
으로부터	-9.73825
▁의논할	-9.73853
▁존호를	-9.73898
불	-9.73904
▁받았으니	-9.73906
▁경우는	-9.73928
▁종친	-9.73945
▁약간	-9.73957
▁영사	-9.73978
▁적당	-9.74036
▁계획	-9.74088
▁인심	-9.74206
▁사간원에서	-9.74219
▁제도를	-9.74241
▁올리니	-9.7426
수록	-9.74263
실	-9.74358
▁아버지	-9.74484
▁별	-9.74518
▁요즈음	-9.74582
▁선전관	-9.74593
인은	-9.74615
▁안에서	-9.74658
▁창	-9.7467
통	-9.74759
▁기한	-9.74762
▁종사	-9.74815
▁포	-9.74858
▁행하는	-9.74901
흥	-9.74911
▁관원	-9.74921
▁선조	-9.74949
지는	-9.74958
▁원망	-9.75207
▁되었을	-9.75214
▁보통	-9.75261
▁환궁	-9.75285
언	-9.75297
▁사람으로서	-9.75335
▁그렇다면	-9.75345
▁가자	-9.75377
년에	-9.7538
▁비변사	-9.75537
최	-9.75549
▁내관	-9.756
▁대사성으로	-9.75609
▁승정원	-9.75644
감	-9.75748
▁민	-9.75819
▁흰	-9.75843
▁서용	-9.75868
▁강하기를	-9.75932
▁옥사	-9.75958
▁의견	-9.76066
▁양식	-9.76085
▁아래에	-9.76097
▁놓고	-9.76106
결	-9.7623
▁주라	-9.76353
▁국사	-9.76444
▁고칠	-9.76454
▁죽게	-9.76708
▁목숨	-9.76811
▁실려	-9.76824
▁함경도	-9.76908
▁서쪽	-9.7693
기도	-9.76949
▁쓰	-9.76974
▁찾아	-9.76976
직	-9.77066
▁거둥	-9.77254
▁그치지	-9.77442
▁많아	-9.7745
▁서리	-9.77464
▁돌아와	-9.77524
▁날씨	-9.77564
▁지휘	-9.77588
▁시행하라	-9.77601
▁간절	-9.77609
▁백관을	-9.77614
▁고사	-9.77635
▁기강이	-9.77671
▁꾀	-9.77764
▁얻어	-9.77777
▁나타났다	-9.77825
▁여긴다	-9.77866
▁의논해	-9.77878
▁같았다	-9.77973
▁본부	-9.78019
▁죽음	-9.78031
▁과거에	-9.78124
▁더러	-9.78214
▁도에	-9.78265
▁바치는	-9.78407
▁고을에서	-9.78442
곤	-9.78585
▁했으니	-9.78598
▁내리지	-9.78727
▁날짜를	-9.7873
▁응	-9.78731
▁바라는	-9.7876
▁배척	-9.78865
▁빠져	-9.78945
▁지방에	-9.78946
길	-9.78995
▁묘당으로	-9.79091
▁근	-9.79099
▁바에	-9.79119
형	-9.79161
▁의식	-9.79259
▁어떠한가	-9.7927
▁13	-9.79272
▁절목	-9.79284
▁이름	-9.79285
▁상소에	-9.79288
▁대전	-9.79565
▁변경	-9.79587
하였다고	-9.79907
▁자의	-9.79922
▁영상	-9.79938
▁써	-9.79942
▁만드는	-9.80025
▁공경	-9.80042
▁사람들에게	-9.8005
▁완전	-9.8013
▁사세	-9.80165
건	-9.80209
▁물	-9.8021
▁원컨대	-9.80249
▁상참	-9.80263
▁아우	-9.80268
▁신칙	-9.80341
▁돌아가	-9.80342
▁목사	-9.80548
▁심정	-9.8059
▁어버이	-9.80593
▁이르지	-9.80617
록	-9.80626
경에	-9.80632
▁예전	-9.80633
▁이로써	-9.80742
▁거리	-9.80756
▁해조에	-9.80762
▁마땅하겠습니다	-9.80947
되었으니	-9.80991
▁교지	-9.81013
▁정배	-9.81066
▁현감	-9.81082
▁영구	-9.81168
▁학문	-9.81186
▁만에	-9.81209
▁군수	-9.81219
▁벌써	-9.81276
▁전지	-9.81287
▁옥사를	-9.81392
▁국가에	-9.81416
▁천하	-9.81484
▁기다려서	-9.81502
▁상고해	-9.81521
▁손	-9.81528
충	-9.81533
▁있	-9.81559
▁좌	-9.81589
▁돌려	-9.81599
▁성품이	-9.81639
▁두려워하여	-9.81678
▁행동	-9.81686
▁도제조	-9.81706
▁살아	-9.81976
▁두려워	-9.82078
▁교서	-9.82098
▁하교하였다	-9.82163
▁장사	-9.82249
▁헌부에서	-9.82269
▁사직하니	-9.82375
에도	-9.82504
▁년	-9.82597
▁다투어	-9.82652
▁나도	-9.82661
으나	-9.82714
▁내리기를	-9.8273
▁기록하여	-9.82733
▁석방	-9.82762
▁임명	-9.82801
▁값을	-9.82836
▁공론이	-9.83041
▁사례	-9.83094
▁입을	-9.83107
▁있었으나	-9.83206
▁의정부에	-9.8321
▁설치하여	-9.83252
▁죄에	-9.83267
▁않았으므로	-9.83286
했다고	-9.83301
▁가까이	-9.83454
철	-9.83458
▁경연에서	-9.8353
▁품	-9.83557
했을	-9.83579
▁어렵게	-9.83631
▁추고하고	-9.83694
▁외람되게	-9.83731
근래	-9.83731
왕	-9.83744
▁강하였다	-9.8377
▁왜적	-9.83983
▁이르기까지	-9.84027
▁곳은	-9.84075
귀	-9.84099
속	-9.84142
▁도적	-9.84258
▁궁	-9.84308
께서	-9.84309
▁이상의	-9.84315
▁보게	-9.84422
▁사면	-9.84428
▁상고	-9.84457
▁겨를이	-9.84509
▁시행하는	-9.84527
▁죽인	-9.84531
▁떠나	-9.84575
대를	-9.84578
▁곤장	-9.84594
수를	-9.84641
사를	-9.84713
▁관직에	-9.84893
교	-9.849
▁물의가	-9.84926
▁보내게	-9.84929
▁이래로	-9.84941
갖	-9.85007
▁길에	-9.85078
▁친	-9.85139
▁흉악한	-9.85177
▁대략에	-9.85211
▁얻지	-9.85261
▁치계하였다	-9.85396
▁체차	-9.85472
▁자에게	-9.85487
▁번이나	-9.85489
▁이른	-9.85512
▁바는	-9.85519
▁금부	-9.85546
▁엄한	-9.85553
▁옥	-9.85574
▁사실이	-9.85593
경의	-9.8561
▁것인지	-9.85628
▁보냈다	-9.85701
시키는	-9.85711
▁사형	-9.85761
▁시험	-9.85795
▁나가서	-9.85835
▁오게	-9.8587
▁비단	-9.85876
하실	-9.859
▁치	-9.85903
▁실상	-9.85909
▁있은	-9.85937
▁아침	-9.86009
▁설치하고	-9.86012
▁없으면	-9.86064
▁적은	-9.86284
▁저들이	-9.86316
▁어리석은	-9.8633
▁청을	-9.86509
▁주장	-9.86531
▁승지가	-9.86531
▁하려고	-9.86551
▁건	-9.86565
▁하늘에	-9.86669
▁이가	-9.86677
▁비국이	-9.86732
▁말입니까	-9.86784
말로	-9.86797
▁못했습니다	-9.86838
▁졸하였다	-9.86893
▁외	-9.86933
이번	-9.8695
▁데서	-9.87011
▁신숙주	-9.87022
▁답	-9.87048
▁풀어	-9.87125
▁요	-9.87286
▁천거	-9.87317
▁각사	-9.87329
▁사실	-9.87352
▁입진	-9.87353
▁미안한	-9.87358
▁되었고	-9.87389
▁가게	-9.87426
었고	-9.87441
▁허적이	-9.8747
▁어디에	-9.87484
▁베풀어	-9.87498
▁주의	-9.8765
▁후일	-9.87685
▁본조	-9.87753
▁까닭에	-9.8776
▁삼공	-9.8776
▁병조가	-9.87785
▁주어서	-9.8779
▁대신들에게	-9.8784
▁형편	-9.87854
▁길이는	-9.87865
▁이제부터는	-9.8796
▁이조에	-9.87986
▁왕세자	-9.88022
▁곡식이	-9.88151
▁심지어는	-9.88196
▁시사	-9.88208
▁제주	-9.88265
병조	-9.883
▁사신에게	-9.88349
▁시행하지	-9.8844
▁아니겠습니까	-9.88448
경은	-9.88493
▁하늘이	-9.88577
▁당상관	-9.88612
량	-9.88635
▁남쪽	-9.88637
▁설치한	-9.88693
추	-9.88713
▁걱정이	-9.88725
▁전라	-9.88726
등	-9.88735
▁기운이	-9.88845
했기	-9.88898
▁마	-9.88915
▁극진	-9.89066
▁명백	-9.89118
▁마디	-9.89265
▁왜	-9.89506
▁부자	-9.89546
▁호남	-9.89606
▁있을까	-9.89649
▁돌아왔다	-9.89651
▁사용	-9.89672
▁이들	-9.89704
▁욕	-9.89741
▁따르고	-9.89814
▁풍속	-9.89859
▁명령이	-9.89866
▁입시하였다	-9.89904
▁시행할	-9.89921
▁태	-9.89971
▁문제	-9.89988
▁족	-9.90051
분	-9.90089
▁따를	-9.90122
▁삭제	-9.90132
▁겸하여	-9.90138
▁진휼	-9.90147
▁정치	-9.90156
▁지키는	-9.90163
▁서서	-9.90166
▁서장	-9.90167
▁거행하게	-9.90175
▁너희들	-9.90188
▁바치고	-9.90197
저	-9.90204
▁정도	-9.90204
▁추국	-9.90245
갈	-9.90256
▁바다	-9.90309
▁노비를	-9.9038
▁법으로	-9.90403
▁되었으며	-9.90464
우리	-9.90497
춘	-9.90523
▁이후	-9.90529
▁누구	-9.90592
▁정창손	-9.90619
▁간원	-9.90635
▁가운데에	-9.90688
▁입	-9.90727
▁대군	-9.90769
▁부처	-9.90791
▁그만둘	-9.90825
▁율이	-9.90853
▁가벼운	-9.90904
▁못하겠다	-9.90984
▁출입	-9.91018
▁군	-9.91063
▁신칙하여	-9.91077
▁백관이	-9.91092
례를	-9.91135
▁않다고	-9.912
역	-9.91297
▁언관	-9.9131
▁사은	-9.9135
규	-9.91356
▁내리는	-9.91424
▁만하다	-9.9143
▁얼마나	-9.91439
▁망	-9.91463
▁안심하고	-9.91481
▁아침에	-9.91738
▁앞	-9.91773
▁물정이	-9.91847
▁염려하여	-9.919
득	-9.9196
▁거	-9.9204
합	-9.92142
▁낭관	-9.922
▁진사	-9.92312
▁듯	-9.92329
▁타	-9.92351
▁가하다	-9.92356
랑	-9.92396
르게	-9.92468
시키고	-9.92474
▁살고	-9.9251
▁신중히	-9.92673
▁예전에	-9.92673
▁말하여	-9.92766
▁잡	-9.92943
▁가을	-9.9305
했다는	-9.93082
▁모양	-9.93105
▁논의가	-9.93117
▁열어	-9.93131
▁경사	-9.93146
자를	-9.93252
▁쓰게	-9.93256
▁부제학으로	-9.93391
▁바치게	-9.93438
인과	-9.93504
▁행하지	-9.93517
▁뜻에서	-9.93519
▁대궐에	-9.9352
▁상신	-9.93621
▁역관	-9.93643
▁진정	-9.93676
들에게	-9.93684
▁예조의	-9.93722
▁위의	-9.9376
▁서울로	-9.93811
▁따르는	-9.93851
▁이것으로	-9.93957
▁경솔하게	-9.93973
▁논의를	-9.94123
린	-9.94125
▁하는가	-9.94221
▁군관	-9.94285
▁전조	-9.94331
▁실수	-9.94376
▁믿을	-9.94406
▁많아서	-9.94407
▁좋겠습니다	-9.94501
▁표	-9.94502
▁하였더니	-9.94557
▁하고자	-9.94674
▁통정대부	-9.94681
▁그러한	-9.94703
▁그대들	-9.94758
▁추	-9.94917
채	-9.95108
▁집안	-9.95144
▁저절	-9.95148
▁종묘에	-9.95174
▁뜻	-9.95187
▁사유	-9.95209
▁올리게	-9.95214
망	-9.95215
▁몸이	-9.95224
▁위해서	-9.95305
▁천지	-9.95488
▁내용은	-9.95663
▁묘	-9.95687
▁제도에	-9.95712
▁되자	-9.95727
▁당시에	-9.95733
▁당상과	-9.95741
▁설	-9.95766
▁수군	-9.958
▁임금은	-9.95821
▁온당하지	-9.95889
▁평소	-9.95954
▁두렵습니다	-9.96068
▁사직을	-9.96081
▁대단	-9.96115
▁형조에	-9.96128
▁많을	-9.96154
▁청하기를	-9.96162
▁도감의	-9.96207
▁똑같	-9.9628
▁않기	-9.96302
▁옥당이	-9.96315
▁사인	-9.96361
▁대가	-9.96396
▁생각에는	-9.96407
▁도내	-9.96432
▁폐해	-9.96444
▁곡식	-9.96508
▁창고	-9.96529
▁내렸는데	-9.96536
▁사리에	-9.96558
▁아래로	-9.96574
▁내년	-9.966
▁집이	-9.96637
▁쌀을	-9.96682
본	-9.9669
▁밝게	-9.96712
▁행차	-9.96752
만은	-9.96782
▁발	-9.96799
▁백성들에게	-9.96889
▁마련하여	-9.96892
▁도감이	-9.97055
▁나에게	-9.97078
인들	-9.9712
▁16	-9.97153
▁아직까지	-9.97161
▁가져다	-9.97174
▁면할	-9.97225
반	-9.97348
▁찬	-9.97349
▁취	-9.97431
원이	-9.97608
▁범	-9.97687
▁치고	-9.97714
▁책	-9.97759
하나	-9.97773
▁파직시키소서	-9.97853
▁혹시라도	-9.9786
▁마땅하지	-9.97863
▁상사	-9.97883
▁진달한	-9.97895
▁전에는	-9.9797
▁처리할	-9.98064
▁사기	-9.98086
▁자연	-9.98106
▁좌랑으로	-9.98162
▁차출	-9.98171
자는	-9.98181
▁들어가서	-9.98233
▁일이라	-9.98239
▁차례로	-9.98289
▁방비	-9.98324
원을	-9.98328
▁충성	-9.98364
▁절도사	-9.98374
▁서경	-9.98483
▁여기	-9.98487
▁모르고	-9.98576
▁물품을	-9.98626
▁어가	-9.98717
▁크고	-9.98736
▁내려서	-9.98811
▁법은	-9.98822
▁여길	-9.98895
▁지낸	-9.98896
▁규정	-9.9899
▁의도	-9.99095
▁비변사에	-9.99123
▁이르게	-9.99123
평	-9.99145
▁패	-9.99147
래도	-9.9915
▁땅을	-9.99239
▁거짓	-9.99259
▁것입니까	-9.99291
▁태연	-9.99306
▁이르라	-9.99325
▁놀랍고	-9.99373
▁증세	-9.99443
▁내용으로	-9.99444
▁없겠는가	-9.99454
▁조선	-9.99466
▁유생들이	-9.99501
▁전적으로	-9.99539
▁너무나	-9.99592
되었다	-9.99603
▁문서를	-9.99647
▁다스릴	-9.99648
▁말도	-9.99692
▁인물이	-9.997
▁이것	-9.99728
▁사자	-9.99764
식	-9.99783
촌	-9.99808
▁옷	-9.99832
▁진하	-9.99851
▁같고	-9.99916
▁귀양	-9.99931
▁처리하게	-9.99979
▁그날	-10.0001
▁짓	-10.0003
▁충분	-10.0005
▁깊은	-10.0008
▁사체에	-10.0008
▁하례를	-10.001
▁것이었습니다	-10.0013
▁도승지로	-10.0016
▁문을	-10.0018
▁어떻겠는가	-10.0023
▁근본	-10.0034
▁앉아	-10.0035
▁판부사	-10.0036
▁북	-10.0038
▁왕자	-10.0038
▁미	-10.0039
▁의망	-10.0043
▁많았다	-10.0043
▁직임에	-10.0045
열	-10.0051
▁통사	-10.0051
▁심하여	-10.0051
▁제수한	-10.0052
▁입어	-10.0065
▁흉년	-10.0075
▁말씀	-10.0081
▁건너	-10.0084
▁사판에서	-10.0094
▁중국에	-10.0102
▁응교로	-10.0111
▁많은데	-10.0114
▁앞에서	-10.0115
▁거두소서	-10.0121
적인	-10.013
▁눈	-10.013
되었는데	-10.0137
▁지진이	-10.0138
▁바친	-10.0142
▁때부터	-10.0143
▁때까지	-10.0146
▁영원	-10.0146
▁묻지	-10.0159
▁행하여	-10.0164
▁죄로	-10.0166
▁바입니다	-10.0167
▁마시고	-10.0169
▁재변이	-10.0169
▁윤필상	-10.0174
▁기회	-10.0183
▁광	-10.0184
▁뽑아서	-10.0187
▁아래	-10.0191
궁	-10.0194
▁받았는데	-10.0197
▁극력	-10.0198
▁아니할	-10.0208
▁야인	-10.0211
▁담당	-10.0216
▁결과	-10.0217
▁그리	-10.0224
▁것으로써	-10.0236
에다	-10.024
▁안치	-10.0243
▁수량	-10.0245
▁덕이	-10.0247
▁의논해서	-10.0247
▁동지사	-10.025
▁전해	-10.025
▁병마	-10.0255
▁얻은	-10.0257
피	-10.0259
▁무과	-10.0265
▁아뢰었는데	-10.0288
울	-10.0289
▁곡	-10.029
약	-10.0301
▁변이	-10.0307
▁집으로	-10.0308
▁말하면	-10.0308
▁되겠는가	-10.0312
▁판	-10.0314
날	-10.0319
▁좌승지	-10.0323
줄	-10.0324
▁이르니	-10.0328
증	-10.0345
▁재앙	-10.0346
▁시행하소서	-10.0353
▁죄인을	-10.0354
우의정	-10.0362
▁않더라도	-10.0367
▁재변	-10.0369
▁받아들이지	-10.0371
▁외에	-10.0383
악	-10.0383
▁거행할	-10.0392
▁하려는	-10.0402
▁본시	-10.0404
▁아니하니	-10.0406
▁보내라	-10.0411
▁가선대부	-10.0412
▁기다리지	-10.0414
으면	-10.0414
수가	-10.0421
▁강도	-10.0421
▁재해	-10.0427
▁베	-10.0428
▁약방에서	-10.0429
▁처음부터	-10.0432
▁눈이	-10.0433
숙	-10.0437
▁상차하여	-10.0442
▁땅이	-10.0445
▁병조의	-10.0449
▁소식	-10.0449
▁한편으로는	-10.0452
▁외방의	-10.0455
집	-10.0457
▁않았으며	-10.0458
▁호조가	-10.0468
▁체포	-10.0471
례	-10.0484
▁좋을	-10.0493
▁다해	-10.0495
▁의논에	-10.0495
변	-10.0501
견	-10.0502
▁없지만	-10.0505
▁글자	-10.051
▁만들고	-10.0515
▁것일	-10.0519
▁중외	-10.0521
▁하여야	-10.0524
헌	-10.0527
▁있는데도	-10.0532
▁대각	-10.0533
▁이해	-10.0538
▁거처	-10.054
었으므로	-10.0549
▁논의	-10.0553
▁며칠	-10.0557
▁여섯	-10.0582
▁옥에	-10.0583
▁헤아	-10.059
▁대죄	-10.0592
▁내용이	-10.0596
▁글자를	-10.06
▁보이	-10.0601
▁지난날	-10.0601
근래에	-10.0601
▁안의	-10.061
▁어머니	-10.0615
침	-10.0615
예	-10.0629
▁증거	-10.0636
▁승전을	-10.0636
▁시행하도록	-10.0637
▁세운	-10.0637
▁설치	-10.0639
▁기필	-10.064
▁끝에	-10.0641
▁올릴	-10.0642
▁여자	-10.0648
▁유신	-10.065
▁양이	-10.0653
▁거두고	-10.0654
학	-10.066
▁하시니	-10.0663
▁지위	-10.0664
▁생각하고	-10.0664
▁될까	-10.0666
▁물에	-10.0668
▁읍	-10.0678
▁승복하지	-10.0678
▁소대	-10.0679
▁상의하여	-10.0679
▁더하여	-10.069
▁큽니다	-10.0692
▁결단코	-10.0693
전의	-10.0694
▁차지한	-10.0697
▁않으며	-10.0713
▁양사	-10.0717
▁북경에	-10.0721
▁일시에	-10.0725
▁논계	-10.0728
▁심합니다	-10.0756
▁좋지	-10.0757
▁관찰사에게	-10.0758
▁기록	-10.076
▁환수	-10.0764
▁회계	-10.0767
▁사서	-10.0787
▁사대부	-10.0795
▁도신	-10.0801
▁명의	-10.0806
▁때마다	-10.0808
▁분명하게	-10.0816
▁고기를	-10.082
▁후하게	-10.0822
▁대제학	-10.0823
▁된다고	-10.0836
▁다행히	-10.0836
▁공문	-10.0837
스	-10.0843
▁한창	-10.0846
극히	-10.085
▁군신	-10.0871
▁물을	-10.0874
▁도망하여	-10.0885
허	-10.0885
▁정문에	-10.0886
▁바른	-10.0891
▁섬	-10.0898
비록	-10.0899
▁부응교로	-10.09
▁용	-10.0901
껏	-10.0901
▁우려	-10.0902
▁자전	-10.0905
▁믿고	-10.0907
▁되겠습니까	-10.0908
▁뭇	-10.0909
▁이전에	-10.0909
▁감사와	-10.0911
▁심하게	-10.0911
▁삼았는데	-10.0912
▁은밀	-10.0918
▁행한	-10.0921
▁법대로	-10.0924
▁안정	-10.0927
▁노고	-10.0932
▁못한다	-10.0942
▁쉽게	-10.0943
▁문과	-10.0946
▁등급을	-10.0948
▁의논하는	-10.0956
▁못하였는데	-10.0958
▁논하여	-10.0963
▁이야기	-10.0964
▁돌아갈	-10.0965
▁판윤으로	-10.0965
▁계책이	-10.0972
▁방면	-10.0975
▁입직	-10.0985
▁없다면	-10.0989
▁주서	-10.099
▁너	-10.0995
▁억울함	-10.0998
▁마구	-10.0999
▁특히	-10.1001
번에	-10.1003
▁사사	-10.1004
▁아뢸	-10.1007
▁정사가	-10.1008
▁들어와서	-10.1013
▁무리를	-10.1016
▁맞아	-10.1016
▁진상	-10.1017
▁국문하게	-10.1022
일을	-10.1027
▁왔는데	-10.1035
▁서둘러	-10.104
▁수령으로	-10.1043
▁처리하는	-10.1044
▁신하로서	-10.1047
▁자로	-10.105
▁합당한	-10.1054
▁이르렀다	-10.1057
▁이내	-10.1062
▁좌상	-10.1062
▁거조	-10.1064
▁벌	-10.1065
▁하다가	-10.1069
▁효	-10.1084
▁외람되	-10.1087
▁정조	-10.1091
▁올라	-10.1093
▁방도	-10.1093
▁모시고	-10.1096
▁봄에	-10.1099
친	-10.1101
▁추고하여	-10.1104
▁남을	-10.1106
▁저들	-10.1113
▁다하지	-10.1114
▁강화	-10.1116
▁사실대로	-10.1117
▁교	-10.1117
▁대전에	-10.1122
▁조치	-10.113
▁친제	-10.1132
▁이조가	-10.1139
져	-10.115
▁시험을	-10.1151
▁세상에	-10.1152
성을	-10.1155
▁희	-10.1157
▁필	-10.1157
▁놀라고	-10.1162
정언	-10.1163
▁예로	-10.1171
▁잃은	-10.1179
▁상왕이	-10.1184
2	-10.1184
사로	-10.1186
하시니	-10.1189
인의	-10.1191
▁전부터	-10.1191
▁않고서	-10.1193
▁대신들	-10.1196
▁상황을	-10.1201
▁신문	-10.1202
▁거두	-10.1202
▁유지	-10.1205
▁논하는	-10.1206
▁삼공이	-10.1214
▁가진	-10.1216
▁우상	-10.1216
▁세우고	-10.1223
▁엄중	-10.1225
▁있지만	-10.1226
▁무사	-10.1229
▁네가	-10.1232
▁대부분	-10.1234
▁의복	-10.1234
▁삭탈	-10.1235
▁시위	-10.1238
▁용서	-10.1239
▁되게	-10.1243
▁늙은	-10.1251
▁이제부터	-10.1253
▁편지	-10.1253
▁수령들이	-10.1256
▁뽑았다	-10.1258
▁팔	-10.1259
발	-10.1261
▁실어	-10.1263
▁이외에	-10.1265
▁자에게는	-10.1268
부를	-10.127
번	-10.127
▁천천	-10.1271
▁달리	-10.1271
고자	-10.1277
문을	-10.1281
▁결단	-10.1285
▁변방에	-10.1286
▁난리	-10.1294
▁왜인	-10.1295
▁훌륭한	-10.1303
▁감찰	-10.1306
▁제때	-10.1306
▁처리하라	-10.1308
▁말미암아	-10.1311
▁제수하고	-10.1312
관이	-10.1315
▁정원에서	-10.1317
풍	-10.1319
▁이웃	-10.1322
환	-10.1324
▁올리	-10.1325
▁준비	-10.1337
▁체임	-10.1338
▁저녁에	-10.1338
▁평소에	-10.1339
▁음악을	-10.1343
▁옷을	-10.1347
▁가부	-10.1349
척쯤	-10.1355
림	-10.1365
▁하셨습니다	-10.1365
▁유사	-10.1365
▁징계하지	-10.1366
▁않는다는	-10.1367
▁하옵소서	-10.1374
▁개정하소서	-10.1374
▁구차하게	-10.1377
▁한재	-10.1378
▁황제가	-10.138
▁않았다고	-10.1385
▁받들	-10.1386
▁문관	-10.1386
▁조사해	-10.1388
▁비망기로	-10.1389
▁무고	-10.139
▁어쩔	-10.1399
▁지고	-10.14
▁아니겠는가	-10.1401
▁함으로써	-10.1401
이기	-10.1404
▁밤낮으로	-10.1404
▁베풀	-10.1405
▁금하지	-10.1406
천여	-10.1408
▁조회	-10.1411
▁주어야	-10.1413
▁영돈녕	-10.1418
▁앉아서	-10.1418
▁번갈아	-10.1421
1	-10.1423
▁승	-10.1429
▁지사	-10.143
▁의리에	-10.143
긴	-10.1445
▁태조	-10.1449
▁부지런히	-10.1449
▁우승지	-10.1453
▁대의	-10.1454
▁되도록	-10.1468
▁궁궐	-10.1471
▁가두고	-10.1472
▁필을	-10.1478
판	-10.1495
▁살펴보고	-10.1496
▁기우제	-10.1497
관을	-10.1498
▁녹봉	-10.1498
▁손자	-10.1501
▁좌랑	-10.1508
▁베풀고	-10.1509
하러	-10.1516
▁판관	-10.1524
립	-10.1525
▁증	-10.1528
▁공공연	-10.153
▁전문	-10.1532
▁기강	-10.1534
▁전일의	-10.1535
▁토물	-10.1538
▁달라	-10.1539
▁적용	-10.1545
알았다	-10.1546
처	-10.1547
▁잡은	-10.1549
되었습니다	-10.1553
▁삼을	-10.1555
▁죽이고	-10.1559
▁곧장	-10.1562
독	-10.1564
▁많지	-10.1566
▁담	-10.1568
꺼	-10.1572
▁시비를	-10.1575
▁처벌	-10.1576
▁소란	-10.1579
▁내지	-10.1579
▁합	-10.1579
▁양전	-10.1584
▁등에	-10.1584
▁동지	-10.1587
▁파면	-10.1587
▁계본	-10.1591
▁체직시켜	-10.1593
▁근심이	-10.1599
▁정랑으로	-10.1599
▁환관	-10.1602
▁수령은	-10.1602
▁보여	-10.1603
▁않았을	-10.1609
▁공사	-10.1615
▁정하고	-10.1619
▁사무	-10.1628
▁자복하지	-10.1631
▁경차관	-10.1639
▁술	-10.1647
▁하유	-10.1651
▁극	-10.1673
▁시임	-10.1681
▁실록	-10.1684
▁충청	-10.1691
▁편치	-10.1696
▁바르게	-10.1697
▁죄다	-10.1698
축	-10.1703
인가	-10.1708
▁정랑	-10.1712
▁거행하는	-10.1715
▁청나라	-10.1717
▁이하의	-10.1721
▁가자를	-10.1723
▁갔다	-10.1727
▁규례	-10.173
▁분수	-10.1732
▁참여	-10.1733
씨	-10.1741
▁나라는	-10.1746
징	-10.1757
정이	-10.1758
▁의논한	-10.1759
▁차자	-10.1759
▁죽는	-10.1759
▁잠	-10.1764
▁없었고	-10.1768
▁눈물	-10.177
▁놀라운	-10.1771
▁자들은	-10.1775
▁신도	-10.1776
▁마음은	-10.1777
하기까지	-10.1781
▁14	-10.1788
▁익히	-10.1799
▁차출하여	-10.1803
▁고치지	-10.1815
▁의논하라	-10.1818
전을	-10.1819
▁책을	-10.1824
▁미루어	-10.1828
▁성대한	-10.1829
▁접대	-10.1829
▁재목	-10.1836
▁조종조	-10.1841
좌의정	-10.1845
음	-10.1848
▁살피	-10.1848
▁불가하다	-10.1854
▁시급	-10.1855
군수	-10.1855
▁예문관	-10.1856
찬	-10.1857
▁추문	-10.186
▁모두들	-10.186
▁일본	-10.1862
작	-10.1869
▁짓는	-10.1871
▁소요	-10.1883
하였더니	-10.1884
냥	-10.1888
▁딸	-10.1889
▁처치하여	-10.1895
시키소서	-10.1896
▁누	-10.1901
▁주문	-10.1904
▁인정전에	-10.1907
▁법	-10.1908
▁잘못한	-10.1908
▁25	-10.1916
▁서장관	-10.1918
▁까닭이	-10.192
▁죽고	-10.1921
▁할지라도	-10.1921
▁만합니다	-10.1924
패	-10.1924
품에	-10.193
▁알아서	-10.1937
▁처사	-10.1942
읍	-10.1946
▁돌아와서	-10.1948
▁일로써	-10.195
▁얼굴	-10.1953
▁제멋대로	-10.1958
▁같은데	-10.1959
▁동쪽	-10.1963
▁조율	-10.1965
▁해조	-10.1971
▁계사에	-10.1976
▁동부승지	-10.1976
▁정문	-10.1985
칠	-10.1986
▁의금부가	-10.199
▁말하니	-10.1991
▁거짓으로	-10.1993
요즈음	-10.1998
▁예의	-10.2
▁언로	-10.2001
▁본직	-10.2004
▁감하여	-10.2008
▁조목	-10.2014
▁중신	-10.2015
▁매번	-10.2021
▁들고	-10.2021
▁인정	-10.2025
▁않도록	-10.2028
▁시독관	-10.203
▁감독	-10.2037
▁성명께서	-10.2038
▁데에서	-10.2039
▁의관	-10.2043
▁진주	-10.2044
리가	-10.205
▁송시열	-10.2052
▁진을	-10.2057
▁편안하게	-10.2065
▁취하여	-10.2066
▁그들로	-10.2067
지난번	-10.2067
▁간통	-10.2068
더니	-10.2075
▁무리	-10.208
▁양사의	-10.2088
▁황희	-10.2088
▁상서	-10.2101
시켰다	-10.2102
▁기다리고	-10.2104
▁배가	-10.2104
▁갖추	-10.2106
▁녹을	-10.2106
▁소홀히	-10.2109
▁염치	-10.2112
여러	-10.212
▁교화	-10.2122
▁부교리	-10.2123
▁나올	-10.2125
▁치사	-10.2127
▁하사	-10.2127
▁드러나	-10.2129
▁정성이	-10.2134
▁부족한	-10.2134
▁부역	-10.2135
▁낱낱	-10.2135
▁듣고서	-10.2136
▁대관	-10.2141
▁일정	-10.2145
▁이기지	-10.2146
▁들을	-10.2151
▁면하기	-10.2152
▁군자	-10.2153
였습니다	-10.216
▁생각합니다	-10.216
인에게	-10.2161
묘	-10.2166
▁당해	-10.2166
▁정지하고	-10.2167
▁정사에	-10.2171
▁조관	-10.2171
말	-10.2177
▁요동	-10.218
▁예로부터	-10.2183
▁이기	-10.2183
▁종실	-10.2184
▁희정당에	-10.2185
▁못하면	-10.2185
▁요사이	-10.2187
▁거주하는	-10.2191
▁사목	-10.2194
▁해당합니다	-10.2195
▁갑사	-10.221
▁성지	-10.221
▁도신이	-10.2216
▁거조가	-10.222
▁고통	-10.223
▁아닌가	-10.2241
▁왔다	-10.2246
▁가자하고	-10.2246
▁우부승지	-10.2249
▁관서	-10.2249
▁상복	-10.2253
▁물건	-10.2255
판관	-10.2259
▁국	-10.2269
년을	-10.2269
▁이덕형	-10.2278
▁우악한	-10.2279
▁청하옵건대	-10.2281
▁보내서	-10.2283
▁받아서	-10.2285
▁진달	-10.2289
▁이후에	-10.2291
▁신중	-10.2292
▁경비	-10.2296
▁너희	-10.2298
▁십분	-10.2304
▁가리지	-10.2309
▁사위	-10.231
중국	-10.2319
곡	-10.2322
겠습니다	-10.2323
▁써야	-10.2325
절	-10.2325
▁종사관	-10.2326
성이	-10.2339
▁부원군	-10.2341
▁논핵	-10.2343
▁전형	-10.2348
▁판중추부사	-10.2351
▁사서로	-10.2355
토	-10.2361
▁연유	-10.2363
▁쌓는	-10.2363
▁나오게	-10.2365
▁면하지	-10.2366
▁어긋나는	-10.2367
▁공주	-10.2371
▁고쳐서	-10.2373
▁중국에서	-10.2375
훈	-10.2378
▁쾌	-10.2385
▁응시	-10.2386
▁좌부승지	-10.2389
▁어린	-10.2389
폐	-10.2394
임을	-10.2404
서야	-10.2405
▁구제	-10.2413
▁방도를	-10.2414
▁부응	-10.2418
▁90	-10.2426
▁결국	-10.2428
▁경들은	-10.2429
▁지금에	-10.2432
▁전과	-10.2432
▁신하들에게	-10.2434
▁후세에	-10.244
▁물이	-10.2443
▁등도	-10.2454
▁정해진	-10.2456
▁필선으로	-10.2456
▁연계하여	-10.2457
▁논상	-10.246
▁도절제사	-10.246
▁특별한	-10.2466
▁방법을	-10.2467
▁북쪽	-10.247
▁것으로서	-10.2474
죄인	-10.2475
▁대우하는	-10.2476
▁먹고	-10.2479
▁상소는	-10.2483
▁있기는	-10.2488
▁절도사로	-10.2488
▁근일	-10.2499
▁문무	-10.2502
겠다	-10.2504
▁벼슬에	-10.2505
▁많다	-10.2505
▁계하	-10.2508
세가	-10.2512
▁되었으므로	-10.2515
▁하례	-10.2515
▁이러하였다	-10.2519
빈	-10.2531
사의	-10.2532
▁관원은	-10.2532
설	-10.2534
▁졌다	-10.2543
▁일만	-10.2544
▁합당할	-10.2545
▁하려	-10.2549
▁사랑	-10.2549
▁팔도	-10.255
▁뜻밖에	-10.2556
▁유배	-10.256
▁명에	-10.2561
▁않았던	-10.2563
▁추천	-10.2564
▁주라고	-10.2567
▁들어서	-10.2568
▁삼는	-10.2568
▁기다렸다가	-10.2572
▁동부승지로	-10.2577
었으며	-10.258
▁가두어	-10.2583
극	-10.2585
▁그럴	-10.2588
▁면직	-10.2589
▁모여서	-10.2591
▁살피게	-10.2594
▁적에는	-10.2598
▁헤아려서	-10.2602
▁모조	-10.2607
▁회	-10.261
▁대신들과	-10.2615
▁것이어서	-10.2617
▁두는	-10.2622
▁여쭙	-10.2625
▁의지	-10.2628
▁전교	-10.2628
▁공초하기를	-10.2634
▁품계	-10.2636
▁사고	-10.2637
▁평	-10.2643
▁홍응	-10.2649
▁것이겠습니까	-10.2652
어서	-10.2654
▁끝이	-10.2654
▁18	-10.2655
▁약방	-10.266
▁동료	-10.2663
▁좋아하는	-10.2663
편	-10.2665
이어서	-10.2665
▁문신	-10.2665
▁죽	-10.2669
▁그에게	-10.2676
▁힘쓰	-10.2678
분의	-10.2678
▁살피고	-10.2682
▁부득이한	-10.2683
▁올량합	-10.2684
▁있는지	-10.2687
▁그로	-10.2687
▁혼인	-10.269
▁만호	-10.2693
▁익	-10.2694
▁금할	-10.2695
▁그냥	-10.2695
▁주강	-10.2697
▁비국에서	-10.2698
▁짓고	-10.2702
▁삼가지	-10.2704
▁전부	-10.2706
▁말해	-10.2723
▁있도록	-10.2727
취	-10.2729
▁중외에	-10.273
현에	-10.2734
▁임하여	-10.2736
▁이문	-10.2748
이겠습니까	-10.2749
▁체직하소서	-10.2752
▁마치고	-10.2752
▁접대하는	-10.2753
▁가운데서	-10.2758
▁맡아	-10.276
▁날짜	-10.276
▁춘당대에	-10.2764
▁사은사	-10.2769
▁놀라	-10.2777
▁돌아보지	-10.2778
▁도둑	-10.2779
▁시대	-10.2785
▁되므로	-10.2787
▁책임이	-10.2805
▁의심할	-10.2809
평안도	-10.2811
▁나오는	-10.2816
▁관찰사가	-10.2827
▁못했으니	-10.283
업	-10.2832
▁살펴보	-10.2835
▁명하기를	-10.2844
▁도망	-10.2851
▁이성	-10.2853
▁번개	-10.2854
▁책봉	-10.2855
▁무겁게	-10.2856
▁임시로	-10.2856
▁없음	-10.2863
▁원하건대	-10.2866
▁내리신	-10.2868
▁민간	-10.287
▁계청	-10.2873
▁있음을	-10.2877
▁하사하고	-10.288
신을	-10.2881
▁하나는	-10.2883
품으로	-10.2883
▁뿐이니	-10.2885
▁철	-10.2887
▁옳다고	-10.2888
▁수십	-10.2892
▁칠	-10.2893
▁되어서	-10.2894
▁예는	-10.2895
▁호군	-10.2899
▁아닐	-10.2903
▁정해	-10.2904
사에	-10.2909
▁사양하지	-10.2914
련	-10.2921
▁승진	-10.2921
▁심하니	-10.2922
▁빼앗아	-10.2924
▁장관	-10.2924
▁그것은	-10.2926
▁든	-10.2932
▁상주	-10.2934
▁몸에	-10.2934
▁막론하고	-10.2943
▁병든	-10.2944
▁청하지	-10.2951
암	-10.2954
▁염	-10.2955
▁불쌍	-10.2956
▁헤아리지	-10.2959
▁왕래	-10.2963
▁운	-10.2963
▁당상이	-10.2968
▁일으켜	-10.2968
녀	-10.2972
급	-10.2978
▁독	-10.298
▁제수하라	-10.2983
▁해주	-10.2985
탄	-10.2985
▁베풀었다	-10.2986
▁발탁하여	-10.2993
▁대사	-10.2994
▁허물이	-10.2994
▁터	-10.2996
▁초사	-10.2998
▁청하자	-10.3003
▁혁파	-10.3006
이번에	-10.3007
▁막중한	-10.301
▁대체	-10.3014
▁결	-10.3014
▁틈	-10.3019
▁가운데에서	-10.3019
▁붉은	-10.3021
▁이하는	-10.3023
▁가볍지	-10.3023
지평	-10.3027
▁민폐	-10.3035
▁해조에서	-10.3035
▁논하고	-10.3039
▁체차하소서	-10.3041
▁관례	-10.3042
검	-10.3063
▁짓이	-10.3064
▁받았습니다	-10.3065
제를	-10.3065
▁술자리	-10.3066
▁숙	-10.3068
▁생각지	-10.3069
▁포상	-10.3078
▁놀랍습니다	-10.3087
일로	-10.3087
▁종자	-10.309
▁본조에서	-10.3091
▁수리	-10.3103
▁승문원	-10.3109
▁거행하라	-10.3109
▁음	-10.3109
루	-10.3112
택	-10.3112
▁단자를	-10.3114
▁요즘	-10.3115
▁무거운	-10.3117
▁권세	-10.3119
▁내리	-10.3125
▁점을	-10.3125
▁없겠습니까	-10.3126
▁금지	-10.3129
▁돌아올	-10.3139
▁걸	-10.314
▁지위에	-10.3144
▁있어서도	-10.3145
했으나	-10.3145
▁만약에	-10.3145
▁그윽	-10.3147
▁공의	-10.3153
▁것보다	-10.3154
▁문서	-10.3156
▁의주에	-10.316
▁힘이	-10.3161
▁잡고	-10.3163
이면	-10.3164
▁행실이	-10.3165
▁영부사	-10.3168
▁정하는	-10.3176
▁흩어져	-10.3176
▁겨울	-10.318
▁내수사	-10.3189
▁정인지	-10.3201
▁삼게	-10.3203
▁까닭을	-10.3207
▁세우는	-10.3212
전일에	-10.3212
▁터인데	-10.3215
▁등지에	-10.3215
▁처음으로	-10.3225
한데	-10.3226
▁더할	-10.3234
▁본도에	-10.3257
▁언제	-10.3259
▁연달아	-10.326
▁있어도	-10.3264
▁23	-10.3265
▁용납	-10.3266
혜	-10.3275
▁평양	-10.3276
▁품계를	-10.3277
▁가뭄이	-10.3279
▁못했다	-10.3281
▁시기에	-10.3282
▁보이는	-10.3282
▁사당	-10.3283
▁영건	-10.3285
물	-10.3286
▁잊지	-10.329
▁시를	-10.3293
▁관에	-10.3294
사가	-10.3295
▁헌부	-10.3295
릉	-10.3298
▁국경	-10.33
▁뒤에도	-10.3303
▁대접	-10.3306
▁하시고	-10.3309
이요	-10.331
적으로	-10.3313
▁바람에	-10.3317
▁공무	-10.3318
▁문학으로	-10.3321
▁부수찬	-10.3325
▁더욱이	-10.3334
▁타서	-10.3336
▁떨어져	-10.3337
▁없애	-10.334
▁지키고	-10.3343
▁너희들이	-10.3343
었으나	-10.3349
▁의견이	-10.3349
부의	-10.3351
▁풍	-10.3357
▁고을은	-10.3359
▁늙고	-10.336
▁제기	-10.3362
▁바람이	-10.3364
▁폐단	-10.3365
▁바라옵건대	-10.3366
▁휼전	-10.3366
▁심회	-10.3367
▁못하도록	-10.337
시고	-10.3372
▁일단	-10.3374
▁무신	-10.3374
▁칭호	-10.3378
구를	-10.338
▁베어	-10.3381
출	-10.3386
▁자들을	-10.3394
▁보충	-10.3396
▁밝혀	-10.3397
하기는	-10.3401
▁백관	-10.3402
▁각도에	-10.3403
▁황해	-10.3409
▁있기에	-10.3409
▁명망이	-10.3409
▁이로부터	-10.3412
▁숨기고	-10.3416
▁구치관	-10.3417
▁못하였고	-10.342
색	-10.3421
▁대답	-10.3422
▁이수	-10.3423
▁면치	-10.3425
▁가벼이	-10.3426
▁옳습니다	-10.3428
류	-10.3429
▁국왕	-10.343
▁태백이	-10.3434
▁사방	-10.3442
예조	-10.3443
▁생	-10.3444
기까지	-10.3444
▁승지에게	-10.3449
▁군량을	-10.3451
▁어렵고	-10.3454
▁내릴	-10.3456
▁공부	-10.3458
▁원한	-10.346
▁외에는	-10.3466
승지	-10.3469
▁콩	-10.3473
▁정부에	-10.3476
▁곡절	-10.3477
이것은	-10.3477
▁노하여	-10.3481
▁돈	-10.349
▁사람인데	-10.349
▁불가합니다	-10.3491
▁17	-10.3493
바	-10.3495
▁가뭄	-10.3499
호를	-10.3502
▁참형에	-10.3502
▁돌아온	-10.3504
▁못할까	-10.3505
▁도움이	-10.3509
하다는	-10.3518
손이	-10.3519
▁두려워하지	-10.3523
대간	-10.3524
▁가득	-10.3534
역적	-10.3534
현의	-10.3534
자가	-10.3535
▁폐지	-10.3538
▁아들을	-10.354
보를	-10.3545
▁아니라고	-10.3545
전라도	-10.3546
▁만큼	-10.355
▁애	-10.3551
염	-10.3562
▁이극배	-10.3562
▁만들어서	-10.3566
▁통렬	-10.3571
▁미안합니다	-10.3574
소를	-10.3579
▁합계	-10.358
▁자들	-10.358
▁물려	-10.3583
▁회복	-10.3584
▁제술	-10.3591
▁치제	-10.3595
▁옛날에	-10.3595
▁상전	-10.3597
라면	-10.3598
항	-10.3604
▁가을에	-10.3607
정을	-10.3607
▁관리가	-10.3609
▁술과	-10.361
▁옳을	-10.3612
▁무재	-10.3613
▁정말	-10.3622
▁무역	-10.3625
▁성상께서는	-10.3625
▁않았으나	-10.3626
▁두세	-10.3638
▁먹을	-10.3641
명은	-10.3646
▁진퇴	-10.3659
▁이루지	-10.3665
▁김재로가	-10.3668
▁맡고	-10.3671
▁인사	-10.3672
▁선조의	-10.3675
▁부의	-10.3681
▁북도	-10.3683
▁경성	-10.3685
▁실제로	-10.3685
▁풀	-10.3695
▁사헌부에	-10.3696
▁제일	-10.3698
▁이르고	-10.3699
▁여기에서	-10.37
▁형제	-10.3706
▁마땅한	-10.3709
▁되	-10.371
▁공초에	-10.3713
려는	-10.3716
황해도	-10.372
옵니다	-10.3722
▁정리	-10.3725
▁입직한	-10.3732
▁직	-10.3735
▁이원	-10.3736
▁상언	-10.3742
▁세조	-10.3743
▁유수	-10.3747
▁체면	-10.3755
▁전하는	-10.376
▁경에게	-10.3771
▁땅	-10.3775
▁명한	-10.3776
▁백성들은	-10.3779
할까	-10.378
▁사죄	-10.3783
▁이유가	-10.3783
▁이르는	-10.3784
▁고을이	-10.3786
▁비용	-10.3786
▁직분	-10.3787
이겠는가	-10.379
▁이자	-10.3792
▁구례	-10.3794
외	-10.3798
▁아니하면	-10.38
▁파직시키고	-10.3801
▁이튿날	-10.3804
▁처단	-10.3804
▁제수하는	-10.3805
▁첩	-10.3815
▁이상은	-10.3818
▁본다면	-10.382
에게서	-10.3826
▁대행	-10.3826
▁무함	-10.3827
▁19	-10.3827
▁아니며	-10.3828
▁어찌할	-10.383
▁말한다	-10.3834
▁않음이	-10.3835
▁견책	-10.3837
대에	-10.3837
▁내용에	-10.3839
▁아니므로	-10.3839
벽	-10.3839
▁직책에	-10.3846
▁정하게	-10.3847
이었는데	-10.3847
▁논하기를	-10.3848
개월	-10.3851
전일	-10.3851
▁넘어	-10.3851
▁처치할	-10.3869
▁서원	-10.387
▁여긴	-10.3876
성군	-10.3878
▁묻	-10.3879
▁것이겠는가	-10.3885
▁제거	-10.3885
▁전후로	-10.3887
▁진강	-10.389
▁봉안	-10.3891
▁노사신	-10.3892
장이	-10.3894
▁추국하여	-10.39
▁변명	-10.3901
▁묵은	-10.3905
▁이끌고	-10.3909
▁지레	-10.391
▁풍악	-10.3912
▁보고서	-10.3913
▁의거	-10.3914
▁물건이	-10.3918
▁드러난	-10.3921
▁이르렀습니다	-10.3923
▁착오	-10.3923
▁용렬한	-10.3924
▁살펴보니	-10.3924
▁보덕으로	-10.3929
▁하신	-10.393
▁불을	-10.3932
▁동시에	-10.3936
▁번번	-10.3939
▁펴	-10.3943
▁손을	-10.3945
▁하였기	-10.3945
▁총	-10.3946
주는	-10.3951
▁당연한	-10.3951
▁사정이	-10.3955
▁관장	-10.3958
▁처자	-10.396
▁어떠한	-10.396
▁종신	-10.3962
▁얻을	-10.3964
비가	-10.3965
▁있었으며	-10.3965
▁보았는데	-10.3969
▁상서하여	-10.3973
▁물건은	-10.3979
▁등용	-10.3981
▁어긋남이	-10.3985
▁그만	-10.3988
품의	-10.3993
원은	-10.3993
▁뽑는	-10.3994
▁시비	-10.3994
▁억울한	-10.3997
▁같으면	-10.3997
▁갖추고	-10.4004
▁들여	-10.4009
러	-10.4023
▁가슴	-10.4024
▁파견하여	-10.4025
▁그와	-10.4027
체	-10.4029
등을	-10.4029
▁아전	-10.4035
▁피혐	-10.4045
▁춘추	-10.4047
▁라고	-10.4051
▁동안에	-10.4055
▁정시	-10.4059
▁오래지	-10.4061
▁응교	-10.4062
상의	-10.4065
지가	-10.4067
▁차자에	-10.4073
▁못하다고	-10.4075
▁금년에	-10.4076
▁사치	-10.4078
▁알아	-10.4078
▁본도로	-10.4079
▁왕후	-10.4085
▁부사로	-10.4087
▁근신	-10.4092
▁급한	-10.4095
▁인피	-10.4099
▁허락하고	-10.4101
했고	-10.4105
▁지급	-10.4108
▁일제	-10.4111
▁고치	-10.4111
▁간원에서	-10.4126
▁출신	-10.413
▁방해	-10.4134
▁휴가	-10.4134
▁것이지	-10.4134
▁된다는	-10.4136
▁머리	-10.4141
▁경기의	-10.4143
함	-10.4147
▁설치하는	-10.4151
▁자로서	-10.4154
▁잡아서	-10.4158
▁갔다가	-10.4161
▁의원	-10.4161
▁물었다	-10.4162
이조	-10.4165
▁아문	-10.4166
▁올해	-10.4169
▁둔전	-10.4169
▁맨	-10.4172
다시	-10.4172
▁붙여	-10.4175
▁했던	-10.4175
▁다스리고	-10.4179
▁왕래하는	-10.4181
스럽게	-10.4189
▁말의	-10.419
▁없	-10.419
▁맞이	-10.4192
▁재상이	-10.4194
▁소금	-10.4196
▁높고	-10.4196
▁욕되게	-10.4197
였는데	-10.4201
▁합하여	-10.4203
육	-10.4204
마땅히	-10.4205
▁않을까	-10.4206
▁의혹	-10.4206
▁뭐	-10.4206
▁수행	-10.4208
▁조서	-10.421
▁되기	-10.4212
▁없어야	-10.4216
▁그때에	-10.4218
▁대우	-10.422
▁사랑하는	-10.4222
▁광주	-10.4226
▁명하였으니	-10.4228
▁않은데	-10.4234
만약	-10.4235
▁보아도	-10.4239
▁구별	-10.4242
▁유순	-10.4243
▁고하는	-10.4243
▁지역	-10.4243
▁해에	-10.4244
▁쳐서	-10.4259
▁패초	-10.4259
▁군대를	-10.4271
▁고려	-10.4276
▁체	-10.4277
▁계본에	-10.4277
▁반역	-10.4279
▁자취	-10.428
▁어기고	-10.4281
▁전교가	-10.4282
▁금부에	-10.4283
▁태종	-10.4284
▁변통	-10.4296
▁내시	-10.4299
▁비어	-10.4301
▁않는데	-10.4304
▁반복하여	-10.4306
▁아비를	-10.4311
▁불법	-10.4312
▁다스려	-10.4318
▁제수하여	-10.4318
▁전시	-10.4322
▁데다가	-10.4324
▁보내야	-10.4327
▁가하여	-10.4337
경을	-10.434
▁괴수	-10.4343
▁이르렀는데	-10.4343
▁불과	-10.4347
▁말라는	-10.435
▁상피	-10.4357
락	-10.4358
▁상세	-10.4358
▁합계하여	-10.4364
점	-10.4365
▁전례대로	-10.4366
▁금후로는	-10.4367
▁길에서	-10.4368
▁뜻밖	-10.4369
▁나왔으니	-10.4375
▁일기	-10.4375
▁정할	-10.4376
▁본부에서	-10.4377
▁들어온	-10.4378
▁정원은	-10.438
▁진달하고	-10.438
대간이	-10.4383
▁수효	-10.4384
▁강무	-10.4384
▁벼	-10.4396
▁합니까	-10.4398
▁거기에	-10.4399
▁삼복	-10.44
▁치죄	-10.4402
▁남에게	-10.4406
▁특진관	-10.4409
▁주었는데	-10.4411
▁정세	-10.4415
▁의하면	-10.4417
▁돌아가게	-10.4419
▁글에	-10.4421
시어	-10.4426
▁차례나	-10.4426
거든	-10.4427
▁높이	-10.4427
▁묻고	-10.443
▁살펴보건대	-10.4434
▁비교	-10.4434
▁석강에	-10.4437
▁무방할	-10.444
▁남방	-10.4443
▁재결	-10.4448
▁있거든	-10.445
▁귀국	-10.4456
능	-10.4464
▁왔습니다	-10.4466
▁요동에	-10.4467
▁시장	-10.447
▁임용	-10.4471
▁이번에는	-10.4479
▁고을로	-10.4484
호조	-10.4485
▁의정	-10.4485
▁살게	-10.4489
▁사관이	-10.4491
▁올려서	-10.4491
▁입계	-10.4494
▁효과	-10.4494
▁굶주린	-10.4496
▁바란다	-10.4496
▁혼자	-10.4499
▁왕비	-10.45
▁잡는	-10.4504
▁송인명이	-10.4505
▁좌참찬	-10.4506
▁이치	-10.4511
▁세자의	-10.4512
▁왕세손	-10.4512
▁비방	-10.4512
▁참여하여	-10.4515
▁군사는	-10.4517
▁소임	-10.4518
▁벼슬이	-10.4522
▁가산	-10.4525
▁중이	-10.4525
▁문자	-10.4527
▁관사	-10.4528
▁서울과	-10.4528
▁경외	-10.4531
▁방법이	-10.4535
▁선온	-10.4536
하옵니다	-10.4548
▁사람마다	-10.455
▁별시	-10.4553
▁힘껏	-10.4555
▁견디지	-10.4557
▁내에	-10.4563
▁한정	-10.4568
▁위엄	-10.4573
나라	-10.4574
▁주었으니	-10.4574
▁올라가	-10.4575
▁지체	-10.4578
▁남녀	-10.4581
섭	-10.4581
▁어미가	-10.4584
▁너그럽게	-10.4586
▁원하는	-10.4586
▁형세상	-10.459
▁하유하였다	-10.4592
▁중궁	-10.4592
▁병세	-10.4592
▁경작	-10.4594
▁주상	-10.4598
▁낙점	-10.4598
▁두려워하고	-10.4598
부에	-10.4604
▁말아야	-10.4605
래	-10.4606
▁시강원	-10.4607
▁하셨는데	-10.461
벌	-10.4611
▁주청	-10.4613
▁이치가	-10.4615
▁전세	-10.4618
▁군부	-10.4621
▁본부에	-10.4622
▁같았고	-10.4623
▁왜적이	-10.4624
▁극도에	-10.4626
▁경들	-10.4626
▁소속	-10.4627
▁대간은	-10.4628
하자고	-10.4628
▁할지	-10.463
▁충	-10.463
▁삭직	-10.4634
▁낮에	-10.4635
▁함경	-10.4637
▁맡겨	-10.4642
▁홍봉한이	-10.4644
▁시행하고	-10.4645
룡	-10.4645
금년	-10.4646
▁추고할	-10.4646
▁구원	-10.4649
▁예물	-10.465
▁먹	-10.4652
▁없는데도	-10.4655
▁바치	-10.4656
▁대마도	-10.4662
▁들었다	-10.4664
▁심문	-10.4664
▁들어간	-10.4667
입	-10.4667
▁어리석고	-10.4667
전하께서	-10.4669
▁핑계	-10.4673
▁지난해에	-10.4676
▁바람	-10.4684
▁가만	-10.4698
▁구제할	-10.4698
▁기어	-10.4699
▁지나	-10.4703
상을	-10.4705
▁두지	-10.4705
▁원통함을	-10.471
▁원상	-10.4713
▁구구	-10.4716
▁도감에	-10.4719
▁영중추부사	-10.4719
▁때려	-10.472
법	-10.4722
▁사정전에	-10.4722
▁밤이	-10.4722
▁화기	-10.4726
▁화가	-10.4727
▁본직에	-10.4727
▁국청	-10.4729
▁수석을	-10.473
▁언	-10.4732
▁빛깔	-10.4734
공신	-10.4737
▁조석	-10.4742
▁하찮	-10.4742
경상도	-10.4744
▁올리지	-10.4746
▁특명으로	-10.4747
명과	-10.475
▁군졸	-10.4752
도다	-10.4753
▁인피하고	-10.4758
▁전연	-10.4765
▁맞추어	-10.4765
▁못해	-10.4769
▁아뢰자	-10.4774
맹	-10.4783
▁경리	-10.4786
3	-10.4791
▁계청하니	-10.4792
살	-10.4793
▁속이고	-10.4794
▁고발	-10.4797
▁일이므로	-10.4797
▁차임	-10.48
▁가리켜	-10.4801
▁여러번	-10.4803
▁용렬하고	-10.4805
▁임기	-10.4805
▁점	-10.4811
▁절대로	-10.4813
▁규례에	-10.4814
▁손상	-10.4815
▁재이	-10.4819
▁따위	-10.4821
▁의사	-10.4822
▁거론	-10.4824
▁미안	-10.4825
▁것이기	-10.4826
▁하여도	-10.4829
▁다르니	-10.4833
▁매년	-10.4839
▁적어	-10.4842
▁국법	-10.4843
▁경과	-10.4843
▁마리	-10.485
주부	-10.4851
씩	-10.4858
▁통하여	-10.486
▁묘당에서	-10.486
조의	-10.4861
▁장을	-10.4861
▁사명	-10.4863
새	-10.4864
▁유사로	-10.4869
▁법도	-10.4871
▁이이첨	-10.4879
지난번에	-10.488
▁애당초	-10.4882
▁않다가	-10.489
▁표문	-10.489
▁때와	-10.4892
▁있습니까	-10.4895
▁세금	-10.4896
▁피해	-10.4898
▁시작	-10.49
▁놓은	-10.4901
▁역모	-10.4906
▁옳은	-10.491
▁기타	-10.4912
했었는데	-10.4913
▁것이지만	-10.4913
▁바치니	-10.4914
▁적합하지	-10.4914
▁천둥	-10.492
▁금령	-10.4922
▁바이다	-10.4926
▁사람이다	-10.4935
▁나왔다	-10.4936
▁게다	-10.4941
▁전교하셨습니다	-10.4943
▁달려가	-10.4944
▁체직시키소서	-10.4944
▁골라	-10.4945
▁시상	-10.4945
▁탄	-10.4946
▁우연히	-10.4949
▁않아야	-10.4957
▁부묘	-10.4957
▁절의	-10.4958
▁수용	-10.4959
▁공사에	-10.496
"	-10.4961
▁차라	-10.4961
▁풍년이	-10.4961
▁고하지	-10.4963
▁재계	-10.4971
▁틀림없	-10.4977
▁거두는	-10.4979
▁치료	-10.4984
둘	-10.4987
▁이인	-10.4993
▁알기	-10.4993
족	-10.4994
▁휘	-10.4996
음을	-10.5
▁청하건대	-10.5006
▁방자하게	-10.5011
▁27	-10.5011
▁탓으로	-10.502
지난	-10.5023
탁	-10.5026
위를	-10.5027
녕	-10.5027
책	-10.5028
선이	-10.503
▁혜성이	-10.503
▁계달	-10.5033
▁슬픔	-10.5034
▁어려움	-10.5034
▁금하는	-10.5037
▁소문	-10.5038
▁전하였다	-10.5044
▁나아가니	-10.5045
든	-10.5046
▁불가한	-10.5046
낼	-10.5052
▁교대	-10.5053
표	-10.5056
▁관련된	-10.5057
▁이러하니	-10.5058
법을	-10.5059
▁28	-10.506
이나마	-10.5062
▁몸으로	-10.5063
▁헌부의	-10.5064
습	-10.5067
▁예와	-10.507
▁모르	-10.5071
▁척	-10.5075
▁한나라	-10.5076
▁경사를	-10.5081
▁옮기는	-10.5086
장령	-10.509
▁연석에서	-10.5092
▁송시열이	-10.5093
격	-10.5094
▁일어난	-10.5095
▁맞는	-10.5096
▁한편	-10.5096
▁사주	-10.5097
▁농사가	-10.5101
▁뜰에	-10.5101
▁못하므로	-10.5108
▁원망이	-10.5113
휘	-10.5116
▁조리	-10.5117
▁선왕께서	-10.5129
▁돌려보내	-10.513
▁들지	-10.5132
▁파직하라	-10.514
▁입지	-10.5145
▁그러	-10.5147
콩	-10.5149
▁행사	-10.5156
▁없었으므로	-10.5167
▁부인	-10.5171
▁범연	-10.5171
일지라도	-10.5173
▁작	-10.5175
▁인피하여	-10.5176
▁묘당	-10.5177
▁주인	-10.5178
▁지신사	-10.5189
▁소생	-10.5189
▁예문에	-10.519
▁심할	-10.5194
납	-10.5196
▁사노	-10.5197
▁신과	-10.52
▁일체로	-10.52
▁곽	-10.5207
▁송나라	-10.5211
▁신주를	-10.5211
▁꾸며	-10.5211
▁유영경	-10.5212
▁모의	-10.5215
▁갇혀	-10.5215
▁윤대	-10.5216
▁재신	-10.5219
▁멀지	-10.522
▁명년	-10.5221
참	-10.5222
▁정식	-10.5222
▁하직	-10.5227
▁왕명	-10.5229
들도	-10.5233
▁돌보지	-10.5235
▁합사	-10.524
▁양주	-10.5244
▁각자	-10.5246
선을	-10.5253
▁이사	-10.5254
▁이상과	-10.5259
▁근일에	-10.5267
▁아내가	-10.5268
▁있었다고	-10.5268
▁도망해	-10.5271
▁정포	-10.5276
▁언급	-10.5278
▁보내소서	-10.5279
▁토벌	-10.5283
▁고집	-10.5284
▁데는	-10.5286
▁유숙	-10.5289
▁곤란	-10.529
▁섬기는	-10.5291
충청도	-10.5292
▁전후에	-10.5295
▁전하여	-10.5301
▁자복	-10.5302
▁기재	-10.5302
▁함	-10.5307
▁일곱	-10.5313
▁이전	-10.5313
▁치계	-10.5315
▁바로잡	-10.5317
▁형조의	-10.532
▁기미	-10.5325
▁사헌부대사헌	-10.533
▁이같이	-10.5331
▁총애	-10.5331
▁기다리는	-10.5332
▁출납	-10.5335
▁변란	-10.5336
리를	-10.5342
▁차림으로	-10.5345
▁마친	-10.5347
▁인을	-10.5349
해도	-10.535
숭	-10.5353
▁견딜	-10.5362
▁지내고	-10.5363
▁여겨서	-10.5364
▁구하는	-10.5368
협	-10.537
▁범하는	-10.5376
▁풍속이	-10.538
▁김수	-10.5384
▁이외	-10.5386
경기	-10.5387
▁후회	-10.5396
▁아니었습니다	-10.5399
▁제향	-10.5401
▁위급한	-10.5402
▁소인	-10.5402
▁한참	-10.5405
▁신민들	-10.5406
주를	-10.5414
▁서북	-10.542
하느라	-10.542
▁폐해가	-10.5421
▁예문	-10.5428
▁시관	-10.5436
올	-10.5438
▁아니나	-10.5444
▁것이오니	-10.5446
▁유의	-10.5446
▁시끄럽게	-10.5446
▁김안로	-10.5453
▁않겠다	-10.5454
▁넘	-10.5455
정은	-10.5457
▁장성	-10.5457
▁변괴	-10.5462
▁안된다	-10.5471
▁수행하지	-10.5475
▁유사가	-10.5477
▁않으시니	-10.5479
지고	-10.5486
▁어긴	-10.5496
▁초기	-10.5498
▁고신	-10.5501
▁폐단은	-10.5506
▁보이고	-10.5509
▁낸	-10.5511
▁율문에	-10.5511
▁규례를	-10.5514
▁죽어	-10.5517
▁선정	-10.5522
▁사람에	-10.5524
▁위리	-10.5528
▁가고	-10.5528
일찍이	-10.553
▁빈청에	-10.5533
▁행하게	-10.5534
▁사냥	-10.5537
일은	-10.5537
▁의논은	-10.5538
▁수성	-10.5546
▁받드는	-10.5549
▁쳤다	-10.5551
▁막을	-10.5552
▁이경	-10.5553
▁인혐하고	-10.5554
▁비난을	-10.5554
▁겨울에	-10.5559
었기	-10.556
▁보인	-10.5561
▁감정	-10.5562
▁한마디	-10.5563
▁혜택	-10.5564
▁시켜서	-10.5564
▁용서하지	-10.5565
▁아첨	-10.5567
▁도와	-10.5576
▁짓게	-10.5578
▁쏘는	-10.5579
▁숙직	-10.5581
▁제수된	-10.5581
▁전지하여	-10.5586
▁어서	-10.559
▁서울에서	-10.5593
▁풍습	-10.5597
▁군사들이	-10.5602
▁해괴	-10.5606
▁가령	-10.5606
범	-10.5609
시는	-10.562
담	-10.562
▁추고하도록	-10.5627
▁이토록	-10.5631
▁법전에	-10.5638
▁칼을	-10.5639
▁않아도	-10.564
▁등록	-10.5642
▁처하고	-10.5647
▁역마	-10.5648
▁유생을	-10.5648
▁입는	-10.5649
▁강제로	-10.5649
어야	-10.565
▁사직하고	-10.5651
▁좇	-10.5658
▁토지	-10.5663
▁앞뒤	-10.5664
▁죄줄	-10.5665
▁흥	-10.567
▁무고한	-10.5682
▁하서하기를	-10.57
▁불충	-10.5702
▁뜻과	-10.5706
▁첨사	-10.5713
인지	-10.5714
▁요행	-10.5715
▁고하고	-10.5718
▁제문	-10.5719
육조	-10.5727
▁녹훈	-10.5729
▁이하가	-10.5729
▁입격	-10.573
같은	-10.5731
군의	-10.5732
▁24	-10.5736
▁기세	-10.574
▁간사하고	-10.5741
▁이상이	-10.5742
▁경들이	-10.5742
▁이익이	-10.5742
▁파출	-10.5744
▁칙사	-10.5746
▁것이라면	-10.5753
▁막는	-10.5754
▁크기	-10.5755
▁보전	-10.5758
▁예절	-10.5763
▁강경	-10.5769
▁합당합니다	-10.5769
▁옮겨서	-10.577
▁있었을	-10.577
▁도적이	-10.577
▁유생이	-10.577
▁아니었다	-10.5772
▁태묘에	-10.5772
영이	-10.5779
▁전사	-10.5783
네	-10.5784
형조	-10.5786
▁출사하지	-10.5786
▁시강관	-10.5789
▁인해서	-10.5793
▁핑계로	-10.5793
시키지	-10.5794
▁현저	-10.5795
▁참여한	-10.5797
복을	-10.5798
▁물었더니	-10.5801
▁그릇	-10.5802
▁곡진	-10.5806
▁송사	-10.5809
▁데에는	-10.581
▁체통	-10.5811
▁판결	-10.5815
▁육조	-10.5815
▁우참찬으로	-10.5816
수는	-10.5817
▁밝은	-10.5818
▁뛰어	-10.5819
▁하직하니	-10.5823
▁외방	-10.5833
▁진위	-10.5836
▁추문하여	-10.5838
▁바라	-10.584
▁충군	-10.584
▁전날	-10.5842
▁상은	-10.585
▁정하지	-10.5854
▁이영	-10.5856
▁대신은	-10.5863
▁원자	-10.5868
마저	-10.587
▁쌓아	-10.5874
▁친국	-10.5875
▁정자	-10.5876
▁상례	-10.5877
▁절차	-10.5877
▁절로	-10.5878
▁오른	-10.5879
▁요청	-10.5883
막	-10.5886
▁시험하여	-10.5886
▁위하는	-10.5888
▁참고	-10.5889
▁이르러서	-10.5891
▁모화관에	-10.5891
▁추가	-10.5891
▁위관	-10.5891
▁전주	-10.5891
▁폐할	-10.5892
▁기대	-10.5895
▁미진	-10.5898
▁계산하여	-10.5899
▁포장	-10.5901
▁참봉	-10.5902
▁사람만	-10.5902
▁거행하였다	-10.5905
▁불가	-10.5905
▁놀랍다	-10.5905
▁죽었으니	-10.5905
▁장계에	-10.5907
▁베푸는	-10.5911
▁바치지	-10.5917
▁허실	-10.5918
▁상소가	-10.5922
▁장문	-10.5922
▁아니지만	-10.5924
▁참찬관	-10.5925
▁정계	-10.5928
▁강상	-10.5928
▁도착하여	-10.5928
▁그칠	-10.5932
▁삼았으니	-10.594
▁거행하고	-10.594
▁행실	-10.5941
▁본받아	-10.5942
▁황공하여	-10.5944
▁목장	-10.5944
▁종을	-10.5947
▁떼	-10.5948
▁공격	-10.5951
▁자제	-10.5956
▁수백	-10.596
▁알려	-10.5962
▁심하다	-10.5962
관은	-10.5964
▁밀	-10.5965
▁군정	-10.5968
▁여전	-10.5969
▁초기에	-10.597
연히	-10.5971
▁외방에서	-10.5972
▁구제하는	-10.5976
몽	-10.5979
총	-10.5981
▁정신	-10.5982
첨사	-10.5984
간에	-10.5984
▁효유	-10.5986
인데도	-10.5986
▁육	-10.5988
▁상으로	-10.5988
▁듣고는	-10.5991
▁수령과	-10.5995
▁모욕	-10.5996
▁대마주	-10.5998
▁여론이	-10.6002
▁지어서	-10.6005
▁본원	-10.6006
▁중의	-10.6011
▁충당	-10.6013
▁지키게	-10.6014
▁갈아	-10.6018
▁진술	-10.6018
▁대관이	-10.6019
▁같아서	-10.6027
▁효도	-10.6028
▁승지들이	-10.6028
▁선군	-10.6028
▁제사에	-10.6031
▁잡지	-10.6035
▁꺼리는	-10.6039
치게	-10.6041
▁권장	-10.6043
▁추고하라고	-10.6044
▁뿐인데	-10.6045
▁목욕	-10.6048
▁부탁	-10.6048
▁천둥이	-10.6052
▁잔	-10.6053
▁수원	-10.6055
▁들이라	-10.6056
▁금부가	-10.6058
돈	-10.6062
▁늦게	-10.6062
▁들이	-10.6063
▁성문	-10.6063
▁상중에	-10.6063
▁수사	-10.6065
▁문의	-10.6067
▁시행해야	-10.6067
▁선발	-10.6069
군사	-10.607
▁상제	-10.6073
▁대를	-10.608
▁거쳐	-10.6082
▁두려워하는	-10.6087
▁죄상	-10.609
▁원접사	-10.6091
▁추위	-10.6095
묵	-10.6096
▁정월	-10.6099
▁공도	-10.61
▁번씩	-10.6104
▁망령되	-10.6106
하였었다	-10.6115
▁청하였으니	-10.6116
▁연회를	-10.6117
▁작지	-10.6117
▁관문	-10.6119
▁낮은	-10.6119
▁도체찰사	-10.6122
▁띠고	-10.6122
▁고금	-10.6124
▁절도	-10.6128
▁조참	-10.6129
▁포도	-10.6133
▁왔으니	-10.6133
▁술잔	-10.6133
▁사신으로	-10.6136
▁그러면	-10.6138
▁지내	-10.6139
▁자식	-10.6141
심을	-10.6142
▁기자헌	-10.6144
▁성인	-10.6149
▁노여움	-10.615
▁불이	-10.6152
▁평상시	-10.6156
▁실제	-10.6158
▁사이에서	-10.6161
▁오고	-10.6162
▁관에서	-10.6164
▁물려서	-10.6174
▁비망기를	-10.6175
▁피혐한	-10.6177
▁여덟	-10.6187
▁사족	-10.6187
▁있었겠습니까	-10.6189
▁조카	-10.6192
▁기뻐	-10.6193
▁불가하다고	-10.6198
▁출사하게	-10.6198
▁배나	-10.6203
▁잃고	-10.6205
▁망령된	-10.6205
▁안주	-10.6207
▁정광필	-10.6207
▁종친과	-10.621
▁모아서	-10.6214
▁박홍도	-10.6215
▁도원수	-10.6215
▁얼음이	-10.6216
▁근자에	-10.6218
▁담장	-10.6219
▁골라서	-10.6222
상이	-10.6226
▁상소하였다	-10.6229
탕	-10.6229
되게	-10.623
▁인신	-10.623
▁없애고	-10.6233
▁청탁	-10.6233
▁죄명	-10.6246
▁내리어	-10.6251
▁김수항	-10.6255
▁범죄	-10.6257
형을	-10.6258
▁봉진	-10.6267
▁그곳	-10.6267
께	-10.627
▁21	-10.6273
▁택하여	-10.6277
▁않자	-10.6277
▁염려하지	-10.6278
▁고치는	-10.6278
▁면제	-10.6281
▁처리해야	-10.6285
▁않았다는	-10.629
▁나아가지	-10.6292
▁액수	-10.6293
▁소문이	-10.6294
조에	-10.6301
▁답하지	-10.6302
▁정태화가	-10.6305
▁추핵	-10.6307
▁생각하는	-10.6314
▁깨닫지	-10.6316
▁관대	-10.6319
▁논죄	-10.6321
▁기와	-10.6322
▁상당	-10.6323
▁판의금부사로	-10.6326
▁결정하겠다	-10.6326
▁애석하게	-10.6327
▁축문을	-10.6331
있는	-10.6332
▁후에는	-10.6333
▁관원들이	-10.6335
▁묻는	-10.6337
▁감당	-10.634
▁지내는	-10.634
▁추수	-10.634
▁지켜	-10.6345
▁호조의	-10.6347
▁못하기	-10.6348
▁양사에서	-10.6352
▁아내를	-10.6353
▁내리면서	-10.6356
▁모양이	-10.6357
▁녹	-10.6357
▁부리는	-10.6362
▁붙잡아	-10.6364
했어야	-10.6365
▁대사성	-10.6367
▁아름답게	-10.6368
▁양계	-10.6372
▁거절	-10.6374
▁예관	-10.6381
갑	-10.6384
연을	-10.6392
▁문묘에	-10.6395
▁옛사람이	-10.6397
▁호소	-10.6402
▁달무리	-10.6404
영을	-10.641
▁해조가	-10.6412
▁적발하여	-10.6417
▁성교	-10.6422
▁이하에게	-10.6422
▁아뢰었으니	-10.6423
▁봉사	-10.6423
▁보이지	-10.6426
조를	-10.6427
▁되었으나	-10.643
▁바와	-10.6431
▁아뢰어라	-10.6436
▁부장	-10.6437
▁주니	-10.6437
▁격	-10.644
▁생각하기를	-10.6443
▁나왔는데	-10.6443
▁의논하고	-10.6446
▁내금위	-10.6447
▁고의	-10.6456
▁어진이	-10.646
▁보아서	-10.6463
▁승지와	-10.6464
서도	-10.6464
▁관학	-10.6464
▁말로써	-10.6466
▁봉조하	-10.6468
▁접견	-10.647
▁정밀	-10.6471
▁겪은	-10.6478
▁왔을	-10.6478
▁같다면	-10.648
혼	-10.6481
▁태만	-10.6481
원의	-10.6481
▁경내	-10.6484
▁빛이	-10.6485
▁온전	-10.6487
▁이귀	-10.6488
▁뜰에서	-10.6488
▁근시	-10.6488
▁22	-10.6489
▁따져	-10.649
▁내외	-10.6491
▁방금	-10.6496
▁접반사	-10.65
▁개성부	-10.6501
▁들었는데	-10.6502
▁대부	-10.6504
▁내용	-10.6507
▁기도	-10.6509
▁체차하고	-10.6511
▁그때의	-10.6514
▁맡길	-10.6515
▁고하기를	-10.6517
▁죽었는데	-10.6517
▁홍윤성	-10.6519
▁신민	-10.6524
▁입시한	-10.6532
▁과장	-10.6533
▁이광	-10.6534
▁신정	-10.6534
▁합당치	-10.6534
▁금단	-10.6537
▁부도	-10.6537
▁임금과	-10.6539
▁입계하니	-10.6539
원임	-10.654
▁운반	-10.654
▁은총	-10.6544
▁부정	-10.6545
완	-10.6547
▁글이	-10.655
▁밑에	-10.6552
▁시행한	-10.6554
▁노인	-10.6555
▁나간	-10.6556
▁관청	-10.6557
가며	-10.6559
▁명하니	-10.6561
▁사정	-10.6563
▁공사가	-10.6566
▁전한	-10.6569
▁있겠느냐	-10.6571
▁비변사에서	-10.6571
▁논하였으나	-10.6575
▁낳	-10.6578
▁곁에	-10.6586
▁각종	-10.6586
▁기쁘게	-10.6589
▁터이니	-10.6592
▁시행하여	-10.6594
내관	-10.6595
진을	-10.6596
▁헛되	-10.6602
▁하유하여	-10.6606
▁텅	-10.6606
▁제왕	-10.6607
▁주먹	-10.6607
▁뒤따라	-10.6608
화를	-10.6608
▁마땅치	-10.6609
▁말한다면	-10.6609
▁축	-10.6614
로운	-10.6616
▁일이라고	-10.6618
▁금군	-10.6622
▁뽑	-10.6626
▁조항	-10.6628
물을	-10.6631
▁탄식	-10.6633
▁안될	-10.6637
시니	-10.6641
▁역사	-10.6641
▁김유	-10.6643
▁속이는	-10.6646
▁승복	-10.6647
▁동생	-10.665
▁이외에는	-10.6655
▁찬성	-10.6667
▁쇄환	-10.6673
정의	-10.6676
▁밭	-10.6679
▁수치	-10.6682
▁왜인이	-10.6682
▁사리를	-10.6685
▁빙자하여	-10.6685
북	-10.6685
▁낼	-10.6685
▁좌찬성	-10.6686
▁독촉	-10.6687
▁다음에야	-10.6688
▁처리하겠다	-10.6688
애	-10.6688
▁징수	-10.6688
었던	-10.6689
데도	-10.6691
▁하셨으니	-10.6692
▁태평	-10.6695
▁대대로	-10.6695
▁정신이	-10.6696
▁수레	-10.6702
▁미안하다	-10.6702
▁아니하는	-10.6703
지지	-10.6703
▁이상에게	-10.6704
▁진달하니	-10.6709
동이	-10.671
▁청대하여	-10.6714
▁문안하였다	-10.6714
▁적당한	-10.672
▁싣고	-10.672
▁없었으며	-10.6721
▁사조하니	-10.6723
▁제조가	-10.6724
▁끝	-10.6724
▁속으로	-10.6727
▁못하였으므로	-10.6728
▁합격	-10.6735
▁인물을	-10.6738
만호	-10.6739
▁식	-10.6744
느냐	-10.6747
▁고찰	-10.6749
▁허다한	-10.6749
▁하겠으나	-10.6754
▁나갈	-10.6755
들과	-10.6758
▁돌아가는	-10.676
▁체차하라	-10.6761
▁도망한	-10.6763
▁상언하기를	-10.6763
령을	-10.6764
▁사문	-10.6767
▁칭	-10.6767
▁그리하라	-10.6773
▁조사가	-10.6775
▁대해서도	-10.6783
▁시험해	-10.6785
▁분간	-10.6792
스럽습니다	-10.6793
스레	-10.6796
▁상차하기를	-10.6798
▁보았더니	-10.6802
▁장관이	-10.6803
▁졸곡	-10.6803
▁사직하는	-10.681
▁행위	-10.6811
▁권도	-10.6811
▁위로하고	-10.6811
▁뿐더러	-10.6815
▁하령하기를	-10.6816
▁김종서	-10.6816
▁내리니	-10.6819
하셨으니	-10.6834
▁법전	-10.6834
▁이루어	-10.6836
▁이틀	-10.6838
▁시정	-10.685
▁적어서	-10.6855
▁선비들이	-10.6863
▁신하에게	-10.6873
▁이행	-10.6881
▁성질이	-10.6885
▁무신년	-10.6889
했다가	-10.6889
▁경회루	-10.6894
▁처분이	-10.6894
부정	-10.6895
▁34	-10.6896
▁연습	-10.6902
▁으뜸	-10.6909
▁나오	-10.691
▁윤인	-10.6911
▁부윤	-10.6911
▁세력	-10.6913
▁짐승	-10.6915
▁막고	-10.6917
▁검토관	-10.6917
▁가지가	-10.6921
▁병조로	-10.6925
▁입게	-10.6925
▁하인	-10.6926
▁의장	-10.6927
▁다음날	-10.693
▁감해	-10.6935
▁회답	-10.6939
▁청했는데	-10.694
▁임명하여	-10.6946
▁지아비	-10.695
오는	-10.6957
▁싶지	-10.6957
▁삼성	-10.6962
▁죄주기를	-10.6964
▁일어나서	-10.6965
▁식량을	-10.6965
▁자리에서	-10.6968
▁했으나	-10.6968
▁일개	-10.6969
▁않으나	-10.6969
▁돌아갔다	-10.6971
해지고	-10.6978
보는	-10.698
▁무시하고	-10.6982
개를	-10.6989
▁도에서	-10.6989
나의	-10.6991
▁분주	-10.6991
당상	-10.6993
▁내게	-10.6997
▁행차에	-10.6999
▁버려	-10.7
▁설사	-10.7006
전라	-10.7008
▁탑전에서	-10.701
▁병사로	-10.701
▁못함	-10.7011
▁대책	-10.7014
▁새로운	-10.7017
▁형문	-10.7019
▁형추	-10.702
▁규찰	-10.7021
▁장형	-10.7021
▁무너진	-10.7027
▁다소	-10.7028
▁중도에	-10.7029
▁연좌	-10.703
▁급급	-10.7032
▁신구	-10.7032
▁이진	-10.7032
▁남김없	-10.7033
물이	-10.7033
하겠다고	-10.7037
▁형편이	-10.7041
▁계하하였다	-10.7044
▁판윤	-10.7046
▁용서하여	-10.7049
▁연이어	-10.705
▁하는데도	-10.7053
되었고	-10.7063
▁시골	-10.7066
▁우레	-10.7067
▁허적	-10.7069
▁근심하고	-10.707
▁들어갈	-10.7071
▁밥	-10.7076
▁대간과	-10.7081
별	-10.7088
▁악한	-10.7088
오니	-10.7089
▁나은	-10.7089
▁한계	-10.7092
▁살면서	-10.7095
▁인구	-10.7095
▁출	-10.7095
시켰으니	-10.7096
▁조경	-10.7097
▁성실	-10.7097
▁사제	-10.71
▁보존	-10.7101
▁향과	-10.7104
▁끝난	-10.7106
▁여기니	-10.711
명의	-10.7115
▁후세	-10.7117
▁직무에	-10.7121
▁풍습이	-10.7122
▁화친	-10.7127
▁입시하여	-10.7128
▁급	-10.713
▁삼공에게	-10.7131
▁집경당에	-10.7131
▁섬에	-10.7131
▁차관	-10.7132
▁구경	-10.7132
두를	-10.7133
▁연명	-10.7133
▁가정	-10.7134
▁상소로	-10.7135
▁사태	-10.714
▁전임	-10.7141
▁당나라	-10.7141
▁제수할	-10.7144
필과	-10.7144
▁나가지	-10.7146
▁사직에	-10.7146
▁제학으로	-10.7151
▁개차	-10.7152
성은	-10.7152
▁부려	-10.7153
지도	-10.7164
▁간절한	-10.7165
▁연해	-10.7166
▁안개	-10.7166
▁작헌례	-10.7168
▁예전대로	-10.7169
에게도	-10.7169
▁간관	-10.717
▁도리는	-10.7175
▁동래	-10.7177
▁인군	-10.7178
▁방어하는	-10.718
▁삼으라	-10.7184
▁인도하여	-10.7186
▁다스리소서	-10.7188
▁기쁨	-10.719
▁좌참찬으로	-10.719
▁없었기	-10.7191
▁바깥	-10.7191
▁거관	-10.7191
▁후일에	-10.7192
▁먹는	-10.7193
▁명기	-10.7194
거니와	-10.7194
▁차대	-10.7196
▁이러	-10.7198
▁너의	-10.7198
▁분수에	-10.72
▁창덕궁	-10.72
▁허락하여	-10.7201
▁형률	-10.7203
▁쏘아	-10.7208
하였지만	-10.7209
▁일들을	-10.7211
▁나무	-10.7211
▁국문하는	-10.7212
▁가져다가	-10.7213
하오니	-10.7215
▁체직되었다	-10.7215
▁연주	-10.7215
▁김수항이	-10.7215
▁첫	-10.722
품을	-10.7222
▁맞게	-10.7223
▁차서	-10.7223
병사	-10.7224
▁오늘날에	-10.7227
일의	-10.7228
▁구례에	-10.7229
▁보기에	-10.7234
▁않다는	-10.7235
▁상소한	-10.7236
▁사방에	-10.7239
▁정지하였다	-10.7243
▁잃게	-10.7243
▁듯이	-10.7245
여서	-10.7246
▁대하여는	-10.7248
▁비답하였다	-10.7252
▁거행해야	-10.7252
▁절도에	-10.7253
▁섭행	-10.7258
▁이항복	-10.7259
▁말이다	-10.7259
▁부끄러워	-10.7263
▁양녕	-10.7263
▁우찬성	-10.7264
▁아랫사람	-10.7264
▁죄악	-10.7264
▁마을	-10.7264
진이	-10.7268
▁군병을	-10.7269
보가	-10.7279
▁올려보내	-10.7281
▁묘당에	-10.7284
▁함은	-10.7288
▁들었습니다	-10.7288
했으므로	-10.729
▁분노	-10.729
▁파직한	-10.7293
▁주기	-10.7299
▁이지	-10.7299
▁강원	-10.73
그대	-10.7301
▁이상을	-10.7303
▁늦출	-10.7303
▁등으로	-10.7306
▁26	-10.7308
▁행장	-10.7309
하여서	-10.731
▁본조에	-10.7313
군을	-10.7316
▁실망	-10.7317
듣건대	-10.7318
▁이여	-10.732
▁않는가	-10.7321
▁미칠	-10.7325
▁구황	-10.7326
▁경사에	-10.7326
▁공론에	-10.7327
▁민간에	-10.7328
▁군인	-10.7329
▁이양	-10.7329
▁성절사	-10.7331
▁겸임	-10.7332
▁열고	-10.7336
▁방법으로	-10.7336
▁사직하기를	-10.7337
▁돌려주	-10.7339
▁말하였으니	-10.7341
▁이천	-10.7343
명이나	-10.7343
▁절차를	-10.7344
▁범하여	-10.7344
▁받아야	-10.7345
▁못한다면	-10.7348
삭	-10.7348
▁성덕	-10.7349
▁조현명이	-10.7351
▁칭찬	-10.7353
▁경연관	-10.7353
왜	-10.7353
▁받아들이는	-10.7353
기만	-10.7353
▁절반	-10.7355
▁진달하여	-10.7359
▁재주와	-10.736
▁대에	-10.7361
▁예관으로	-10.7362
▁이곳에	-10.7364
▁보답	-10.7364
▁주관	-10.7366
▁극도	-10.7367
술	-10.7371
▁자취가	-10.7376
▁중에는	-10.7376
▁말하였는데	-10.7376
호가	-10.7377
▁죄주	-10.7377
포를	-10.7377
▁아니하였으니	-10.7378
▁통정	-10.738
됨이	-10.7384
▁많았습니다	-10.7384
▁무너져	-10.7388
▁도주	-10.739
소에	-10.7395
▁괴이하게	-10.7396
▁적당하지	-10.7398
▁헌관	-10.7398
▁충정	-10.7399
▁조강	-10.7399
져서	-10.74
▁나중에	-10.7401
▁가난한	-10.7404
▁재능이	-10.7405
▁주부	-10.7406
지라도	-10.7412
▁옥체	-10.7412
▁비국에	-10.7413
▁첩을	-10.7415
▁수직	-10.7418
▁대죄하지	-10.742
▁선정신	-10.7424
겠느냐	-10.7426
▁기민	-10.7433
▁그러자	-10.7434
세에	-10.7437
▁급제	-10.744
▁맞이하는	-10.744
▁약원	-10.7442
▁군문	-10.7442
해질	-10.745
▁많다고	-10.7453
▁이목	-10.7455
▁매일	-10.7455
▁연로	-10.7456
▁완	-10.7456
▁연후에	-10.7458
▁것인데도	-10.7463
▁방법	-10.7463
▁군병	-10.7465
▁길일	-10.7466
▁인피하였다	-10.7467
▁바치었	-10.7468
▁받들지	-10.7469
▁대신으로	-10.7469
▁도모	-10.747
▁이렇게까지	-10.747
낭청	-10.7474
▁전교에	-10.7477
▁차지하고	-10.7485
▁바르지	-10.7487
혁	-10.7488
▁공사는	-10.749
▁세울	-10.7495
▁장만	-10.7495
▁관사의	-10.7495
▁아래로는	-10.75
▁나쁜	-10.7506
▁삼은	-10.7507
나는	-10.7507
하고서	-10.7508
▁요동으로	-10.751
▁정거	-10.7513
참판	-10.7517
▁그렇다고	-10.7517
▁동궁	-10.7518
▁삼사가	-10.7518
성상	-10.7519
에만	-10.7519
▁생각은	-10.7519
▁내고	-10.752
▁존호	-10.752
▁갓	-10.7522
▁정이	-10.7527
▁곡물	-10.7528
▁부임	-10.7534
▁신임	-10.7534
▁초계	-10.754
감사	-10.7542
윤허한다	-10.7542
▁거둘	-10.7547
▁생기	-10.7549
▁사용하는	-10.7552
▁도는	-10.7559
▁족친	-10.7559
▁방수	-10.756
▁공의를	-10.7561
▁파직하여	-10.7563
▁마땅한데	-10.7563
▁폐단에	-10.7566
▁기근이	-10.7567
있게	-10.7569
▁오늘에	-10.7571
▁제학	-10.7571
▁이름은	-10.7572
▁그른	-10.7574
▁정전	-10.7574
▁듯한데	-10.7579
▁하유하라	-10.758
▁빌	-10.7582
▁기생	-10.7582
▁도청	-10.7582
▁대례	-10.7583
▁토	-10.7583
▁기한이	-10.7585
▁경중이	-10.7587
▁보냈는데	-10.7588
▁한심	-10.7588
권을	-10.7589
▁구성	-10.7596
▁직책이	-10.7597
▁관원으로	-10.7601
▁정하소서	-10.7605
▁기운	-10.7608
▁바라고	-10.761
▁폐조	-10.7611
▁두목	-10.7612
▁벗	-10.7615
▁연후에야	-10.7615
▁신자	-10.7617
▁그들에게	-10.762
▁본사	-10.7622
▁자에	-10.7622
▁장인	-10.7623
▁도움	-10.7623
▁젊은	-10.7628
▁일반	-10.7628
▁가족	-10.7632
▁하나하나	-10.7636
▁아닌데도	-10.7637
▁이래	-10.764
▁정승이	-10.7644
▁불경	-10.7647
엄	-10.7647
▁이용	-10.7649
▁상호군	-10.7656
▁신하는	-10.766
본도	-10.7661
▁제배	-10.7666
요사이	-10.7667
▁하여서	-10.7668
▁옳고	-10.7668
▁학문에	-10.7669
▁문초	-10.767
▁헌부에	-10.7671
▁사연을	-10.7671
▁변장	-10.7677
하신다면	-10.7677
▁계품	-10.7677
▁무지개	-10.7678
▁부모를	-10.768
▁도둑질	-10.7682
렬	-10.7683
▁임시	-10.7683
▁달에	-10.7683
▁우리들이	-10.7683
▁이같은	-10.7686
▁조상	-10.7687
▁두려운	-10.769
▁지냈다	-10.7691
▁직부전시	-10.7691
▁전송	-10.7692
▁오랜	-10.7692
▁자전께서	-10.7699
성의	-10.771
▁이문하여	-10.7712
억	-10.7713
▁사람에게는	-10.7713
▁아뢰었습니다	-10.7714
▁못한다고	-10.7714
▁연계하니	-10.7715
▁쏘	-10.7715
졌다	-10.7716
▁색승지	-10.7716
▁저녁	-10.7717
▁때때	-10.7718
▁만세	-10.772
▁정철	-10.772
▁바이니	-10.7727
▁하나를	-10.7727
▁이들은	-10.773
▁기다린	-10.7734
▁누군	-10.7735
▁지역에	-10.7736
▁좋아	-10.7739
노라	-10.774
▁포수	-10.7745
▁사양하고	-10.7747
이지만	-10.7748
▁엄격	-10.7748
▁적에게	-10.7749
▁물으라	-10.7754
▁연명으로	-10.7754
▁조문	-10.7754
▁못함이	-10.7755
▁감시	-10.7756
▁행행	-10.7758
▁어려워	-10.776
▁휘호	-10.7761
▁제외하고	-10.7763
제조	-10.7765
▁없겠습니다	-10.7768
▁되돌려	-10.7769
▁표류	-10.777
▁이조판서	-10.7771
▁안됩니다	-10.7772
▁군기를	-10.7772
▁왕의	-10.7773
▁지나치다	-10.7774
▁당하면	-10.7774
▁고한	-10.7775
▁잊고	-10.7777
▁사형에	-10.7779
▁돈을	-10.778
▁각신	-10.7783
▁후손	-10.7787
▁위장	-10.7792
▁승진시켜	-10.7793
되기를	-10.7794
▁선비들	-10.7796
▁학문이	-10.7796
▁호위	-10.7796
▁내리시어	-10.7797
▁다르다	-10.7804
▁들어오지	-10.7806
▁말미암은	-10.7807
▁지방에서	-10.781
▁율대로	-10.781
▁권장하는	-10.781
▁군기	-10.7811
▁시취	-10.7812
▁낫지	-10.7813
▁맞	-10.7814
▁심희수	-10.7816
▁전시에	-10.7816
▁봉심	-10.7816
▁들어가는	-10.7818
▁의례	-10.7818
생이	-10.7822
하심이	-10.7822
▁기르는	-10.7825
▁신설	-10.7825
▁데로	-10.7826
▁이들이	-10.7826
▁직위	-10.7826
▁율문	-10.7827
▁신하들은	-10.7828
▁분부하여	-10.7832
▁정하였다	-10.7833
▁전달	-10.7837
▁집행	-10.7837
▁적임자	-10.7838
군이	-10.7838
▁염려되니	-10.7839
놓고	-10.784
▁민생	-10.7841
▁나무를	-10.7847
▁파견	-10.7851
▁장리	-10.7851
▁근본이	-10.7857
▁원망하는	-10.7858
▁통쾌	-10.7859
▁냥	-10.7859
시켜야	-10.786
▁45	-10.7862
▁하루에	-10.7864
손은	-10.7865
▁관직	-10.7866
석과	-10.7866
▁이조의	-10.7866
▁지나간	-10.787
▁청주	-10.7871
릅니다	-10.7874
▁시일	-10.7876
▁의심스러운	-10.7876
균	-10.7878
▁도가	-10.7878
▁이덕형이	-10.7879
▁예장	-10.788
홍문관	-10.7882
▁구휼	-10.7883
▁자식이	-10.7886
▁속에서	-10.7888
▁편리	-10.789
▁죽지	-10.789
▁군사와	-10.7893
▁지나도록	-10.7893
▁모함	-10.7898
▁대답하지	-10.7899
▁많았는데	-10.7903
▁평안도의	-10.7903
▁교형에	-10.7906
▁못해서	-10.7907
▁성종	-10.7907
▁소속된	-10.7908
진의	-10.7909
▁참작해서	-10.7911
▁공물을	-10.7912
▁주자	-10.7912
▁행동이	-10.7913
적이	-10.7916
▁긴요한	-10.7916
되었으므로	-10.792
▁갖춘	-10.792
▁걸쳐	-10.7926
▁병선	-10.7926
▁창성	-10.7928
영의정	-10.7928
▁당상의	-10.7933
▁아이	-10.7933
▁따르게	-10.7934
▁자세하게	-10.7936
▁거주	-10.7939
▁시권	-10.794
▁관원에게	-10.7941
▁삼사에서	-10.7941
▁외직에	-10.7943
▁습관	-10.7944
▁공경하고	-10.7945
▁행하기	-10.7947
돌	-10.7949
▁본관	-10.7951
▁논계한	-10.7953
하매	-10.7955
▁유생들	-10.7955
▁두었다가	-10.7956
▁동반	-10.7958
▁타당	-10.7959
▁최복	-10.7961
▁소견하고	-10.7963
▁별장	-10.7963
▁질	-10.7964
관으로	-10.7966
▁송사를	-10.7969
▁유시하여	-10.797
▁행례	-10.7975
▁무예	-10.7976
▁기사	-10.7978
현을	-10.7982
▁쌓고	-10.7987
▁여겼습니다	-10.7987
▁물러갔습니다	-10.7987
▁불에	-10.799
▁따지지	-10.799
▁것이었는데	-10.7992
▁끼어	-10.7996
▁돌보아	-10.7998
▁돌아가서	-10.7999
▁청할	-10.8
▁쇠	-10.8
잠	-10.8001
▁따라야	-10.8004
▁빠짐	-10.8008
▁간신	-10.8009
▁원임	-10.801
▁정인홍	-10.801
▁우참찬	-10.8011
▁호령	-10.8012
미를	-10.8013
▁법인데	-10.8015
▁곤	-10.8016
▁사람이니	-10.8017
▁충신	-10.8018
▁송준길	-10.8023
▁아문에	-10.8024
▁서명	-10.8024
▁병조판서	-10.8024
▁정태화	-10.8026
하기로	-10.8029
▁듯하나	-10.8031
▁미천한	-10.8033
▁훈	-10.8035
▁재가	-10.8046
▁비난	-10.8054
척을	-10.8058
▁근무	-10.8059
▁오시에	-10.8059
▁염려된다	-10.806
▁일으킨	-10.8061
▁물러갔다	-10.8064
▁궐	-10.8064
스러워	-10.8068
▁수송	-10.8071
▁아홉	-10.8073
▁즉위한	-10.8074
남이	-10.8076
▁하였지만	-10.808
▁화살을	-10.8081
주가	-10.8083
▁진상하는	-10.8084
▁합격한	-10.8084
▁사양	-10.809
▁뿐이고	-10.809
만한	-10.8091
▁싸	-10.8094
▁늦지	-10.8095
▁더군다나	-10.8095
▁틈타	-10.8095
▁옮기고	-10.8101
▁엄숙	-10.8102
▁닦	-10.8105
수의	-10.8106
칙	-10.8114
▁있었겠는가	-10.8117
▁진작	-10.8118
▁경계하고	-10.8119
▁절개	-10.812
▁전배	-10.8121
▁태백성	-10.8124
▁부름	-10.8126
▁구하여	-10.8129
▁얻는	-10.8133
비를	-10.8134
▁망극한	-10.8134
▁다를	-10.8135
▁국문하라	-10.8135
▁갖고	-10.8135
▁버리	-10.8136
이었습니다	-10.8136
▁바쳐	-10.8136
▁없더라도	-10.814
▁핑계하고	-10.814
▁출발	-10.8145
▁하다	-10.8145
▁자손	-10.8147
▁산성	-10.815
▁헤아리기	-10.8152
▁넣	-10.8152
▁정병	-10.8152
▁정죄	-10.8153
▁베를	-10.8154
▁사간원대사간	-10.8163
▁사건	-10.8163
▁환곡	-10.8164
▁궐문	-10.8165
내일	-10.8168
종이	-10.8173
▁집사	-10.8175
▁처지	-10.8175
▁긴급한	-10.8175
▁낭청이	-10.8183
▁염려스럽습니다	-10.8183
▁징계하는	-10.8184
▁폐기	-10.8186
▁의논하니	-10.8187
▁품은	-10.8189
▁인용하여	-10.8191
▁이세	-10.8191
▁굶어	-10.82
▁못했는데	-10.8201
시로	-10.8202
음이	-10.8205
▁다스려야	-10.8206
대왕	-10.8206
▁낙	-10.8206
▁외람된	-10.8207
▁원종	-10.8208
▁번이	-10.8208
▁술에	-10.821
▁산릉	-10.8214
▁같아	-10.8215
▁보호	-10.8218
중에	-10.8219
▁설행	-10.822
▁어긋난	-10.8222
심이	-10.8229
▁이보	-10.823
인으로	-10.8233
▁사천	-10.8235
▁판서에	-10.8235
▁처결	-10.8239
▁그곳에	-10.824
▁부임한	-10.824
▁민망	-10.8242
▁육조의	-10.8242
석이	-10.8242
▁거가	-10.8243
▁만나면	-10.8244
▁질병이	-10.8246
▁거리낌없	-10.8247
▁떠날	-10.8248
▁조정에서는	-10.8253
▁수축	-10.8254
▁주었습니다	-10.8256
대신이	-10.8258
▁용서해	-10.8258
▁사건을	-10.8259
▁좋아하지	-10.826
▁판서가	-10.8265
▁천자	-10.8269
▁행공	-10.827
▁통하지	-10.827
▁관계되니	-10.827
부원군	-10.8273
▁띠	-10.8274
▁약속	-10.8274
했었다	-10.8274
▁단자	-10.8274
▁그르다고	-10.8276
▁녹용	-10.828
▁수천	-10.8281
▁공정	-10.8282
▁구름	-10.8284
▁박승종	-10.8284
▁이광좌가	-10.8287
▁한림	-10.8289
▁섞여	-10.8292
▁많으므로	-10.8292
▁등지	-10.8295
사와	-10.8304
함으로	-10.8305
▁중간에	-10.8307
▁독촉하여	-10.8307
▁죄주지	-10.831
▁것임	-10.8314
▁뽑고	-10.8315
▁조성	-10.8317
▁토의	-10.8318
▁자헌대부	-10.8322
▁사인으로	-10.8327
▁비하여	-10.8327
▁남편	-10.833
▁전유	-10.833
▁지킬	-10.8336
▁뛰어난	-10.8337
▁군량	-10.8337
▁속인	-10.834
▁평안도에	-10.8341
▁오면	-10.8345
▁만나서	-10.8346
▁시작하여	-10.8347
▁싶다	-10.8348
▁남구만	-10.8349
▁잡혀	-10.8349
죽	-10.8352
▁고명	-10.8354
▁연변	-10.8354
▁복상	-10.8354
▁돈유	-10.8355
간의	-10.8357
▁공초한	-10.8357
▁값이	-10.8357
▁미편합니다	-10.8358
▁내렸으니	-10.836
▁권점	-10.8361
▁박세채	-10.8363
▁생활	-10.8364
▁알타리	-10.8364
문이	-10.8365
▁행차가	-10.8368
시를	-10.8368
▁찰방	-10.837
▁종사에	-10.8372
▁천리	-10.8375
▁강독	-10.8376
▁좋아하고	-10.8378
▁수금	-10.8378
▁먹지	-10.8379
▁그저	-10.8383
뿐만	-10.8384
▁배에	-10.8384
▁진무	-10.8384
▁능에	-10.8386
▁세상에서	-10.839
▁알고서	-10.8391
▁동료가	-10.8397
▁얻기	-10.8397
▁밝히고	-10.8399
▁시골에	-10.8399
▁통분	-10.8399
▁쉬	-10.8399
▁소중	-10.84
▁제가	-10.8401
▁끼고	-10.8401
▁방책	-10.8405
하지만	-10.8405
▁만들었으니	-10.8405
▁이치에	-10.8406
병을	-10.8407
▁되어서는	-10.8409
▁성묘	-10.8413
▁돌아오는	-10.8413
▁생각하니	-10.8415
▁자자	-10.8415
▁좀	-10.8417
▁엄하지	-10.842
▁백관들이	-10.8422
헌납	-10.8427
▁재량	-10.8427
▁공궤	-10.8427
모든	-10.8427
▁추고하는	-10.843
▁요구	-10.8432
▁명분	-10.8435
▁여름	-10.8436
▁장소	-10.8438
▁떨어진	-10.8448
▁발생	-10.845
▁이전의	-10.8452
▁인한	-10.8465
▁나가는	-10.847
▁빈궁	-10.8471
진은	-10.8471
▁설령	-10.8472
▁조종조에서	-10.8473
▁유성	-10.8477
▁강계	-10.8479
▁성대	-10.848
듯이	-10.8481
▁드리	-10.8481
▁자라	-10.8483
▁복호	-10.8485
▁서쪽으로	-10.8488
▁나갔다	-10.8489
▁기다릴	-10.8492
▁아름답지	-10.8494
▁56	-10.8496
▁주선	-10.8496
▁검열	-10.8497
▁안장	-10.8498
하셨습니다	-10.8499
▁낮	-10.8499
▁설서로	-10.8501
▁수효를	-10.8503
▁병사가	-10.8506
▁마지	-10.8507
했으며	-10.8507
▁잡게	-10.8509
거리	-10.8509
▁사람입니다	-10.8517
▁환자	-10.8519
▁도정	-10.8522
근을	-10.8523
▁승지는	-10.8524
▁이원익	-10.8525
영은	-10.8527
▁허술	-10.8528
▁수색	-10.8528
▁보수	-10.8529
▁선유	-10.8534
▁복제	-10.8534
▁사소	-10.8535
▁나아갈	-10.8538
▁백성들로	-10.8539
▁육경	-10.8541
하기만	-10.8542
▁복이	-10.8543
첩	-10.8545
으소서	-10.8546
입니까	-10.8547
▁남곤	-10.8548
▁근원	-10.8549
▁기다리게	-10.8552
▁정온	-10.8555
▁첩정에	-10.8556
▁유지를	-10.8559
▁직숙	-10.8561
▁세우	-10.8564
▁지공	-10.8567
▁재앙이	-10.8568
▁나국	-10.8568
필씩을	-10.8571
▁핵실	-10.8574
▁문형	-10.8575
▁향하여	-10.8576
▁행해야	-10.8577
▁상가	-10.8579
도감	-10.858
▁상납	-10.858
▁싶은	-10.8581
▁봉하여	-10.8581
▁암행	-10.8582
▁강론	-10.8584
▁준다면	-10.8586
▁시행되지	-10.8588
▁관원과	-10.859
에서부터	-10.8591
▁신들도	-10.8592
▁감격	-10.8592
▁타당하지	-10.8596
하셔야	-10.8598
무과	-10.8599
만여	-10.8599
▁양인	-10.8601
▁뜰	-10.8603
▁경력	-10.8603
▁정상은	-10.8606
▁믿지	-10.8606
▁얻게	-10.8606
▁시재	-10.8609
기로	-10.8609
▁시행하기	-10.8612
▁유사에게	-10.8614
▁제급	-10.8617
▁나타나	-10.8618
▁드러내	-10.8623
▁방물을	-10.8624
▁비루	-10.8625
▁알겠습니까	-10.8626
▁정청	-10.8627
군으로	-10.8629
▁바로잡는	-10.8632
▁어지럽	-10.8639
현령	-10.8639
일에는	-10.864
▁장계로	-10.8641
▁이계	-10.8643
▁그르다	-10.8645
▁형적	-10.8645
▁정부에서	-10.865
▁고문	-10.8652
▁묻게	-10.8654
▁미시에	-10.8656
▁막대한	-10.8657
대저	-10.8659
▁여부는	-10.8659
▁책망	-10.8661
▁남도	-10.8665
▁반포	-10.8665
▁위조	-10.8671
장은	-10.8675
어사	-10.8676
▁재삼	-10.8677
▁당상으로	-10.8677
▁근처에	-10.8677
▁고치고	-10.8678
우가	-10.8679
수사	-10.8683
▁겉으로	-10.8683
둔	-10.8683
▁소원	-10.8685
▁궁중에	-10.8687
▁견해	-10.8687
▁숨어	-10.8687
▁망령되게	-10.8695
▁장원	-10.8695
▁본주	-10.8695
진사	-10.8695
▁식자들	-10.8696
▁부족하여	-10.8696
▁보고한	-10.87
▁파직하였다	-10.8701
▁사직하였으나	-10.8704
▁김질	-10.8705
▁하루아침	-10.8705
주의	-10.8709
▁왕법	-10.8712
▁종묘의	-10.8714
▁인피한	-10.8715
▁이세좌	-10.8716
▁정벌	-10.8723
▁세자에게	-10.8723
▁분의	-10.8724
참의	-10.8727
▁못하는데	-10.8731
▁일으키는	-10.8732
▁재능	-10.8733
▁행하였는데	-10.8734
▁정지할	-10.8736
▁당하였으니	-10.8739
▁버릇	-10.874
▁초사에	-10.874
▁엄중한	-10.8742
▁잃지	-10.8744
▁호랑이	-10.8744
▁감동	-10.8747
▁바루	-10.8748
▁이명	-10.875
▁돌아오지	-10.8752
▁의계	-10.8752
▁소재	-10.8753
찰방	-10.8756
▁논하니	-10.876
▁군민	-10.8762
▁경원	-10.8763
▁인삼	-10.8765
▁선정전에	-10.8766
▁이준	-10.8766
▁종묘와	-10.8768
▁달을	-10.8768
이기는	-10.8773
▁탐욕	-10.8776
▁보도록	-10.8776
▁수령에	-10.878
듯	-10.878
▁끌어	-10.878
▁성복	-10.8781
▁소학	-10.8783
▁적간	-10.8789
▁냥을	-10.879
▁빌건대	-10.879
▁흉악하고	-10.8797
▁집은	-10.8799
▁물러가서	-10.8802
▁것인	-10.8803
▁춘	-10.8805
▁하연	-10.8806
▁교체	-10.8806
▁정형	-10.8808
느라	-10.8812
▁갖가지	-10.8813
▁뻔뻔스럽게	-10.8813
▁이항	-10.8814
▁흡족	-10.8819
▁저화	-10.8819
▁억울하게	-10.882
▁타는	-10.8821
▁소송	-10.8822
▁처리하지	-10.8826
▁돌아오게	-10.8829
▁종정국	-10.8833
▁일인	-10.8837
되기	-10.8837
▁세월이	-10.8839
▁복주	-10.8839
▁옳겠다	-10.8842
▁출사시키	-10.8843
▁변방으로	-10.8843
▁법입니다	-10.8844
▁선후	-10.8848
▁방목	-10.8853
▁성혼	-10.8854
▁거론하지	-10.8854
▁의논하였다	-10.8854
▁숙위	-10.8855
▁지시	-10.8856
▁지목	-10.8858
척이	-10.8859
▁분명합니다	-10.8862
▁관원들	-10.8865
▁사헌부지평	-10.8867
▁자손이	-10.8867
섬	-10.8871
강원도	-10.8871
▁매를	-10.8871
▁연고	-10.8878
첨	-10.8878
▁들어가지	-10.8879
▁천거한	-10.888
▁바꾸는	-10.8881
▁김제남	-10.8882
▁어디	-10.8882
▁애써	-10.8883
▁일어나고	-10.8889
▁허균	-10.889
▁맡게	-10.8893
차자를	-10.8898
▁유관	-10.89
▁되기를	-10.8902
▁들어오게	-10.8902
▁간언	-10.891
▁갔는데	-10.8911
▁적고	-10.8912
▁모를	-10.8914
전은	-10.8919
▁차관이	-10.8919
▁짐	-10.8922
▁추국하는	-10.8924
▁서신	-10.8925
▁간쟁	-10.8928
▁눈으로	-10.8929
▁어떠하겠는가	-10.8931
▁조짐	-10.8931
대가	-10.8936
자고	-10.8936
당한	-10.8936
▁성취	-10.8939
▁그러다가	-10.894
▁보고하여	-10.894
▁소명	-10.8941
▁호서	-10.8941
▁검은	-10.8944
▁논의에	-10.8946
▁사냥을	-10.8946
▁간략하게	-10.8946
▁금방	-10.8947
▁죄수들	-10.8948
잡	-10.895
▁표리	-10.895
▁알면서도	-10.8952
▁태평관에	-10.8952
▁저지른	-10.8954
▁재신들	-10.8954
▁기구	-10.8955
마한	-10.8955
▁고례	-10.8956
▁두었다	-10.8956
도승지	-10.8956
▁소가	-10.8958
▁맡았	-10.8958
▁부족	-10.8963
▁빛	-10.8963
황제	-10.8964
▁취품	-10.8966
▁남쪽으로	-10.8966
▁않음	-10.8968
▁직제학	-10.897
▁민간에서	-10.8976
한성부	-10.8979
▁권유	-10.8981
▁삼아야	-10.8981
▁캐	-10.8981
▁추문할	-10.8982
▁보라	-10.8984
▁숭상	-10.8984
▁더하고	-10.8985
▁맹	-10.8988
▁임명하였다	-10.8991
▁힘쓰고	-10.8991
에까지	-10.8993
목을	-10.8993
▁주며	-10.8994
년이나	-10.8995
▁장황	-10.8996
답	-10.8998
▁벌이	-10.8998
▁걸어	-10.8999
▁바꾸	-10.8999
▁최항	-10.8999
▁감면	-10.9
▁옛사람	-10.9001
▁잠깐	-10.9001
▁단속	-10.9004
▁성은	-10.9005
▁전최	-10.9005
▁해사로	-10.9006
▁기복	-10.9006
▁일컫고	-10.9011
▁무려	-10.9016
▁배향	-10.902
▁생긴	-10.9022
▁생각한다	-10.9022
▁살인	-10.9027
▁핑계하여	-10.903
▁용렬하여	-10.9033
▁어렵다고	-10.9035
▁대언	-10.9035
▁드문	-10.9041
▁성준	-10.9044
▁계문하여	-10.9045
▁설치할	-10.9046
▁인이	-10.9048
▁때문이었습니다	-10.905
▁마련해	-10.905
▁소회	-10.9053
▁바칠	-10.9059
▁주면	-10.9061
▁가납	-10.9063
▁제독	-10.9063
▁불가할	-10.9064
▁감하고	-10.9064
▁지척	-10.9068
▁여종	-10.9071
▁대간에게	-10.9071
군에	-10.9072
걸	-10.9075
▁상경	-10.9075
▁피할	-10.9076
▁봉상시	-10.9077
▁하교한	-10.9079
▁삼남	-10.9081
▁공물	-10.9081
▁국상	-10.9081
▁흙	-10.9083
▁떠나지	-10.9084
▁차대하였다	-10.9085
▁이재	-10.9086
▁가례	-10.9087
▁원통하	-10.9093
▁두려워서	-10.9094
▁김진	-10.9094
▁일행	-10.9095
▁탓	-10.9097
▁되겠습니다	-10.91
▁거사	-10.91
조차	-10.9101
▁방자	-10.9102
하였었는데	-10.9103
▁경주	-10.9104
렴	-10.9106
▁신상	-10.9106
▁홍수	-10.9106
▁넓고	-10.9107
▁자궁	-10.9109
▁해청	-10.9113
▁민가	-10.9115
▁연일	-10.9115
▁정국	-10.9117
▁잔을	-10.9123
▁몸둘	-10.9124
▁영정	-10.9128
▁지낼	-10.9128
▁명칭	-10.9129
▁거애	-10.913
▁예대로	-10.9131
▁우두머리	-10.9134
하였는데도	-10.9141
▁말만	-10.9142
▁끼치는	-10.9143
▁딴	-10.9145
▁생각하면	-10.9146
▁찾아서	-10.9146
▁생업	-10.9147
집의	-10.9148
▁뿌리	-10.9148
▁일이었다	-10.9149
▁좋다	-10.9159
▁은택	-10.9159
▁사적	-10.9159
▁첩의	-10.916
▁듣게	-10.9165
▁겁	-10.9168
▁부방	-10.9168
▁추문하지	-10.917
▁이현	-10.917
▁김재로	-10.9171
▁고르지	-10.9173
대사헌	-10.9174
▁본도에서	-10.9175
▁구실	-10.9175
▁고루	-10.9177
▁권면	-10.9177
▁친척	-10.9178
▁알도록	-10.9179
▁천사가	-10.9183
▁우부승지로	-10.9183
▁강상에	-10.9186
▁사류	-10.9189
▁방방	-10.9189
▁무리는	-10.919
▁빠진	-10.9193
▁내려보내	-10.9196
▁졸하니	-10.9197
▁올적합	-10.9199
▁말에서	-10.9205
▁하윤	-10.9207
문에	-10.9207
옛날	-10.9209
▁함흥	-10.9213
▁이숙	-10.9217
▁우리들	-10.9219
▁본국의	-10.9226
▁역사에	-10.9229
▁취할	-10.9231
▁지친	-10.9231
▁기다리	-10.9231
이달	-10.9231
▁두게	-10.9231
▁사시	-10.9232
▁조그	-10.9233
현이	-10.9234
▁윤호	-10.9235
▁관리들이	-10.9236
▁사부	-10.9236
▁조련	-10.924
▁쉽지	-10.9241
▁털끝만큼	-10.9241
▁실시	-10.9242
▁상왕	-10.9243
▁들었으니	-10.9245
▁비추어	-10.9245
▁성이	-10.9246
▁무리들을	-10.9246
▁않은가	-10.9248
▁걸려	-10.925
▁소견이	-10.925
수령	-10.9252
▁비는	-10.9252
▁소나무	-10.9255
▁있었다면	-10.9256
▁마음과	-10.9257
▁상에	-10.9257
▁서전	-10.9258
▁영접	-10.9259
▁도둑이	-10.926
▁모양을	-10.926
장의	-10.9265
▁받았고	-10.9267
▁새벽에	-10.9268
▁청하였습니다	-10.9268
▁포로	-10.9269
▁글씨	-10.9269
▁방자한	-10.9271
록을	-10.9272
▁붙	-10.9273
남은	-10.9274
▁미치게	-10.9276
▁거두기를	-10.9276
▁철거	-10.9277
▁도목	-10.9278
▁배신	-10.9279
▁교정	-10.9282
▁주상께서	-10.9285
▁보름	-10.9286
▁뒷	-10.9288
르	-10.9288
쯤	-10.9289
▁무명	-10.9292
▁일으킬	-10.9292
▁하늘가로	-10.9293
▁했기	-10.9295
▁조짐이	-10.9297
▁치적	-10.9298
▁전관	-10.9299
▁소복	-10.93
느니	-10.9306
형이	-10.931
▁근거할	-10.931
▁때문이	-10.9319
엽	-10.9324
▁덮어	-10.933
우를	-10.9331
▁근년	-10.9336
쳐	-10.9336
▁내의	-10.9339
▁끝나자	-10.934
▁손수	-10.934
▁후한	-10.9342
▁검열로	-10.9344
▁발탁	-10.9344
▁흠	-10.9346
▁월대에	-10.9347
그렇다면	-10.9349
▁말하더라도	-10.9353
도사	-10.9355
▁백성으로	-10.9356
▁체포하여	-10.936
▁지탱	-10.9361
▁젊어서	-10.9364
▁없사오니	-10.9364
보낼	-10.9364
▁인정전	-10.9365
▁충주	-10.9366
▁탈	-10.9369
▁관아	-10.9371
▁못했던	-10.9372
▁핑계대고	-10.9373
▁사건이	-10.9377
▁같을	-10.9378
▁옮기	-10.9382
▁물리	-10.9383
▁드러났으니	-10.9388
▁관직이	-10.9389
▁대답하였다	-10.9391
▁거칠고	-10.9392
▁머물	-10.9395
▁시체	-10.9399
▁넣어	-10.9401
사직	-10.9402
관의	-10.9402
▁서거정	-10.9406
▁숨	-10.9407
▁관작	-10.9412
▁징	-10.9412
▁이중	-10.9412
▁죽이는	-10.9413
▁이윤	-10.9414
▁논계하였으나	-10.9417
▁사대	-10.942
▁기르	-10.9422
▁경악	-10.9422
▁상식	-10.9425
▁이곳	-10.943
▁말씀이	-10.943
▁향리	-10.9431
▁대질	-10.9433
▁명은	-10.9434
▁학	-10.9434
영의	-10.9435
▁송영	-10.9436
▁두어서	-10.9438
건을	-10.9439
▁죽으니	-10.944
▁흉	-10.9441
▁안숭선	-10.9443
▁사시에	-10.9443
▁천재	-10.9443
▁내리게	-10.9444
▁대명	-10.9447
▁문란	-10.9448
▁해명	-10.9449
▁직사	-10.9453
해져	-10.9456
▁총제	-10.9456
▁호송	-10.9457
▁상정	-10.9458
▁매매	-10.946
웅	-10.9462
▁거친	-10.9464
▁고생	-10.9464
▁색낭청	-10.9466
▁수령들	-10.9469
낸	-10.947
▁생길	-10.9472
▁당하고	-10.9475
율	-10.9476
▁가리	-10.9478
관에	-10.9482
▁아름다움	-10.9484
▁장례	-10.9484
▁의거해서	-10.9485
▁시호	-10.9486
▁경현당에	-10.9489
▁중추	-10.9489
▁어째서	-10.949
구가	-10.9493
받은	-10.9494
▁어기는	-10.9496
찰	-10.9498
▁신역	-10.9501
우찬성	-10.9504
▁즐겨	-10.9507
륜	-10.9508
▁되며	-10.9508
▁바인데	-10.9508
▁시행하라고	-10.9515
▁예사	-10.9518
▁하문	-10.952
▁사헌부장령	-10.952
▁회령	-10.952
▁구타	-10.9525
▁응하지	-10.9527
▁신원	-10.9527
▁논의하여	-10.9528
어찌	-10.9528
▁동원	-10.9529
▁재직	-10.9529
▁일어났다	-10.9529
▁조칙	-10.9529
▁주사	-10.953
▁사직의	-10.9534
▁중시	-10.9534
▁맞고	-10.9534
▁대마주태수	-10.9537
▁더없	-10.9541
▁작년	-10.9541
▁맞은	-10.9545
▁연향	-10.9546
밖에	-10.9549
▁쫓아	-10.955
▁성균관에	-10.9551
▁기록한	-10.9551
▁치는	-10.9554
▁궁중	-10.9557
▁죽어도	-10.9557
▁급제를	-10.9558
▁사학	-10.9558
▁총명	-10.9559
▁주인을	-10.9562
▁감당하	-10.9564
▁군무	-10.9566
▁들어오는	-10.9567
▁김영	-10.9569
▁건의	-10.957
▁발론	-10.957
길이	-10.9571
▁능침	-10.9572
▁인물	-10.9575
▁남자	-10.9576
▁벽	-10.9577
▁보였다	-10.9578
▁마땅하다고	-10.9579
▁앓고	-10.958
▁수령에게	-10.9581
▁거자	-10.9582
엔	-10.9583
▁명예	-10.9584
▁천하에	-10.9584
공조	-10.9585
▁절제	-10.9592
▁철저히	-10.9592
▁앞장서	-10.9593
▁중하니	-10.9594
▁간곡	-10.9595
▁신축년	-10.9595
▁수교	-10.9596
▁임진년	-10.9597
세를	-10.9599
▁부쳐	-10.9599
▁배로	-10.9605
제가	-10.9608
▁대각에	-10.9609
하였는가	-10.961
▁부당하다	-10.9612
▁정수	-10.9612
▁동궁이	-10.9612
▁있사오니	-10.9613
▁계신	-10.9614
▁말았습니다	-10.9616
▁내버려	-10.9617
▁과실을	-10.9617
▁들으면	-10.9619
▁의심하여	-10.9619
▁동요	-10.9619
▁오부	-10.9621
▁관문에	-10.9622
▁저지	-10.9622
▁공경하는	-10.9622
▁차사원	-10.9626
▁좌우에	-10.9626
▁삭출	-10.9626
▁민정중	-10.963
▁욕심	-10.9633
▁대내에	-10.9636
▁김구	-10.9637
▁장계하기를	-10.9639
▁받으니	-10.9639
▁중임	-10.9639
▁구차스럽게	-10.964
▁고향으로	-10.964
▁후에야	-10.964
거늘	-10.964
▁붕당	-10.9641
▁면포를	-10.9644
▁역사가	-10.9644
▁빚	-10.9645
▁하였던	-10.9646
▁길주	-10.9646
▁허위	-10.965
▁도성에	-10.9651
▁병환이	-10.9652
▁자손을	-10.9652
▁검	-10.9653
셨으니	-10.9657
▁순행	-10.9659
▁피차	-10.9659
▁옮길	-10.9663
▁간에	-10.9664
▁논평하기를	-10.9664
하시기를	-10.9665
하셨는데	-10.9669
▁드물	-10.967
함길도	-10.9672
▁관복	-10.9673
▁못했기	-10.9675
▁힘입어	-10.9678
▁올라오	-10.9679
▁병부	-10.968
▁보장	-10.9682
▁위급	-10.9684
▁추고하게	-10.9684
▁퇴	-10.9684
▁좇았다	-10.9689
▁잡아들여	-10.9689
▁거리낌	-10.9689
▁좌부승지로	-10.969
▁방물	-10.969
▁변변치	-10.9692
▁동료들이	-10.9692
▁파하였다	-10.9694
문의	-10.9694
▁어사가	-10.9698
▁남이	-10.97
▁사령	-10.97
▁고사에	-10.9702
산에	-10.9705
▁가니	-10.9705
▁친족	-10.9705
▁입에	-10.9707
량을	-10.9708
▁비루한	-10.9711
▁세도	-10.9712
▁기용	-10.9713
▁추고하기	-10.9713
▁유생들을	-10.9715
▁취한	-10.9717
▁탐	-10.9717
▁딸을	-10.9722
▁과죄	-10.9723
▁허가	-10.9725
중이	-10.9726
▁정주	-10.9726
▁시체를	-10.973
▁말미	-10.973
사관	-10.9731
았습니다	-10.9731
방에	-10.9732
▁견	-10.9733
▁훈도	-10.9739
▁어렵지	-10.9747
▁송순	-10.9751
상께서	-10.9752
▁근년에	-10.9753
▁지방으로	-10.9754
▁머물게	-10.9756
▁동정	-10.9757
▁부마	-10.9757
▁반복해	-10.9761
▁옥당에서	-10.9765
▁보탬이	-10.9765
▁수재	-10.9773
▁은자	-10.9773
▁버릴	-10.9777
▁나면	-10.9781
료	-10.9782
대부	-10.9787
▁개의	-10.9787
▁의거해	-10.9789
했었습니다	-10.979
▁아뢰었던	-10.9792
▁부당한	-10.9793
▁총호사	-10.9795
▁29	-10.9796
▁이병모	-10.9798
▁칭탁하고	-10.9799
오늘날	-10.9805
존	-10.9806
▁본국	-10.9808
▁가기	-10.9809
▁않았다면	-10.9809
▁깊고	-10.9813
▁없었으나	-10.9817
▁부끄럽게	-10.9818
▁공적	-10.9818
▁흉서	-10.9819
▁서계에	-10.9821
▁소위	-10.9822
▁치우치	-10.9822
▁마음속으로	-10.9822
▁경략	-10.9822
▁가리킨	-10.9825
▁더한	-10.9826
▁찾아내어	-10.9829
▁미쳐	-10.983
▁파하고	-10.9835
▁썼다	-10.9837
▁맹자	-10.9837
▁하시는	-10.9838
▁좋아하여	-10.9839
▁못하며	-10.9841
▁중용	-10.9845
내어	-10.9846
순이	-10.9846
▁여지	-10.985
타	-10.985
▁드는	-10.9851
▁오례의에	-10.9851
▁괴	-10.9858
▁문안하니	-10.9862
▁승정원이	-10.9862
▁알겠는가	-10.9862
▁곳인데	-10.9866
▁포폄	-10.9868
▁같으나	-10.9869
▁이희	-10.9869
▁삼으소서	-10.9869
▁분별	-10.987
▁입에서	-10.9872
▁도망쳐	-10.9873
▁석방하라	-10.9875
▁논란	-10.9875
▁준비하여	-10.988
▁임의로	-10.9881
▁삼아서	-10.9883
노사신	-10.9883
▁공역	-10.9885
액	-10.9888
▁몰라	-10.9888
▁둘째	-10.9891
▁모인	-10.9893
▁더욱더	-10.9895
▁북방	-10.9895
▁지키	-10.9895
▁해당되는	-10.9895
▁모이	-10.9896
▁바로잡아	-10.9898
▁희생	-10.99
▁요행히	-10.9902
▁보고하지	-10.9904
▁알라	-10.9904
▁일시	-10.9906
▁빌어	-10.9907
▁품정	-10.9916
▁전조에	-10.9916
▁성조	-10.9917
▁이종	-10.9918
▁김일경	-10.9918
▁추쇄	-10.9921
흠	-10.9922
▁어려서	-10.9923
▁비상한	-10.9924
▁이르자	-10.9924
▁소방	-10.9928
▁협	-10.993
▁인의	-10.993
▁스승	-10.9931
▁좌도	-10.9933
▁천호	-10.9934
▁얼	-10.9934
었을	-10.994
▁제외하고는	-10.9943
병이	-10.9944
일부터	-10.9947
▁암	-10.9947
▁압록강	-10.9948
▁청렴	-10.995
▁비전주	-10.9952
접	-10.9953
▁예조판서	-10.9953
▁평상시에	-10.9953
윤호	-10.9958
▁형률에	-10.9959
▁문장	-10.9962
▁도목정	-10.9962
▁부르	-10.9962
▁수상	-10.9965
▁변장이	-10.9966
▁지도	-10.997
▁동방	-10.997
▁대간에서	-10.9971
▁치서하기를	-10.9972
▁낭자	-10.9973
▁풍년	-10.9974
▁납부	-10.9975
▁초래	-10.9976
▁조태구	-10.9978
▁난을	-10.9978
▁말기를	-10.9978
상은	-10.9979
▁서책	-10.998
▁짝이	-10.9983
▁관사에	-10.9984
▁대장으로	-10.9984
▁조세를	-10.9984
▁이만	-10.9987
▁굴	-10.9987
▁착용	-10.9987
▁형조가	-10.9988
▁태도	-10.9988
▁문사	-10.9991
▁사실은	-10.9993
▁병에	-10.9994
▁윗사람	-10.9996
▁제물	-10.9998
▁수교에	-11
직을	-11.0003
▁날조	-11.0003
▁청정	-11.0004
▁이완	-11.001
▁남지	-11.0012
▁청렴하고	-11.0013
▁깨끗이	-11.0016
천군	-11.0016
▁물의	-11.0018
시에	-11.0018
▁전조에서	-11.0019
▁까닭은	-11.0019
▁추국을	-11.0021
▁금고	-11.0023
▁그지없습니다	-11.0026
▁도착한	-11.0027
▁빌려	-11.0033
▁틈이	-11.0034
▁도관찰사	-11.0037
▁추증	-11.0038
만큼	-11.0039
▁대학	-11.004
▁숙배	-11.004
▁일전에	-11.004
▁재산을	-11.0042
결을	-11.0042
▁서궁	-11.0043
식을	-11.0043
▁듣기에	-11.0045
▁경중에	-11.0045
▁직명	-11.0046
▁기계	-11.0047
▁이구	-11.0048
▁김국광	-11.0049
▁것이야	-11.0049
▁어떠하리까	-11.0051
▁비답에	-11.0056
▁김정	-11.0057
▁"1.	-11.0057
▁사복시	-11.0059
▁동참	-11.006
근일	-11.0061
▁일이라면	-11.0066
▁보내니	-11.0071
▁죄인이	-11.0073
▁대강	-11.0074
▁화살	-11.0075
▁유자광	-11.0077
▁통제사	-11.0078
▁고변	-11.0079
공이	-11.0079
▁편에	-11.008
▁때문이니	-11.008
겠다고	-11.0082
▁어려움이	-11.0083
▁물리치고	-11.0087
▁내려가	-11.0089
▁강변	-11.0092
▁명초하여	-11.0093
▁동서	-11.0094
▁윤휴	-11.0094
▁이르면	-11.0096
▁사직소	-11.0101
▁근처	-11.0102
▁장래	-11.0103
▁지조	-11.0106
▁대호군	-11.0109
▁맞이하고	-11.0109
▁홍언필	-11.0111
▁윤은보	-11.0112
▁무관	-11.0113
▁이배	-11.0115
한명회	-11.0117
▁신숙주가	-11.0118
▁내는	-11.0118
▁닫고	-11.013
▁과실이	-11.0133
대신	-11.0134
▁조신	-11.0135
▁당상은	-11.0136
▁놀라게	-11.0136
▁다리	-11.0139
▁김상헌	-11.0142
▁마련한	-11.0143
▁필요한	-11.0144
▁지키지	-11.0144
데다가	-11.0146
▁유격	-11.0153
소의	-11.0153
▁저자	-11.0154
▁인도	-11.0154
▁내보내	-11.0154
▁바꿀	-11.0157
▁적몰	-11.0157
▁지적	-11.0157
▁초상	-11.0157
▁까닭없	-11.0158
▁죽었습니다	-11.016
▁반열	-11.0163
▁편의	-11.0166
▁짓지	-11.0167
▁아들은	-11.0171
▁기록할	-11.0174
▁구해	-11.0175
▁보임	-11.0177
▁의논도	-11.0179
▁인주	-11.0183
▁식년	-11.0189
▁평생	-11.019
▁고찰하여	-11.0191
▁우연한	-11.0191
▁유서	-11.0192
▁빈전에	-11.0193
▁야인이	-11.0194
▁묵	-11.0194
▁수습	-11.0195
▁합당	-11.0196
▁호칭	-11.0196
▁김개	-11.0196
▁재임	-11.0197
▁지경	-11.0197
▁상언하여	-11.0197
▁양호	-11.0198
▁임진	-11.0199
개월이	-11.0201
▁생기는	-11.0202
전이	-11.0203
▁접	-11.0203
▁인견	-11.0207
▁중군	-11.0207
▁대관의	-11.0208
▁선위사	-11.0208
▁양도	-11.0208
▁흘러	-11.021
▁힘	-11.021
▁이집	-11.0211
▁않았는가	-11.0211
산이	-11.0217
품이	-11.0218
▁사람들로	-11.022
▁사림	-11.0221
▁천청	-11.0222
▁천만	-11.0222
▁유시하였으니	-11.0225
▁활쏘기를	-11.0225
▁물은	-11.0228
▁동지중추부사로	-11.0228
▁조심	-11.0228
▁외의	-11.0232
▁서용하라	-11.0233
▁진실	-11.0236
▁원망하고	-11.0236
▁정사에서	-11.0238
▁이무	-11.0239
▁영선	-11.0239
▁가합니다	-11.0241
▁생각한	-11.0241
▁흉역	-11.0243
▁합계하기를	-11.0245
뿐입니다	-11.0249
▁조석문	-11.025
▁사행	-11.0253
▁군율	-11.0258
▁몰아	-11.0258
▁원경하	-11.0258
▁갔을	-11.0258
▁국문하지	-11.0259
▁심리	-11.0261
▁정유	-11.0261
▁이시수	-11.0262
▁여기어	-11.0263
▁얻고	-11.0264
▁차례를	-11.0264
▁납	-11.0264
▁예단	-11.0265
▁따르소서	-11.0265
▁내리소서	-11.0267
▁무덤	-11.0269
▁맑	-11.027
볼	-11.0273
▁물론이	-11.0275
▁이우	-11.0276
▁가자한	-11.0278
도내	-11.0278
▁들어오	-11.0287
▁진구	-11.0287
▁차고	-11.0287
▁노비로	-11.0288
▁나타났는데	-11.0292
▁방문	-11.0294
▁병들어	-11.0294
▁숨겨	-11.0296
▁못하나	-11.0299
▁생각에	-11.0301
▁익명서	-11.0301
▁부음	-11.0303
▁봉양	-11.0305
▁조제	-11.0306
▁사퇴하지	-11.0307
▁근거없	-11.0307
▁체직하고	-11.0307
▁삼군	-11.0316
▁조하	-11.0317
▁별감	-11.0318
▁인혐	-11.0319
▁아니어서	-11.032
하시기	-11.0325
▁참배	-11.033
▁노략질	-11.0331
문은	-11.0331
▁관례에	-11.0332
▁하삼도	-11.0332
▁아니합니다	-11.0334
알	-11.034
▁채워	-11.0341
우는	-11.0343
▁효성	-11.0344
▁많기	-11.0345
▁민심	-11.0345
▁맡기	-11.0345
▁윤두수	-11.0348
▁하늘과	-11.0351
▁개유	-11.0352
▁붓	-11.0352
▁장마	-11.0354
▁취사	-11.0358
▁근정전에	-11.036
▁손에	-11.036
▁헛	-11.0361
▁궁인	-11.0363
황해	-11.0364
▁중도	-11.0364
▁사간원정언	-11.0365
▁너그러	-11.0367
▁교활한	-11.0369
▁흠이	-11.0371
▁아뢰	-11.0371
▁창고에	-11.0372
▁공천	-11.0373
▁숭정전	-11.0374
▁폐지할	-11.0378
▁신료들	-11.0379
창의	-11.038
▁강이	-11.0382
▁수정	-11.0382
▁멀고	-11.0384
▁보리	-11.0385
청컨대	-11.0388
진에	-11.0391
▁수량이	-11.0392
▁돌아간	-11.0394
▁도형	-11.0395
▁비밀리	-11.0396
▁역임	-11.0398
▁더러운	-11.0404
▁김기	-11.0404
▁파직시켜	-11.0405
▁토벌하는	-11.0406
▁돌아보건대	-11.0406
▁기약이	-11.0406
▁검찰	-11.0406
▁분변	-11.0408
▁밝히	-11.0414
▁진찰	-11.0419
▁갑절	-11.0422
▁사옹원	-11.0426
▁따질	-11.0427
▁비워	-11.0428
▁소홀	-11.0429
레	-11.0431
▁고하여	-11.0431
▁전장	-11.0435
▁졸	-11.0435
▁듯하여	-11.0436
▁생각할	-11.0439
▁음식물	-11.044
조가	-11.044
▁음모	-11.0441
절도사	-11.0443
산의	-11.0446
▁보기	-11.0446
▁무너지고	-11.0446
▁율로	-11.0447
▁신용개	-11.0451
▁무리들	-11.0452
▁굽어	-11.0454
▁견고	-11.0456
▁신명	-11.0456
▁달아나	-11.0457
▁사변이	-11.0459
▁국문하고	-11.046
▁여악	-11.0461
▁사람됨	-11.0462
▁받든	-11.0462
▁체차를	-11.0464
▁귀신	-11.0465
▁다례	-11.0466
▁오르	-11.047
▁선택하여	-11.0472
▁받아들이	-11.0476
▁올라와	-11.0479
▁저물	-11.0479
▁대체에	-11.048
▁장죄	-11.0481
▁하교하여	-11.0481
▁바랄	-11.0482
▁비용이	-11.0482
▁대단한	-11.0482
▁일어날	-11.0482
▁같았습니다	-11.0483
▁막기	-11.0485
▁무식한	-11.0485
▁못하다는	-11.0488
▁했다고	-11.0501
▁헌의	-11.0502
▁저축	-11.0502
골	-11.0503
현은	-11.0504
▁체찰사	-11.0508
▁거취	-11.051
▁불편	-11.0512
▁내리며	-11.0514
▁양정	-11.0514
▁까닭	-11.0514
▁게을리	-11.0515
▁종일	-11.0516
▁간청	-11.0522
▁진언	-11.0523
▁소환	-11.0524
혹	-11.0531
▁개성	-11.0531
▁이산	-11.0532
▁대인	-11.0534
▁소결	-11.0537
▁황신	-11.0538
▁빼앗고	-11.054
▁김치인이	-11.0542
▁되었는데도	-11.0543
▁도신에게	-11.0547
▁글로	-11.0549
▁시위하는	-11.0549
하시	-11.0549
▁임사홍	-11.0551
▁즉위	-11.0551
▁치계하여	-11.0552
계를	-11.0554
▁청대	-11.0556
▁이승	-11.0557
▁사복	-11.0558
▁아니라면	-11.0558
▁잃었	-11.056
▁내사	-11.056
▁판의금	-11.0564
▁기꺼이	-11.0564
▁주달	-11.0565
▁수호	-11.0568
▁곳에는	-11.0569
▁더위	-11.057
▁의논하지	-11.0572
▁보았습니다	-11.0572
▁국문하기를	-11.0576
▁한정하여	-11.0577
▁없기에	-11.0578
▁말아서	-11.0579
▁태상왕이	-11.0579
▁머물렀다	-11.0579
▁종사를	-11.058
▁가하지	-11.0582
▁명했다	-11.0587
모두	-11.0589
▁실상이	-11.059
▁착실	-11.059
▁편안하지	-11.0593
▁달라서	-11.0593
되었으나	-11.0594
▁관리들	-11.0596
▁사람인	-11.0596
론	-11.0597
▁간택	-11.0597
▁연기	-11.0599
▁풍조	-11.06
▁황수신	-11.06
편을	-11.0601
▁하오니	-11.0603
▁종으로	-11.0603
▁부사직	-11.0603
▁희미하게	-11.0603
▁베껴	-11.0605
짓	-11.0606
▁심정이	-11.0606
선은	-11.0607
졌으니	-11.0609
▁금부에서	-11.061
▁대군이	-11.0612
▁두렵다	-11.0613
▁파방	-11.0614
▁군주	-11.0617
▁가상하다	-11.0617
▁황주	-11.0624
대사간	-11.0624
규를	-11.0625
▁직부	-11.0625
▁이룰	-11.0625
▁비축	-11.0625
▁긴요하지	-11.0629
▁가지로	-11.0631
▁다행	-11.0636
▁당장	-11.0638
창이	-11.0639
▁위세	-11.064
▁금년에는	-11.0641
▁훔쳐	-11.0643
▁했고	-11.0645
▁이식	-11.0647
▁않습니까	-11.0648
▁돌아보며	-11.0649
▁천망	-11.0649
▁전알	-11.0649
▁병폐	-11.065
시켰는데	-11.0654
▁위임	-11.0655
명에게	-11.0658
원군	-11.0661
▁마음에서	-11.0662
▁혼	-11.0664
▁뚜렷	-11.0668
▁처형	-11.0671
▁한단	-11.0673
▁사신과	-11.0674
▁원정	-11.0676
▁갇힌	-11.0676
▁애초에	-11.0678
▁조섭	-11.0679
▁탐욕스럽고	-11.0679
▁팔도에	-11.068
▁상께서는	-11.0682
▁진시에	-11.0683
▁입학	-11.0683
▁이호민	-11.0686
▁사용할	-11.0688
무를	-11.0688
▁사리	-11.0688
▁잉임	-11.0688
▁불어	-11.0688
▁들어올	-11.0689
▁파직시킬	-11.0691
▁서반	-11.0691
▁그만두고	-11.0698
▁가사	-11.0703
▁사나운	-11.0704
팔	-11.0704
▁여겼는데	-11.0705
▁도신으로	-11.0708
▁잡을	-11.0711
▁논계를	-11.0712
방의	-11.0719
▁군적	-11.072
▁하였을	-11.0723
률	-11.0726
겠지만	-11.0726
▁침범	-11.0728
▁맞이하여	-11.0729
지라	-11.0731
▁국문하소서	-11.0733
▁별다른	-11.0733
위에	-11.0733
▁나가게	-11.0737
▁조율하여	-11.0737
동을	-11.0738
▁배례	-11.0738
▁알아내	-11.0739
▁단단	-11.074
▁역적들	-11.0744
▁정청에	-11.0754
▁부응교	-11.0757
▁이정귀	-11.0757
▁나타난	-11.0761
▁강릉	-11.0763
▁예식	-11.0764
▁가져오	-11.0765
▁나주	-11.0765
▁속전	-11.0769
▁식견이	-11.0773
명에	-11.0773
▁조광조	-11.0773
▁가자하였다	-11.0774
▁중국군	-11.0774
▁거행하기	-11.0781
대장	-11.0782
▁시원	-11.0783
▁중사	-11.0785
▁쓰기	-11.0786
▁좌우에게	-11.0796
▁농	-11.0796
▁때도	-11.0796
▁받아들여	-11.0797
▁정통	-11.0797
▁제조로	-11.0798
▁떠들썩	-11.0798
▁어질고	-11.0799
▁참석	-11.0801
▁들어왔다	-11.0802
▁딸이	-11.0805
▁징발하여	-11.0809
▁마땅	-11.081
함과	-11.081
▁적합한	-11.0812
민이	-11.0813
▁사변	-11.0815
붕	-11.0815
▁대동	-11.0816
▁노성	-11.0816
든지	-11.0817
안에	-11.0817
▁버젓	-11.0817
▁어두운	-11.0817
충청	-11.0818
▁헌	-11.0818
금이	-11.0819
하를	-11.0824
▁이경석	-11.0825
▁간사	-11.0827
뢰	-11.0827
▁하기도	-11.0827
▁허락할	-11.0828
▁대중	-11.0828
▁분명하지	-11.0829
▁면제해	-11.083
▁진헌	-11.0832
위의	-11.0834
해진	-11.0836
품은	-11.0836
▁문학	-11.084
▁평정	-11.0842
되면	-11.0844
▁규	-11.0845
▁소상	-11.0848
해져서	-11.085
▁종성	-11.0855
▁담제	-11.0861
▁유자	-11.0862
▁장단	-11.0863
책을	-11.0872
▁보태	-11.0873
▁새롭	-11.0874
▁노래	-11.0877
▁차도	-11.0881
▁신공	-11.0886
▁싫어	-11.0886
▁대가를	-11.0887
▁위판	-11.0889
노비	-11.0889
▁죽기	-11.089
▁입대	-11.0891
▁이극돈	-11.0892
▁끼치	-11.0892
▁버려두고	-11.0894
▁피하지	-11.0894
▁간하는	-11.0894
▁다하고	-11.0896
부와	-11.0901
▁살피는	-11.0902
▁싸가지고	-11.0903
▁민정	-11.0906
▁부득이하여	-11.0907
▁증직	-11.0909
▁보일	-11.0909
▁여염	-11.091
▁얽어	-11.0914
▁계청한	-11.0916
▁세우지	-11.0918
부가	-11.0919
▁천인	-11.0921
▁능한	-11.0924
▁가히	-11.0925
▁미친	-11.0928
▁기일을	-11.0928
▁제방	-11.0928
▁도감에서	-11.0931
▁어떠합니까	-11.0932
▁박원형	-11.0939
▁얻어서	-11.0942
▁신시에	-11.0943
▁처녀	-11.0945
▁일이나	-11.0947
▁바로잡지	-11.0951
▁범하고	-11.0951
▁걱정하는	-11.0951
▁신경	-11.0953
▁도착	-11.0956
▁호조로	-11.0956
▁대례를	-11.0958
▁년이	-11.0959
▁꾸며서	-11.0962
▁회수	-11.0962
▁정도로	-11.0965
▁차정	-11.0965
▁사찰	-11.0965
▁법이니	-11.0966
▁못하겠는가	-11.0966
▁다물고	-11.0966
▁세워서	-11.0968
▁피폐	-11.0969
▁부산	-11.097
▁하유하기를	-11.0971
▁이유로써	-11.0971
▁경관	-11.0975
낙	-11.0975
▁김희	-11.0977
▁다할	-11.0977
▁벗고	-11.0984
5	-11.0985
▁낭관이	-11.099
▁위태롭	-11.0991
4	-11.0993
▁낫	-11.0995
▁농간	-11.0995
▁강맹경	-11.0995
휴	-11.0996
▁황보인	-11.0996
▁구호	-11.0996
▁우승지로	-11.0996
▁중도에서	-11.0997
▁저장	-11.1
▁우윤으로	-11.1
▁추국할	-11.1001
▁소에	-11.1005
▁전수	-11.1009
▁삼도	-11.1009
▁객사	-11.101
▁사모	-11.1012
씨가	-11.1015
▁곳이니	-11.1018
▁포목	-11.1018
▁지당합니다	-11.102
▁올라온	-11.1021
▁주인이	-11.1021
▁데도	-11.1022
이었고	-11.1022
▁당할	-11.1023
▁같기	-11.1024
▁결탁하여	-11.1026
이라면	-11.1029
▁버리는	-11.1034
▁적발	-11.1034
▁소망	-11.1037
▁상번	-11.1038
▁거행한	-11.1039
▁힐문	-11.1041
▁모시	-11.1042
▁사목에	-11.1042
▁나누어서	-11.1044
▁위인이	-11.1045
▁차임하여	-11.1047
▁부끄러운	-11.1048
▁형제가	-11.1049
▁빈청에서	-11.1052
▁이주	-11.1053
▁덜	-11.1054
▁김창집	-11.1054
사는	-11.1055
▁김상로가	-11.1055
▁부녀	-11.1057
▁대계를	-11.1057
▁번에	-11.1058
▁줄이고	-11.106
▁어서로	-11.1061
▁어긋나	-11.1062
▁환후	-11.1064
버린	-11.1067
정사	-11.1067
▁참여하게	-11.1067
명으로	-11.1069
▁학교	-11.1069
▁편리한	-11.107
▁비유	-11.107
▁장물	-11.1072
성상께서	-11.1074
▁견감	-11.1077
▁드러났습니다	-11.1077
▁이럴	-11.1079
재가	-11.1081
▁언사	-11.1086
▁승전	-11.1086
▁업	-11.1088
▁판부	-11.1089
▁결장	-11.109
▁곤수	-11.109
▁점검	-11.1092
▁직임은	-11.1094
▁익숙	-11.1097
▁세초	-11.1097
▁상격	-11.1099
▁흑	-11.1099
▁관동	-11.1102
가하다	-11.1103
▁남짓	-11.1106
중의	-11.1107
▁갖추지	-11.1108
▁상처	-11.111
6	-11.111
▁차견	-11.111
▁보고는	-11.111
생은	-11.1113
▁중국인	-11.1113
▁찬선	-11.1114
▁어유소	-11.1115
▁분명한	-11.1118
▁이원익이	-11.1119
아서	-11.1121
▁봉입	-11.1122
▁남근	-11.1125
▁초시	-11.1126
▁약원에서	-11.1126
▁피하여	-11.1127
▁입거	-11.1128
▁전지에	-11.113
▁지적하여	-11.113
▁의금부로	-11.1133
▁당상에	-11.1135
▁고기	-11.1136
▁천한	-11.1137
8	-11.1138
▁직언	-11.1141
▁운기	-11.1144
▁굽혀	-11.1144
지난해	-11.1145
▁하던	-11.1147
▁수비	-11.1147
▁문소전	-11.1148
▁주벌	-11.115
▁되었다가	-11.1151
었지만	-11.1152
밀	-11.1152
▁동궁의	-11.1155
▁나문하여	-11.1159
▁공사의	-11.1161
▁나문	-11.1161
▁탄일	-11.1162
▁분개	-11.1163
▁붙이	-11.1164
▁힘쓰지	-11.1165
▁가르치	-11.1166
▁선비들의	-11.117
덕이	-11.117
▁조태억	-11.1172
▁질병	-11.1175
▁오라	-11.1179
▁병력	-11.1179
▁첫째	-11.1182
좌찬성	-11.1186
▁상하게	-11.1189
▁목면	-11.1192
▁우후	-11.1194
▁완성	-11.1196
▁향축	-11.1197
▁나랏일	-11.1197
▁개탄	-11.1199
▁출사하여	-11.1207
▁누워	-11.1207
▁가두었다	-11.1209
▁마필	-11.1209
▁쾌하게	-11.121
▁특명	-11.1216
▁말하였습니다	-11.1218
▁중관	-11.1218
▁안동	-11.1219
▁실직을	-11.122
▁말입니다	-11.122
▁계속하여	-11.1221
▁김경	-11.1222
▁농사철	-11.1222
▁처가	-11.1223
강이	-11.1224
▁군기시	-11.1226
▁조사해서	-11.1226
▁기록하지	-11.1228
▁김약로	-11.1228
▁의복을	-11.1229
부러	-11.1229
▁가할	-11.1233
▁돌아보고	-11.1234
▁직함	-11.1234
▁거둔	-11.1234
▁지성으로	-11.1235
익이	-11.1235
▁임원준	-11.1241
▁사조	-11.1243
▁들어가게	-11.1243
▁들이지	-11.1243
▁판서를	-11.1245
▁이귀가	-11.1247
▁십	-11.1247
▁탄핵하여	-11.1248
롱	-11.1249
▁아아	-11.1251
디	-11.1254
▁민덕남	-11.1255
▁공평	-11.1257
경차관	-11.1257
곡을	-11.1259
▁양성	-11.1259
▁세종	-11.126
▁숙부	-11.1261
▁도사가	-11.1262
▁가엾	-11.1262
▁경상도관찰사	-11.1263
▁저쪽	-11.1265
▁김순	-11.1268
▁실지로	-11.1268
▁경상좌도	-11.1268
되니	-11.1269
▁선왕조	-11.127
▁들이도록	-11.127
▁돌아	-11.127
▁모시는	-11.1271
▁다스린	-11.1272
▁사냥하는	-11.1273
▁의리상	-11.1275
▁하교에	-11.1275
▁참판에	-11.1279
▁얼음	-11.1279
▁파는	-11.1281
▁어려운데	-11.1281
▁택	-11.1281
부로	-11.1281
▁이르렀	-11.1283
▁슬픈	-11.1283
사간	-11.1284
▁기억	-11.1286
먹	-11.1286
▁그다지	-11.1287
▁전고에	-11.129
▁파척	-11.1293
▁사정에	-11.1294
낭관	-11.1294
▁원주	-11.1294
▁이변	-11.1294
▁꿇어앉아	-11.1298
▁이송	-11.1299
▁배정	-11.1299
▁버린	-11.1304
량이	-11.1304
▁살해	-11.1305
▁후원에	-11.1306
▁정고	-11.1308
▁명주	-11.1308
▁대장이	-11.1311
▁규정이	-11.1312
▁통해	-11.1312
▁중간에서	-11.1313
▁훗날	-11.1317
▁사람들과	-11.1321
각도	-11.1323
▁임명하는	-11.1325
▁체차하도록	-11.1326
▁옥사에	-11.1327
▁성심	-11.1328
만일	-11.133
▁회의	-11.133
▁긴	-11.1332
사온데	-11.1333
▁예사로	-11.1335
주지	-11.1335
▁받고서	-11.1337
▁진휼하는	-11.1338
▁선물	-11.1339
▁공초에서	-11.134
▁직책은	-11.134
▁수복	-11.134
▁물론하고	-11.1341
▁전선	-11.1345
▁재궁	-11.1345
▁양곡	-11.1346
십	-11.1346
▁참소	-11.1347
▁착한	-11.1347
질을	-11.135
▁들이게	-11.1353
▁인피하니	-11.1353
▁빈객	-11.1353
▁잘못이다	-11.1354
▁이경억	-11.1354
▁위유	-11.1354
▁춘추관	-11.1355
▁징수하는	-11.1357
▁구차	-11.1358
▁하거나	-11.1358
▁펴지	-11.136
▁올라오게	-11.1362
▁부호군	-11.1362
▁하고서	-11.1363
말을	-11.1365
▁처하여	-11.1369
에서도	-11.137
▁연전에	-11.137
▁해사	-11.1372
▁잃는	-11.1372
▁읽고	-11.1373
▁부끄러움	-11.1375
▁안팎	-11.1375
▁우도	-11.1376
▁효시	-11.1376
▁교만	-11.1377
▁편하게	-11.1377
▁윤인경	-11.1382
장과	-11.1383
▁문제는	-11.1383
▁사용하지	-11.1384
▁국왕이	-11.1386
▁궐내에	-11.1386
▁당상관이	-11.1388
▁겸사복	-11.1389
▁않으면서	-11.139
▁닦고	-11.1395
▁실효	-11.1397
▁못하였기	-11.1397
▁내치	-11.1398
▁행하도록	-11.1401
▁서찰	-11.1405
▁경내에	-11.1406
▁이르	-11.1406
▁박건	-11.1407
▁싶어	-11.1407
▁중대하니	-11.1407
▁가져	-11.1411
근일에	-11.1411
▁글자는	-11.1412
▁벼슬길에	-11.1413
▁그릇된	-11.1414
형은	-11.1416
▁환수할	-11.1416
▁명망	-11.1419
적을	-11.1419
▁부임하지	-11.142
▁정문형	-11.1421
▁회보	-11.1423
▁싫어하여	-11.1424
▁미워하여	-11.1425
경상	-11.1425
▁나오고	-11.1426
▁성심으로	-11.1426
▁무렵에	-11.143
▁무사를	-11.1433
하였으면	-11.1434
산군	-11.1435
▁입었으니	-11.1436
▁두렵	-11.1444
▁거짓말	-11.1446
▁영상이	-11.1446
▁영돈녕부사	-11.1446
▁전하께	-11.1448
▁일이고	-11.1448
유생	-11.1453
▁정호	-11.1453
▁전번에	-11.1457
▁합니다만	-11.1457
세였다	-11.1458
▁선대	-11.1458
▁좇아	-11.1459
▁간직	-11.146
▁방도에	-11.1466
▁영광	-11.1466
▁결안	-11.1468
▁간악한	-11.147
▁귀양보내	-11.147
▁과격	-11.147
▁받았으므로	-11.1471
▁왕은	-11.1477
▁현석규	-11.1478
▁구사	-11.1481
▁중하여	-11.1483
신들은	-11.1484
▁체모에	-11.1485
▁조운	-11.1486
▁사람이나	-11.1487
▁해사에	-11.149
▁불구하고	-11.1494
만으로	-11.1495
▁탁	-11.1496
▁한탄	-11.1498
▁있느냐	-11.1498
▁인가	-11.1498
▁소비	-11.15
▁했을	-11.15
▁우애	-11.1501
▁은덕	-11.1508
▁백관들	-11.151
▁해이	-11.151
▁평양에	-11.1518
▁겨를	-11.1523
▁망설이	-11.1523
쪼	-11.1524
▁김상	-11.1525
▁간통한	-11.1528
▁보답하는	-11.153
▁알현	-11.1531
▁사후	-11.1533
▁하신다면	-11.1533
▁흉모	-11.1534
▁경기도	-11.1534
▁양쪽	-11.1535
▁윤자운	-11.1535
▁혁파하고	-11.1536
하의	-11.1536
▁논한다면	-11.1536
▁저축이	-11.1538
▁상사가	-11.1538
통사	-11.1541
▁말하게	-11.1541
욱	-11.1542
▁추안을	-11.1542
▁도배	-11.1542
▁강구하여	-11.1544
▁알리지	-11.1545
▁성덕에	-11.1545
▁훌륭	-11.1546
▁김류가	-11.1546
▁포위	-11.1547
▁지중추부사	-11.1547
▁남구만이	-11.1548
▁모자	-11.1549
▁떼어	-11.155
▁당하관	-11.1551
▁기일이	-11.1551
▁사퇴	-11.1553
▁너그러이	-11.1556
▁여겨집니다	-11.1557
▁후사	-11.1557
▁도내에	-11.1558
▁계복	-11.1558
▁의식과	-11.1559
▁길로	-11.1559
▁받도록	-11.1561
하시면	-11.1562
▁주되	-11.1564
▁평안도관찰사	-11.1566
시킨다면	-11.1568
▁시각	-11.1569
▁한하여	-11.1569
▁파직하라고	-11.157
▁추국하게	-11.1571
▁급하게	-11.1573
▁항	-11.1575
▁상교	-11.1577
▁방백	-11.1583
▁김호	-11.1584
▁보인다	-11.1584
▁마음속에	-11.1585
▁누누	-11.1586
▁첩으로	-11.1586
▁과오	-11.1586
▁기근	-11.1587
▁되었다고	-11.1587
▁잃어	-11.1588
▁글은	-11.159
▁못하더라도	-11.1592
▁들어가고	-11.1593
▁정으로	-11.1594
▁연좌된	-11.1594
▁베고	-11.1601
▁계청하여	-11.1608
▁읽어	-11.1613
▁남겨	-11.1615
▁법령	-11.1616
▁배척한	-11.1616
▁지방을	-11.1616
▁천거하여	-11.1617
▁추관	-11.1621
▁갑옷	-11.1621
▁공급	-11.1623
▁익사	-11.1626
▁관방	-11.1627
▁갑	-11.1628
군은	-11.1628
▁금부로	-11.1629
▁침해	-11.1631
▁맞았다	-11.1633
▁받아들였다	-11.1634
▁명목	-11.1634
원과	-11.1634
윤이	-11.1635
▁문에	-11.1636
▁책보	-11.1645
▁종정성	-11.1645
▁녹사	-11.1648
▁다행이겠습니다	-11.1648
▁올렸으니	-11.1649
▁별제	-11.165
동의	-11.1651
▁말들이	-11.1652
▁굶주림	-11.1654
▁오래되었습니다	-11.1654
▁통보	-11.1655
▁사피하지	-11.1655
▁이동	-11.1656
▁절박한	-11.1659
▁축하	-11.1659
▁형전을	-11.1659
▁잡물을	-11.1659
▁입었다	-11.1664
▁절제사	-11.1666
▁힘쓰는	-11.1667
▁상진	-11.1669
▁선조에서	-11.1671
도감의	-11.1672
▁면려	-11.1673
들로	-11.1676
▁했었다	-11.168
▁모릅니다	-11.168
▁인민	-11.1681
▁책문	-11.1682
▁전원	-11.1682
▁민진원이	-11.1683
▁사용하여	-11.1684
▁절수	-11.1684
▁적으니	-11.1685
▁서얼	-11.1686
▁정박	-11.1686
▁예로써	-11.1687
지마는	-11.1688
▁적들이	-11.1691
▁간행	-11.1692
▁실행	-11.1694
▁정침	-11.1695
▁우의정으로	-11.1697
신다면	-11.1697
▁울	-11.1698
▁자인데	-11.1698
▁회자	-11.1698
달라고	-11.1698
▁성절	-11.1699
▁전강	-11.1702
▁나지	-11.1703
▁군사들	-11.1703
▁영릉	-11.1704
▁외방으로	-11.1708
▁불러들여	-11.171
▁한강	-11.1711
▁낭패	-11.1711
▁화재	-11.1712
▁왜구	-11.1714
됨	-11.1714
▁설치하지	-11.1715
▁이해하지	-11.1716
필은	-11.1717
▁듯한	-11.1719
▁시험에	-11.172
▁비해	-11.172
▁보관	-11.172
▁지나서	-11.1721
▁정괄	-11.1721
▁관상감	-11.1722
▁사전	-11.1722
국가에서	-11.1723
▁혼란	-11.1724
대의	-11.1728
▁선발하여	-11.1728
▁공은	-11.1731
▁상황이	-11.1733
▁기병	-11.1734
▁참찬	-11.1735
전에는	-11.1741
▁출입하는	-11.1741
▁유사에	-11.1741
▁가죽	-11.1746
▁죽었고	-11.1746
▁사역원	-11.1746
▁받았으나	-11.1747
하셔서	-11.175
근이	-11.1753
▁천총	-11.1754
화가	-11.1754
▁짐작하여	-11.1755
▁하사한	-11.1755
▁황효원	-11.1755
▁군사들을	-11.1758
궤	-11.1759
▁비위	-11.1759
▁사과	-11.1764
▁대신하여	-11.1767
▁사실에	-11.1769
지와	-11.177
후가	-11.1771
▁쉽사	-11.1772
▁붙어	-11.1772
▁죄악이	-11.1774
▁호패	-11.1774
▁영장	-11.1775
▁천전	-11.1777
▁큰일	-11.1777
▁왕래하면서	-11.1777
▁금하고	-11.1779
▁줄이	-11.178
▁세력이	-11.1782
▁미워	-11.1784
▁의심하고	-11.1786
▁찬배	-11.1787
점을	-11.179
▁은전이	-11.179
▁이이첨이	-11.1791
▁받기	-11.1792
▁홍봉한	-11.1793
▁관가	-11.1793
▁어세겸	-11.1794
▁계사로	-11.1798
▁유정	-11.1799
▁않았	-11.1799
윤필상	-11.18
▁꾸짖	-11.1802
왔습니다	-11.1802
공주	-11.1803
▁다투는	-11.1805
▁청했으나	-11.1806
▁예우	-11.1807
▁구애되어	-11.1809
▁장순손	-11.1809
▁권한	-11.181
▁가마	-11.181
구나	-11.1811
▁서적	-11.1812
▁남원	-11.1813
▁인피하였는데	-11.1813
▁만물	-11.1813
▁이남	-11.1815
▁도첩	-11.1817
포에	-11.182
▁일어나는	-11.1821
생을	-11.1821
▁친림하여	-11.1821
▁김익	-11.1823
▁조세	-11.1823
▁음관	-11.1826
▁혼자서	-11.1828
▁법규	-11.1831
▁판의금으로	-11.1832
▁이극증	-11.1832
▁맹세	-11.1833
▁새벽	-11.1833
▁바꿔	-11.1835
▁노추	-11.1835
▁양남	-11.1837
▁자식을	-11.1839
▁죽일	-11.1839
▁오래되어	-11.184
▁군마	-11.1841
▁화곡	-11.1842
▁정녕	-11.1844
▁양서	-11.1844
▁올라오지	-11.1849
▁가자하라	-11.185
▁살필	-11.1851
▁마시	-11.1853
첩을	-11.1854
▁높이고	-11.1854
▁사람이라	-11.1854
▁회사	-11.1855
▁끊이지	-11.1866
▁김창집이	-11.1868
▁윤개	-11.1868
▁신문하여	-11.1872
▁도총부	-11.1873
▁물자	-11.1876
▁대론	-11.188
▁하필	-11.1881
교를	-11.1881
호는	-11.1881
▁못하였으나	-11.1881
대신의	-11.1883
▁밑에서	-11.1884
▁공상	-11.1885
▁인원	-11.1886
제주	-11.1887
▁윤필상이	-11.1888
▁우리에게	-11.1889
▁반정	-11.1889
▁적들	-11.1897
▁읽게	-11.1898
▁썼으니	-11.1898
▁토죄	-11.1901
▁예부에	-11.1901
▁교훈	-11.1904
▁찍	-11.1906
▁제신	-11.1907
▁부지런하고	-11.1909
▁순찰사	-11.1909
▁보고하기를	-11.1914
▁인륜	-11.1915
▁복구	-11.1915
▁나타나지	-11.1916
활	-11.1918
▁재촉	-11.1918
▁교외에	-11.1919
문과	-11.1919
손의	-11.1919
▁이공	-11.1919
▁왔으므로	-11.192
▁기후	-11.1921
▁숙마	-11.1922
해가	-11.1926
▁걱정하고	-11.193
▁이직	-11.1932
모를	-11.1933
▁나왔습니다	-11.1933
▁구언	-11.1935
▁박씨	-11.1937
관과	-11.1937
▁상소에서	-11.1937
▁이이명이	-11.1938
▁기약	-11.194
기와	-11.194
졌는데	-11.1942
▁우대하는	-11.1944
▁죄안	-11.1945
▁지급하게	-11.1946
▁일인가	-11.1947
▁현령	-11.1948
▁헐	-11.195
▁객성이	-11.1951
▁끌고	-11.1951
▁구전	-11.1952
▁수리하는	-11.1955
▁명령하여	-11.1956
▁요구하는	-11.1956
력	-11.1957
▁그르친	-11.1961
▁허락한	-11.1962
▁의지하여	-11.1963
▁왕복	-11.1963
▁정지하는	-11.1966
▁쓰기를	-11.1969
▁윤순	-11.1974
▁명소하여	-11.1975
▁군액	-11.1976
▁김성	-11.1978
▁면대하여	-11.1979
▁식량	-11.1983
▁준엄	-11.1988
▁아니하므로	-11.199
좌참찬	-11.199
▁양사에	-11.1994
▁서연	-11.1994
▁추국청이	-11.1995
▁바쳤는데	-11.1995
수와	-11.1996
자마자	-11.1997
▁대기	-11.1997
▁침략	-11.1998
▁무단	-11.1998
▁정직	-11.2
▁했다는	-11.2
▁기록되어	-11.2001
▁격려	-11.2002
▁형편없	-11.2004
▁참석하지	-11.2007
▁않으시고	-11.2009
▁일삼고	-11.2012
▁칭하고	-11.2012
▁사항	-11.2015
▁나라와	-11.2016
▁맡아서	-11.2016
▁원통한	-11.2017
▁박승종이	-11.2018
▁저번에	-11.2019
▁신주	-11.202
▁무리들은	-11.2021
▁산천	-11.2023
▁지리	-11.2024
▁사랑하고	-11.2025
▁지내지	-11.2025
▁무시	-11.2025
하느냐	-11.2027
▁방납	-11.2027
▁정장	-11.2028
▁만난	-11.203
하였다면	-11.2032
▁누이	-11.2033
이상	-11.2033
▁좋다고	-11.2034
▁내리라	-11.2034
예문관	-11.2034
▁끝나지	-11.2034
▁진전	-11.2035
강을	-11.204
▁비호	-11.2041
▁단속하지	-11.2041
▁제독이	-11.2043
▁오래된	-11.2044
▁감선	-11.2044
▁무장	-11.2046
장으로	-11.2047
▁감영	-11.2049
▁막아	-11.205
▁대상	-11.205
▁차례대로	-11.2053
▁초에	-11.2054
▁지내게	-11.2054
▁멀리서	-11.2055
▁경우에	-11.2056
윤허하지	-11.2056
▁유명	-11.2057
▁돌이켜	-11.2058
준은	-11.2061
▁귀양보내고	-11.2062
등으로	-11.2062
▁했었는데	-11.2064
▁상태	-11.2066
▁극심	-11.2066
리에	-11.2067
▁자녀	-11.2067
▁보낸다면	-11.2069
▁쓴다	-11.207
▁추숭	-11.207
▁황공하게	-11.2072
▁쪽으로	-11.2074
▁보이게	-11.2075
▁참작	-11.2076
▁맺	-11.2076
▁권진	-11.2076
▁합당하다	-11.2078
했는데도	-11.2079
▁일마다	-11.208
▁감역관	-11.2082
▁대비전	-11.2084
▁돈독	-11.2086
▁기일	-11.2086
▁닫	-11.2086
역에	-11.209
▁아니하였는데	-11.2091
▁부를	-11.2091
▁속공	-11.2092
보의	-11.2092
▁때리고	-11.2094
▁윤방	-11.2095
▁호조판서	-11.2095
▁노력	-11.2095
▁일삼아	-11.2097
▁김주	-11.2098
▁표신	-11.2103
▁어의	-11.2104
▁보잘것없는	-11.2104
▁구경하고	-11.2105
▁피로	-11.2107
▁접견하였다	-11.2107
▁김승경	-11.2108
▁대제	-11.2112
시켰습니다	-11.2112
▁계교	-11.2113
▁친행	-11.2115
▁선사	-11.2117
▁파직하는	-11.2118
▁운반하는	-11.212
▁밝지	-11.2122
▁같으므로	-11.2123
▁내리셨습니다	-11.2123
▁돌아오	-11.2124
▁옛날에는	-11.2126
▁아첨하여	-11.2127
▁성현	-11.2128
▁극에	-11.2129
▁수령으로서	-11.213
▁삼으니	-11.2132
▁효자	-11.2134
하가	-11.2135
▁청하므로	-11.2135
▁죄인들	-11.2136
▁그뒤	-11.2136
▁본받	-11.2141
▁주신	-11.2144
▁내의원	-11.2144
생의	-11.2145
▁그만두	-11.2147
별로	-11.2149
▁조치를	-11.2149
▁삼가고	-11.2149
▁이관	-11.215
▁적음	-11.2151
▁동료들	-11.2151
▁실상은	-11.2151
큰	-11.2154
▁일컫는	-11.2155
▁삼대	-11.2155
▁외람	-11.2156
▁김씨	-11.2157
▁지극	-11.2158
▁허용	-11.2158
하려면	-11.2161
되자	-11.2162
▁항복	-11.2163
▁인마	-11.2167
▁방어사	-11.2169
▁탕제	-11.217
▁살려	-11.217
▁구분	-11.217
▁신위	-11.2171
▁김응기	-11.2173
장에	-11.2176
▁태수	-11.2177
신과	-11.2183
▁올라와서	-11.2183
▁관계되므로	-11.2188
▁마땅하나	-11.2188
▁젖	-11.2189
집니다	-11.2191
▁동쪽에	-11.2191
▁대정	-11.2192
▁금오	-11.2194
▁장수와	-11.2195
▁축성	-11.2196
▁절에	-11.2197
▁어떠한지	-11.2198
▁체직하라	-11.2199
▁구름이	-11.2201
▁오례의	-11.2202
▁안에는	-11.2205
▁김석	-11.2207
▁출척	-11.221
익을	-11.221
▁태학	-11.2216
▁적자	-11.2218
▁반사	-11.222
▁조부	-11.222
▁떳떳	-11.222
▁보내면	-11.2222
▁사우	-11.2223
▁배치	-11.2223
▁우악	-11.2223
▁높이는	-11.2225
▁상송포	-11.2227
정에	-11.2227
▁불러다	-11.2228
▁취재	-11.2228
▁도당	-11.2233
▁제도는	-11.2236
▁수확	-11.2238
▁형조판서로	-11.224
지에	-11.2242
▁학생	-11.2242
▁말단	-11.2244
▁뿐이	-11.2247
▁보내기를	-11.2247
▁약방이	-11.2248
호군	-11.2249
▁놀랄	-11.2253
▁납시었다	-11.2253
▁꾸짖고	-11.2256
▁들이는	-11.2256
하면서도	-11.2258
▁슬퍼	-11.2258
▁상사에	-11.2263
농	-11.2264
▁진하하는	-11.2265
▁강서	-11.2269
▁적도	-11.2271
▁성주	-11.2274
▁무인	-11.2277
▁각도에서	-11.228
▁끼	-11.2282
▁부리고	-11.2285
▁일로서	-11.2285
요즘	-11.2285
이극배	-11.2286
▁꽤	-11.2286
▁있었지만	-11.2287
▁부당합니다	-11.2287
▁승서	-11.2287
▁노비는	-11.2288
▁장막	-11.2291
▁문안하고	-11.2293
▁다들	-11.2294
▁김상용	-11.2295
▁의미	-11.2296
▁병자년	-11.2297
▁밤중에	-11.2299
▁압송	-11.23
▁지을	-11.2301
▁태묘의	-11.2303
▁금치	-11.2305
▁고소	-11.2305
▁덕에	-11.2307
▁집현전	-11.2307
▁기다리라	-11.231
▁이서	-11.231
▁뒷사람	-11.2311
경과	-11.2311
▁가선	-11.2311
▁진연	-11.2313
▁해유	-11.2317
▁모습	-11.2318
▁국사에	-11.2319
▁몸받아	-11.232
▁합문	-11.232
▁흔단	-11.2321
졸	-11.2323
▁급제한	-11.2324
시키도록	-11.2327
질이	-11.2328
▁꾸	-11.2331
▁것이라는	-11.2331
▁소청	-11.2334
▁버림	-11.2334
▁없어질	-11.2335
증이	-11.2337
▁돈독히	-11.2341
▁어영	-11.2344
▁성상소	-11.2344
▁뭇사람	-11.2347
▁이제까지	-11.2349
았으니	-11.2349
잔	-11.235
▁전보다	-11.2351
▁기우	-11.2351
▁멈추고	-11.2352
▁물어보니	-11.2354
▁삭제하고	-11.2355
▁처치한	-11.2355
▁직임이	-11.2356
▁터무니없	-11.2356
▁허통	-11.2356
▁직장	-11.2356
▁습진	-11.2357
▁즉위하신	-11.2357
▁잊	-11.2358
▁들여보내	-11.2358
▁따르도록	-11.2359
▁깊	-11.2361
▁더해	-11.2363
▁미곡을	-11.2364
▁체직시킬	-11.2364
▁결단하여	-11.2365
▁그지없	-11.2367
▁개를	-11.2368
▁종전	-11.237
▁가야	-11.237
▁박정길	-11.2371
▁돌아가고	-11.2371
▁감죄	-11.2374
▁의해서	-11.2374
▁힘써야	-11.2376
▁위협	-11.2377
▁서용하는	-11.2377
▁사실과	-11.2378
▁이장	-11.2378
▁인원을	-11.2378
▁서계하기를	-11.2378
▁고향에	-11.2381
▁강구	-11.2384
▁굶주리는	-11.2384
▁모르겠으나	-11.2385
사오니	-11.2386
▁출발하여	-11.2389
▁석과	-11.2391
▁김계	-11.2392
▁지나는	-11.2392
칭	-11.2393
하였	-11.2394
▁개간	-11.2395
▁회부	-11.2395
태수	-11.2397
사헌부	-11.24
▁33	-11.2401
평안	-11.2402
▁각처	-11.2403
▁불행하게	-11.2405
▁미워하는	-11.2406
▁천성이	-11.241
▁부지	-11.241
▁사의에	-11.2411
▁비국당상	-11.2412
석은	-11.2414
▁일대	-11.2414
▁서용할	-11.2416
맥	-11.2418
▁당하게	-11.2419
▁올렸으나	-11.2419
▁사폐	-11.242
▁호종	-11.2422
▁저버리지	-11.2422
▁송준길이	-11.2423
▁소치	-11.2427
▁제사의	-11.2428
▁미안하니	-11.2429
▁되었	-11.2429
▁누설	-11.243
▁구임	-11.243
▁일러	-11.2431
▁같게	-11.2432
▁궤	-11.2433
▁품지	-11.2434
▁소자	-11.2434
동은	-11.2436
▁결말	-11.2436
에게만	-11.2439
▁박사	-11.2442
▁지혜	-11.2443
▁보기를	-11.2443
람	-11.2445
▁생겨	-11.2448
▁묶어	-11.2452
▁쌓은	-11.2452
▁음양	-11.2454
▁멈추	-11.2456
▁이리하여	-11.2457
번으로	-11.2458
▁사지에	-11.2459
▁파직시켰다	-11.2459
▁하옵니다	-11.2461
▁송인명	-11.2462
▁사건은	-11.2462
제는	-11.2463
▁계하한	-11.2463
▁김수동	-11.2464
▁체직시키고	-11.2464
까지는	-11.2465
▁장려	-11.2469
▁불행히	-11.247
▁새겨	-11.2471
었다고	-11.2471
▁보고자	-11.2472
▁수종	-11.2472
제의	-11.2474
동지	-11.2474
▁답한	-11.2476
▁자행	-11.2477
▁동궁에	-11.2478
▁개혁	-11.2479
▁복명	-11.2479
▁이순	-11.248
▁사당에	-11.2481
▁폐하고	-11.2481
▁윤음	-11.2482
▁이끌어	-11.2483
▁사로잡	-11.2483
▁개인	-11.2484
▁금지하는	-11.2485
▁정조사	-11.2486
▁돌이	-11.2487
▁준행	-11.2488
▁게첩	-11.2489
▁염려스럽다	-11.2489
▁사양하니	-11.2493
▁호피	-11.2494
으면서	-11.2495
▁수양	-11.2505
▁홍주	-11.2505
▁갔으니	-11.2506
▁손상이	-11.251
▁진계	-11.2513
▁김수흥	-11.2513
초를	-11.2515
되었기	-11.2516
우참찬	-11.2521
▁계시니	-11.2522
▁일들은	-11.2523
▁죽여	-11.2523
▁발각되어	-11.2523
▁힘써서	-11.2524
▁인종	-11.2526
성균관	-11.2527
▁살펴보면	-11.2527
▁풍헌	-11.2528
▁장의	-11.2529
▁불효	-11.253
▁상관이	-11.253
너는	-11.2532
청에	-11.2534
▁유생들에게	-11.2535
▁전쟁	-11.2536
▁말하기	-11.254
▁것이기에	-11.254
▁칭송	-11.2542
▁참혹한	-11.2542
▁부합	-11.2543
▁붙이고	-11.2543
▁이만주	-11.2547
▁바로잡을	-11.2548
▁실정이	-11.2548
▁갈고	-11.2548
▁다스려서	-11.2549
▁경복궁에	-11.2553
▁유념	-11.2556
▁내려주	-11.2559
▁씻어	-11.256
▁난신	-11.2561
▁물품	-11.2561
▁인피하기를	-11.2562
▁발인	-11.2562
되었던	-11.2562
▁장자	-11.2568
▁오기를	-11.2569
▁복직	-11.2569
▁막혀	-11.257
길을	-11.2571
▁반을	-11.2573
▁사망한	-11.2573
▁이산해	-11.2575
▁사촌	-11.258
▁보고하게	-11.2581
▁죄목	-11.2581
▁한찬남이	-11.2581
▁빼앗는	-11.2581
▁비게	-11.2581
▁말감	-11.2582
▁북경에서	-11.2582
▁경상도에	-11.2585
▁물리치	-11.2585
▁천사	-11.2585
▁알리는	-11.2588
▁여겼기	-11.259
▁경도	-11.2592
▁이석	-11.2596
▁윤기	-11.2596
▁이조참의로	-11.26
▁애매한	-11.2604
▁육진	-11.2605
▁현인	-11.2606
▁전라도에	-11.2608
종은	-11.2608
▁단연	-11.2609
▁옥사는	-11.2611
착	-11.2612
▁첨	-11.2612
▁찾아내	-11.2613
▁나아가게	-11.2613
▁제반	-11.2614
▁장구	-11.2615
▁득	-11.2616
▁가하고	-11.2617
▁을사년	-11.2617
▁민정중이	-11.2619
략	-11.262
▁올라올	-11.2621
▁같았는데	-11.2622
▁드리고	-11.2622
▁상인	-11.2623
워	-11.2623
▁칙사가	-11.2624
▁아들로서	-11.2626
충이	-11.2628
▁뜻대로	-11.2628
▁종실이	-11.2628
▁곳과	-11.263
▁진제	-11.263
▁보냈으니	-11.2631
▁올렸	-11.2632
▁드나들	-11.2632
령이	-11.2633
▁이제야	-11.2636
▁왜선	-11.2637
리라	-11.2637
▁윤임	-11.2637
▁중앙	-11.2638
▁한성부에서	-11.2641
주고	-11.2642
▁색	-11.2644
▁부린	-11.2645
▁집안에	-11.2645
▁막지	-11.2646
▁박장원	-11.2649
▁채제공	-11.265
▁수색하여	-11.2651
▁연회	-11.2651
▁삼지	-11.2654
▁직사에	-11.2654
▁달려가서	-11.2655
▁피혐하지	-11.2656
▁효유하여	-11.2657
▁계책은	-11.2658
▁놀라움	-11.2659
▁정하라	-11.2659
▁김석주	-11.266
▁연경에	-11.2668
▁조금만	-11.2669
▁한찬남	-11.2671
▁못한다는	-11.2672
스러움	-11.2672
▁태거	-11.2673
▁윤원형	-11.2675
▁차비	-11.2677
▁대내로	-11.2677
▁진출	-11.2679
▁했지만	-11.2682
▁자수	-11.2683
▁주둔	-11.2683
▁하십니까	-11.2684
▁추운	-11.2685
▁관청에	-11.2688
▁뒤폐단	-11.2689
▁흔쾌	-11.2689
▁하룻밤	-11.2689
▁유교	-11.2692
▁그후	-11.2692
▁밝혀서	-11.2694
▁모르니	-11.2694
강원	-11.2696
▁보내었다	-11.2696
▁이씨	-11.2697
▁망궐례	-11.2697
▁규모	-11.2698
▁언책	-11.2699
정원	-11.2701
▁찍어	-11.2704
▁공정한	-11.2704
▁국고	-11.2706
▁심사	-11.2708
▁온당할	-11.2708
▁확실히	-11.2709
▁윤허하고	-11.2709
겠다는	-11.2709
▁파종	-11.2711
색이었다	-11.2712
▁이선	-11.2713
▁친경	-11.2713
▁왜인들이	-11.2713
▁이부	-11.2714
▁대비전에	-11.2715
▁아니기	-11.2716
▁추장	-11.2718
▁기가	-11.272
괴	-11.2721
▁순찰	-11.2721
▁기생을	-11.2725
▁변무	-11.2725
▁깊어	-11.2726
▁위치	-11.2726
▁김윤	-11.2727
▁시관이	-11.2727
▁크다	-11.2728
▁통의	-11.273
▁입법	-11.2732
▁공으로	-11.2732
▁느	-11.2733
▁형옥	-11.2736
▁모른다	-11.2736
▁열거	-11.2741
▁시전	-11.2741
▁좌승지로	-11.2741
▁살피라	-11.2742
▁지니고	-11.2742
순은	-11.2743
▁괴로움을	-11.2744
▁부르는	-11.2745
▁면복을	-11.2746
▁끝나기	-11.2746
▁듯하고	-11.2746
버리고	-11.2749
▁알리	-11.275
▁전함	-11.275
▁감격하여	-11.2752
▁여부에	-11.2752
▁사심	-11.2753
▁참여하였다	-11.2753
▁본래부터	-11.2754
▁대역	-11.2755
▁군데	-11.2755
▁있으면서도	-11.2755
▁일이며	-11.2757
▁당직	-11.2759
▁신만	-11.2759
▁비석	-11.276
▁이준경	-11.2762
▁예관에게	-11.2762
▁사사로움	-11.2763
▁관찰사와	-11.2765
▁죄와	-11.2765
▁정역	-11.2765
▁거행하여	-11.2766
▁머물고	-11.2767
▁비답이	-11.2767
▁탐오	-11.2768
▁정배하라	-11.277
편치	-11.277
9	-11.2772
▁김전	-11.2772
▁김수흥이	-11.2773
▁선척	-11.2775
▁차례에	-11.2777
▁않다면	-11.2779
▁낭청은	-11.278
▁한쪽	-11.2782
▁죄입니다	-11.2786
▁상소문	-11.2787
▁알성	-11.2788
▁이르러서도	-11.2789
달이	-11.2793
▁용납되지	-11.2795
▁제후	-11.2796
▁특별	-11.2797
▁불안	-11.2797
▁문외	-11.2797
▁이첨	-11.2798
▁보방	-11.2798
절제사	-11.2798
▁원통	-11.2798
▁정식으로	-11.28
▁국청에서	-11.2802
▁내리기	-11.2802
▁군자감	-11.2802
▁데다	-11.2803
▁만하니	-11.2804
▁노적	-11.2805
▁돌아가기	-11.2807
인들이	-11.2807
▁장정	-11.2807
▁경복궁	-11.2807
▁원인	-11.281
▁논열	-11.2812
▁창덕궁에	-11.2812
▁흔적이	-11.2814
▁검교	-11.2816
▁기다려야	-11.2818
갑사	-11.2821
씩을	-11.2822
▁죽었다고	-11.2823
▁승전색	-11.2825
역을	-11.2826
▁통신사	-11.2826
▁영안도	-11.2826
궐	-11.2827
▁여주	-11.2828
▁부리	-11.2828
왔다	-11.283
▁안다	-11.283
▁관반	-11.2831
▁군대	-11.2832
▁대접하는	-11.2832
▁잘하는	-11.2834
신에게	-11.2834
▁후궁	-11.2836
▁중대	-11.2836
▁이르도록	-11.2838
▁조현명	-11.2838
▁모래	-11.284
준이	-11.284
▁죄없	-11.2841
▁쳐	-11.2843
▁마감	-11.2846
▁출송	-11.2846
▁상고하니	-11.2848
▁면주	-11.2848
룡이	-11.285
▁사임	-11.285
▁대궐로	-11.2852
▁결정하여	-11.2852
▁분부하라	-11.2853
▁가두	-11.2853
▁원기	-11.2856
▁끊어	-11.2857
▁기색이	-11.2858
▁관소에	-11.2861
▁듯싶습니다	-11.2862
▁살피건대	-11.2862
와서	-11.2863
▁그름	-11.2863
복이	-11.2865
▁정속	-11.2865
▁일들이	-11.2866
▁보려고	-11.2866
▁춘방	-11.2867
▁참여할	-11.2868
네가	-11.2869
▁강등	-11.2872
▁갔습니다	-11.2872
▁입계하여	-11.2872
▁의절	-11.2873
▁검거	-11.2874
례가	-11.2877
▁학업	-11.2879
▁잔치에	-11.2879
▁분분	-11.2879
▁조그만	-11.2881
▁하서	-11.2881
▁조치하여	-11.2883
▁참예	-11.2885
▁요역	-11.2887
▁교묘하게	-11.2887
월부터	-11.2887
급을	-11.289
▁감독하여	-11.289
▁추고하지	-11.2891
▁임명하고	-11.2895
▁연계	-11.2896
금을	-11.2897
▁동료들과	-11.2897
▁묵묵	-11.2897
▁죽였으니	-11.2898
▁계집종	-11.2899
시켜서	-11.2901
그렇게	-11.2901
▁복계	-11.2902
▁책자	-11.2902
▁대학연의	-11.2903
대군	-11.2903
▁의심이	-11.2905
▁준하여	-11.2905
▁군역	-11.2907
▁경상우도	-11.2907
▁이돈	-11.2907
▁보냈습니다	-11.2907
▁마땅함	-11.2907
▁발을	-11.2909
▁은혜에	-11.291
▁몰수	-11.291
▁감탄	-11.2913
▁선혜청	-11.2914
▁드러내어	-11.2917
▁취하는	-11.2918
▁논하였는데	-11.2921
▁결정하는	-11.2921
▁길복을	-11.2921
▁엄금	-11.2921
▁구휼하는	-11.2923
▁자나	-11.2925
▁가물	-11.2925
▁오두인	-11.2925
▁마주	-11.2927
▁철수	-11.2927
▁곧은	-11.2927
▁미안할	-11.2927
▁신장	-11.2928
▁하시어	-11.2928
▁한치형	-11.2929
곽	-11.2929
▁하겠지만	-11.2931
▁권대운	-11.2931
▁자입니다	-11.2931
▁도감으로	-11.2931
했더니	-11.2932
▁무과에	-11.2934
▁상대	-11.2936
관에게	-11.2938
별감	-11.294
▁대왕대비	-11.2941
▁비와	-11.2941
▁부표	-11.2941
▁단정	-11.2942
▁허락하는	-11.2945
졌습니다	-11.2945
▁삭탈하고	-11.2946
▁이시언	-11.2947
▁유현	-11.2948
▁궁가	-11.2949
▁선공감	-11.2951
▁쌓여	-11.2952
▁저주	-11.2956
▁김자	-11.2956
▁수납	-11.2956
▁제수하였으니	-11.2957
▁자만	-11.2958
▁초안	-11.296
▁이증	-11.2961
▁이종성	-11.2961
▁지경이	-11.2963
▁사람씩	-11.2964
▁대신으로서	-11.2964
▁교사	-11.2966
▁끼친	-11.2967
▁두려우니	-11.2967
▁재화	-11.2968
▁적색이었다	-11.2968
▁문묘	-11.2969
▁전진	-11.297
▁섬으로	-11.2972
▁작년에	-11.2973
▁거두지	-11.2975
▁별단	-11.2975
국의	-11.2975
▁오니	-11.2977
겠으며	-11.2978
▁범하였으니	-11.2981
▁조수	-11.2981
▁후원	-11.2985
▁떠난	-11.2985
▁열흘	-11.2987
▁분명	-11.2988
▁농사에	-11.2989
▁배릉	-11.2993
▁박문수	-11.2994
▁신료	-11.2996
▁가도록	-11.2997
▁고발한	-11.2997
▁외부	-11.2998
▁관하여	-11.2998
▁대략은	-11.2999
되었다고	-11.3002
▁없앨	-11.3003
▁상고하건대	-11.3003
의정부	-11.3003
▁전파	-11.3004
▁흉년에	-11.3005
▁자질	-11.3006
▁행해지지	-11.3007
▁사람이라도	-11.3007
▁가둔	-11.3008
▁경조	-11.3009
▁조속	-11.3009
비의	-11.3011
▁편리할	-11.3011
옹주	-11.3011
▁명하시어	-11.3012
▁이루게	-11.3015
▁돈으로	-11.3017
▁건주위	-11.3018
▁맹사성	-11.3019
▁이항복이	-11.302
▁여성제	-11.302
안을	-11.302
▁이루어진	-11.3025
▁미혹	-11.3027
▁본토	-11.3028
▁숭상하고	-11.3034
악을	-11.3034
되었으며	-11.3037
▁편의에	-11.3037
▁싶습니다	-11.3038
▁가정대부	-11.3038
▁토목	-11.3039
▁꾸민	-11.3039
그렇다	-11.3039
▁견주어	-11.3042
▁면제하고	-11.3045
▁남곤이	-11.3045
▁생각하시어	-11.3047
▁경계하는	-11.3048
▁귀양보내는	-11.3048
▁물어보라	-11.3049
▁김근사	-11.305
▁계산	-11.3051
▁불고	-11.3052
순을	-11.3057
▁있습니다만	-11.3057
▁윤증	-11.3057
▁없습니다만	-11.3059
▁본국에서	-11.306
▁남이공	-11.306
▁기축년	-11.3062
▁돌아가지	-11.3063
▁됨	-11.3064
▁이속	-11.3067
▁진소	-11.3069
▁이시	-11.3071
▁피혐하는	-11.3072
▁논의는	-11.3078
▁웅	-11.308
▁이봉	-11.308
부는	-11.3082
▁뛰어넘어	-11.3082
▁박엽	-11.3083
▁이득	-11.3083
▁자급	-11.3085
▁돌아오기	-11.3086
▁천명	-11.3088
▁측은	-11.3088
▁상벌	-11.3088
▁화평	-11.3091
▁왕대비	-11.3096
▁만하다고	-11.3096
▁중죄	-11.3099
▁않으려고	-11.3101
▁등제	-11.3104
▁시신	-11.3106
▁효종	-11.3113
▁영동	-11.3114
리는	-11.3114
▁방송	-11.3115
▁귀양가	-11.3117
▁궁시	-11.3118
▁노루	-11.312
▁단천	-11.312
▁원소	-11.3121
▁임금께서	-11.3122
▁면대	-11.3123
▁상의원	-11.3123
나무	-11.3124
▁침입	-11.3125
▁타일러	-11.3127
▁가릴	-11.3131
중을	-11.3131
▁가면	-11.3132
▁유무	-11.3132
▁올리라	-11.3133
▁권지	-11.3134
▁윤휴가	-11.3134
▁지대	-11.3144
▁섞어	-11.3145
▁힘쓸	-11.3145
▁해로울	-11.3146
으	-11.3146
▁돌아오니	-11.3148
▁이렇듯	-11.3151
▁있기를	-11.3156
▁소신	-11.3156
▁처신	-11.3157
▁조전	-11.3159
▁장교	-11.3162
▁김류	-11.3165
▁사수	-11.3167
▁처리하기	-11.3168
▁정경세	-11.3169
▁심상하게	-11.3169
가지고	-11.3171
세자가	-11.3173
▁타이르	-11.3174
▁존	-11.3174
▁시골로	-11.3175
▁허성	-11.3176
▁거만	-11.3178
▁친구	-11.318
직장	-11.3181
▁앞질러	-11.3181
▁어긋납니	-11.3181
▁상황	-11.3181
▁장유	-11.3183
▁성세	-11.3183
당초에	-11.3184
▁드러나지	-11.3185
▁배척하여	-11.3186
의금부	-11.3188
▁여느	-11.3188
▁여기며	-11.319
▁죄주는	-11.319
▁문정공	-11.319
▁부제조	-11.3191
▁날에는	-11.3191
인이었다	-11.3192
복은	-11.3193
▁가망이	-11.3193
▁북관	-11.3194
▁못했을	-11.3195
▁병기를	-11.3199
▁하서하여	-11.3201
▁노모	-11.3203
▁백성과	-11.3205
▁동지중추부사	-11.3205
▁기예	-11.3206
▁유감	-11.3206
▁노릇	-11.3207
▁강순	-11.3209
▁일국	-11.3209
▁간수	-11.321
김상	-11.3215
▁도적질	-11.3216
▁방비하는	-11.3216
▁즐겁	-11.3217
▁조복양	-11.3218
▁숨길	-11.3218
▁만났는데	-11.3218
▁강력	-11.3219
▁끌어대어	-11.322
▁썩	-11.3221
▁대내에서	-11.3223
▁상서하였는데	-11.323
당초	-11.323
▁지당하다	-11.3231
▁김만기	-11.3231
▁집과	-11.3232
▁중한데	-11.3233
▁정도에	-11.3238
▁묻어	-11.3239
▁계단	-11.324
▁가을이	-11.3241
▁입번	-11.3243
▁삭	-11.3245
▁청하였고	-11.3246
▁성적	-11.3247
였으니	-11.3247
우상	-11.3248
▁대고	-11.3249
▁정사하니	-11.3251
▁서필원	-11.3254
▁제주에	-11.3257
▁얻었다	-11.3258
▁허락해	-11.3259
▁물었는데	-11.3261
▁지적한	-11.3264
▁겸직	-11.3265
홍응	-11.3267
북도	-11.3267
▁따르겠다	-11.3268
▁진시	-11.3268
손을	-11.3271
버려	-11.3272
▁진어	-11.3272
▁처치하지	-11.3273
▁협박	-11.3274
▁논사	-11.3274
▁동안이나	-11.3275
▁기사년	-11.3277
▁부근	-11.3279
▁참고하여	-11.3284
▁계사는	-11.3286
▁집안에서	-11.3288
▁나란히	-11.329
▁참부대시	-11.329
▁않았지만	-11.3291
▁김인	-11.3291
▁진보	-11.3295
▁제사지내	-11.3296
▁선위	-11.3296
▁아픈	-11.3296
죄	-11.3301
▁매달	-11.3302
▁하리	-11.3305
▁해괴한	-11.3306
▁조계	-11.3307
▁추국하라	-11.3307
▁여러날	-11.3307
▁공의에	-11.3308
▁통행	-11.331
▁공훈	-11.3311
▁연안	-11.3311
▁하교는	-11.3313
▁구차히	-11.3316
▁이루고	-11.3317
종의	-11.3318
▁관장하는	-11.3318
민을	-11.332
▁형조로	-11.3323
▁일기주	-11.3325
▁위안	-11.3326
▁잘못은	-11.3326
▁빈전	-11.3331
▁관하	-11.3332
선전관	-11.3332
▁꺼려	-11.3333
▁안위	-11.3334
▁일식	-11.3335
▁청하기	-11.3335
▁배척하는	-11.3336
▁군사들에게	-11.3336
▁계책으로	-11.3337
▁부른	-11.3339
필이	-11.3339
▁호소하는	-11.334
▁세상이	-11.334
▁이조참판으로	-11.3341
는데도	-11.3341
▁불시	-11.3342
▁여론	-11.3342
▁당하였다	-11.3345
▁첨지	-11.3346
▁명성	-11.3347
7	-11.3348
▁예전부터	-11.3349
▁입참	-11.3353
▁모른	-11.3353
▁숭	-11.3357
첨정	-11.3357
▁부서	-11.3358
▁주나라	-11.3359
▁정지하라	-11.3359
▁옮기게	-11.336
▁끊	-11.3362
▁쓸데없는	-11.3364
▁사직서	-11.3364
▁명하셨습니다	-11.3366
▁의망하여	-11.3369
▁의한	-11.337
▁사역	-11.3371
▁강정	-11.3373
▁여름에	-11.3373
▁벗어나지	-11.3374
▁나장	-11.3377
▁아룀	-11.3379
▁일이었습니다	-11.338
▁청에	-11.338
관찰사	-11.338
갓	-11.3381
▁권세가	-11.3382
▁참지로	-11.3384
▁생명	-11.3385
명이고	-11.3386
▁숭상하는	-11.3387
▁실지	-11.3387
왕이	-11.3389
▁정지하기를	-11.3392
▁유문	-11.3393
렸다	-11.3393
▁고장	-11.3394
힌	-11.3396
▁기전	-11.3399
▁많았으니	-11.34
▁험	-11.3401
▁범하였다	-11.3401
▁괴이한	-11.3402
▁홍문관에서	-11.3403
▁부끄럽고	-11.3404
▁면천	-11.3405
▁것까지	-11.3405
▁지급하여	-11.3406
▁있거나	-11.3406
▁향사	-11.3408
▁가형	-11.3408
▁야인들이	-11.341
▁강하고	-11.3411
▁충원	-11.3411
▁홍여순	-11.3412
▁작성	-11.3414
녹	-11.3414
▁왕래할	-11.3415
▁과감	-11.3416
▁신으로	-11.3416
▁죽자	-11.3416
▁탐오한	-11.3416
▁아첨하	-11.3418
▁유정현	-11.3418
▁형편에	-11.3418
▁살기	-11.3418
▁주본	-11.3418
했지만	-11.3418
군관	-11.342
옥당	-11.3421
▁귀순	-11.3421
▁뽑은	-11.3423
무가	-11.3423
▁화포	-11.3424
▁관가에	-11.3424
▁나갔	-11.3426
▁궁전	-11.3429
▁도사로	-11.343
▁대하는	-11.3433
▁행행하여	-11.3433
영남	-11.3433
▁유근	-11.3434
▁홍문관에	-11.3436
▁도리로	-11.3436
▁숭정대부	-11.3437
▁돌아왔는데	-11.3438
▁행이	-11.3438
▁답답	-11.3438
▁적장	-11.3438
▁논의할	-11.344
▁번거롭고	-11.3444
▁낭비	-11.3444
▁취소	-11.3445
▁계승	-11.3446
▁기울여	-11.3447
▁정탐	-11.3448
▁순변사	-11.3449
▁유봉휘	-11.3451
▁시대에	-11.3452
▁올랐다	-11.3453
▁책례	-11.3455
▁진소하여	-11.3457
▁옳겠습니다	-11.3457
▁봉행	-11.3461
▁별시위	-11.3463
▁맞을	-11.3463
▁버리지	-11.3464
▁닦아	-11.3466
하옵소서	-11.3468
▁윤형	-11.347
▁정릉	-11.347
▁넘지	-11.347
▁지역이	-11.3474
▁피하고	-11.3474
▁이리저리	-11.3474
▁징계하여	-11.3474
▁손으로	-11.3474
세자	-11.3475
▁순서	-11.3476
▁다하는	-11.3477
흡	-11.3477
▁넉넉하지	-11.3481
▁중들	-11.3482
▁무지한	-11.3482
▁성명이	-11.3482
단을	-11.3483
▁관계되지	-11.3483
▁일컬어	-11.3486
▁만들지	-11.3487
▁수령들을	-11.3487
렸	-11.3488
▁옹주	-11.3488
▁처첩	-11.3489
▁성인이	-11.3489
▁박종	-11.3493
▁모집	-11.3495
▁인원이	-11.3495
▁고묘	-11.3498
▁유경	-11.35
▁계달하지	-11.3501
터	-11.3501
즙	-11.3502
▁훈신	-11.3502
객	-11.3502
▁최석정이	-11.3504
▁아끼는	-11.3506
▁존중	-11.3506
남의	-11.3508
▁남용익	-11.3509
▁폐가	-11.351
▁어려우므로	-11.3511
▁무궁한	-11.3512
▁잃었으니	-11.3512
▁혁파하여	-11.3515
▁하번	-11.3516
▁자백	-11.3517
▁거치지	-11.3517
▁적에도	-11.352
방을	-11.3522
받아	-11.3522
▁홍명하가	-11.3523
▁사슴	-11.3523
▁일어났	-11.3523
▁태상왕	-11.3523
혈	-11.3524
▁사단	-11.3527
규가	-11.3527
▁고찰해	-11.3527
▁운송	-11.3529
▁같	-11.3531
왕의	-11.3538
간이	-11.3539
국가	-11.3542
겠으나	-11.3543
▁나아와	-11.3545
단자를	-11.3547
▁심환지	-11.3548
▁역적이	-11.3549
▁아니더라도	-11.3556
▁보나	-11.3556
▁연좌되어	-11.3557
셔서	-11.3559
▁삼았습니다	-11.3559
▁억제	-11.3559
겠으니	-11.3561
▁수급	-11.3562
▁인망이	-11.3565
▁이북	-11.3566
익은	-11.3567
▁미쳐서	-11.3568
▁담을	-11.357
▁운명	-11.357
▁기한으로	-11.3572
▁인정과	-11.3575
▁격식	-11.3577
▁이철견	-11.3577
것	-11.358
어도	-11.3582
▁쪽	-11.3585
▁그림	-11.3586
▁캐어	-11.3586
▁천둥과	-11.3587
▁유도	-11.3588
▁약탈	-11.3589
▁놀이	-11.3589
▁한응인	-11.3594
▁어질지	-11.3595
근자에	-11.3595
▁사랑하여	-11.3596
▁다니는	-11.3596
▁호구	-11.3597
▁경유	-11.3597
▁상서하기를	-11.3598
▁봉해	-11.3602
▁아랫사람들	-11.3606
▁이덕	-11.3606
▁김감	-11.3607
▁박순	-11.3607
밤	-11.3612
▁경기관찰사	-11.3612
▁하였었다	-11.3615
▁서장관으로	-11.3615
▁김상철이	-11.3615
▁처치하기를	-11.3618
▁북청	-11.3618
▁거꾸	-11.3623
▁거느린	-11.3623
▁구료	-11.3625
▁죽어서	-11.3626
▁인산	-11.3626
▁차차	-11.3628
▁조사한	-11.3628
이수	-11.3629
▁칸	-11.363
▁다음달	-11.363
▁전교한	-11.3631
▁관대한	-11.3632
▁거느리	-11.3632
▁받았	-11.3632
▁한심스럽	-11.3632
▁언어	-11.3633
일까지	-11.3633
▁내국에서	-11.3633
▁삼년상	-11.3635
▁호서의	-11.3638
▁원로	-11.364
▁편리하게	-11.3641
▁태종께서	-11.3642
산성	-11.3645
▁승직	-11.3645
푼	-11.3648
▁전대	-11.365
▁공격하는	-11.3651
▁서계하라	-11.3653
▁논계하여	-11.3653
▁서인	-11.3655
하겠느냐	-11.3656
▁소용이	-11.3658
▁아니었는데	-11.366
▁따름입니다	-11.3662
▁의지하고	-11.3664
▁차송	-11.3664
▁주관하는	-11.3666
▁종부시	-11.3666
량은	-11.3667
▁근을	-11.3668
곧	-11.3671
▁붙인	-11.3673
▁준수	-11.3675
▁사건에	-11.3675
▁내전	-11.3675
▁춤	-11.3675
▁채용	-11.3679
▁교만하고	-11.368
▁진영	-11.3682
▁세조께서	-11.3685
▁조종조에	-11.3686
▁전결	-11.3687
▁절차는	-11.3687
▁동쪽으로	-11.3688
▁정법	-11.3688
▁절약	-11.3688
▁있었는데도	-11.3689
▁조심하고	-11.3691
대는	-11.3694
▁내수사에	-11.3694
▁소매	-11.3695
▁도읍	-11.3695
▁따르	-11.3696
▁오래입니다	-11.3697
▁의병	-11.3698
이런	-11.3699
▁열무	-11.3701
▁품질	-11.3702
▁되어야	-11.3703
▁사물	-11.3703
전과	-11.3706
▁접대할	-11.3707
▁보살피	-11.3708
▁계실	-11.3708
▁이황	-11.3709
▁간교한	-11.3709
▁소유	-11.3709
▁원근	-11.371
▁추탈	-11.3712
▁명성이	-11.3712
▁비지	-11.3718
▁윤지선	-11.3718
▁문서에	-11.3719
▁재촉하여	-11.3721
셔야	-11.3722
였고	-11.3726
▁몰라서	-11.373
▁접때	-11.3731
▁신진	-11.3734
▁중전	-11.3735
힐	-11.3735
▁장선징	-11.3735
▁군상	-11.3735
▁김좌명	-11.3735
▁진달하지	-11.3735
등은	-11.3736
▁조화	-11.3737
▁무역하는	-11.3738
▁원의	-11.3738
▁길은	-11.3739
▁부응하라	-11.3743
청을	-11.3743
▁마땅하니	-11.3743
▁홍달손	-11.3744
▁동가	-11.3747
▁탐문	-11.3747
▁겸손	-11.3748
▁세월	-11.3749
▁칼	-11.3749
▁군사에게	-11.3751
▁본의가	-11.3751
▁마포	-11.3755
▁석방하였다	-11.3755
▁삭제하소서	-11.3755
▁두었으니	-11.3757
▁절하고	-11.3757
▁두려워할	-11.3758
▁합쳐	-11.3761
▁예관이	-11.3762
▁이단	-11.3762
▁나오기	-11.3763
▁빛깔이었	-11.3764
스럽고	-11.3764
▁선택	-11.3765
▁진달하기를	-11.3765
▁고향	-11.3769
국가가	-11.3773
▁석방하여	-11.3775
▁근심하는	-11.3775
▁못했다는	-11.3775
▁이충	-11.3776
치는	-11.3777
▁취직	-11.3782
▁대신하였다	-11.3783
▁알맞게	-11.3783
▁준다	-11.3784
▁조말생	-11.3785
▁보더라도	-11.3785
준을	-11.3786
▁채제공이	-11.3787
▁공손히	-11.3787
▁품질이	-11.3788
예로부터	-11.3788
▁열지	-11.3788
▁그지없다	-11.379
▁시간	-11.3791
▁낭	-11.3793
▁김치인	-11.3793
▁뛰어나	-11.3795
▁구경하였다	-11.3795
▁황엄	-11.3797
▁제사지내는	-11.3799
▁관계되어	-11.3799
▁죽음에	-11.3801
▁속일	-11.3801
▁기년	-11.3802
▁유임	-11.3802
▁섬멸	-11.3809
▁도서	-11.3809
▁평산	-11.381
패를	-11.3811
혀	-11.3813
흔	-11.3813
▁군량이	-11.3813
▁어둡고	-11.3813
▁본의	-11.3815
▁출처	-11.3815
성에서	-11.3815
이정	-11.3816
▁민유중	-11.3817
▁물러	-11.3818
정과	-11.3818
▁까닭입니다	-11.3818
▁이시애	-11.382
▁변란이	-11.3821
▁있었다는	-11.3821
▁북경으로	-11.3821
▁사특한	-11.3824
몰래	-11.3825
▁유념하겠다	-11.3825
성으로	-11.3825
▁통한	-11.3825
▁속여	-11.3826
▁세도가	-11.3826
▁발설	-11.3827
▁보필	-11.3827
▁높여	-11.3828
▁용서하는	-11.3829
▁도독	-11.3831
▁의견은	-11.3833
▁그러는	-11.3834
위가	-11.3837
▁내려갈	-11.3837
▁일이겠습니까	-11.3837
▁총융사	-11.3838
리고	-11.3839
▁서쪽에	-11.3841
▁의논대로	-11.3842
▁어쩌	-11.3843
▁받아들인	-11.3843
▁심한데	-11.3847
▁유가	-11.3848
▁교자	-11.385
▁독서	-11.385
▁발송	-11.3851
▁색리	-11.3852
▁민진원	-11.3853
▁확실	-11.3853
빙	-11.3853
▁기력이	-11.3854
▁붙여서	-11.3855
▁정려	-11.3855
올해	-11.3855
▁혜	-11.3858
▁드리는	-11.3859
▁법이다	-11.386
▁묘소	-11.386
▁합격자	-11.3862
▁불가하니	-11.3863
▁선천	-11.3864
▁부여	-11.3866
평양	-11.3866
지난날	-11.3868
▁거론하여	-11.387
▁뒷날에	-11.387
▁답하고	-11.387
▁노복	-11.3871
▁보여야	-11.3872
▁기거	-11.3872
▁폐출	-11.3876
가면서	-11.3877
▁결정한	-11.3879
▁여역이	-11.3879
▁있기도	-11.388
▁삼수	-11.388
핵	-11.3881
▁늙어서	-11.3882
▁호가	-11.3882
▁정광필이	-11.3883
▁곤궁한	-11.3883
▁약재	-11.3885
▁책임은	-11.3887
▁박정	-11.3889
▁밝고	-11.389
▁받드니	-11.389
▁올바른	-11.3891
▁견줄	-11.3891
민은	-11.3892
▁사라졌다	-11.3892
▁할까	-11.3893
▁장기	-11.3893
▁제공	-11.3893
▁종류	-11.3895
▁공장	-11.3896
▁반인	-11.3897
▁정선	-11.3898
▁넓히	-11.3899
▁죽이지	-11.3902
▁공자	-11.3904
▁들인	-11.3906
▁정하였으니	-11.3907
▁특이한	-11.3908
▁받기를	-11.391
▁요망한	-11.391
▁언관이	-11.3911
▁해의	-11.3912
▁이숭원	-11.3915
▁기둥	-11.3916
▁부세	-11.3916
▁바로잡고	-11.3916
▁권력	-11.3917
▁그전	-11.3918
▁하시면	-11.3922
벌을	-11.3922
▁박원종	-11.3924
▁충실	-11.3926
▁뒤부터	-11.3926
▁시세	-11.3928
▁통분해	-11.3928
▁상에게	-11.3929
▁위로하는	-11.393
▁즉각	-11.393
▁것들	-11.3931
▁정소	-11.3931
▁끼칠	-11.3933
▁흉적	-11.3933
▁구류	-11.3933
▁압슬형	-11.3936
▁일으키고	-11.3938
▁위로해	-11.3939
례에	-11.3939
▁강하다가	-11.3942
▁주서로	-11.3945
명이었다	-11.3946
▁첨가	-11.3947
새로	-11.3949
▁도태	-11.3952
▁겹쳐	-11.3953
백에	-11.3953
▁금법	-11.3955
▁미치는	-11.3955
▁적절	-11.3955
▁예법	-11.3955
▁천신	-11.3956
될까	-11.3958
▁허종	-11.3959
▁체직되어	-11.396
▁제술을	-11.3961
▁군대가	-11.3962
▁정지화	-11.3962
▁정결	-11.3962
▁다스리기를	-11.3962
▁기록하고	-11.3963
▁곳입니다	-11.3966
▁명나라에	-11.3966
▁의논하라고	-11.3968
▁썼는데	-11.3968
▁정구	-11.3968
▁울분	-11.3969
▁우마	-11.3969
▁쌍	-11.3969
▁금지하지	-11.3969
▁속바치게	-11.3971
▁간사함	-11.3973
▁존경	-11.3973
▁국시	-11.3975
▁먹은	-11.3975
▁폐습	-11.3975
▁융	-11.3976
▁결정할	-11.3977
▁커서	-11.3978
불을	-11.3978
유를	-11.3978
▁곡식은	-11.3979
▁정해야	-11.3979
▁장사들	-11.398
▁중합니다	-11.3981
▁아들로	-11.3981
▁같다고	-11.3981
▁데까지	-11.3983
▁여역	-11.3984
▁고을과	-11.3985
부장	-11.3985
▁서지	-11.3986
▁여유	-11.3986
▁후로	-11.3988
하리라	-11.3988
▁모집하여	-11.3988
▁정종	-11.3988
▁보덕	-11.3991
▁기일에	-11.3992
▁인정전에서	-11.3998
▁소식이	-11.3999
▁적과	-11.4002
산에서	-11.4003
▁박재	-11.4004
았는데	-11.4004
▁하비	-11.4005
▁일일	-11.4006
면포	-11.4007
▁활쏘기	-11.4007
▁일까지	-11.4008
▁박세당	-11.4009
▁걸린	-11.4009
▁강한	-11.4009
▁장악원	-11.401
▁신칙하라	-11.4011
▁이파	-11.4013
▁민심이	-11.4014
▁소속시키	-11.4015
▁기준	-11.4015
▁내려간	-11.4016
▁조야	-11.4016
▁피해가	-11.4016
▁공효	-11.4017
▁이형	-11.4017
▁온편하지	-11.4018
▁후설	-11.4018
▁신민이	-11.4022
▁실패	-11.4023
▁위로하여	-11.4024
대전	-11.4026
▁황정욱	-11.4027
▁만들었다	-11.4032
▁각사에	-11.4032
▁드	-11.4035
▁못하였다고	-11.4036
▁들이고	-11.4038
셨습니다	-11.404
▁군국의	-11.404
라서	-11.4041
▁이길	-11.4042
▁고친	-11.4042
덕을	-11.4043
▁장계하였다	-11.4043
▁임무는	-11.4043
광주	-11.4045
▁하나라도	-11.4045
▁이르렀고	-11.4046
▁넘기	-11.4046
▁왜인을	-11.4048
▁명초	-11.405
▁보고하였다	-11.405
▁귀양보냈다	-11.4053
▁보낸다	-11.4053
▁행하였으니	-11.4053
▁매어	-11.4057
▁가자하여	-11.4057
▁하유하는	-11.4059
▁뻔뻔	-11.406
▁쟁집	-11.406
▁이건명	-11.4061
▁해치는	-11.4062
▁과시	-11.4062
▁약물	-11.4063
▁진달하였는데	-11.4063
▁난언	-11.4064
▁미곡	-11.4065
▁와서는	-11.4066
▁가르침	-11.4067
▁본사에	-11.4068
▁옛날에도	-11.4068
▁비슷	-11.4068
▁떠	-11.407
▁압	-11.4071
▁차자로	-11.4072
▁길러	-11.4073
▁넓은	-11.4074
▁정비	-11.4076
▁체차하라고	-11.4076
▁관계로	-11.4078
▁여쭈어	-11.4078
▁악공	-11.408
▁따랐	-11.4081
간을	-11.4082
하거든	-11.4082
▁시강	-11.4083
▁유래가	-11.4083
▁자헌	-11.4083
▁재숙	-11.4084
▁분부에	-11.4084
▁점고	-11.4085
▁듣	-11.4086
▁군사로	-11.4086
▁무기	-11.4086
▁박은	-11.4088
▁사헌부와	-11.409
▁부친	-11.409
▁독실	-11.409
▁정창연	-11.4091
▁옳겠는가	-11.4092
▁한들	-11.4093
▁없었을	-11.4093
▁아니요	-11.4094
▁대조	-11.4095
▁지었다	-11.4096
▁임명된	-11.4096
▁의리는	-11.4098
▁애석	-11.41
▁관계된다	-11.41
▁유격이	-11.4101
▁사진	-11.4102
▁이간	-11.4102
▁사전에	-11.4103
식이	-11.4103
▁권진이	-11.4105
▁원훈	-11.4105
▁정실	-11.4106
▁하였	-11.4106
하였는지	-11.4106
▁황상	-11.4106
▁별좌	-11.4107
▁이승소	-11.4108
▁대국	-11.411
▁내렸고	-11.4111
▁태자	-11.4111
▁부류	-11.4111
▁밝히는	-11.4111
▁호인	-11.4112
나마	-11.4114
해주	-11.4114
▁아니하였습니다	-11.4115
▁옛일	-11.4115
전에서	-11.4116
▁용모	-11.4117
▁아뢰어서	-11.4118
▁조처할	-11.4122
▁허비	-11.4124
▁놀라지	-11.4125
▁않지만	-11.4125
▁어긋나고	-11.4126
▁명정전	-11.4127
재상	-11.4129
▁도둑질한	-11.4129
▁느슨	-11.413
▁나왔을	-11.4131
눌	-11.4132
▁응하여	-11.4133
▁국휼	-11.4133
▁의망한	-11.4133
▁남편을	-11.4135
▁향교	-11.4137
▁한계희	-11.4137
▁혁파할	-11.4138
▁정파	-11.4141
▁놓	-11.4142
▁일신	-11.4143
▁초하루	-11.4144
▁지급하고	-11.4144
▁풍문	-11.4144
▁채우	-11.4146
▁고집하여	-11.4146
▁공정하지	-11.4147
▁나이에	-11.4147
▁산릉에	-11.4149
▁민망하고	-11.4152
▁진의	-11.4153
다니	-11.4154
▁김중	-11.4155
▁전체	-11.4155
▁팔아	-11.4155
▁적실	-11.4156
▁모으고	-11.4157
▁상달	-11.4158
▁임건	-11.4159
▁체직하기	-11.416
▁인접	-11.416
▁전한으로	-11.4162
▁오기	-11.4162
▁민생이	-11.4164
▁정관	-11.4165
▁내구마	-11.4165
산은	-11.4166
▁백색이었다	-11.4167
▁영조	-11.4169
자와	-11.417
▁강희맹	-11.4174
▁연속	-11.4177
▁짐을	-11.4177
▁계문하였다	-11.418
▁좌윤으로	-11.418
▁형편입니다	-11.4182
▁대인이	-11.4182
▁나무가	-11.4183
▁찾아가	-11.4186
▁자원에	-11.4187
▁줄여서	-11.419
▁때문인가	-11.4193
▁검칙	-11.4193
겸이	-11.4196
▁맡기고	-11.4197
▁재실	-11.4198
▁고성	-11.42
▁말하면서	-11.4201
▁위태로운	-11.4202
▁좌상이	-11.4203
▁의창	-11.4203
▁취하고	-11.4204
▁두렵고	-11.4204
▁천도	-11.4205
▁천창성	-11.4205
▁말들	-11.4206
▁죽었으므로	-11.4206
▁못하오니	-11.4207
▁계청하였으나	-11.421
▁변론	-11.421
▁경작하는	-11.421
▁빈번	-11.4211
▁사람이라고	-11.4211
▁속하게	-11.4212
▁조심하여	-11.4216
▁노자	-11.4216
▁최관	-11.4217
▁계청하기를	-11.4217
▁등지에서	-11.4218
▁질문	-11.4218
▁유치	-11.4222
▁백의	-11.4224
▁좌의정으로	-11.4228
행이	-11.4229
▁국문에	-11.423
▁전자에	-11.4231
▁도모하여	-11.4231
▁본부가	-11.4232
▁것인지를	-11.4235
▁먹이	-11.4238
▁봉작	-11.4239
▁관아에	-11.424
▁윤집	-11.4241
▁의리로	-11.4242
▁일이겠는가	-11.4243
▁인민들	-11.4243
▁산릉의	-11.4243
▁동료에게	-11.4244
▁조례	-11.4248
▁형조판서	-11.4248
겸은	-11.4249
▁알았습니다	-11.425
▁지급하는	-11.425
▁사배	-11.4251
▁타당할	-11.4253
▁미쳐서는	-11.4253
▁일이기	-11.4254
▁늙어	-11.4257
▁취하지	-11.4257
▁번상	-11.4258
종을	-11.426
▁만류	-11.4261
더욱	-11.4262
▁기무	-11.4264
▁김휘	-11.4264
▁못한데	-11.4265
▁정원으로	-11.4265
▁제언	-11.4265
▁일수	-11.4265
▁들기	-11.4266
▁불측한	-11.4268
▁적용하여	-11.4269
▁응제	-11.427
▁습	-11.427
▁조준	-11.427
▁경유하여	-11.4271
▁정계하였다	-11.4271
▁조사하는	-11.4271
▁해당하는	-11.4272
▁되어도	-11.4273
▁궁금	-11.4274
▁만포	-11.4276
▁한가지	-11.4279
▁주청사	-11.428
▁고하니	-11.4283
창을	-11.4284
▁작위	-11.4285
▁기간	-11.4286
▁벗어	-11.4288
▁발표	-11.4288
▁분간하여	-11.4289
▁이상진	-11.4289
▁알았으니	-11.4289
▁불평	-11.4289
▁이방	-11.429
▁논하였다	-11.4292
▁이태좌	-11.4292
▁밑	-11.4295
▁죽여야	-11.4295
▁추대	-11.4296
남을	-11.4296
▁경서를	-11.4297
▁이상인	-11.4297
▁빼앗	-11.43
▁덮	-11.4303
▁서장에	-11.4307
▁예궐하여	-11.4307
▁소행이	-11.4308
▁돕는	-11.4309
▁민호	-11.431
▁온천에	-11.431
▁이바지	-11.431
▁허균이	-11.431
▁조형	-11.4311
▁준례	-11.4312
임금이	-11.4313
▁세자와	-11.4314
되었을	-11.4316
▁종기	-11.4316
회를	-11.4316
데다	-11.4316
▁혜택이	-11.4322
▁통곡	-11.4323
▁두라	-11.4324
▁핵문	-11.4325
▁수고롭게	-11.4325
▁전조가	-11.4326
▁참여하는	-11.4326
▁간음	-11.4327
▁면유	-11.433
▁당연합니다	-11.433
▁믿는	-11.4331
▁탕감	-11.4331
▁벼슬길	-11.4332
▁옥중에서	-11.4333
▁진에	-11.4334
▁역대	-11.4335
▁없지마는	-11.4337
▁융복	-11.4337
▁변경에	-11.4338
▁잡아오게	-11.4338
▁돌리고	-11.434
▁분경	-11.4342
▁공격하여	-11.4343
▁밝히지	-11.4343
▁미포	-11.4343
▁이예	-11.4344
▁살해한	-11.4345
▁땅은	-11.4346
▁올해에	-11.4346
▁인정에	-11.4346
의주	-11.4347
▁서사	-11.4347
▁아들인데	-11.4347
▁제목을	-11.435
▁본받을	-11.4352
▁호적	-11.4352
▁편안한	-11.4353
▁예빈시	-11.4353
▁의거할	-11.4358
▁넘겨	-11.4358
▁침탈	-11.4358
▁윤지	-11.4361
▁본궁	-11.4362
▁관리는	-11.4363
▁지났으니	-11.4366
▁끼치고	-11.4367
▁사흘	-11.4368
▁소는	-11.4368
▁그전대로	-11.4368
▁물어보고	-11.4371
▁기상이	-11.4372
▁폭	-11.4373
▁특지	-11.4374
▁산림	-11.4375
▁육선을	-11.4377
▁사절	-11.4378
▁애매	-11.4378
▁유성룡	-11.4379
▁영수	-11.4379
▁시녀	-11.438
▁그만두지	-11.4381
쌀	-11.4381
▁이조로	-11.4381
뿐이	-11.4381
옹	-11.4382
사신	-11.4382
▁있을지라도	-11.4383
▁미치	-11.4384
▁당연하다	-11.4384
이어	-11.4385
▁마을에	-11.4386
▁물리쳐	-11.4387
▁반성	-11.4388
▁꾀하여	-11.4389
▁당하는	-11.4389
욕	-11.439
▁기롱	-11.439
▁천심	-11.4392
▁과실	-11.4394
함경도	-11.4394
방금	-11.4395
▁사지	-11.4395
운이	-11.4395
▁떠나는	-11.4396
▁정성과	-11.4396
▁안치한	-11.4402
▁화합	-11.4404
▁청하면서	-11.4407
▁더럽	-11.4408
▁상시	-11.4409
▁갈라	-11.441
▁듣기	-11.4411
▁항시	-11.4412
▁꺼리지	-11.4413
▁택일	-11.4413
▁놀랍기	-11.4413
▁원종공신	-11.4415
▁늦추어	-11.4415
▁판사	-11.4416
환이	-11.4416
▁강홍립	-11.4417
▁향해	-11.4417
▁군공	-11.4418
▁답서	-11.4418
▁감군	-11.4423
▁폐지하고	-11.4425
▁위와	-11.4426
▁자급이	-11.4426
▁"3	-11.4426
▁봉서	-11.4427
▁방어에	-11.4429
▁살아서	-11.4429
동에	-11.4431
▁훈국	-11.4431
▁지방관	-11.4433
연은	-11.4433
▁이룩	-11.4434
▁세자는	-11.4434
▁진격	-11.4438
▁양민	-11.4438
▁접견할	-11.4439
▁신보	-11.444
▁당하였는데	-11.444
▁언급한	-11.444
▁대내	-11.4441
▁자원하는	-11.4442
▁파직만	-11.4443
공을	-11.4443
▁운반해	-11.4443
▁누리	-11.4444
▁저녁으로	-11.4445
▁동궁에게	-11.4445
▁이경석이	-11.4445
▁잘못입니다	-11.4447
▁젊고	-11.4447
▁기쁜	-11.4447
▁위아래	-11.4447
▁궁벽	-11.4449
양이	-11.445
▁78	-11.4451
▁말았으니	-11.4451
▁내려가서	-11.4452
▁조종께서	-11.4454
▁인출	-11.4456
▁튼튼	-11.4457
▁영흥	-11.446
▁봉행하지	-11.446
▁옛적에	-11.4463
▁쌀로	-11.4464
▁판하	-11.4464
▁무함한	-11.4465
▁모반	-11.4465
▁뜸	-11.4465
했는지	-11.4466
▁헌수	-11.4467
▁나랏일이	-11.4467
▁회례	-11.4468
▁사적으로	-11.447
▁자처	-11.447
▁전하에게	-11.447
▁측량	-11.4472
▁자리로	-11.4472
▁가르치는	-11.4476
▁고하	-11.4477
▁없어졌다	-11.4477
▁온편	-11.4477
▁않으려	-11.4478
국이	-11.4478
▁박문수가	-11.4479
른	-11.4479
▁평시에	-11.448
▁성품	-11.448
▁정론	-11.448
▁작고	-11.4481
▁알아야	-11.4486
하겠으니	-11.4487
▁맞힌	-11.4488
▁공제	-11.4492
▁베풀었는데	-11.4493
▁법식	-11.4495
▁하겠는데	-11.4496
▁놀라서	-11.4496
▁경성에	-11.4499
▁정지한	-11.45
▁개수	-11.45
▁인연하여	-11.4502
▁업무	-11.4503
▁교수	-11.4503
▁반찬	-11.4506
▁모자라는	-11.4506
▁부의로	-11.4507
▁여기기	-11.4508
▁강관	-11.4508
▁양식이	-11.4509
▁가는데	-11.4514
▁기자헌이	-11.4514
▁근정전	-11.4514
▁경계할	-11.4518
▁꾸짖어	-11.452
▁생산되는	-11.4521
▁여진	-11.4524
▁일이지만	-11.4524
▁정령	-11.4524
마를	-11.4527
▁토관	-11.4529
▁논쟁	-11.453
▁상관	-11.453
팽	-11.4531
▁박상	-11.4536
▁수령들은	-11.4537
▁사로잡아	-11.4539
▁남기	-11.4541
▁굶주리고	-11.4542
▁않았는데도	-11.4543
현에서	-11.4543
▁간관이	-11.4543
▁권장하고	-11.4543
▁묘시에	-11.4543
▁많았고	-11.4546
▁요양	-11.4546
▁김여	-11.4546
▁심양에	-11.4547
▁용도	-11.4552
▁전직	-11.4552
▁자성	-11.4553
백성	-11.4555
▁궁성	-11.4556
▁논죄하지	-11.4558
▁홍중보	-11.4562
▁대문	-11.4562
▁주시기	-11.4566
▁듣고도	-11.4567
▁자라도	-11.4568
▁처리하여	-11.4569
▁찔러	-11.4571
▁중종	-11.4572
▁받아들일	-11.4573
▁생각하옵건대	-11.4574
시키게	-11.4574
▁먹여	-11.4574
종친	-11.4575
▁용맹	-11.4576
▁혈기	-11.4576
▁형상을	-11.4576
▁꾀한	-11.4577
▁처리한	-11.458
▁허조	-11.4585
▁추문하는	-11.4586
성과	-11.4587
▁유계	-11.4588
▁마련하는	-11.4588
▁품관	-11.4589
▁특지로	-11.4589
▁저의	-11.4593
▁사민	-11.4594
▁경시	-11.4594
▁신씨	-11.4595
▁급박	-11.4597
▁인견하여	-11.4599
▁장신	-11.46
▁당상관과	-11.4602
▁정사는	-11.4604
강의	-11.4605
▁용서하고	-11.4605
▁인자	-11.4606
희를	-11.4608
▁했으며	-11.4609
▁조발	-11.461
▁부끄러움이	-11.461
▁국문하였다	-11.4611
▁쌓인	-11.4612
▁계모	-11.4612
▁감기	-11.4614
▁갖추어지지	-11.4615
▁사연	-11.4616
▁않았었다	-11.4617
▁따르기	-11.4619
청의	-11.4619
▁징발	-11.4619
▁전토	-11.462
▁아뢰었기	-11.4621
▁좋습니다	-11.4623
▁윤봉이	-11.4625
▁기묘년	-11.4626
▁구제하기	-11.4626
▁신상이	-11.4627
▁이병	-11.4628
▁성종께서	-11.4629
▁못했다고	-11.463
합니까	-11.4631
년간	-11.4633
▁옛말에	-11.4634
현감으로	-11.4634
▁보상	-11.4635
▁갑산	-11.4635
▁족속	-11.4638
▁들여오	-11.4639
▁말대로	-11.464
▁행회	-11.464
께서는	-11.464
▁내조	-11.4641
▁언급하지	-11.4642
하였사오니	-11.4644
▁말며	-11.4644
▁하였었는데	-11.4645
▁권균	-11.4646
▁진향	-11.4652
▁경략이	-11.4652
▁많았으므로	-11.4654
▁위험	-11.4655
▁머물면서	-11.4656
▁빛나	-11.4656
▁상차	-11.4658
▁숨기지	-11.4661
선의	-11.4662
▁벌여	-11.4662
▁통하는	-11.4662
▁피혐할	-11.4664
▁윤상	-11.4664
▁이극균	-11.4665
우도	-11.4665
▁앓	-11.4665
▁두려움	-11.4665
감찰	-11.4666
▁훈계	-11.4667
▁헌사에서	-11.4668
▁계문한	-11.4669
▁남들	-11.467
▁것이온데	-11.467
▁성후	-11.4672
▁교서관	-11.4674
▁천추사	-11.4675
▁행궁	-11.4677
▁저포	-11.4677
▁펼	-11.4678
▁늘어	-11.4678
▁태묘	-11.468
▁뒤쫓아	-11.4681
▁추문하게	-11.4682
▁전염병이	-11.4682
▁어린아이	-11.4683
▁김원	-11.4685
▁없을까	-11.4685
▁맡을	-11.4687
문으로	-11.4687
▁염려하는	-11.4688
차자	-11.4691
▁조정으로	-11.4694
▁도량이	-11.4696
▁베푸니	-11.4696
▁합당하겠습니다	-11.4697
▁본국에	-11.4697
▁무너지	-11.4698
▁예기	-11.47
▁구절	-11.47
▁정존겸	-11.4701
산을	-11.4701
▁어두워	-11.4703
▁만들었습니다	-11.4704
주서	-11.4704
▁선처	-11.4704
▁파직시킨	-11.4706
▁움직	-11.4706
▁발명	-11.4706
▁안정되지	-11.4706
▁치제하게	-11.4706
▁사장	-11.4708
▁부르고	-11.471
▁예궐	-11.4711
▁정부가	-11.4711
▁김해	-11.4711
▁성과	-11.4712
▁명하시고	-11.4717
융	-11.4717
▁동조	-11.4719
▁기술	-11.472
삼사	-11.4723
왔는데	-11.4725
▁필선	-11.4726
▁한량	-11.4728
임이	-11.4733
유가	-11.4734
▁무시한	-11.4735
▁북병사	-11.4736
▁법의	-11.4736
▁권우	-11.4737
▁유진	-11.4738
▁떠도는	-11.4739
자로	-11.4739
▁크니	-11.4739
▁착	-11.4739
대간은	-11.474
▁명하셨는데	-11.474
▁줄여	-11.4741
▁때인데	-11.4741
▁가포	-11.4743
▁곤궁	-11.4743
▁변통하는	-11.4743
▁없어지	-11.4745
▁개차하소서	-11.4747
▁도량	-11.4747
▁실농	-11.4748
▁35	-11.4749
▁화약	-11.4751
▁김연	-11.4752
▁부지런	-11.4753
▁양성지	-11.4753
▁금은	-11.4753
▁엄정	-11.4756
▁추고해야	-11.4756
▁제장	-11.4757
▁홍낙성	-11.4759
▁간심	-11.476
▁보내온	-11.4761
▁자기들	-11.4761
▁전담	-11.4762
해를	-11.4762
때	-11.4762
▁국조	-11.4763
▁우박	-11.4764
이원	-11.4766
읍에	-11.4766
▁징계하고	-11.4769
녹사	-11.4771
▁홍명하	-11.4774
후를	-11.4777
▁임명한	-11.4778
▁무역해	-11.4779
▁읽는	-11.478
▁이르렀으나	-11.4781
▁극심한	-11.4781
▁제거하고	-11.4782
▁양종	-11.4784
▁고금에	-11.4784
름	-11.4786
건은	-11.4787
▁난역	-11.4787
▁배우지	-11.4787
▁달린	-11.4788
▁안되어	-11.4789
▁술이	-11.4789
▁이홍로	-11.479
▁쉬운	-11.479
▁패초하여	-11.4791
촉	-11.4792
▁민사	-11.4793
▁주조	-11.4795
▁대개는	-11.4795
연이	-11.4796
▁입시하라	-11.4797
▁허조가	-11.4797
▁이언	-11.4799
▁무상	-11.4801
▁바닥	-11.4802
▁체통이	-11.4803
▁옮긴	-11.4806
▁다름없	-11.4807
▁굶주려	-11.4807
▁유희분	-11.4807
▁섬겨	-11.4807
▁참작해	-11.4808
▁산이	-11.4812
▁도진무	-11.4814
▁잘못하여	-11.4814
▁주역	-11.4816
▁문종	-11.4818
▁배척하고	-11.4819
▁죽였다	-11.4819
▁목숨이	-11.482
▁바다에	-11.4821
▁썼습니다	-11.4822
▁시험삼아	-11.4823
▁문답	-11.4824
▁강백년	-11.4825
▁벗어나	-11.4825
▁이계동	-11.4826
▁책응	-11.4826
▁왕위	-11.4827
▁내리었다	-11.4828
▁여인	-11.4831
▁내용이었다	-11.4833
▁정동	-11.4835
▁좌우에서	-11.4836
▁농민	-11.4837
상에	-11.4839
▁제정	-11.484
▁교관	-11.484
▁매월	-11.4842
법이	-11.4843
▁났다	-11.4843
▁분부하기를	-11.4846
▁불과한	-11.4846
▁늦추	-11.4847
자급을	-11.4848
▁기로	-11.485
▁진배	-11.485
▁소사	-11.4853
▁신하와	-11.4853
▁북쪽으로	-11.4854
▁황후	-11.4858
▁도망가	-11.4858
▁대비께서	-11.4858
▁주장하는	-11.4863
▁정치화	-11.4864
▁일어나지	-11.4864
▁역적과	-11.4865
▁출근	-11.4865
▁푸른	-11.4865
▁소신이	-11.4866
▁경재	-11.4866
▁핵실하여	-11.487
▁궐내	-11.4871
▁이조좌랑으로	-11.4872
야만	-11.4878
▁만세에	-11.4881
▁화목	-11.4882
▁충의	-11.4882
▁지영	-11.4884
▁김용	-11.4886
▁중화	-11.4887
▁못하고서	-11.4888
▁중지하고	-11.489
▁나로	-11.4893
▁들어주	-11.4895
▁최유원	-11.4896
시키기	-11.4898
▁옛날부터	-11.4898
▁왕부	-11.4899
▁법사	-11.4899
▁연호	-11.4899
▁울산	-11.4899
재추	-11.4901
▁뒤로부터	-11.4906
▁주면서	-11.4908
▁때문인데	-11.4909
▁세우게	-11.491
▁조정과	-11.491
▁거룩	-11.4912
▁의논하겠다	-11.4913
▁명사	-11.4914
▁마치지	-11.4916
이온데	-11.4916
▁만들기	-11.4917
▁치성	-11.4921
▁영좌	-11.4922
▁정배하였다	-11.4923
▁무방하다	-11.4924
▁전대로	-11.4924
▁묘호	-11.4925
▁지세	-11.4925
▁기록된	-11.4927
▁소행	-11.4933
▁출납하는	-11.4936
▁건원릉	-11.4936
▁논핵한	-11.4936
▁경계하여	-11.4937
▁가르쳐	-11.4937
▁치부	-11.4938
▁대간들이	-11.4939
▁탐학	-11.4943
주어	-11.4944
▁교묘	-11.4945
▁절실	-11.4945
▁석강	-11.4946
▁나아오	-11.4947
▁믿음	-11.495
▁염려되어	-11.495
▁연중에서	-11.4951
▁풀이	-11.4951
▁본원에서	-11.4951
▁이룬	-11.4951
▁압니다	-11.4952
▁심이지	-11.4955
▁이변이	-11.4957
▁조진	-11.4957
▁체아직	-11.4957
▁알겠다	-11.4959
▁고쳐야	-11.496
▁사직하였다	-11.4963
▁흔히	-11.4963
▁저버린	-11.4964
▁최호	-11.4968
▁가면서	-11.4971
▁장수에게	-11.4972
▁임금께	-11.4972
▁파직된	-11.4976
▁김치	-11.4976
▁충청도관찰사	-11.4978
▁직위에	-11.498
▁김상로	-11.498
▁태만한	-11.4981
▁제사하는	-11.4983
었	-11.4984
▁윤휘	-11.4987
언이	-11.4989
▁공공	-11.499
▁자정전에	-11.4992
스러울	-11.4993
▁쌓을	-11.4994
▁힐책	-11.4994
▁치욕	-11.4994
▁없거니와	-11.4994
▁아부	-11.4995
▁급속	-11.4995
전하	-11.4996
▁포흠	-11.4997
▁땅에서	-11.4999
▁움직이지	-11.4999
▁심복	-11.5001
▁해임	-11.5001
▁진신	-11.5004
조는	-11.5004
랴	-11.5006
▁죄도	-11.5007
▁복명하였다	-11.5007
▁흉년으로	-11.5008
▁이극균이	-11.5008
▁열성	-11.5009
▁혐의할	-11.501
▁저버리고	-11.501
▁대간에	-11.501
▁재추	-11.5011
▁둘러	-11.5011
▁부당하게	-11.5011
▁정도가	-11.5012
▁자질로	-11.5013
▁중국과	-11.5013
▁중상	-11.5013
▁통사를	-11.5014
▁물어보	-11.5014
▁그만두게	-11.5014
▁줄이는	-11.5014
▁북로	-11.5019
▁업신여기는	-11.5019
양군	-11.502
▁병화	-11.502
▁육조에	-11.5021
▁입안	-11.5021
▁개정하기를	-11.5022
▁아니함이	-11.5024
▁종재	-11.5024
▁재력	-11.5026
▁임인년	-11.5027
▁통탄	-11.5028
▁인혐하여	-11.5029
▁안은	-11.5031
▁김석주가	-11.5031
▁했더니	-11.5032
▁황제께서	-11.5032
▁나아가고	-11.5033
▁지나가	-11.5034
경력	-11.5036
▁칙유	-11.504
▁무례	-11.504
▁불리	-11.5041
▁수일	-11.5041
▁승도	-11.5044
▁추궁	-11.5044
▁화재가	-11.5045
▁핍박	-11.5046
▁훈련원	-11.5046
▁멀어서	-11.5048
굴	-11.5048
들일	-11.5049
▁태감	-11.5051
▁어떠	-11.5051
▁낮추어	-11.5051
하였음	-11.5052
▁시급한	-11.5052
▁형벌이	-11.5053
▁대리	-11.5061
▁미수	-11.5061
▁교외에서	-11.5062
평군	-11.5064
▁싸움	-11.5066
▁성상께	-11.5068
▁허락한다	-11.507
▁진설	-11.5074
▁즐기	-11.5075
▁이민	-11.5076
▁당상관으로	-11.5077
▁궁중에서	-11.5077
▁식량이	-11.5078
▁꼬투리	-11.508
▁어떨까	-11.508
▁어루만져	-11.508
▁입으로	-11.5081
▁산에	-11.5081
▁신흠	-11.5081
▁여는	-11.5082
▁기뻐하여	-11.5082
전으로	-11.5085
▁주었으며	-11.5085
▁어기	-11.5087
▁뜻으로써	-11.5087
▁주었고	-11.5087
▁이덕수	-11.5089
▁사주하여	-11.5089
▁예방	-11.509
▁윤선거	-11.5091
너희들은	-11.5091
▁용사	-11.5094
▁경영	-11.5095
▁조사할	-11.5097
▁자전이	-11.5098
▁뜻입니다	-11.5098
▁항식으로	-11.5098
▁불행하여	-11.5098
▁도모하는	-11.5099
원에	-11.5099
▁도와주	-11.5104
▁이염	-11.5104
▁김이	-11.5105
▁본원에	-11.5105
▁삼척	-11.5105
사람을	-11.5106
▁않았으면	-11.5107
▁식견	-11.5108
▁관서로	-11.5109
▁현명한	-11.5111
▁주례	-11.5113
▁심경	-11.5115
▁아래서	-11.5115
▁남한	-11.5116
▁경기에	-11.5117
건이	-11.5118
▁정제	-11.5118
▁윤양	-11.5119
▁당번	-11.5121
▁원합니다	-11.5122
▁원하옵건대	-11.5124
▁형이	-11.5124
▁반복	-11.5126
종묘	-11.513
▁들었을	-11.5131
▁이이명	-11.5132
▁보아야	-11.5133
▁정석	-11.5134
▁빙	-11.5134
▁교지에	-11.5134
▁주고받	-11.5135
▁윤강	-11.5136
▁서성	-11.5137
▁죄과	-11.5139
▁붙잡	-11.514
▁임명할	-11.514
▁편할	-11.5141
▁정해서	-11.5144
▁받고도	-11.5145
▁판의금부사	-11.5146
윤은	-11.5147
▁사표	-11.5148
▁가축	-11.5148
서반	-11.5149
▁입장	-11.515
▁행하려	-11.515
▁대비하는	-11.5151
▁윤길	-11.5151
탈	-11.5152
▁파수	-11.5155
▁여러가지	-11.5155
▁동원하여	-11.5157
▁배종	-11.5157
▁자라면	-11.5158
▁명단	-11.5159
▁이유청	-11.5161
▁명소	-11.5162
▁끌	-11.5164
▁이이가	-11.5165
▁감하게	-11.5165
▁나인	-11.5167
유격	-11.5167
▁어긋날	-11.5168
▁납입	-11.5168
▁벗어난	-11.5169
사에서	-11.517
▁맡기는	-11.5171
▁사형수	-11.5171
호와	-11.5173
▁관이	-11.5174
▁정초	-11.5174
량의	-11.5176
▁비호하는	-11.5176
경성	-11.518
▁쓴다면	-11.5183
▁추핵하여	-11.5185
▁민력	-11.5189
▁겁탈	-11.5189
▁없었다고	-11.519
▁집안이	-11.519
▁사대부들	-11.519
▁과중	-11.5195
▁정표	-11.5199
▁영변	-11.5203
▁이단하	-11.5204
▁유형	-11.5206
▁전하게	-11.5206
▁보고하고	-11.5207
▁논단	-11.5209
▁권감	-11.521
▁위망	-11.5211
▁표를	-11.5211
▁고강	-11.5216
▁성석린	-11.5218
▁하느냐	-11.5218
▁징병	-11.5218
▁정자각	-11.522
▁베푼	-11.5222
▁신개	-11.5222
▁사세상	-11.5223
공의	-11.5223
▁관군	-11.5223
▁전하고	-11.5225
순의	-11.5225
▁육조에서	-11.5226
▁논핵하기를	-11.5227
▁못했고	-11.5227
▁피하는	-11.5228
▁앓아	-11.5228
세의	-11.5229
금부	-11.5229
시키라	-11.5229
▁내왕	-11.523
▁권경우	-11.5232
▁소인이	-11.5235
▁용이	-11.5235
▁불교	-11.5235
▁채택	-11.5236
▁부덕한	-11.5238
▁획급	-11.5239
소에서	-11.524
▁순천	-11.524
▁바닷가	-11.5243
했다면	-11.5244
▁어려워서	-11.5244
▁계사가	-11.5245
▁종군	-11.5247
빈의	-11.5249
▁군문에	-11.5252
▁왕실	-11.5252
▁흩어	-11.5253
▁서종태	-11.5253
천호	-11.5253
▁무뢰한	-11.5256
▁집터	-11.5257
▁연계하고	-11.5262
▁공인	-11.5262
▁부상	-11.5262
▁모화관에서	-11.5266
▁소망에	-11.5266
▁길가	-11.5267
▁들어줄	-11.5267
▁이정원	-11.5269
▁간여	-11.5269
▁거제	-11.5271
▁체제	-11.5271
▁목사로	-11.5272
▁청하였으므로	-11.5274
▁풀어주	-11.5274
▁참지	-11.5276
▁훼손	-11.5276
▁왕자가	-11.5277
▁아파	-11.5278
개가	-11.5279
▁누구나	-11.528
장수	-11.528
▁세웠다	-11.5282
▁고상	-11.5283
▁이의신	-11.5284
▁정경	-11.5284
▁유시하라	-11.5285
▁오시	-11.5287
▁옆에	-11.5287
▁옥당에	-11.5289
▁목책	-11.5289
▁삼공과	-11.529
▁역옥	-11.5291
▁탁지	-11.5291
▁설명	-11.5293
▁첨정	-11.5296
▁봉심하고	-11.5297
▁지났는데	-11.53
▁이정영	-11.5301
▁조처하는	-11.5302
▁비웃었다	-11.5302
▁지났는데도	-11.5302
▁능욕	-11.5303
▁수문장	-11.5305
위장	-11.5307
▁면복	-11.5309
▁곁	-11.5311
▁음사	-11.5311
▁구애하지	-11.5311
▁계자	-11.5312
▁이용하여	-11.5312
▁뜻하지	-11.5314
▁고질적	-11.5315
▁척리	-11.5317
▁편리하고	-11.5317
▁갔던	-11.5318
▁바라보고	-11.5319
▁치보	-11.532
▁사론이	-11.5321
▁옮기지	-11.5321
▁보겠다	-11.5322
▁종중추고	-11.5322
▁합치	-11.5323
▁이유는	-11.5324
▁떠났다	-11.5324
▁탄핵하는	-11.5324
▁연구	-11.5324
▁진고	-11.5325
▁밤낮	-11.5326
▁이현영	-11.5326
▁일인지	-11.5327
▁아들과	-11.5328
▁부사를	-11.5329
▁고심	-11.5332
▁접견하고	-11.5332
도절제사	-11.5334
▁법제	-11.5335
▁침학	-11.5335
▁알아보	-11.5337
▁구타하여	-11.5337
▁계달한	-11.534
▁만분	-11.534
▁용천	-11.5342
▁법률	-11.5342
▁훔친	-11.5345
▁이윽고	-11.5345
▁뽑힌	-11.5346
▁당하	-11.5349
▁양녀	-11.535
▁실화	-11.5351
▁한결같지	-11.5351
재와	-11.5352
▁못됩니다	-11.5353
▁업신여기고	-11.5355
▁출제	-11.5356
▁복역	-11.5356
▁못하겠습니까	-11.5357
지게	-11.5358
분을	-11.5359
▁심해지고	-11.5359
▁품계에	-11.536
▁미두	-11.536
▁권대운이	-11.5361
▁황금	-11.5365
▁하윤이	-11.5365
▁해와	-11.5365
▁민희	-11.5367
▁만족	-11.5369
▁통문	-11.5375
▁침범하여	-11.5375
갔다	-11.5376
▁김시	-11.5377
▁처지에	-11.5379
석의	-11.5381
▁수릉관	-11.5383
▁연소한	-11.5384
▁사양하는	-11.5384
▁세자빈	-11.5385
▁경사로	-11.5385
▁하소연	-11.5386
▁들어갔	-11.5387
▁얻었으니	-11.5391
공은	-11.5391
▁조치가	-11.5392
▁유수로	-11.5394
▁무당	-11.5394
▁사액	-11.5394
▁문병	-11.5395
▁가소서	-11.5397
▁문제에	-11.5399
▁준례에	-11.54
▁기별	-11.54
▁심연원	-11.54
▁뽑을	-11.5401
▁진청	-11.5401
▁김질간	-11.5402
▁야인들	-11.5403
▁나타나고	-11.5403
▁콩을	-11.5404
▁감회	-11.5406
▁관사에서	-11.5406
▁대간으로	-11.5408
▁함을	-11.541
▁꺼내	-11.541
▁영이	-11.541
▁중흥	-11.5411
▁때로	-11.5411
▁수라	-11.5413
▁뼈	-11.5414
▁금표	-11.5418
▁청구	-11.5419
▁다행한	-11.5419
▁국왕에게	-11.5419
황제가	-11.5419
▁장오	-11.5419
▁조항에	-11.5421
▁본읍	-11.5421
두고	-11.5422
지로	-11.5422
▁덜어	-11.5424
▁대성	-11.5424
▁정지하여	-11.5426
▁관찰	-11.5428
▁노사신이	-11.5428
▁알려서	-11.5431
▁편부를	-11.5433
▁첩이	-11.5434
▁결원이	-11.5434
▁통틀어	-11.5435
▁송일	-11.5436
▁안집	-11.5437
▁승선	-11.5438
▁시간이	-11.5438
▁67	-11.5439
례는	-11.5439
▁옛부터	-11.544
강은	-11.544
▁외척	-11.5441
▁타고난	-11.5441
▁기신	-11.5441
▁사송	-11.5441
▁장식	-11.5442
▁퍼져	-11.5443
▁이유태	-11.5443
▁그려	-11.5444
▁복수	-11.5444
▁복색	-11.5445
▁야인을	-11.5446
▁물건으로	-11.5447
▁정성으로	-11.5447
▁세자로	-11.5451
▁함양	-11.5451
▁약한	-11.5452
▁엄격하게	-11.5457
▁매장	-11.5458
▁이은상	-11.5459
▁섬을	-11.546
▁추문하라	-11.5465
▁받	-11.5468
▁체포한	-11.5468
집을	-11.5468
▁북쪽에	-11.5473
▁불가하지	-11.5474
▁채취	-11.5475
▁두어야	-11.5478
▁연한	-11.5478
▁논집	-11.548
▁참대시	-11.548
▁응하는	-11.548
▁지나가는	-11.5481
일과	-11.5482
▁단죄	-11.5482
▁황공함	-11.5482
▁보내기	-11.5483
▁조태채	-11.5483
▁보내주	-11.5484
▁서계한	-11.5485
▁친근	-11.5486
▁대점	-11.5487
▁모곡	-11.5487
▁삼는다면	-11.5488
▁적게	-11.5488
▁위차	-11.5489
▁유구국	-11.5489
▁손방	-11.549
▁빼	-11.549
▁짐작	-11.549
▁머무르게	-11.5491
▁송도	-11.5492
▁관노	-11.5494
▁탕척	-11.5495
▁시행하였다	-11.5497
▁나갔다가	-11.5497
▁체직하여	-11.5499
▁부채	-11.5499
성부원군	-11.5501
▁충의위	-11.5502
▁복심	-11.5502
▁표현	-11.5503
▁하자고	-11.5504
▁황송	-11.5507
▁집행하는	-11.5507
▁하셨다	-11.5507
▁작상	-11.5508
▁해이해져	-11.5509
▁유고	-11.551
죄를	-11.5512
▁노비와	-11.5515
▁배설	-11.5515
졌으므로	-11.5519
▁생각이나	-11.5523
▁보전할	-11.5523
각에	-11.5523
▁추문하고	-11.5525
▁민진후가	-11.5526
▁지냈는데	-11.5526
▁이안	-11.5526
▁있겠으며	-11.5527
▁구할	-11.5528
▁잡인	-11.5529
▁헐뜯	-11.5529
▁졌는데	-11.5529
▁감군이	-11.5529
▁움	-11.5531
▁뜻이다	-11.5531
▁정돈	-11.5531
▁사졸	-11.5532
▁원역	-11.5533
▁축조	-11.5535
▁만들었는데	-11.5537
▁성공	-11.5537
▁존숭	-11.5537
박사	-11.5538
▁공적이	-11.5538
▁시호는	-11.5539
▁첩보	-11.554
▁제사는	-11.5541
▁조가에서	-11.5541
▁오늘부터	-11.5541
▁일어나게	-11.5542
상소를	-11.5543
▁이밖에	-11.5544
뇌	-11.5544
▁치도	-11.5546
▁본현	-11.5546
▁해면	-11.5547
▁사망	-11.5548
▁깎아	-11.5549
▁긴요	-11.5549
▁검소	-11.555
사람	-11.555
▁출사한	-11.555
▁던져	-11.555
진달한	-11.5552
▁모면	-11.5553
▁박대	-11.5553
▁진선	-11.5554
냐	-11.5554
▁지나치다고	-11.5555
▁눈에	-11.5556
▁이탁	-11.5557
다른	-11.5557
▁주려고	-11.5558
▁눈물이	-11.5559
▁생사	-11.556
▁급하지	-11.556
▁맞이할	-11.556
▁물으면	-11.5562
▁문신을	-11.5563
▁익선관	-11.5563
▁재기	-11.5564
▁보이라	-11.5564
▁자이니	-11.5564
▁급제하여	-11.5565
▁대임	-11.5566
▁모른다고	-11.5567
▁절목에	-11.5568
▁탕평	-11.5568
해지는	-11.5569
▁오도일	-11.557
▁논계하고	-11.5571
▁하나가	-11.5572
▁나누	-11.5574
▁좌목	-11.5574
▁봉교	-11.5575
▁최규서	-11.5576
▁관계됩니다	-11.5579
▁뵈	-11.5579
▁감하는	-11.5579
▁보병	-11.558
▁버릇이	-11.558
▁소의	-11.5581
마리	-11.5583
▁국기	-11.5584
▁옷감	-11.5584
▁복종	-11.5585
▁정축년	-11.5587
▁힘입	-11.5588
▁불과합니다	-11.5591
▁묻자	-11.5592
▁금석	-11.5593
소로	-11.5593
▁이만수	-11.5594
▁너비	-11.5596
▁교제	-11.5599
▁천장	-11.5599
▁정인홍이	-11.5599
▁빌붙어	-11.56
▁방도는	-11.5601
▁추형	-11.5602
궁의	-11.5603
▁병졸	-11.5604
되었다가	-11.5605
성에	-11.5607
▁인품이	-11.5607
▁취해	-11.5607
▁선수	-11.5607
▁장릉	-11.5607
▁홍문록	-11.5608
심회	-11.5608
▁난처	-11.5611
▁창경궁	-11.5613
▁간절하고	-11.5614
김수	-11.5614
▁편당	-11.5614
▁상언하였다	-11.5615
▁아문에서	-11.5615
▁징험	-11.5618
▁울면서	-11.5619
▁유활	-11.5619
▁선포	-11.5622
▁소치입니다	-11.5622
▁배사	-11.5624
▁인간	-11.5624
▁평일에	-11.5625
▁오랑캐들	-11.5626
▁주장한	-11.5626
▁수선	-11.5626
▁경모궁에	-11.5626
▁물력이	-11.5627
▁담당한	-11.5628
▁의망할	-11.5629
▁시해	-11.5629
▁간략	-11.5629
투	-11.563
▁낮고	-11.5632
▁추격	-11.5633
▁이어받아	-11.5634
▁말하였으나	-11.5634
▁개정하지	-11.5634
▁한둘이	-11.5635
호남	-11.5637
▁보내어서	-11.5637
▁엄하고	-11.5637
▁저하께서	-11.5637
▁보답할	-11.5641
▁배알	-11.5641
▁개성부에	-11.5642
▁잡기	-11.5643
▁여정	-11.5643
▁조공	-11.5645
▁받아들이고	-11.5647
▁싸워	-11.5647
▁사직하였는데	-11.565
▁제왕이	-11.5652
▁탄생	-11.5652
▁이상한	-11.5652
▁성사	-11.5654
▁이발	-11.5656
▁경덕궁	-11.5656
▁부족함	-11.5657
▁없어져	-11.5657
▁보호하는	-11.5658
이성	-11.566
▁거자들	-11.566
▁금천	-11.5663
날씨	-11.5663
▁사욕	-11.5666
▁의논하였더니	-11.5668
▁대축	-11.5669
▁그치고	-11.5669
▁죄책	-11.567
▁소임이	-11.567
▁공척	-11.567
▁하문하기를	-11.5671
▁가한	-11.5672
▁편안케	-11.5673
▁때리	-11.5673
▁최윤덕	-11.5674
▁혈	-11.5676
곳	-11.5676
▁차례씩	-11.5677
▁재상들	-11.5679
▁연회에	-11.5683
▁모후	-11.5684
▁생민	-11.5685
▁죄명이	-11.5687
▁인조	-11.5687
▁돌아가니	-11.5688
▁사용하고	-11.5691
▁가자하는	-11.5692
▁요동에서	-11.5692
▁곡림	-11.5693
▁빛깔이	-11.5693
▁관작이	-11.5694
▁김종수	-11.5696
▁언론	-11.5696
▁주시고	-11.5697
▁추고만	-11.5699
▁상해	-11.5699
▁품지하여	-11.5701
▁서용하고	-11.5701
▁하옥	-11.5701
▁김육	-11.5701
▁맑은	-11.5702
▁휘하	-11.5703
하에	-11.5705
▁열읍	-11.5708
▁공사로	-11.571
▁뒤섞여	-11.571
▁수만	-11.571
▁걸음	-11.571
▁정탈	-11.5713
들어	-11.5714
▁명과	-11.5716
▁종사하는	-11.5716
▁논계하지	-11.5716
▁제관	-11.5717
▁거상	-11.5718
▁사헌부대사헌으로	-11.5719
▁해부	-11.572
▁정연	-11.572
▁통지	-11.572
▁못된다	-11.5722
▁경자년	-11.5723
▁이일상	-11.5725
▁역사는	-11.5726
필씩	-11.5726
▁바탕으로	-11.5728
▁백관과	-11.5729
▁가난하여	-11.573
▁추조	-11.573
▁금령이	-11.573
▁추론	-11.573
▁유보	-11.5733
▁비웃	-11.5734
▁서용하여	-11.5736
▁군정이	-11.5739
▁아니하며	-11.5741
주에	-11.5742
▁면하고	-11.5743
▁하사하라	-11.5743
먼저	-11.5745
▁물화	-11.5745
룡은	-11.5746
▁조헌	-11.5746
실에	-11.5746
▁표창	-11.5747
▁조계상	-11.5748
형제	-11.5751
▁풍성	-11.5751
▁것이냐	-11.5751
▁사비	-11.5753
▁청백	-11.5753
▁울타리	-11.5756
▁않겠습니다	-11.5757
▁이만성	-11.5757
▁문과에	-11.5758
▁물건들	-11.5759
▁달갑	-11.5761
▁연줄	-11.5761
후의	-11.5762
▁올리자	-11.5764
▁절목이	-11.5764
▁듯하므로	-11.5764
▁추위에	-11.5764
▁자기에게	-11.5766
▁도피	-11.5766
▁보려	-11.5768
▁경모궁	-11.5771
▁형체	-11.5772
▁사피	-11.5775
▁노공필	-11.5776
▁신사년	-11.5779
▁의주부윤	-11.578
▁인척	-11.5781
▁내렸	-11.5783
사오나	-11.5783
▁현혹	-11.5785
▁분배	-11.5788
▁조리하고	-11.5789
▁입직하는	-11.5789
▁줄로	-11.5789
▁전배하고	-11.5791
▁병기	-11.5792
편에	-11.5797
▁등용하는	-11.5797
▁조총	-11.5799
▁석방하고	-11.5802
▁있겠습니다	-11.5803
▁파괴	-11.5804
▁비옵건대	-11.5804
금년에	-11.5804
▁자문에	-11.5804
▁둘레	-11.5805
▁분묘	-11.5805
▁가리키는	-11.5806
▁근실	-11.5807
▁되는지	-11.5808
▁상도	-11.5812
▁이날에	-11.5816
▁전복	-11.5817
▁의녀	-11.5818
▁풍채	-11.5818
통을	-11.5819
▁만들도록	-11.5819
▁사장을	-11.5821
▁초피	-11.5824
▁경신년	-11.5825
명나라	-11.5825
▁이목을	-11.5825
▁최진	-11.5825
▁진헌하는	-11.5826
▁습성	-11.5827
▁올라오라	-11.5828
▁유언	-11.5828
▁삼가서	-11.5829
▁사람이면	-11.583
▁엊그제	-11.5832
▁김하	-11.5832
▁장부	-11.5833
▁정원용	-11.5836
도총부	-11.5837
하노라	-11.5837
▁속여서	-11.5838
▁죄상이	-11.584
▁박열	-11.5841
▁형상이	-11.5841
▁종량	-11.5842
▁있었	-11.5842
▁순종	-11.5844
▁친밀	-11.5846
포의	-11.5846
▁김우	-11.5847
▁해직	-11.5847
▁유영	-11.5848
▁예조판서로	-11.5848
▁용납하지	-11.585
▁많게	-11.585
▁밤새도록	-11.585
▁양심합에	-11.585
▁소모	-11.585
▁지닌	-11.585
▁올랐으니	-11.585
▁있었는가	-11.5851
▁의심하지	-11.5851
였던	-11.5853
▁시폐	-11.5854
▁풍정	-11.5854
▁맡겨서	-11.5855
▁연화문에	-11.5855
▁형신하여	-11.5856
▁개시	-11.5856
▁세밀	-11.5858
▁연대	-11.5859
▁주야	-11.5859
▁그중에	-11.5861
▁부정한	-11.5862
▁지중추부사로	-11.5862
▁진법	-11.5864
▁김상철	-11.5864
▁아랫사람들이	-11.5865
▁명백한	-11.5865
▁태평한	-11.5866
지니	-11.5867
▁한데	-11.5871
▁주전	-11.5871
▁윤번	-11.5872
▁문정	-11.5877
▁무엇으로	-11.5878
▁조항은	-11.588
▁체아	-11.5883
▁구원하지	-11.5886
▁표피	-11.5887
▁홍식	-11.5889
하더니	-11.5891
▁막차에	-11.5893
▁전할	-11.5894
▁외손	-11.5895
갑산	-11.5895
▁없음이	-11.5896
▁채유후	-11.5898
▁근고에	-11.5898
▁가다가	-11.5898
▁곁에서	-11.5901
▁주악	-11.5901
▁모살	-11.5901
▁탕	-11.5901
▁엿보아	-11.5902
▁음흉하고	-11.5904
▁성토	-11.5905
▁채우고	-11.5905
▁미세	-11.5906
▁환시	-11.5907
▁대처	-11.5908
방이	-11.5909
▁일이어서	-11.5909
▁소소	-11.591
▁체득하여	-11.5911
▁심상규	-11.5911
▁이하와	-11.5911
▁전보	-11.5912
▁환도	-11.5913
▁학식이	-11.5914
▁의심하는	-11.5914
산현감	-11.5915
▁대제학으로	-11.5915
▁이연	-11.5917
▁복시	-11.5917
▁군영	-11.5917
▁봉화	-11.5918
▁침몰	-11.5919
▁서운	-11.592
▁야대	-11.592
▁없으면서	-11.5921
▁추후	-11.5923
▁말까지	-11.5923
된다	-11.5923
▁성효	-11.5925
▁하나로	-11.5925
▁한성부에	-11.5925
▁아내와	-11.5927
▁옮겨다	-11.5927
▁파서	-11.5927
▁제복	-11.593
▁하정	-11.5932
▁진성	-11.5934
▁증가	-11.5934
▁불편한	-11.5936
속에	-11.5937
▁개조	-11.5937
▁남이성	-11.5938
▁최명길이	-11.5939
▁오시수	-11.5939
▁파직시키는	-11.5941
▁사업	-11.5943
낱	-11.5944
▁친한	-11.5945
▁중궁이	-11.5945
▁까닭인가	-11.5945
▁난처한	-11.5948
▁가끔	-11.5948
▁이루어지지	-11.5949
▁인원수	-11.5949
▁사사로	-11.5949
▁녹공	-11.595
▁조연	-11.595
▁강연	-11.5951
▁천변	-11.5951
▁돼지	-11.5952
▁추천한	-11.5953
▁조문명	-11.5953
▁정무	-11.5955
▁정지하라고	-11.5956
▁지영하였다	-11.5957
▁이명식	-11.5958
▁불가함	-11.596
▁수재가	-11.596
▁좌천	-11.5961
▁께서	-11.5961
▁무상한	-11.5964
▁도절제사에게	-11.5969
▁허후	-11.597
▁반포하는	-11.5971
▁고요	-11.5972
▁장군	-11.5973
▁염초	-11.5973
▁이복	-11.5975
▁박신	-11.5975
▁쌀이	-11.5976
▁값으로	-11.5976
별좌	-11.5977
▁교대시	-11.5978
병조판서	-11.5979
▁권남	-11.5979
▁조상우	-11.598
▁비치	-11.598
▁봄이	-11.5981
▁힘쓰라	-11.5983
▁저들은	-11.5983
▁노야	-11.5983
▁잡역	-11.5984
▁절조	-11.5985
▁윤회	-11.5989
▁관의	-11.5989
▁여기서	-11.599
▁찾지	-11.5992
▁표시	-11.5992
▁월봉	-11.5993
▁지당하십니다	-11.5993
▁섬돌	-11.5993
▁명으로	-11.5993
▁머무는	-11.5993
▁심상	-11.5994
▁다스리라	-11.5994
▁때문일	-11.5995
▁자랑	-11.5995
▁근친	-11.5995
▁상기	-11.5996
▁범인	-11.5997
▁내렸습니다	-11.5998
▁왜란	-11.5999
▁정분	-11.5999
▁국정	-11.6
▁좋게	-11.6001
▁갑절이	-11.6003
▁돌보	-11.6004
▁유생에게	-11.6005
▁경건	-11.6005
▁전곡	-11.6008
▁대군을	-11.601
▁본사에서	-11.6014
▁가두게	-11.6014
▁바꾸지	-11.6015
▁혼전	-11.6018
▁예입니다	-11.602
▁유신이	-11.6021
▁강물	-11.6022
▁비난이	-11.6023
▁한산	-11.6023
▁변화	-11.6024
▁시에	-11.6025
▁분명하다	-11.6028
▁이홍주	-11.6029
▁추문한	-11.6031
겨	-11.6032
▁서정	-11.6033
▁태만하여	-11.6033
▁궁관	-11.6033
▁홍우	-11.6035
▁이응	-11.6036
▁표리를	-11.6037
▁연산	-11.6038
▁거절하고	-11.6039
▁이롭게	-11.604
▁자질구레한	-11.604
▁조급	-11.604
▁올립니다	-11.6041
▁이르렀으므로	-11.6041
▁깨우쳐	-11.6042
▁내리시니	-11.6042
▁양천	-11.6043
▁헌원성	-11.6043
▁사은하는	-11.6043
▁정홍순	-11.6045
▁김식	-11.6046
▁교동	-11.6047
해부로	-11.6047
▁즐거워	-11.6047
운을	-11.6048
▁한심한	-11.6049
▁과인	-11.605
▁모방하여	-11.6054
부에서	-11.6054
▁긴급	-11.6054
▁들에	-11.6056
▁종친들	-11.6056
▁신하로	-11.6058
중은	-11.6058
이종	-11.6058
▁관할	-11.6058
▁왕씨	-11.6058
▁천문	-11.606
▁손방으로	-11.6061
▁웃	-11.6062
▁이익상	-11.6062
▁죄인은	-11.6062
▁답하였는데	-11.6064
▁정승에게	-11.6066
▁품의	-11.6066
▁관청에서	-11.6066
▁조처하라	-11.6067
▁군인을	-11.6068
▁같기에	-11.6069
▁계달하라	-11.607
인에	-11.6073
▁불사	-11.6075
▁리에	-11.6076
창은	-11.6077
▁피살	-11.6077
▁전하기를	-11.6077
▁들여보내는	-11.6078
▁간원에	-11.6079
▁몽	-11.608
▁흥정당에	-11.6081
▁설을	-11.6081
흘	-11.6084
▁내년에	-11.6085
▁간통하여	-11.6086
▁눌러	-11.6088
뜻	-11.6088
▁어디에서	-11.6089
▁흘리며	-11.609
▁장수들	-11.609
▁소장에	-11.6091
▁남양	-11.6091
▁재간이	-11.6092
감을	-11.6093
▁똑같은	-11.6094
▁원점	-11.6094
▁월산대군	-11.6095
▁완급	-11.6095
▁해석	-11.6096
▁도중에	-11.6096
▁어지러	-11.6096
▁선릉	-11.61
▁베는	-11.61
▁서명응	-11.61
▁조상경	-11.6101
▁왕래하며	-11.6101
배를	-11.6101
구는	-11.6102
▁오래되었으니	-11.6103
▁경동	-11.6103
▁물리치는	-11.6106
▁제조와	-11.6106
▁공술	-11.6108
▁정씨	-11.6108
▁본받지	-11.6109
▁총병	-11.6109
▁나아가는	-11.611
▁최석정	-11.611
▁징토	-11.611
▁물품은	-11.611
▁베풀지	-11.611
승정원	-11.6111
▁장가들	-11.6111
▁화의	-11.6111
논	-11.6111
▁한가한	-11.6115
▁거두어서	-11.6116
▁들었기	-11.6117
▁병영	-11.612
따를	-11.6122
▁전번	-11.6123
▁보내면서	-11.6124
▁정적이	-11.6124
옥이	-11.6124
▁내려진	-11.6125
▁동료들에게	-11.6125
▁땅으로	-11.6127
▁조리하여	-11.6129
▁엄폐	-11.613
▁근심하여	-11.6131
▁소리로	-11.6134
제에	-11.6134
▁남북	-11.6137
▁되었던	-11.6137
▁없었	-11.6137
▁번거로운	-11.6137
▁권정례로	-11.6139
▁심하지	-11.6141
▁김흥경	-11.6141
▁마찬가지	-11.6142
▁기탄없	-11.6142
▁휴척	-11.6143
▁본영	-11.6144
▁안되니	-11.6146
▁우대	-11.6147
▁어기지	-11.6148
▁자원	-11.615
▁판단	-11.6152
▁일시적	-11.6154
▁조위	-11.6155
▁그치	-11.6155
▁못하자	-11.6155
▁기록하는	-11.6155
▁정숙	-11.6155
▁불렀다	-11.6157
▁부관	-11.6157
▁공조판서로	-11.6158
▁춘궁	-11.6158
▁백정	-11.6158
개의	-11.616
▁이언적	-11.6161
▁동료와	-11.6161
▁각읍	-11.6161
▁이름만	-11.6161
▁걱정하여	-11.6162
▁윤리	-11.6163
▁운운	-11.6163
▁당부	-11.6164
▁각사에서	-11.6165
▁놀	-11.6166
▁방자하고	-11.6166
▁대변	-11.6167
강계	-11.6167
▁변에	-11.6167
▁금주	-11.6168
▁임금도	-11.6168
▁생계	-11.6168
김경	-11.6168
▁경보	-11.6169
▁농사일	-11.617
▁마찬가지로	-11.6171
▁아랫사람이	-11.6172
▁조사의	-11.6172
▁사인이	-11.6173
▁역변	-11.6176
▁애통	-11.6177
▁순금사에	-11.6177
판서	-11.6178
▁배소로	-11.6178
▁도주가	-11.6182
▁내려온	-11.6183
▁사핵	-11.6184
▁은연중	-11.6185
▁가까우니	-11.6185
▁함길도도절제사	-11.6186
▁축출	-11.6186
▁처해야	-11.6189
▁자상	-11.619
▁급료	-11.619
▁착실하게	-11.6191
▁도구	-11.6192
▁등서	-11.6192
▁부락	-11.6193
▁예도	-11.6194
▁당했으니	-11.6195
▁민가가	-11.6196
렸습니다	-11.6196
빈을	-11.6197
▁귀양간	-11.6197
▁삼았	-11.6197
▁이조참판	-11.62
▁은미	-11.6201
왕은	-11.6201
▁영문	-11.6202
인에게는	-11.6203
▁호령이	-11.6203
룡을	-11.6205
▁순시	-11.6206
▁상등	-11.6207
▁회시에	-11.6207
▁여연	-11.621
로서는	-11.621
▁소굴	-11.621
▁일가	-11.6212
▁허욱	-11.6212
▁요리	-11.6213
▁습속	-11.6214
이오니	-11.6214
정으로	-11.6215
▁군포	-11.6217
▁해로움이	-11.6218
좋다	-11.6218
▁허술한	-11.622
옳다	-11.622
▁전라도관찰사	-11.622
▁유인	-11.6221
▁김재	-11.6221
▁처참	-11.6224
▁권간	-11.6224
▁최기	-11.6224
▁간흉	-11.6224
나무를	-11.6225
▁처자는	-11.6225
우선	-11.6226
▁지우	-11.6231
▁과녁	-11.6234
▁총괄	-11.6234
▁때면	-11.6234
▁두고서	-11.6236
▁규장각	-11.6237
▁김명원	-11.6238
▁장만이	-11.624
▁나오면	-11.6241
궁에	-11.6242
▁귀가	-11.6242
▁가리고	-11.6242
▁대응	-11.6243
▁하등	-11.6243
▁참상	-11.6244
그대들	-11.6245
▁못하였으며	-11.6251
▁외관	-11.6253
▁받으면	-11.6255
▁각진	-11.6255
▁천거하는	-11.6255
▁처소	-11.6256
▁회양	-11.6257
▁몸가짐	-11.626
▁계책에	-11.626
▁끝나	-11.6262
▁호조와	-11.6264
▁경창	-11.6265
▁강현	-11.6267
▁거처하는	-11.6268
▁희롱	-11.6268
▁바리	-11.627
▁예측	-11.6271
▁걸어서	-11.6272
▁오준	-11.6274
▁친림	-11.6275
▁발생한	-11.6277
릉의	-11.6277
▁강진	-11.6279
▁문권	-11.6279
▁평민	-11.6281
▁나가고	-11.6281
▁다스림	-11.6282
▁체면이	-11.6282
▁들었다고	-11.6282
정자	-11.6283
▁잡아들이	-11.6283
쪽	-11.6285
▁현관	-11.6286
호의	-11.6287
실록	-11.6287
▁화란	-11.6288
▁박홍구	-11.6288
▁장수들이	-11.6288
사직하지	-11.629
▁신만이	-11.629
▁시좌	-11.629
▁우거	-11.6291
▁강에	-11.6291
▁영녕전	-11.6293
▁되었기	-11.6294
▁동성	-11.6294
▁인쇄	-11.6295
▁논집하지	-11.6296
▁물망	-11.6296
▁유경종	-11.6296
▁유식	-11.6297
▁하사하는	-11.6298
성준	-11.63
보와	-11.63
▁기록해	-11.63
▁피혐하여	-11.6302
▁이른다	-11.6302
▁석이	-11.6302
▁어긋나지	-11.6302
▁조처해야	-11.6305
▁형방	-11.6306
▁나왔고	-11.6307
▁값	-11.6308
▁남편이	-11.6312
▁탄식이	-11.6312
▁손상되	-11.6314
▁시일이	-11.6314
▁이병상	-11.6314
▁유상	-11.6316
▁민전	-11.6316
▁홍섬	-11.6321
치고	-11.6322
일전에	-11.6322
▁전답	-11.6323
▁항식	-11.6324
▁몰려	-11.6324
적의	-11.6324
▁면세	-11.6325
▁행궁에	-11.6325
▁상황에서	-11.6326
▁계품하여	-11.6327
하였기에	-11.6328
상교	-11.6329
▁헐뜯고	-11.633
▁못하였을	-11.6331
▁숙종	-11.6331
▁홍진	-11.6332
▁정준	-11.6334
▁두었는데	-11.6335
▁포구	-11.6335
▁놀랍게	-11.6335
▁규정에	-11.6338
▁문무과	-11.6338
▁억	-11.6338
▁황태자	-11.634
일간	-11.6341
▁지켜야	-11.6342
▁공갈	-11.6343
▁서명선	-11.6344
▁관련	-11.6344
▁세종께서	-11.6345
▁감응	-11.6346
▁떨	-11.6347
▁정기	-11.635
▁직제학으로	-11.635
▁기풍	-11.635
▁살펴야	-11.635
▁공법	-11.6353
▁병은	-11.6353
위에서	-11.6353
▁정광성	-11.6353
미가	-11.6355
▁부인이	-11.6356
▁극형에	-11.6357
했	-11.6357
▁어전	-11.6357
▁씨	-11.6358
▁추문해야	-11.636
▁손님	-11.636
▁쥐	-11.6365
▁심지원	-11.6365
▁배정하여	-11.6367
▁고집하지	-11.6368
▁분발	-11.637
▁김보	-11.637
▁보복	-11.6371
▁득실	-11.6371
▁건방	-11.6373
▁접견하는	-11.6373
▁배표	-11.6373
▁천안	-11.6374
▁준엄한	-11.6375
▁이천보가	-11.6376
▁정유년	-11.6376
▁불가함이	-11.6376
▁추열	-11.6378
▁원손	-11.6384
시면	-11.6384
▁불안한	-11.6386
▁들었으므로	-11.6386
▁대구	-11.6391
▁깨끗	-11.6392
▁돌리지	-11.6392
▁을해년	-11.6392
▁하시	-11.6393
▁체척	-11.6394
▁정배한	-11.6394
▁버려두	-11.6395
▁계시는	-11.6396
▁장무	-11.6396
▁텐데	-11.6396
▁압사	-11.6396
▁운수	-11.6398
▁함문	-11.6399
▁박동량	-11.6399
▁당해서	-11.6399
▁시행함	-11.64
▁선현	-11.6401
▁종친이	-11.6401
▁특	-11.6402
▁오정위	-11.6403
▁급선무	-11.6404
▁문관으로	-11.6406
도체찰사	-11.6407
▁상실	-11.6407
▁정희	-11.641
희가	-11.6411
▁건강	-11.6413
▁따른다	-11.6416
▁이철	-11.6419
령의	-11.6419
▁진장	-11.642
▁닦는	-11.642
▁문인	-11.642
▁기뻐하고	-11.6423
시종	-11.6423
▁역군	-11.6424
▁사약	-11.6424
▁등급	-11.6425
▁위문	-11.6426
이현	-11.6427
▁강명	-11.6427
▁성준이	-11.6428
▁늦은	-11.6431
▁청리	-11.6432
▁염려할	-11.6432
▁국구	-11.6432
▁날은	-11.6433
▁남쪽에	-11.6433
▁윤계겸	-11.6434
▁통촉	-11.6435
▁바탕	-11.6435
법에	-11.6436
▁정예	-11.6437
행을	-11.6438
▁당파	-11.6438
무관	-11.6438
▁시조	-11.6441
▁안현	-11.6443
빈이	-11.6444
목이	-11.6446
침이	-11.6447
▁칭탁하여	-11.6448
▁안변	-11.6448
등에	-11.6449
▁적병이	-11.645
▁은근	-11.6451
▁잊을	-11.6452
▁품어	-11.6453
려면	-11.6453
▁주에	-11.6454
▁거둥하였다	-11.6455
▁일본에	-11.6456
▁서간	-11.6456
▁거동	-11.6457
휼	-11.6457
▁허항	-11.6458
▁운반하여	-11.646
▁가량	-11.646
▁그쳤다	-11.6461
▁김자점	-11.6462
▁치게	-11.6463
▁빈청	-11.6463
▁아님이	-11.6463
▁타위	-11.6464
쳤다	-11.6464
▁며칠이	-11.6465
▁명호	-11.6467
▁음악	-11.6467
▁지정	-11.6468
▁유순정	-11.6468
▁가난	-11.6468
▁사단이	-11.6468
▁백사	-11.6469
▁호초	-11.6469
▁명부	-11.647
▁환수하기	-11.647
▁사관에게	-11.6473
▁관사로	-11.6473
▁지목하여	-11.6473
▁대내전	-11.6476
▁촌	-11.6476
▁이담	-11.6477
▁구애	-11.6477
▁성비	-11.6478
▁옥책	-11.6481
▁말았다	-11.6481
과거	-11.6481
▁엄밀	-11.6482
▁모르겠는가	-11.6484
▁큰소리	-11.6485
▁감축	-11.6485
▁결단하지	-11.6485
▁물고	-11.6486
수원	-11.6488
▁항목	-11.649
▁제거하는	-11.6492
▁죽으면	-11.6493
▁선임	-11.6493
▁머뭇거리	-11.6495
▁대여	-11.6496
▁지난달	-11.6496
▁배반	-11.6496
▁규례입니다	-11.6497
▁하유하였으니	-11.6497
▁염려한	-11.6497
▁덕은	-11.6499
▁이옥	-11.65
▁김종	-11.6502
우의	-11.6502
▁함에	-11.6502
▁윤선도	-11.6503
▁생각해서	-11.6503
▁남보다	-11.6503
차례	-11.6504
▁화성	-11.6504
▁들었고	-11.6505
▁시중	-11.6506
▁대신들은	-11.6506
▁중신이	-11.6508
▁주문사	-11.6508
▁처의	-11.6509
▁자손에게	-11.651
▁겉	-11.6511
▁윤급	-11.6511
▁채단	-11.6513
▁위독	-11.6513
▁줄기	-11.6514
▁사국	-11.6514
사천	-11.6515
▁하사하여	-11.6515
▁구제해	-11.6515
▁자까지	-11.6516
오지	-11.6516
▁싸움에	-11.6518
참봉	-11.6519
▁고변한	-11.652
유수	-11.6521
▁동래부사	-11.6524
▁정립	-11.6525
▁다른데	-11.6525
▁용인	-11.6525
▁박지	-11.6528
▁넘어서	-11.6528
▁생포	-11.653
▁지나치지	-11.6532
▁치른	-11.6532
▁같았으니	-11.6533
▁조식	-11.6533
▁징수하여	-11.6533
▁아득	-11.6535
▁중건	-11.6537
▁구제하지	-11.6538
▁계획이	-11.6539
▁파주	-11.6539
▁간방	-11.654
▁노한	-11.6541
▁부족하니	-11.6542
▁납시어	-11.6542
왜인	-11.6544
▁36	-11.6544
▁있지마는	-11.6545
▁갖추어서	-11.6545
▁강학	-11.6546
강화	-11.6549
이라서	-11.6552
▁박영	-11.6555
▁초시에	-11.6555
▁강원도의	-11.6555
▁부고	-11.6555
▁실수한	-11.6555
유지	-11.6556
▁실례	-11.6556
▁태형	-11.6556
▁되겠다	-11.6557
▁미움	-11.6557
▁보여주	-11.6557
▁책망할	-11.6558
▁당여	-11.6559
인이고	-11.656
▁머무르고	-11.6562
▁공역이	-11.6562
▁내리자	-11.6563
▁파하여	-11.6563
▁출사할	-11.6563
▁모의한	-11.6563
▁재상에게	-11.6564
▁호위하는	-11.6565
▁주인에게	-11.6566
▁아뢰어야	-11.6566
▁당상에게	-11.6567
▁상선	-11.6567
▁직질	-11.6572
▁논하면서	-11.6572
▁근수	-11.6572
환을	-11.6573
음으로써	-11.6573
▁좌기	-11.6573
▁사용한	-11.6574
▁대마도에	-11.6574
▁충훈부	-11.6574
였으므로	-11.6577
▁정사룡	-11.6579
▁상당한	-11.6579
▁명령에	-11.6581
▁마련하지	-11.6582
▁낭청으로	-11.6582
▁않음으로써	-11.6585
▁못했으므로	-11.6585
▁시키고	-11.6586
▁지중추원사	-11.6587
시키	-11.659
▁개국	-11.659
▁능력	-11.659
▁유한	-11.659
▁성수	-11.6591
▁김선	-11.6592
▁종성직	-11.6593
▁돕게	-11.6594
▁생활이	-11.6595
▁가감	-11.6596
▁명정전에	-11.6596
▁주장이	-11.6596
▁아내는	-11.6597
▁이대로	-11.6598
철을	-11.6598
▁대론이	-11.6598
▁우상이	-11.6599
▁문구	-11.66
▁황정	-11.66
▁홍숙	-11.6601
상소	-11.6604
▁머물려	-11.6604
▁조심하지	-11.6604
▁정윤	-11.6604
조사	-11.6605
▁자리는	-11.6605
▁기울	-11.6605
▁효험이	-11.6607
▁속한	-11.6607
이제부터	-11.6608
▁관원으로서	-11.6611
▁해송	-11.6613
본을	-11.6614
▁잘못되었다	-11.6614
▁상황에	-11.6614
▁구주	-11.6616
▁과차	-11.6619
하였더라도	-11.662
▁승정원으로	-11.662
▁합계한	-11.6622
▁조원기	-11.6622
선왕	-11.6623
▁조사하고	-11.6623
▁때이니	-11.6623
▁현부	-11.6624
▁윤봉	-11.6626
▁습의	-11.6627
▁때나	-11.6629
▁이상으로	-11.6631
▁그렇기	-11.6633
▁큰비	-11.6633
▁만났으니	-11.6633
시키려	-11.6633
▁김상복	-11.6635
▁만한데	-11.6635
▁남는	-11.6636
▁인명을	-11.6638
▁줄일	-11.6639
▁항거	-11.664
▁거두시고	-11.6644
▁윤선	-11.6645
▁진달하는	-11.6646
▁출입하면서	-11.6648
▁충청도에	-11.6648
▁입계하였다	-11.6653
텐데	-11.6653
▁김종직	-11.6653
▁문서는	-11.6654
▁부형	-11.6655
▁유홍	-11.6657
▁유철	-11.6657
▁사려	-11.6659
▁영락	-11.6659
▁인부	-11.6659
▁법률에	-11.666
▁송창	-11.6662
▁비상	-11.6663
▁습관이	-11.6666
▁손해	-11.6667
▁희망	-11.6668
▁궁궐에	-11.6668
▁넘쳐	-11.6669
동부승지	-11.6669
▁없어지고	-11.6674
▁선성	-11.6674
▁도달	-11.6675
▁상국	-11.6678
▁지었는데	-11.6678
▁수리하지	-11.668
▁지성	-11.6681
하였겠습니까	-11.6682
▁설행하여	-11.6682
▁기쁘다	-11.6684
▁짐바리	-11.6684
▁시끄러운	-11.6684
▁있겠으나	-11.6685
▁가닥	-11.6686
▁당론	-11.6686
구와	-11.6686
변이	-11.6686
▁보였는데	-11.6689
지금은	-11.6692
▁숨김	-11.6692
▁신칙하고	-11.6692
▁청홍도	-11.6692
▁봉군	-11.6694
▁정대	-11.6695
▁신포	-11.6696
옛	-11.6696
▁박치의	-11.6697
▁나오니	-11.6697
▁유신에게	-11.6697
▁바뀌	-11.6699
▁자세	-11.6699
▁승려	-11.67
▁후사가	-11.67
▁석상에서	-11.67
▁숭정	-11.67
▁김덕	-11.6701
▁구하기	-11.6701
▁신사	-11.6702
▁서연관	-11.6703
절목	-11.6705
▁접반관	-11.6705
▁갖	-11.6707
▁잡아오	-11.6708
찬을	-11.6708
▁서게	-11.6708
▁전별	-11.6709
▁이징	-11.6709
▁등대	-11.6709
▁말아	-11.671
▁단속하여	-11.671
유의	-11.6712
직에	-11.6714
▁청하였기	-11.6714
▁임해군	-11.6717
▁양자	-11.6717
▁무성	-11.6717
도감이	-11.6717
▁조익	-11.6718
▁해치고	-11.6718
폭	-11.6719
▁32	-11.6719
▁준직	-11.672
비변사	-11.6721
▁유익	-11.6721
▁소용	-11.6722
갔습니다	-11.6724
▁민암	-11.6724
▁조장	-11.6724
이광	-11.6725
▁극성	-11.6726
▁발언	-11.6727
▁경력이	-11.6727
▁환급	-11.6729
▁박숭질	-11.6729
▁영의정으로	-11.673
▁꾸지람	-11.6735
▁쌓게	-11.6735
▁흉측한	-11.6735
▁조목조목	-11.6735
▁어지러운	-11.6736
▁폐하지	-11.6737
▁관계됨이	-11.6738
▁정배하고	-11.6738
▁징조가	-11.6738
▁초수	-11.6739
▁급재	-11.674
▁지키면서	-11.6741
▁형편없는	-11.6741
▁왔다가	-11.6741
▁소와	-11.6742
▁구제하고	-11.6743
▁계해년	-11.6743
▁한광회	-11.6744
▁올리기	-11.6745
▁그렇다	-11.6745
▁부과	-11.6746
▁물고기	-11.6747
▁비국으로	-11.6749
▁가볍고	-11.6751
▁싫어하는	-11.6753
▁조섭하는	-11.6753
▁사알	-11.6754
▁비답에서	-11.6755
▁더하는	-11.6756
명인데	-11.6757
▁흉악	-11.6759
▁안쪽	-11.6759
▁귀한	-11.6761
▁즉	-11.6761
▁심유	-11.6765
철이	-11.6768
▁보내되	-11.6768
▁안부	-11.6768
너희들이	-11.6769
▁논계할	-11.6769
▁호차	-11.6769
▁결정하지	-11.677
▁연례	-11.6771
령은	-11.6772
민의	-11.6775
▁편찬	-11.6777
▁침구	-11.6779
▁실직	-11.678
▁이혼	-11.6782
▁맡	-11.6784
▁익히지	-11.6786
▁차출하는	-11.6786
▁즐거움	-11.6787
▁사로잡혀	-11.6787
▁목성	-11.6788
▁아전이	-11.6789
▁놀라워	-11.679
▁부분	-11.6791
▁왼쪽	-11.6791
▁노예	-11.6792
▁김세	-11.6793
▁본심	-11.6794
▁효령대군	-11.6795
▁토지를	-11.6797
▁오르고	-11.6797
었는가	-11.6798
▁정현조	-11.6798
▁작미	-11.6798
▁가리어	-11.6799
▁나타내	-11.6806
흉	-11.6806
▁깨	-11.6809
▁장사지내	-11.681
▁아부하여	-11.6812
▁호오	-11.6813
▁의뢰	-11.6813
▁아니하였고	-11.6815
▁그저께	-11.6817
받았다	-11.6817
▁대교로	-11.6818
▁노직	-11.6819
▁포의	-11.6819
▁헤아리고	-11.6821
▁장옥	-11.6822
▁알리고	-11.6823
▁풍수	-11.6824
▁비답하고	-11.6825
▁진나라	-11.6826
▁인군이	-11.6828
▁졸한	-11.6829
▁현신	-11.683
▁해괴하고	-11.6832
혐	-11.6835
▁열람	-11.6835
▁지킨	-11.6836
▁일삼	-11.6836
▁인정이	-11.6838
▁짧은	-11.6838
▁나아갔는데	-11.684
지휘	-11.6842
본부	-11.6843
▁바람과	-11.6843
▁중로에서	-11.6844
▁강호	-11.6844
▁황해도에	-11.6845
▁잔폐	-11.6845
▁사오	-11.6845
▁대각에서	-11.6846
▁체직시켰다	-11.6846
▁강변에	-11.6847
▁비웃음	-11.6848
▁정치에	-11.685
▁당상관에	-11.6851
▁친시	-11.6853
▁석물	-11.6853
▁한익모	-11.6853
▁증여	-11.6854
승을	-11.6854
▁승복한	-11.6857
▁반은	-11.6857
▁추문하소서	-11.6857
▁아님	-11.6858
▁심하고	-11.6859
▁책봉하는	-11.686
▁도총제	-11.6863
▁홀	-11.6864
▁이찬	-11.6865
▁놓아주	-11.6866
▁지급해	-11.6868
▁아니한다	-11.6869
옛날에	-11.6872
▁돌보는	-11.6873
▁거둥하는	-11.6874
▁성숙	-11.6875
▁전적	-11.6875
▁의주로	-11.6876
서원	-11.6876
내금위	-11.6877
한치형	-11.6877
▁뭇사람들	-11.6877
▁매질	-11.6878
▁문안하는	-11.6878
▁신하들과	-11.6878
홍윤성	-11.6879
▁계목	-11.6879
▁방자하여	-11.688
▁토죄하는	-11.6882
▁군졸이	-11.6882
▁제수받	-11.6883
▁모자라	-11.6883
▁번거로	-11.6884
▁기색	-11.6884
▁근만	-11.6885
▁유혁연	-11.6886
▁당을	-11.6887
▁사모하는	-11.6887
▁올라가서	-11.6887
▁중추원부사	-11.6888
▁실형	-11.6889
▁되는가	-11.689
▁않으셨	-11.6891
무사	-11.6891
▁다르겠는가	-11.6891
▁관망	-11.6892
▁장부에	-11.6894
▁관가에서	-11.6895
▁이천보	-11.6895
▁문신으로	-11.6896
▁숭상하여	-11.6896
▁과부	-11.6897
▁양반	-11.6898
▁곤방	-11.6898
▁탐지	-11.6899
▁전좌	-11.69
▁내주	-11.6903
▁경전	-11.6903
▁족하	-11.6904
▁좌윤	-11.6906
▁조보	-11.6906
▁의논하기	-11.6907
▁고르	-11.6908
▁폐하여	-11.691
▁선조께서	-11.6911
▁임영대군	-11.6912
▁시학	-11.6913
봄	-11.6913
▁지급하라	-11.6914
▁억측	-11.6914
▁정탁	-11.6916
▁매부	-11.6918
▁이위경	-11.6918
▁김대래	-11.6918
▁시가	-11.6919
▁진술한	-11.692
▁피하기	-11.6922
경원	-11.6922
흑	-11.6922
▁빙고	-11.6925
▁철원	-11.6925
탐	-11.6926
▁곳이므로	-11.6927
뿐	-11.6927
▁생도	-11.6928
▁이승손	-11.6929
밭	-11.6929
▁구워	-11.693
▁먹어	-11.693
▁논계하기를	-11.6932
▁성궁	-11.6932
▁한성부로	-11.6932
▁유성룡이	-11.6932
정문형	-11.6933
▁궤장	-11.6934
▁아룀에	-11.6935
하였도다	-11.6935
▁모르겠습니다만	-11.6937
▁최연	-11.6937
▁결단할	-11.6939
▁예종	-11.694
▁갑자년	-11.6942
▁괴롭게	-11.6943
▁빠른	-11.6943
▁도타이	-11.6943
형의	-11.6944
▁다니면서	-11.6944
▁추후에	-11.6944
주사	-11.6945
▁소용되는	-11.6945
▁늙은이	-11.6946
▁전가사변	-11.6946
▁평안도절도사	-11.6946
▁예절에	-11.6946
▁확정	-11.6949
▁대령	-11.695
▁배양	-11.695
▁폐주	-11.695
▁구처	-11.695
▁지극합니다	-11.6951
▁동전	-11.6951
▁점에	-11.6952
홍이	-11.6954
▁끊임없	-11.6954
▁지방이	-11.6956
▁입었는데	-11.696
▁이계전	-11.6961
▁손실	-11.6962
▁대거	-11.6962
명씩	-11.6963
▁마음씀이	-11.6963
▁따르기를	-11.6964
▁군인들	-11.6966
▁정직한	-11.6967
▁나날	-11.6968
▁처리하고	-11.6968
▁형조와	-11.6969
말이	-11.697
▁육전에	-11.697
▁읍성	-11.6971
▁불복	-11.6971
▁철산	-11.6972
▁감영에	-11.6972
▁은혜와	-11.6975
으로서는	-11.6976
▁전송하였다	-11.6978
▁고시	-11.6979
▁최석항	-11.698
▁기찰	-11.6981
▁모화관	-11.6981
▁따	-11.6981
▁최수	-11.6981
▁주워	-11.6982
▁내어서	-11.6983
금은	-11.6984
▁진주사	-11.6984
▁정군	-11.6984
▁병권	-11.6986
▁의물	-11.6986
▁수록	-11.6987
▁제례	-11.6988
직이	-11.6989
▁출신한	-11.6995
▁그전에	-11.6995
▁허위로	-11.6995
▁가깝지	-11.6995
▁순조롭	-11.6995
▁청했다	-11.6996
▁어리	-11.6996
▁정서	-11.6997
▁완만	-11.6998
▁불행	-11.7
▁피난	-11.7
▁할아버지	-11.7001
▁답변	-11.7001
▁중수	-11.7001
▁홍서봉	-11.7003
▁한효순	-11.7003
▁바라니	-11.7003
졌고	-11.7003
▁매기	-11.7004
▁안다고	-11.7005
▁적중	-11.7005
▁원상에게	-11.7005
▁드릴	-11.7006
▁원두표	-11.7008
개와	-11.7008
▁문이	-11.7014
▁험한	-11.7014
▁중추원	-11.7015
정승	-11.7017
▁자손은	-11.7018
▁보우	-11.7018
▁조모	-11.7019
▁올리면서	-11.7019
▁혼조	-11.702
▁한계미	-11.702
▁임박	-11.702
▁몰	-11.7021
▁패망	-11.7021
▁하순	-11.7023
▁군졸들	-11.7023
▁드러나는	-11.7023
▁아뢰기	-11.7027
▁묘에	-11.7029
▁처치하라	-11.7029
▁보좌	-11.7032
▁바꾸고	-11.7032
▁해방	-11.7032
▁삭탈하여	-11.7033
▁해당하고	-11.7038
▁백세	-11.7038
였으며	-11.7038
▁초시를	-11.7039
▁안윤덕	-11.7043
▁신계	-11.7043
▁김응서	-11.7044
▁등처에	-11.7045
▁윤사흔	-11.7046
절을	-11.7048
▁조각	-11.7048
▁두터운	-11.7048
▁구선복	-11.7048
▁첫번째	-11.7048
▁엄명	-11.7048
▁많으며	-11.7049
▁없겠으나	-11.7049
▁무방합니다	-11.705
▁중하고	-11.705
▁번독	-11.705
▁옛것	-11.705
사람이	-11.7052
▁말하자면	-11.7054
▁밀양	-11.7055
▁정하였는데	-11.7055
▁병들게	-11.7056
▁강습	-11.7058
▁있겠다	-11.7059
▁시키는	-11.7059
삼공	-11.7062
현으로	-11.7063
▁정처	-11.7064
▁"2	-11.7065
▁요량하여	-11.7066
▁조치할	-11.7068
▁김극성	-11.7071
▁일월	-11.7071
우후	-11.7072
▁들어갔다가	-11.7073
▁이화	-11.7073
▁잘라	-11.7074
포만호	-11.7075
▁홍치중	-11.7075
▁유방	-11.7075
▁태종이	-11.7076
▁법령이	-11.7077
▁유리	-11.7077
▁의논해야	-11.7077
▁고령군	-11.7078
▁번성	-11.7078
립이	-11.7078
▁이어받	-11.7082
▁부녀자	-11.7083
▁잇	-11.7089
▁주군	-11.7091
▁죄상은	-11.7092
▁근신하지	-11.7092
▁제어	-11.7093
▁병환	-11.7093
▁모친	-11.7094
▁자인	-11.7097
부령	-11.7098
▁안치하고	-11.7099
▁의율	-11.7099
▁신회	-11.71
▁꾀하는	-11.7101
▁빠뜨린	-11.7102
▁갑술년	-11.7102
▁건널	-11.7102
▁아뢰겠습니다	-11.7102
▁고쳤다	-11.7102
▁막힌	-11.7103
▁중들이	-11.7103
▁따름이다	-11.7108
▁인용	-11.711
▁개장	-11.711
▁조선에	-11.7111
▁풍해도	-11.7114
정부	-11.7114
▁민생들	-11.7115
▁구하지	-11.7116
▁될지	-11.7116
▁끝없는	-11.7118
▁개정하여	-11.7119
▁공신이	-11.7119
▁유상운	-11.7119
▁이합	-11.7119
▁박종우	-11.7119
▁편한	-11.7122
▁비방이	-11.7123
▁극변에	-11.7125
▁주상이	-11.7125
▁첨지중추원사로	-11.7125
승이	-11.7126
하랴	-11.7127
▁습속이	-11.7128
사옵니다	-11.7128
▁별이	-11.7129
▁장례원	-11.713
▁신승선	-11.713
▁품의하여	-11.7131
▁이효	-11.7132
▁의아	-11.7132
군문	-11.7133
▁수응	-11.7134
▁되지만	-11.7134
▁하겠으니	-11.7135
▁역리	-11.7136
▁논박하여	-11.7137
▁잃을	-11.7138
▁이민적	-11.7138
▁진도	-11.7139
▁조발하여	-11.7139
▁뿐이었다	-11.714
쌍	-11.7142
▁받았기	-11.7143
규는	-11.7143
해야만	-11.7143
▁정은	-11.7144
▁얼굴로	-11.7144
버릴	-11.7144
▁소동	-11.7144
▁조지서	-11.7144
▁제수하지	-11.7146
▁저축한	-11.7147
▁연유한	-11.7148
▁재상들이	-11.7149
▁국청에	-11.7151
▁초관	-11.7151
▁정전에	-11.7151
▁윤씨	-11.7151
▁왜노	-11.7151
▁병신년	-11.7152
▁소속시켜	-11.7152
▁명분이	-11.7153
▁있으랴	-11.7154
▁밝힐	-11.7155
▁뵙고	-11.7155
▁가문	-11.7155
▁서자	-11.7155
▁홍만용	-11.7155
▁물러갈	-11.7156
▁온양	-11.7156
▁기다렸는데	-11.7157
▁때마침	-11.7157
하오나	-11.7157
▁이광좌	-11.7158
▁정인	-11.7158
▁아프다	-11.7158
▁하였다면	-11.7159
▁가자는	-11.7161
▁책임	-11.7162
▁김지남	-11.7163
▁고례에	-11.7163
검을	-11.7164
▁은혜로	-11.7164
대와	-11.7165
되어야	-11.7165
▁괴이	-11.7169
▁도모한	-11.717
▁자신에게	-11.7171
▁못되어	-11.7173
▁육상궁에	-11.7174
▁처단할	-11.7174
▁흉계	-11.7176
▁공해	-11.7177
▁봉입하지	-11.7177
▁근밀한	-11.7181
▁예모	-11.7183
▁우윤	-11.7184
▁회피	-11.7185
으신	-11.7185
▁있자	-11.7189
▁앓는	-11.7191
▁시험하게	-11.7192
▁김만중	-11.7192
▁이완이	-11.7194
▁꼴	-11.7194
▁제용감	-11.7194
▁마련하고	-11.7194
▁달렸	-11.7197
▁곤란한	-11.7197
▁석방할	-11.7197
▁서방	-11.7197
▁구별하여	-11.7198
▁발생하여	-11.7199
▁형관	-11.7201
▁정상에	-11.7201
▁후대	-11.7204
▁모신	-11.7204
끔	-11.7208
조종	-11.7209
▁숨긴	-11.721
▁다르므로	-11.721
▁벼슬살이	-11.721
전부터	-11.721
▁않았더라도	-11.7211
▁천조	-11.7211
▁본군	-11.7211
▁조경이	-11.7212
▁유사의	-11.7214
▁사관은	-11.7214
▁한성	-11.7214
▁이규령	-11.7214
▁우군	-11.7214
▁인경궁	-11.7214
▁받았다고	-11.7215
▁자기와	-11.7215
▁부경	-11.7216
▁파척하소서	-11.7217
이명	-11.7217
▁김징	-11.7217
▁금하여	-11.7221
▁삼고자	-11.7224
월이	-11.7224
▁주저	-11.7225
▁허목	-11.7225
▁소관	-11.7227
서리	-11.7229
▁정지시키	-11.723
▁의식이	-11.7233
▁홍귀달	-11.7235
▁자손들	-11.7237
▁윤은로	-11.7238
▁과중한	-11.7241
▁얻었	-11.7241
▁왕위에	-11.7242
▁연소	-11.7242
▁기르고	-11.7243
하여서는	-11.7243
▁병란	-11.7245
▁신임을	-11.7245
세자의	-11.7245
▁마무리	-11.7247
▁전공	-11.7247
▁이홍	-11.725
▁재상과	-11.7251
▁친영	-11.7253
▁중간	-11.7253
▁영합	-11.7254
▁아비와	-11.7255
▁바로잡으	-11.7255
▁설립	-11.7256
▁초야	-11.7256
▁정례	-11.7256
▁불안하게	-11.7257
십니까	-11.7257
▁찾아보	-11.7259
▁치르	-11.726
▁가옥	-11.7263
▁다방면	-11.7263
▁애초	-11.7263
▁지경연	-11.7263
▁길흉	-11.7264
▁답습	-11.7264
끼리	-11.7264
▁성화	-11.7265
▁처하는	-11.7266
▁건립	-11.7267
▁청한다	-11.7267
았으나	-11.7268
▁들어왔는데	-11.7269
▁하향	-11.727
해는	-11.727
▁윤승훈	-11.7272
▁김좌명이	-11.7272
▁정순붕	-11.7273
김시	-11.7273
▁칭하여	-11.7274
▁정책	-11.7274
▁제읍	-11.7275
▁무오년	-11.7275
▁버티고	-11.7277
▁성세창	-11.7277
었는지	-11.7278
▁의정부가	-11.7279
▁상고해서	-11.7279
▁진하사	-11.7283
▁영남에	-11.7283
▁병사에게	-11.7284
▁반대	-11.7284
▁고유	-11.7285
▁그들과	-11.7286
▁만일에	-11.7287
▁다해야	-11.7288
▁꺼려서	-11.7288
▁본의에	-11.7289
시킴으로써	-11.7289
▁종부시에서	-11.7291
▁당연	-11.7293
▁방종	-11.7293
▁홍치중이	-11.7293
청이	-11.7295
▁시문	-11.7296
▁무리로	-11.7297
▁무리와	-11.7297
▁아이들	-11.73
▁봉심한	-11.7301
글	-11.7304
▁연장	-11.7305
뿐이다	-11.7306
▁부실	-11.7307
▁등극	-11.7307
▁조가	-11.7307
부터는	-11.7308
스러움이	-11.731
▁부령	-11.731
▁삼사에	-11.7312
어진	-11.7317
▁시험하고	-11.7317
▁교생	-11.7317
▁이따금	-11.7317
▁체포하게	-11.7319
▁개연	-11.732
▁다투	-11.732
▁하교하시기를	-11.732
색이	-11.7322
▁들어보지	-11.7322
▁슬프다	-11.7323
▁의논하였는데	-11.7324
▁도와서	-11.7324
▁수사로	-11.7328
▁부릴	-11.7328
▁이빈	-11.7328
▁구문	-11.733
▁최천건	-11.7331
했으면	-11.7333
▁논의한	-11.7333
하였사온데	-11.7333
▁궐정에서	-11.7334
▁심재	-11.7334
▁양양	-11.7335
▁금일	-11.7336
▁나타나는	-11.7338
▁두둔	-11.7338
▁가하는	-11.7339
주소서	-11.7341
▁황제에게	-11.7342
▁복병	-11.7342
▁왕지	-11.7343
▁문제로	-11.7343
▁내승	-11.7343
▁싸우다가	-11.7344
▁의약	-11.7344
▁이경여	-11.7348
▁감옥에	-11.7348
▁없어진	-11.735
▁야인에게	-11.7351
▁응답	-11.7354
▁가을까지	-11.7354
▁수렴	-11.7357
▁원한이	-11.7358
▁방지	-11.7358
▁이감	-11.7359
▁역모에	-11.7359
▁사성	-11.736
▁추천하여	-11.7361
▁녹명	-11.7361
▁것만으로	-11.7361
▁추안	-11.7361
▁봉납	-11.7362
열이	-11.7369
휘가	-11.7374
주와	-11.7374
▁살피시어	-11.7374
▁보았으니	-11.7375
▁이목이	-11.7377
길은	-11.7379
▁모은	-11.7379
▁치란	-11.738
▁보태어	-11.738
▁신경진	-11.7382
▁고부	-11.7384
▁전옥서	-11.7385
▁나라로	-11.7386
▁회시	-11.7386
법은	-11.7387
▁심수현	-11.7387
영과	-11.7387
▁봉안하고	-11.7389
▁무너뜨리	-11.7389
▁연차	-11.739
▁적체	-11.739
▁불초한	-11.7391
▁장지	-11.7391
▁수작	-11.7393
▁힘으로	-11.7394
▁역에	-11.7395
▁교유	-11.7397
▁적습니다	-11.7397
▁도중에서	-11.7398
▁주강하여	-11.7398
▁다르고	-11.74
▁겸대	-11.7401
▁책은	-11.7402
▁말했다	-11.7403
▁노정	-11.7406
▁막게	-11.7406
▁이정신	-11.7413
▁산관	-11.7413
▁입계한	-11.7413
▁변명하는	-11.7414
▁착용하고	-11.7414
▁거리에	-11.7416
▁벼슬한	-11.7416
▁제수하였는데	-11.7418
▁임무에	-11.7419
▁참형	-11.742
앞서	-11.742
▁써넣	-11.7421
▁김효	-11.7427
▁잗단	-11.7427
하시며	-11.7428
▁이쪽	-11.7428
▁그렇지만	-11.7429
▁겸관	-11.7429
▁금수	-11.743
▁고조	-11.743
▁소치이니	-11.7431
▁경계에	-11.7432
▁김남중	-11.7433
▁인솔하고	-11.7433
▁후환	-11.7433
▁알면서	-11.7434
▁환상	-11.7434
▁국체	-11.7435
▁동북면	-11.7436
▁이덕숭	-11.7436
▁못하지만	-11.7437
▁탄핵한	-11.7438
봉사	-11.7439
놓	-11.744
▁윤삼빙	-11.744
▁내놓	-11.7441
▁이경휘	-11.7443
▁사섬시	-11.7444
▁백저포	-11.7444
▁배반하고	-11.7446
▁최명길	-11.7447
▁잡았다	-11.7448
▁구관	-11.745
▁논계하니	-11.7453
앞으로	-11.7453
▁칼로	-11.7453
▁아뢰었고	-11.7454
▁벌은	-11.7457
▁좁은	-11.7457
▁조지	-11.7458
▁전말	-11.7459
하였거나	-11.7459
압	-11.7459
▁허황	-11.746
받는	-11.746
역의	-11.7461
▁보양	-11.7461
▁당일	-11.7462
▁전전	-11.7463
▁성헌	-11.7466
▁균등	-11.7471
내는	-11.7472
▁얻었다고	-11.7473
습니까	-11.7477
▁체차시키	-11.7477
▁주민	-11.7479
▁보도	-11.748
▁쫓아내	-11.748
립니다	-11.748
▁아무개	-11.7481
▁않던	-11.7482
▁육지로	-11.7482
▁면전에서	-11.7483
▁좋겠는가	-11.7483
▁은사	-11.7483
▁이사명	-11.7484
▁나왔으므로	-11.7484
▁미치니	-11.7485
▁조관빈	-11.7486
▁징치	-11.7486
▁방어를	-11.7486
▁노여움이	-11.7487
▁쇄마	-11.7488
▁고치기	-11.7489
심합니다	-11.749
▁한효원	-11.749
▁권건	-11.7491
▁계축년	-11.7491
▁치재	-11.7491
▁관무재	-11.7492
▁피곤	-11.7492
▁온다면	-11.7493
▁경기감사	-11.7493
▁노산군	-11.7494
스러우니	-11.7494
▁태반이	-11.7495
▁아는데	-11.7496
▁수행하는	-11.7497
관으로서	-11.7497
▁유둔	-11.7499
▁쓰려고	-11.7499
▁감당하기	-11.7499
행하겠습니다	-11.7499
▁시약청	-11.75
▁올리라고	-11.75
▁저사	-11.7502
▁신명규	-11.7502
▁그러하다	-11.7505
수찬	-11.7511
▁유자광이	-11.7511
수군	-11.7511
▁공신에	-11.7512
▁명하였으나	-11.7512
▁기상	-11.7512
▁주둔하고	-11.7513
주태수	-11.7513
▁투	-11.7516
▁광망	-11.7517
진주	-11.7517
▁백관은	-11.7521
▁상례로	-11.7521
▁식물을	-11.7521
▁야대에	-11.7522
▁인민이	-11.7522
▁역로가	-11.7524
복의	-11.7524
▁전계인	-11.7526
드릴	-11.7527
▁하인들	-11.7527
▁이창신	-11.7528
▁가리는	-11.7529
솔	-11.7529
▁방도로	-11.7529
▁살지	-11.753
호에	-11.753
▁등등	-11.7531
▁청해	-11.7533
▁청이	-11.7534
▁병과	-11.7535
▁찬수	-11.7535
▁조복을	-11.7535
▁올라오는	-11.7536
하다면	-11.7537
▁장악	-11.7537
▁돈화문	-11.7538
▁대통	-11.7538
▁있사온데	-11.7539
▁갑진년	-11.7539
▁멸망	-11.7539
▁사람보다	-11.7541
설을	-11.7541
▁얻었는데	-11.7541
▁이계손	-11.7541
▁미미	-11.7543
▁자칭	-11.7544
▁은대	-11.7545
▁패전	-11.7548
▁감독하는	-11.7548
▁번져	-11.7548
▁펴는	-11.7549
▁다스리기	-11.7549
▁해당됩니다	-11.755
▁갑오년	-11.755
▁조수익	-11.755
째	-11.7551
▁비교하여	-11.7551
▁태상	-11.7555
▁당습	-11.7556
▁주위	-11.7556
▁많으면	-11.7556
▁재배	-11.7557
▁이종성이	-11.7557
▁임상원	-11.7558
▁이의현	-11.7558
▁들어왔	-11.7558
▁점유	-11.7561
▁김한	-11.7562
교리	-11.7562
종사관	-11.7563
▁봉교로	-11.7568
▁김양택	-11.7571
▁북도에	-11.7571
▁호종한	-11.7571
▁혹독한	-11.7575
▁면제하여	-11.7575
▁못하면서	-11.7579
▁변하여	-11.758
▁기망	-11.7581
▁점은	-11.7581
계사	-11.7581
▁구속	-11.7584
▁완결	-11.7584
▁대어	-11.7585
셨	-11.7587
▁공홍도	-11.7587
사위	-11.7587
▁모르지	-11.7587
▁정성은	-11.759
▁헐어	-11.7591
▁하실	-11.7592
▁끌어들인	-11.7594
진과	-11.7594
▁격쟁	-11.7594
▁함경북도	-11.7594
▁돌아볼	-11.7594
▁포획	-11.7595
▁당인	-11.7596
▁적선	-11.7597
▁연사	-11.7599
▁천변이	-11.76
았으며	-11.7601
▁이것으로써	-11.7601
백관	-11.7602
▁만나지	-11.7602
▁재목이	-11.7603
▁차자는	-11.7603
▁전교하신	-11.7603
▁문책	-11.7604
▁바꾼	-11.7605
▁신료들이	-11.7606
▁안당	-11.7607
▁상언한	-11.7608
▁구의강	-11.7608
▁점수	-11.7608
▁숨기는	-11.7608
긍	-11.7608
▁내관이	-11.761
▁깨닫	-11.7611
▁마련해서	-11.7613
▁차인	-11.7614
▁세손	-11.7614
현과	-11.7617
▁전계한	-11.7618
▁묘소에	-11.7619
등의	-11.7619
▁박경	-11.762
▁무사들	-11.762
림을	-11.762
▁바꾸어서	-11.7622
▁금위영	-11.7623
▁자책	-11.7623
▁경고	-11.7624
▁거짓이	-11.7625
▁손순효	-11.7627
▁본청	-11.7628
▁이르러서야	-11.7632
▁변고에	-11.7634
▁한편으로	-11.7637
▁문밖에	-11.7637
▁허리	-11.7639
▁섭	-11.764
▁전례로	-11.7642
▁표류하여	-11.7644
받	-11.7644
▁나왔다고	-11.7647
▁주장하여	-11.7649
▁승진하여	-11.7649
▁나름대로	-11.765
▁지냈으니	-11.765
▁모셔	-11.765
식은	-11.7651
▁물러간	-11.7652
▁신들에게	-11.7653
에게까지	-11.7654
▁명하셨으니	-11.7654
획	-11.7654
▁전념	-11.7654
▁수호군	-11.7655
▁구애받지	-11.7655
▁일어났는데	-11.7655
▁쓰면	-11.7655
▁제자	-11.7656
▁복계하기를	-11.7656
▁명하시니	-11.7658
▁입었습니다	-11.7659
자리를	-11.7659
▁불경한	-11.7661
▁김진귀	-11.7661
▁생각됩니다	-11.7662
▁새기	-11.7662
▁권율	-11.7662
▁사친	-11.7662
▁성종조	-11.7662
▁것이었으니	-11.7662
▁파발	-11.7663
쇄	-11.7666
▁속죄	-11.7667
▁내리라고	-11.7668
▁세월만	-11.7668
▁몰랐다	-11.7669
▁결실	-11.767
▁저물어	-11.767
▁폐단과	-11.7671
▁자료로	-11.7671
▁옛터	-11.7671
▁어찌해야	-11.7672
▁숭정전에	-11.7674
▁판서와	-11.7674
▁정중	-11.7675
▁되기에	-11.7676
▁입구	-11.7676
▁벌목	-11.7676
▁임어하여	-11.7676
▁계략	-11.7677
▁타일러서	-11.7678
▁공박	-11.7678
▁북정	-11.7678
▁비망기에	-11.7679
▁배제	-11.7679
▁나가니	-11.7681
▁털	-11.7681
▁용서하기	-11.7681
▁지극하다	-11.7682
▁금산	-11.7684
▁뇌물로	-11.7687
▁조옥	-11.7688
▁자격	-11.769
▁나열	-11.769
▁호수	-11.769
▁중궁전	-11.7691
▁자초	-11.7691
▁황충이	-11.7692
▁포용하	-11.7694
경들이	-11.7695
예조판서	-11.7697
이조판서	-11.7697
▁대간들	-11.7698
원으로	-11.7698
▁기대에	-11.7699
▁슬	-11.7701
▁지경에까지	-11.7703
▁무리에게	-11.7703
▁저들에게	-11.7705
▁웃음거리	-11.7706
▁낭청과	-11.7706
▁대답할	-11.7706
▁영안도관찰사	-11.7706
▁월령	-11.7707
▁어려우나	-11.7708
▁요속	-11.7708
▁건강이	-11.7708
▁찬축	-11.7708
놓은	-11.7709
▁부탁하여	-11.771
▁황폐	-11.771
▁등처	-11.7711
▁정석오	-11.7711
▁묘당이	-11.7711
▁갈리	-11.7712
▁봉족	-11.7712
▁기한에	-11.7714
▁문의하여	-11.7714
▁체포하지	-11.7715
▁한확	-11.7716
▁지붕	-11.7716
번이	-11.7717
▁꿈	-11.7717
▁체직된	-11.7718
▁개만	-11.7719
▁승리	-11.772
▁버렸다	-11.7721
▁진달하였다	-11.7722
▁헌장	-11.7722
▁권반	-11.7722
▁유모	-11.7723
▁서민	-11.7724
▁황급	-11.7724
낭	-11.7724
▁청하였으며	-11.7726
마리를	-11.7727
▁줄만	-11.7727
▁다행이	-11.7728
▁본받는	-11.7728
▁풍도	-11.7729
▁학술이	-11.7731
▁이철보	-11.7731
▁앙	-11.7732
▁않았음	-11.7733
갔는데	-11.7734
▁지탱하기	-11.7739
▁시험하는	-11.7739
내의	-11.774
▁방에	-11.774
▁하리에게	-11.7743
▁난잡	-11.7743
▁무역하여	-11.7743
▁벽동	-11.7744
▁국문한	-11.7746
▁풀고	-11.7746
▁관해	-11.7747
▁자리만	-11.7747
▁조원	-11.7748
실의	-11.7751
▁나아	-11.7751
▁이극	-11.7751
▁효수	-11.7752
▁부처한	-11.7752
승문원	-11.7753
▁기절	-11.7754
▁싹	-11.7754
▁왜인에게	-11.7755
▁고양	-11.7756
▁융성	-11.7756
▁잘못이라고	-11.7757
▁정성에서	-11.7757
▁넘치는	-11.7758
▁영위	-11.7759
▁묘사	-11.7759
▁생업에	-11.776
▁왕래한	-11.776
▁못된	-11.7761
▁종전에	-11.7762
▁다음으로	-11.7762
▁뒷폐단	-11.7763
▁믿기	-11.7763
▁해롭지	-11.7763
버렸다	-11.7763
▁회포	-11.7764
▁불의	-11.7764
▁이순신	-11.7764
▁김귀	-11.7765
▁사귀	-11.7765
▁혜성	-11.7765
▁방법에	-11.7766
▁관찰사에	-11.7766
▁무엇인가	-11.7767
▁돌릴	-11.7769
▁친속	-11.7769
▁마시는	-11.7769
▁새끼	-11.7769
▁상신이	-11.7771
▁신묘년	-11.7771
▁덧붙여	-11.7772
▁시초	-11.7772
▁입역	-11.7773
▁동참한	-11.7774
▁궐내에서	-11.7775
▁정흠지	-11.7775
서울	-11.7775
▁원성이	-11.7775
▁급급하여	-11.7776
화는	-11.7776
사간원	-11.7776
▁38	-11.7778
▁이징옥	-11.7778
▁지키기	-11.7778
▁긴급하지	-11.7778
▁그러하니	-11.778
▁헤아리	-11.778
▁체대	-11.7781
▁검시	-11.7781
▁권농	-11.7781
▁바로잡아야	-11.7783
냥을	-11.7784
▁도임한	-11.7784
▁하였겠습니까	-11.7785
▁제기하여	-11.7786
▁옛날과	-11.7786
▁소격서	-11.7786
▁장난	-11.7787
▁첨지중추원사	-11.7789
▁관리에게	-11.779
▁몸가짐이	-11.779
하온데	-11.7792
▁위급함	-11.7794
▁봉안하는	-11.7795
▁전제	-11.7795
▁봉사손	-11.7796
▁권과	-11.7796
▁깨끗한	-11.7796
보내	-11.7797
▁정권	-11.7797
▁수어	-11.7797
▁김사	-11.7797
▁성임	-11.7798
▁대왕께서	-11.7799
▁옥후	-11.78
▁신령	-11.7801
청에서	-11.7802
▁아내에게	-11.7803
▁대답한	-11.7803
▁생각으로	-11.7804
▁이해가	-11.7804
▁성격이	-11.7807
▁성에	-11.7807
▁심열	-11.7811
칸	-11.7811
▁이곳에서	-11.7812
산과	-11.7813
▁박수	-11.7813
▁때문인	-11.7815
시킨다	-11.7816
▁물어본	-11.7816
▁김상성	-11.7816
▁예부에서	-11.7818
▁장청	-11.7819
▁굽는	-11.782
▁아닙니까	-11.782
▁통훈대부	-11.782
▁내리면	-11.7821
▁겸양	-11.7821
▁휴식	-11.7821
▁가지는	-11.7822
▁외로운	-11.7822
시키라고	-11.7822
▁아경	-11.7823
▁위함이었다	-11.7823
▁잡물	-11.7824
▁홍원	-11.7824
▁누락된	-11.7825
▁조정립	-11.7828
▁상언에	-11.7833
▁공조판서	-11.7835
▁막히고	-11.7836
▁무어라	-11.7837
▁말하자	-11.784
▁청했던	-11.784
▁아뢰면서	-11.784
▁상상	-11.7841
▁쓰라	-11.7842
▁제향에	-11.7843
▁건너가	-11.7843
▁잉임시키	-11.7845
▁주관하게	-11.7847
영상	-11.7849
▁논척	-11.7849
시키려는	-11.7849
▁곳곳	-11.7849
▁이광덕	-11.785
▁역로	-11.7851
▁수상이	-11.7852
▁일관	-11.7852
▁적신	-11.7852
▁위협하여	-11.7852
▁종사와	-11.7854
곡이	-11.7856
▁국경에	-11.7856
▁임어	-11.7859
동과	-11.7859
▁복계하여	-11.786
앙	-11.786
▁치계하라	-11.7861
▁경종	-11.7863
▁짐이	-11.7865
제사	-11.7865
▁더럽히고	-11.7866
▁심상한	-11.7866
▁옷이	-11.7867
▁글자로	-11.7868
누	-11.7868
▁다르기	-11.7868
▁반포하여	-11.7869
▁명년에	-11.7869
대고	-11.787
▁군직에	-11.787
▁민원	-11.7871
별시위	-11.7875
▁당도	-11.7875
▁봉록	-11.7876
▁읽은	-11.7878
▁외딴	-11.7878
▁서호수	-11.7878
▁김만균	-11.7878
호조판서	-11.7878
▁늙	-11.788
▁못하겠으니	-11.788
▁초고	-11.788
▁내렸으나	-11.788
▁잠저	-11.7881
▁바치므로	-11.7881
▁혁파하지	-11.7882
훈련	-11.7883
년으로	-11.7883
▁아끼	-11.7884
▁이헌국	-11.7886
▁백관에게	-11.7887
▁맡긴	-11.7888
▁옳으니	-11.7888
▁부족하다	-11.7889
▁서종태가	-11.789
▁채우는	-11.789
▁조종조로부터	-11.7892
▁논의하는	-11.7893
▁박이서	-11.7893
▁정우량	-11.7893
▁악역	-11.7896
▁상소하고	-11.7897
▁조적	-11.7897
조와	-11.7897
▁숙마를	-11.79
▁좌사간	-11.7901
▁여항	-11.7901
▁김득	-11.7901
▁내려야	-11.7901
훈도	-11.7901
▁차비문	-11.7901
▁유척기	-11.7902
▁연신	-11.7905
▁복색을	-11.7906
▁제한	-11.7906
▁아닌지	-11.7906
▁상례에	-11.7907
▁무반	-11.7907
▁개정하라	-11.791
리와	-11.7911
▁구습	-11.7914
▁구차한	-11.7914
▁기초	-11.7915
▁잔약한	-11.7915
▁다니	-11.7916
▁구제하여	-11.7916
▁고명을	-11.7917
▁어렵기	-11.7917
▁사방에서	-11.7918
이었을	-11.7918
▁치며	-11.792
▁존엄	-11.7921
▁판결사	-11.7924
▁파척하라	-11.7925
▁천금	-11.7925
▁절대	-11.7925
▁났	-11.793
▁홍우원	-11.793
▁부귀	-11.7931
국을	-11.7931
수에	-11.7932
▁전옥	-11.7932
야인	-11.7932
▁조방장	-11.7932
▁동철	-11.7934
지금부터	-11.7935
▁활쏘는	-11.7935
▁주다례	-11.7936
▁경하	-11.7936
▁퇴각	-11.7937
▁역승	-11.7938
▁인책	-11.7938
▁망제	-11.7942
▁감하라	-11.7942
▁임시하여	-11.7944
▁백호	-11.7945
▁학문은	-11.7945
▁자들에게	-11.7947
▁일족	-11.7947
▁오도	-11.7948
▁강가에	-11.7949
▁중비	-11.795
봉이	-11.795
▁불만	-11.795
▁내부	-11.7951
▁주시니	-11.7953
▁차지하여	-11.7954
▁밀부	-11.7956
▁화살에	-11.7956
경연	-11.7956
▁계달하여	-11.7956
▁추잡	-11.7957
▁아니함	-11.7957
▁예비	-11.7959
▁중외에서	-11.7961
▁우제	-11.7961
▁논박한	-11.7963
▁아들에게	-11.7963
▁타도	-11.7963
▁쫓아가	-11.7964
▁황헌	-11.7966
▁낭관은	-11.7966
▁홍계희	-11.7967
▁조령	-11.7968
▁적변이	-11.7969
▁종이에	-11.797
▁선박	-11.7972
▁잃어서	-11.7976
▁태워	-11.7976
▁이세화	-11.7976
▁적변	-11.7977
▁온성	-11.798
▁삼는다	-11.7981
▁증거로	-11.7982
시의	-11.7983
▁불안해	-11.7983
▁사마	-11.7984
▁입계하지	-11.7984
제야	-11.7985
▁처한다	-11.7986
▁윤유	-11.7987
▁젖어	-11.7987
내수사	-11.7989
단자	-11.7989
▁곤방으로	-11.799
▁안순	-11.799
▁청사	-11.7991
▁쟁론	-11.7992
▁맺어	-11.7992
▁읽지	-11.7994
▁왕량성	-11.7994
하였겠는가	-11.7994
▁받들건대	-11.7994
▁세우려	-11.7994
▁피고	-11.7994
▁양향	-11.7994
▁퇴폐	-11.7994
▁있었는지	-11.7995
▁다르	-11.7995
▁불타	-11.7995
▁발견	-11.7996
▁소재지	-11.7996
▁물정	-11.7996
해졌다	-11.7997
▁논하면	-11.7998
처음에	-11.7998
▁올렸습니다	-11.7998
▁의논하소서	-11.7999
▁배사하니	-11.8
사복시	-11.8
▁쓰겠는가	-11.8001
▁판중추원사	-11.8002
▁가자하라고	-11.8002
▁급무	-11.8003
▁유순이	-11.8004
▁정죄하소서	-11.8005
하건대	-11.8005
▁윤민	-11.8005
▁치사한	-11.8006
▁평안감사	-11.801
▁절목은	-11.8011
▁폄	-11.8011
▁반교	-11.8012
▁좋고	-11.8013
유신	-11.8014
▁계목에	-11.8014
▁신경희	-11.8014
▁돌리	-11.8015
보지	-11.8015
▁삼가는	-11.8019
▁유음	-11.8022
▁양역	-11.8023
▁내자시	-11.8026
막동	-11.8026
▁했었습니다	-11.8028
▁소지	-11.8029
▁사습이	-11.803
▁유망	-11.8031
였으나	-11.8031
▁가려고	-11.8031
▁재용	-11.8032
[...]
