<pad>	0
<unk>	0
,	-2.9548
.	-3.28899
을	-3.69943
의	-3.97439
를	-4.28743
▁"	-4.45649
."	-4.60461
가	-4.63469
이	-4.78599
는	-4.82538
·	-4.89148
▁	-5.00511
▁그	-5.22256
▁하였다	-5.23531
▁하니	-5.30836
은	-5.32401
에	-5.35541
도	-5.37632
▁수	-5.48389
▁아뢰기를	-5.57885
▁것이	-5.60641
과	-5.73506
하게	-5.77332
한	-5.81956
고	-5.82083
▁또	-5.87367
▁임금이	-5.92879
▁모두	-5.93155
▁이	-5.93583
▁한	-5.94753
할	-5.96776
▁것은	-5.97489
로	-5.97798
▁하고	-6.07227
▁것을	-6.09341
히	-6.11776
하는	-6.14262
▁이미	-6.19554
으로	-6.22557
하여	-6.24461
와	-6.27601
▁말하기를	-6.32983
에게	-6.33686
▁일을	-6.38064
▁어찌	-6.38223
▁하라	-6.38511
?	-6.41661
게	-6.46208
▁것입니다	-6.46563
하고	-6.47674
▁할	-6.48416
서	-6.4933
▁다시	-6.49471
▁하여금	-6.49871
▁있는	-6.51701
▁것이다	-6.53472
▁상이	-6.58709
▁지금	-6.59834
▁때문에	-6.61128
▁1	-6.64111
▁전교하기를	-6.6662
▁일이	-6.68791
▁등이	-6.69573
▁때	-6.70797
▁하는	-6.7147
▁또한	-6.71579
▁하여	-6.71655
하지	-6.71763
하도록	-6.71826
▁여러	-6.73368
▁비록	-6.73885
만	-6.74044
▁매우	-6.78136
에서	-6.79763
▁반드시	-6.82873
▁그대로	-6.83435
▁없습니다	-6.84703
▁하소서	-6.87517
▁삼았다	-6.88081
하였다	-6.88475
▁말을	-6.88842
지	-6.88857
?"	-6.89424
▁일은	-6.95442
▁않았다	-6.96595
▁따랐다	-6.98053
▁다	-6.98992
도록	-6.99555
▁두	-7.00558
▁전교하였다	-7.02194
▁것이니	-7.02956
▁마땅히	-7.03359
▁그러나	-7.03751
▁때에	-7.0459
▁죄를	-7.04741
백	-7.06659
▁이르기를	-7.07609
▁감히	-7.0886
▁있으니	-7.09492
▁않고	-7.11531
인	-7.1234
▁있을	-7.12942
▁자가	-7.1462
▁사람을	-7.15055
▁사람이	-7.15736
▁없는	-7.16981
▁나라	-7.18744
▁따라	-7.19711
▁3	-7.2006
▁않을	-7.21127
▁뒤에	-7.2155
▁없다	-7.2217
▁있습니다	-7.2471
다	-7.24943
▁그런데	-7.26765
▁이제	-7.27251
▁하였는데	-7.27255
▁명하여	-7.27505
▁내가	-7.27568
▁뜻을	-7.27622
▁다만	-7.27754
▁답하기를	-7.27978
야	-7.28618
▁만약	-7.28925
▁2	-7.29245
▁와서	-7.29246
▁보내어	-7.30477
▁전	-7.31086
▁하지	-7.31227
▁이는	-7.31676
▁서로	-7.32286
▁윤허하지	-7.34076
▁더욱	-7.34325
▁합니다	-7.34326
▁아뢴	-7.34539
▁명하였다	-7.37303
▁신	-7.37791
▁없으니	-7.37844
▁것	-7.38127
▁우리	-7.38327
▁등	-7.38697
▁청컨대	-7.40253
▁이를	-7.40517
▁나아가	-7.41128
▁말이	-7.41539
▁그리고	-7.42041
▁않은	-7.42163
▁자는	-7.4262
▁수가	-7.43846
▁하였습니다	-7.4389
▁안	-7.44204
▁신이	-7.44432
▁마음	-7.44672
▁다른	-7.47558
기	-7.47647
▁등의	-7.48104
▁함께	-7.48277
▁가지고	-7.49
▁대로	-7.49756
해	-7.52362
▁곧	-7.5254
▁특별히	-7.52832
▁내려	-7.53343
▁될	-7.54801
자	-7.55303
▁전에	-7.56087
▁판서	-7.56653
▁먼저	-7.57018
▁스스로	-7.57829
▁번	-7.58421
이다	-7.58623
일	-7.5882
▁큰	-7.59475
하니	-7.59993
▁아울러	-7.60224
▁속	-7.60473
▁지	-7.60642
▁잘	-7.60968
천	-7.61277
▁같이	-7.61297
▁인하여	-7.62651
▁이에	-7.62691
▁및	-7.64268
▁못한	-7.64613
▁것인데	-7.64763
▁같은	-7.64931
▁있다	-7.64997
▁세	-7.65471
▁데	-7.65655
▁대신	-7.65823
▁답하였다	-7.6605
▁어떻게	-7.66435
된	-7.66856
라고	-7.67026
▁않는	-7.67457
나	-7.67564
▁이와	-7.67649
▁청하니	-7.67943
▁더	-7.68234
▁일찍이	-7.68345
▁한다	-7.70077
▁바로	-7.70385
▁있겠는가	-7.70496
▁진실로	-7.71098
▁5	-7.71344
▁것으로	-7.71994
▁하였으니	-7.72053
▁고	-7.73804
▁있겠습니까	-7.73808
▁백성	-7.7424
▁온	-7.74466
▁사람들이	-7.74839
까지	-7.74845
▁말라	-7.75122
하소서	-7.75747
▁각	-7.75796
▁이런	-7.76709
하였는데	-7.77193
▁있는데	-7.77225
하기를	-7.7782
▁역시	-7.78056
▁명을	-7.79533
▁아니라	-7.79572
▁가서	-7.79586
▁올려	-7.79983
▁4	-7.8195
▁있어	-7.82303
▁일에	-7.82943
▁이조	-7.83553
▁되어	-7.8413
▁신의	-7.85224
▁보고	-7.87095
▁아직	-7.87379
▁하였으나	-7.88124
신	-7.88165
▁내	-7.88482
면	-7.89718
▁즉시	-7.90265
▁하더라도	-7.90287
입니다	-7.90595
▁만한	-7.91107
하였으니	-7.91131
▁자	-7.91258
▁대간이	-7.91732
▁비	-7.92349
▁바가	-7.92488
▁실로	-7.92638
▁하교하기를	-7.93255
▁영의정	-7.93892
▁없을	-7.94146
▁알	-7.94202
▁말	-7.94945
해야	-7.95678
▁이르러	-7.95891
▁된	-7.96085
▁줄	-7.9616
▁의논하여	-7.96677
▁만일	-7.9679
해서	-7.97134
▁10	-7.97269
▁조금	-7.97318
하며	-7.97373
▁감사	-7.9748
▁각각	-7.97623
▁뜻이	-7.97642
▁상소하여	-7.97878
▁법을	-7.98934
여	-7.98986
▁것도	-7.9933
▁등은	-7.99614
▁못하고	-8.00026
▁사람은	-8.00034
▁바	-8.00201
▁하나	-8.00328
▁많이	-8.0045
▁죄가	-8.00451
▁중국	-8.00687
▁삼가	-8.01117
▁나누어	-8.01155
▁일	-8.01205
▁대해	-8.01255
▁보니	-8.01602
월	-8.0237
▁고을	-8.0265
▁가운데	-8.02716
▁하는데	-8.02737
▁가	-8.03724
하였습니다	-8.03753
▁승지	-8.04302
▁장차	-8.04493
▁대한	-8.04581
라	-8.04616
▁있게	-8.04982
▁무슨	-8.05541
▁혹	-8.05678
▁말고	-8.0593
▁신은	-8.06051
▁더구나	-8.06754
▁이어	-8.07268
▁크게	-8.07537
▁의하여	-8.07545
▁정	-8.07989
▁보내	-8.0847
▁있었다	-8.08908
▁있고	-8.09091
▁장	-8.10352
▁알지	-8.10587
▁일로	-8.1069
▁6	-8.11018
▁중	-8.11416
▁있으면	-8.11604
합니다	-8.11934
▁해	-8.123
▁있어서	-8.13044
▁의	-8.13377
▁등을	-8.13468
어	-8.14021
▁장령	-8.14688
신이	-8.15543
▁혹은	-8.1573
▁가지	-8.15926
▁도로	-8.1611
함이	-8.1624
▁지평	-8.16249
▁성	-8.16321
리	-8.16443
▁차자를	-8.16747
▁모든	-8.17304
▁자를	-8.17661
▁우선	-8.17708
▁해야	-8.19043
▁듯합니다	-8.19137
▁참으로	-8.19416
▁좌의정	-8.19597
▁국가	-8.19799
전	-8.19865
▁불러	-8.20189
인데	-8.20586
▁나의	-8.2062
▁것과	-8.20739
▁너무	-8.20899
▁나이	-8.21262
▁무	-8.21284
▁않으니	-8.213
하면	-8.21366
▁없고	-8.21785
▁소	-8.22094
▁의거하여	-8.22148
▁친히	-8.22485
▁병조	-8.22493
▁글	-8.22546
▁하라고	-8.22711
사	-8.22751
▁갑자기	-8.23058
▁정언	-8.23271
▁단지	-8.24146
이나	-8.2438
▁사람의	-8.24382
니	-8.2454
▁이것은	-8.24624
▁나	-8.24653
▁예에	-8.25364
▁나머지	-8.25444
▁예조	-8.25662
정	-8.25694
▁역적	-8.25937
▁폐단이	-8.26068
▁주고	-8.26241
▁정원에	-8.26374
▁따르지	-8.26956
▁우의정	-8.27599
들이	-8.28371
▁끝내	-8.29092
▁지극히	-8.29178
▁마음이	-8.29337
▁사람	-8.29339
기를	-8.30117
▁사	-8.30121
▁알고	-8.30219
▁중에	-8.30454
▁거듭	-8.30745
년	-8.31454
▁오히려	-8.31913
▁이러한	-8.3256
▁잘못	-8.33197
▁아뢰었으나	-8.33267
하기	-8.33458
▁뒤	-8.34124
▁들어	-8.34248
과연	-8.34862
▁빨리	-8.34889
▁나아갔다	-8.35139
▁오래	-8.35167
▁그가	-8.3562
▁아닙니다	-8.35658
▁없이	-8.3575
▁동안	-8.35777
지금	-8.36053
▁능	-8.36083
▁어떻겠습니까	-8.36308
▁7	-8.3636
▁있었는데	-8.36372
▁보건대	-8.36956
▁성상	-8.37284
진	-8.37367
▁하면	-8.3748
하면서	-8.38001
▁못하여	-8.38181
▁거느리고	-8.3834
▁대사헌	-8.3877
습니다	-8.38992
▁못하게	-8.39048
일에	-8.3905
▁대개	-8.39232
며	-8.39287
▁에	-8.39511
▁전지하기를	-8.39669
▁듣고	-8.39696
▁않는다	-8.39902
▁다음	-8.39926
▁나온	-8.40432
▁대간	-8.4045
▁이렇게	-8.40452
▁날	-8.40542
▁경	-8.40747
이니	-8.41122
▁되는	-8.41191
▁못할	-8.4124
수	-8.4134
▁받고	-8.4163
▁대신과	-8.41807
▁수는	-8.42087
▁아뢰니	-8.4213
▁이것이	-8.42312
장	-8.42368
▁집에	-8.42448
▁말은	-8.43276
▁8	-8.43332
명	-8.43526
▁전하께서	-8.43746
▁백성들이	-8.44271
▁헌부가	-8.44513
▁있으면서	-8.44823
▁한다면	-8.44888
▁자세히	-8.45223
▁폐단을	-8.45321
▁군사를	-8.45582
▁나와	-8.45675
▁않습니다	-8.45807
▁없게	-8.46088
▁오늘	-8.46146
대로	-8.46149
소	-8.46399
던	-8.46673
▁앞서	-8.47513
▁마침내	-8.47812
▁자기	-8.48079
▁아뢰었다	-8.48317
▁하자	-8.48333
▁본래	-8.48511
▁때에는	-8.4875
▁명하소서	-8.48952
▁조정의	-8.49066
하였고	-8.49417
▁정원이	-8.49777
▁그렇게	-8.49871
▁거의	-8.50057
▁신들이	-8.50078
▁어제	-8.50169
▁제	-8.50257
▁몸	-8.50314
▁도리어	-8.50539
처럼	-8.50604
▁해서	-8.51037
▁병이	-8.51156
하라	-8.51194
▁내렸다	-8.51627
▁예를	-8.51775
▁대하여	-8.51857
▁사신이	-8.52282
▁되면	-8.52316
▁써서	-8.52341
▁만들어	-8.52582
릇	-8.52937
▁이때에	-8.53001
▁말라고	-8.53004
▁대신이	-8.53119
▁사이에	-8.53595
▁그들	-8.53633
▁대답하기를	-8.53659
▁공	-8.53925
▁본	-8.53983
▁많은	-8.53993
에는	-8.54001
▁죄는	-8.54048
▁지평으로	-8.54253
▁배	-8.54326
이라	-8.54364
▁정언으로	-8.54504
성	-8.5519
▁죽은	-8.55226
▁대사간	-8.5533
▁비답	-8.55725
품	-8.55744
치	-8.55805
경	-8.56025
▁아니다	-8.56031
▁뜻으로	-8.57088
▁일입니다	-8.5724
▁대해서는	-8.57317
▁장령으로	-8.57538
세	-8.57662
▁아	-8.57955
▁경우	-8.58375
▁길이	-8.58391
▁채	-8.58765
▁오직	-8.58886
▁쓸	-8.58943
상	-8.59019
▁번거롭게	-8.59076
단	-8.59105
▁도	-8.59342
▁않아	-8.59383
▁이어서	-8.59471
▁더불어	-8.59556
인을	-8.59717
▁받아	-8.59811
▁데에	-8.60265
▁삼고	-8.60578
▁받은	-8.60671
부터	-8.60733
▁따라서	-8.6074
▁뿐만	-8.60745
▁명이	-8.61039
▁경은	-8.61041
▁사직하지	-8.61041
었다	-8.61683
▁대사간으로	-8.6174
필	-8.61827
▁없는데	-8.61841
▁됩니다	-8.61973
▁말할	-8.61986
▁곳에	-8.62016
▁말한	-8.62134
▁않았으니	-8.62141
▁듣건대	-8.62172
되어	-8.62316
▁적에	-8.62322
▁시켜	-8.62376
▁사람들	-8.62711
▁지금은	-8.62905
▁차례	-8.62922
▁임금의	-8.63307
▁집의	-8.63643
▁않으면	-8.64256
▁옮겨	-8.64345
▁오로지	-8.6435
▁벼슬	-8.6441
▁임금	-8.6461
▁주었다	-8.64612
흐	-8.64652
는데	-8.64692
▁은혜	-8.64733
▁비로소	-8.64869
▁위하여	-8.6494
유	-8.65062
▁안에	-8.65172
▁곳이	-8.65191
▁작은	-8.65237
▁예조에서	-8.65322
▁군사	-8.65353
▁달	-8.65545
▁예조가	-8.65627
▁후에	-8.65737
▁있다고	-8.65772
한다면	-8.6584
하였으나	-8.6604
▁아뢰라	-8.66124
▁이때	-8.66319
대	-8.6643
▁형조	-8.66656
▁오	-8.66746
▁경기	-8.66815
▁양사가	-8.66964
▁20	-8.67008
무	-8.67083
원	-8.67206
▁있으므로	-8.67214
내가	-8.67225
▁없다고	-8.6726
▁강	-8.67535
▁파직	-8.67542
▁것이며	-8.67551
▁분부	-8.6759
▁아들	-8.67985
▁미리	-8.67988
▁아룁니다	-8.68005
▁하며	-8.68174
로써	-8.68252
▁아무	-8.68294
▁홍문관	-8.68485
▁판서로	-8.68676
조	-8.68789
▁보면	-8.69144
▁간원이	-8.69229
로서	-8.69295
석	-8.69499
▁종	-8.70037
▁드디어	-8.70109
▁당하여	-8.70194
▁행하였다	-8.70289
▁없었다	-8.70303
▁관한	-8.70357
▁적이	-8.70582
아	-8.70622
▁주는	-8.70642
▁되었으니	-8.71206
▁몇	-8.71229
▁9	-8.71249
▁것에	-8.71381
▁사간	-8.71542
▁사헌부	-8.71577
▁비답하기를	-8.71639
토록	-8.71641
▁일이다	-8.71691
▁필요	-8.7186
▁이번	-8.72178
주	-8.723
보다	-8.72411
시	-8.72427
▁나는	-8.72573
동	-8.72583
▁아니하였다	-8.72885
▁그런	-8.72955
▁승지로	-8.72962
▁주어	-8.7313
에게는	-8.73431
▁갈	-8.73481
▁하므로	-8.73508
문	-8.73582
▁새로	-8.73648
▁쌀	-8.73674
으로서	-8.737
▁대사헌으로	-8.73908
구	-8.74101
부	-8.74291
하라고	-8.74492
▁때문이었다	-8.74513
▁못하는	-8.75129
▁않아서	-8.75303
▁사는	-8.75432
▁이유로	-8.75562
▁여겨	-8.75605
▁어떤	-8.75729
▁상을	-8.75831
▁조정에	-8.76359
▁이번에	-8.76375
▁고을에	-8.76379
▁대신에게	-8.76451
▁평안도	-8.77183
▁후	-8.77546
▁그것	-8.77593
하려고	-8.77665
▁대	-8.77984
▁되니	-8.78296
▁옳지	-8.78337
▁하물며	-8.7834
▁신하	-8.7858
▁은	-8.78597
▁호조	-8.7863
▁영	-8.78649
▁간	-8.78745
▁어려운	-8.78773
▁행	-8.78781
▁하였고	-8.79078
▁몹시	-8.79142
▁참판	-8.79271
▁아뢰고	-8.79542
▁함부로	-8.79718
▁받들어	-8.79729
▁볼	-8.79988
▁준	-8.80096
▁이처럼	-8.80126
라는	-8.80197
하였으므로	-8.80289
▁조정	-8.80323
▁대략	-8.80427
하므로	-8.80475
▁못합니다	-8.80641
▁자리에	-8.80648
만을	-8.80809
▁지난	-8.80965
함을	-8.81046
▁허락하지	-8.81227
▁밤에	-8.81233
▁경상도	-8.81238
▁되고	-8.81276
▁도승지	-8.81299
▁생각	-8.81382
▁조정에서	-8.81564
▁하늘	-8.81611
▁깊이	-8.81727
우	-8.81863
▁되었다	-8.82164
▁옛	-8.82235
▁먼	-8.82615
▁한결같이	-8.82799
▁왕이	-8.82816
▁50	-8.82829
▁명	-8.83223
▁금	-8.83254
윤	-8.83977
▁청하였으나	-8.83983
▁처음에	-8.84106
▁등에게	-8.84153
▁성상께서	-8.84247
▁물러가	-8.84283
▁일체	-8.84332
▁것이고	-8.8434
보	-8.84692
인이	-8.84707
▁가장	-8.84784
▁사신은	-8.84875
▁되었습니다	-8.85029
▁유	-8.85066
▁관찰사	-8.85154
▁것이었다	-8.85202
▁전의	-8.85249
▁차마	-8.85257
▁술을	-8.85299
▁염려	-8.85481
▁바라건대	-8.85615
▁없어	-8.85696
거나	-8.85842
▁받지	-8.85988
▁지어	-8.8602
▁두고	-8.86035
▁듣지	-8.86081
명을	-8.86097
▁주	-8.86586
▁30	-8.86843
▁자리	-8.86859
▁부사	-8.86923
▁구	-8.86953
▁해당	-8.86985
▁정사를	-8.87031
▁화	-8.87103
▁비변사가	-8.87244
하	-8.87458
▁양	-8.87472
한다	-8.87545
하려	-8.87718
▁백성이	-8.87782
이라고	-8.87843
▁말하지	-8.88095
▁말로	-8.88097
▁죄인	-8.88388
▁같습니다	-8.88416
▁네	-8.88434
▁그래서	-8.88628
▁겸	-8.88904
▁하루	-8.88962
▁전혀	-8.89235
▁이름을	-8.89411
▁가는	-8.89482
관	-8.89712
▁명령	-8.89949
▁사간원	-8.90483
▁항상	-8.90544
▁있었습니다	-8.9059
시킬	-8.90591
▁초	-8.90634
▁쓰는	-8.90838
▁없었습니다	-8.90868
▁상께서	-8.90989
▁전하	-8.91
▁사람에게	-8.91161
▁의논을	-8.91163
▁본디	-8.91172
▁없지	-8.91186
▁직접	-8.91383
▁같다	-8.91442
▁아비	-8.91447
▁의논하기를	-8.91536
▁자신	-8.91811
▁않았습니다	-8.91873
▁오랫동안	-8.91912
▁범한	-8.92078
양	-8.92224
▁앞으로	-8.92249
▁길을	-8.92346
▁하지만	-8.92704
하자	-8.92853
▁사헌부에서	-8.92874
▁오늘날	-8.92924
▁마음대로	-8.92934
▁멀리	-8.92987
▁전라도	-8.92987
▁어느	-8.93057
▁것인가	-8.93081
소서	-8.93253
▁경연에	-8.9328
▁밖에	-8.93526
▁처	-8.93653
▁되지	-8.93694
▁윤허하였다	-8.93734
▁병을	-8.93786
▁날로	-8.93925
선	-8.93985
▁위에서	-8.94555
▁서울에	-8.94595
▁비국	-8.94958
▁유성이	-8.95117
▁의정부	-8.95161
▁않는다면	-8.95334
▁저	-8.95389
▁신들	-8.95434
▁각기	-8.95487
▁당시	-8.95531
▁헌납	-8.95564
▁있기	-8.95641
▁부	-8.95686
▁동	-8.95712
▁그러니	-8.95735
▁심	-8.95746
들을	-8.95876
▁곧바로	-8.96003
▁마땅합니다	-8.96039
▁뿐	-8.96147
▁올린	-8.96247
▁계사	-8.96275
▁경이	-8.96846
▁들어가	-8.96851
두	-8.96913
▁나서	-8.97297
▁사헌부가	-8.97322
으로써	-8.97428
▁중에서	-8.97488
▁살	-8.97557
▁제사를	-8.97729
▁된다	-8.9777
▁청	-8.97894
▁못하니	-8.97902
하고자	-8.98153
▁헌납으로	-8.98317
▁청한	-8.98452
▁죄수	-8.98457
▁주소서	-8.9847
▁계책	-8.98568
▁이보다	-8.98591
▁상	-8.98619
필을	-8.9869
▁본도	-8.98753
▁미처	-8.98758
▁없어서	-8.98791
▁널리	-8.98908
▁내어	-8.99078
하였으며	-8.99354
▁조	-8.99448
▁서	-8.99554
▁승정원에	-8.99769
▁의논이	-8.99791
라도	-8.99892
▁잡아	-8.99909
산	-8.99939
▁남	-9.00089
했던	-9.00203
운	-9.00311
▁그러므로	-9.00419
▁하겠다	-9.00597
다면	-9.00608
▁마치	-9.00721
▁처음	-9.00847
▁사실을	-9.00883
▁결코	-9.00953
▁뜻은	-9.0104
데	-9.01167
▁물건을	-9.01179
▁아니하고	-9.01229
▁삼	-9.01367
▁정지	-9.01488
▁날이	-9.01561
▁아니니	-9.01653
오	-9.01768
▁아는	-9.01786
▁장수	-9.01922
화	-9.02013
▁같지	-9.02126
케	-9.02349
개	-9.02456
▁못하였다	-9.025
▁몰래	-9.02562
▁수찬으로	-9.0257
▁소장	-9.02584
▁김	-9.02671
다가	-9.03012
▁밤	-9.0306
▁헤아려	-9.03077
▁권	-9.03165
될	-9.0321
▁상소를	-9.03221
란	-9.03249
중	-9.03292
▁의리	-9.03313
▁사간으로	-9.03398
▁있지	-9.03416
▁관직을	-9.03474
▁사람으로	-9.03494
▁하매	-9.03571
안	-9.03644
▁내린	-9.03851
▁갖추어	-9.03909
▁못	-9.03998
▁덕	-9.04043
▁위에	-9.04053
▁보	-9.04173
▁형	-9.04434
▁보내는	-9.04449
▁위해	-9.04572
박	-9.04695
▁만	-9.04695
▁좋은	-9.04749
▁위로	-9.05087
▁말도록	-9.05274
▁하면서	-9.05375
▁체직	-9.05418
▁청하였다	-9.05522
신은	-9.05559
▁현재	-9.05604
▁장계	-9.0562
▁바를	-9.05622
내	-9.05752
현	-9.05889
▁원	-9.05915
▁내리고	-9.06073
▁쓰지	-9.06159
▁이것을	-9.06308
▁집의로	-9.06383
▁만나	-9.06454
▁유생	-9.06503
▁도의	-9.06507
었습니다	-9.06691
▁약	-9.06698
▁때문이다	-9.06736
▁참판으로	-9.06755
하되	-9.06935
▁문	-9.07145
▁계하기를	-9.07252
▁논한다	-9.07339
▁나아가서	-9.07459
▁들으니	-9.07496
▁의논	-9.07511
으니	-9.07576
마다	-9.0758
▁엄히	-9.07664
▁여기고	-9.07694
▁옛날	-9.07796
려	-9.07925
강	-9.08142
▁아니고	-9.08321
▁물론	-9.08527
▁마음에	-9.08727
홍	-9.08879
▁제조	-9.08958
▁법에	-9.08963
▁하겠습니다	-9.08982
▁곳	-9.09166
▁이상	-9.09194
▁별도	-9.09222
군	-9.09317
▁말에	-9.09489
▁머물러	-9.09637
▁직임	-9.09673
▁누가	-9.09681
▁상세히	-9.09857
▁들은	-9.09951
▁겨우	-9.10007
▁상소하기를	-9.10028
공	-9.10071
었는데	-9.10071
▁교리로	-9.10071
▁사간원이	-9.10103
▁것만	-9.10195
연	-9.10481
이고	-9.10636
▁형벌	-9.10658
▁거행	-9.10683
▁들어주지	-9.10754
▁못하였습니다	-9.10796
▁마침	-9.1093
▁있어서는	-9.1096
▁어렵습니다	-9.11256
▁충청도	-9.11346
▁향	-9.1148
!	-9.1153
▁법이	-9.11845
▁달려	-9.11907
▁사신	-9.11907
영	-9.1191
이미	-9.11952
▁나라에	-9.12131
▁위한	-9.12242
▁중한	-9.12308
므로	-9.12318
▁상의	-9.12457
▁직무	-9.12565
▁하게	-9.12565
▁관계되는	-9.12695
되지	-9.1285
▁되었는데	-9.1291
▁보지	-9.1336
호	-9.13379
▁있었으니	-9.13462
▁여겼다	-9.1352
▁아마	-9.1352
▁해조로	-9.13552
▁힘을	-9.13585
▁뜻에	-9.13603
질	-9.1362
▁것이므로	-9.13726
▁윤허	-9.13897
▁없으므로	-9.13906
▁대저	-9.13907
▁산	-9.14051
▁기	-9.14212
제	-9.14266
▁인견하였다	-9.14368
▁같으니	-9.14395
▁뽑아	-9.1445
▁의정부에서	-9.14515
들	-9.14535
▁않았는데	-9.14546
▁전하께서는	-9.14562
▁주지	-9.14776
▁청합니다	-9.14878
▁변	-9.14911
▁지방	-9.14982
하던	-9.1511
▁진	-9.15132
못	-9.15147
이므로	-9.1525
요	-9.15262
▁아주	-9.15284
했는데	-9.1529
▁않다	-9.15333
▁것이라고	-9.15416
▁곳을	-9.15459
▁명하고	-9.15468
▁공사를	-9.15581
▁자도	-9.15687
▁이른바	-9.15707
김	-9.15729
시켜	-9.1574
▁공조	-9.15844
▁데리고	-9.15923
재	-9.16151
▁하되	-9.16234
▁말게	-9.16313
▁아뢰게	-9.16356
▁신들은	-9.16413
▁연	-9.165
▁정성	-9.16547
▁말하는	-9.16561
▁오는	-9.16607
▁에서	-9.16653
▁고쳐	-9.16677
▁듯하다	-9.16713
▁열	-9.16914
하는데	-9.1698
▁사사로이	-9.16998
▁의당	-9.17094
▁노	-9.17188
면서	-9.17297
▁한번	-9.17345
▁상고하여	-9.17427
▁굳이	-9.17432
▁백	-9.1752
▁국문	-9.17537
▁전례에	-9.17576
▁관계	-9.17584
▁수령	-9.17696
▁사체	-9.17917
▁날마다	-9.17954
▁감	-9.18003
▁있으나	-9.18103
더라도	-9.18143
한다는	-9.18265
종	-9.18292
▁경계	-9.18416
▁신을	-9.18439
▁사관	-9.18474
다고	-9.18477
▁집을	-9.18487
▁황해도	-9.18581
▁복	-9.18612
▁각별	-9.18705
▁않게	-9.18823
▁가까운	-9.18903
▁모	-9.18952
하신	-9.18954
▁사람들을	-9.19137
▁어찌하여	-9.19178
▁그때	-9.19251
▁힘써	-9.19254
▁편	-9.19286
당	-9.19347
▁바쳤다	-9.19347
▁임무	-9.19371
▁죄	-9.19377
▁병조에서	-9.19475
하다	-9.19668
▁관원을	-9.19817
▁주게	-9.20138
▁석	-9.20206
▁두어	-9.20399
▁근래에	-9.20412
▁여	-9.20443
겠는가	-9.20578
▁당	-9.2061
▁아뢰어	-9.2062
▁여기는	-9.20636
간	-9.20636
▁받들고	-9.2075
▁감사가	-9.20778
▁억지로	-9.20868
▁이후로	-9.20884
▁점이	-9.20973
▁백성들의	-9.21059
▁모름지	-9.21179
남	-9.21205
▁호	-9.21225
▁성명	-9.21225
이란	-9.21373
▁처리	-9.21607
▁선비	-9.21618
필시	-9.21746
▁자주	-9.21766
▁왕세자가	-9.21954
어제	-9.21968
▁가려	-9.21979
아뢴	-9.2199
▁거두어	-9.22064
▁살펴서	-9.22147
▁전계	-9.22155
▁어려울	-9.22168
▁전례	-9.22218
▁15	-9.22294
▁대비	-9.22311
하라는	-9.22493
까	-9.22496
▁차등	-9.22517
▁사신을	-9.22534
▁정하여	-9.22599
▁의논하게	-9.22802
서는	-9.22857
▁세자가	-9.22994
순	-9.23028
▁아래에서	-9.23043
▁과거	-9.23182
▁끝까지	-9.23244
이었다	-9.23295
▁아닌	-9.23424
▁일과	-9.2355
▁주도록	-9.23589
했다	-9.23625
▁참의로	-9.23737
▁의논드리기를	-9.23772
▁박	-9.23791
권	-9.23945
기가	-9.24052
▁실정	-9.24119
▁행하고	-9.24137
▁신하들이	-9.2421
▁기다려	-9.24414
▁따른	-9.24434
승	-9.2454
엄하게	-9.24545
▁병사	-9.24776
겠습니까	-9.24807
▁경의	-9.24884
▁살펴	-9.24904
▁위	-9.2505
▁시	-9.25052
▁이유	-9.25186
▁허물	-9.25263
▁곡식을	-9.25291
▁조사하여	-9.25451
▁직을	-9.25463
▁한두	-9.25539
▁잔치	-9.25602
이제	-9.25669
▁보낸	-9.25762
근	-9.25962
▁사람과	-9.25973
▁해가	-9.26028
민	-9.26032
▁적	-9.26063
▁두루	-9.26119
▁나가	-9.26206
▁옳다	-9.26243
▁따로	-9.26265
없이	-9.26447
▁없으나	-9.26503
▁분	-9.26527
▁윤허한다	-9.26645
복	-9.26651
▁수령이	-9.26715
▁않겠습니까	-9.27187
▁처치	-9.27318
▁청하고	-9.27344
▁인재	-9.27351
으며	-9.2749
▁말하였다	-9.27623
▁지나치	-9.27665
▁있으며	-9.27808
▁청하였는데	-9.27959
▁부수찬으로	-9.28063
니다	-9.28286
▁하도록	-9.28293
▁윤	-9.28496
런	-9.28524
▁얼마	-9.28588
금	-9.2874
▁무릅쓰고	-9.28798
심	-9.28882
하였기	-9.29001
▁재상	-9.29069
▁살피지	-9.29072
▁조사	-9.29103
▁그들이	-9.29195
▁당초에	-9.29253
▁으레	-9.29356
▁심히	-9.29374
▁아니	-9.29524
▁선	-9.29621
▁율에	-9.29645
▁이하	-9.297
신들이	-9.29766
▁내일	-9.29768
▁부교리로	-9.29886
▁아니면	-9.29942
▁지극한	-9.29984
방	-9.30073
▁당상을	-9.30131
▁병	-9.30277
▁둘	-9.30317
▁사람도	-9.30335
되	-9.30347
▁수령을	-9.30348
▁어떠하겠습니까	-9.30359
▁임	-9.30377
▁하교	-9.30446
▁지금까지	-9.30532
▁심한	-9.30618
▁신하들	-9.30668
▁우	-9.30712
▁밖	-9.30941
했으니	-9.30964
▁지난번	-9.30993
▁관	-9.31106
▁근래	-9.31114
백여	-9.31129
▁한다고	-9.31256
▁직책	-9.31263
▁여기에	-9.31278
▁형조에서	-9.31299
마는	-9.31401
▁급히	-9.3157
▁80	-9.31613
▁상소	-9.31724
▁집	-9.31747
▁서계	-9.31774
▁계속	-9.31881
▁그대	-9.3193
위	-9.31985
▁의금부에	-9.32018
▁새	-9.32134
▁받았다	-9.32232
▁때는	-9.32281
▁전일	-9.3231
▁최	-9.32444
▁보아	-9.32552
▁공이	-9.32621
▁사정을	-9.32712
▁적을	-9.32853
▁청하는	-9.32868
▁일도	-9.32893
▁논하지	-9.33118
▁예조에	-9.33125
▁번째	-9.33131
▁활	-9.33149
▁바랍니다	-9.3318
▁대체로	-9.33216
▁일이니	-9.33231
▁기다렸다	-9.33247
▁불러서	-9.33251
하기에	-9.33312
▁사람들은	-9.33355
▁짓을	-9.33427
▁종묘	-9.33511
▁못하였으니	-9.33525
▁다스리는	-9.33538
▁재주	-9.33548
하거나	-9.33584
하다가	-9.33697
▁오래도록	-9.33919
▁예가	-9.34004
▁정상	-9.34018
▁어사	-9.34133
거	-9.34352
▁공로	-9.3442
▁뿐입니다	-9.34457
▁일의	-9.34542
▁전일에	-9.34696
들은	-9.34719
▁아뢰지	-9.34742
▁회계하기를	-9.34789
▁반열에	-9.34899
송	-9.34973
▁관원이	-9.35267
▁쓰고	-9.35313
▁지가	-9.35314
▁올리는	-9.35366
임	-9.35474
▁노비	-9.35589
▁있었던	-9.35606
▁지경에	-9.35698
▁제수	-9.3571
▁타고	-9.35757
▁의주	-9.35868
▁인해	-9.36026
▁황	-9.36079
▁이르러서는	-9.36209
▁과	-9.36232
▁천	-9.36258
▁공초	-9.36317
▁하	-9.36448
▁실	-9.36452
▁홍	-9.36464
청	-9.36544
▁흉년이	-9.36548
▁엎드려	-9.36572
▁금년	-9.36656
▁않겠는가	-9.36734
▁있다가	-9.36763
▁잡아다	-9.37102
▁자들이	-9.37274
▁환	-9.37623
계	-9.37651
▁있다면	-9.37665
▁들어와	-9.3776
▁정사	-9.37862
▁많으니	-9.37927
▁하였으며	-9.38076
▁삼아	-9.38166
미	-9.38298
온	-9.38302
▁간사한	-9.38337
▁잘못이	-9.38355
▁공신	-9.38438
함에	-9.38517
▁12	-9.38695
황	-9.38729
▁올리고	-9.38781
▁귀	-9.38886
▁성균관	-9.39007
▁쓴	-9.39185
▁매양	-9.39201
▁재차	-9.3955
▁40	-9.39647
이며	-9.39648
▁신하가	-9.39804
▁점점	-9.39912
하려는	-9.39983
▁개정	-9.40032
▁이로	-9.40135
▁상소하였는데	-9.40168
▁주강에	-9.4028
▁않았고	-9.40334
▁뒤로	-9.40441
▁다하여	-9.40455
▁제대로	-9.40545
▁막	-9.40582
▁방	-9.4061
▁가볍게	-9.40663
으므로	-9.40781
▁말인가	-9.4087
하겠다	-9.40922
▁대장	-9.40984
덕	-9.41112
▁당초	-9.41123
▁당상	-9.41218
▁보았다	-9.41221
▁잇따라	-9.41244
다는	-9.4132
▁중대한	-9.41327
▁자문	-9.41339
마	-9.4135
▁하겠습니까	-9.41544
▁하겠는가	-9.41638
▁백성들	-9.4179
현감	-9.41951
▁많고	-9.4199
▁승정원에서	-9.41993
▁불	-9.42159
▁올리기를	-9.42255
▁들	-9.42315
▁뒤에는	-9.42353
▁부모	-9.42381
▁없다는	-9.42438
▁입고	-9.42484
▁다음에	-9.42535
▁차	-9.42628
▁해도	-9.42673
그	-9.42697
▁경우에는	-9.42828
▁물으니	-9.42918
▁서울	-9.43177
모	-9.43252
▁오지	-9.43372
▁반	-9.43386
▁뒤에야	-9.4348
삼가	-9.43498
▁혐의	-9.43526
▁한다는	-9.43572
▁부득이	-9.43591
▁나오지	-9.43658
▁시호를	-9.43683
▁참의	-9.43792
▁가려서	-9.43869
▁못하겠습니다	-9.44105
▁단서	-9.44242
▁숫자	-9.44339
▁출사	-9.44341
▁알았다	-9.44372
▁없으며	-9.44392
기는	-9.44411
▁것이라	-9.44485
▁없기	-9.44713
▁시기	-9.44811
▁나라에서	-9.4488
▁아닌데	-9.44943
▁맞지	-9.4498
▁받는	-9.4504
▁했는데	-9.45088
되는	-9.45098
▁꼭	-9.45118
▁생각건대	-9.45121
▁각도	-9.45144
▁그런데도	-9.45389
▁하였으므로	-9.45599
▁하기	-9.45642
희	-9.45671
한다고	-9.45729
되고	-9.4575
▁들어갔다	-9.458
▁매	-9.45805
▁서용하지	-9.45811
▁도리	-9.45899
차	-9.46021
하기가	-9.46062
▁소리	-9.46084
▁남의	-9.46257
▁혹시	-9.46503
▁중하게	-9.4651
▁엄	-9.46583
▁적의	-9.46618
기에	-9.46624
▁있다는	-9.46625
▁하기를	-9.46667
▁70	-9.46676
봉	-9.46693
▁그리하여	-9.46734
▁묻기를	-9.468
▁파	-9.46837
▁도리에	-9.46866
▁징계	-9.46999
▁송	-9.46999
목	-9.47156
▁지금부터	-9.4721
▁침	-9.47324
▁감사에게	-9.47335
▁전후	-9.47356
▁선왕	-9.47407
▁잠시	-9.47452
▁도성	-9.4746
▁낭청	-9.47483
장을	-9.47711
▁전지를	-9.4786
함은	-9.47895
명이	-9.48
▁인견하고	-9.48037
▁공론	-9.48178
▁대해서	-9.48289
▁병으로	-9.48378
▁감사로	-9.48408
▁형신	-9.48485
▁생각하지	-9.48528
▁때문입니다	-9.48557
령	-9.4857
▁이르렀으니	-9.48674
▁정한	-9.48688
▁전교를	-9.48796
▁올	-9.48831
▁원래	-9.48966
▁농사	-9.48989
▁사직	-9.49005
▁어	-9.49191
응	-9.49241
▁면	-9.4927
▁인심이	-9.49278
▁외방에	-9.49308
▁직첩	-9.49365
▁아뢰도록	-9.49384
▁무엇	-9.49553
▁경상	-9.49626
▁이루	-9.49755
▁평안	-9.49777
▁마땅할	-9.49889
▁뒷날	-9.50152
▁관리	-9.50199
▁이익	-9.50203
▁잡아다가	-9.50259
▁있는가	-9.50306
▁좋겠다	-9.50354
효	-9.50359
▁늘	-9.50413
▁높은	-9.50415
▁알게	-9.50465
▁즈음에	-9.50538
용	-9.50581
었으니	-9.5064
준	-9.50793
▁계	-9.50987
▁그것이	-9.51076
▁일어나	-9.51083
▁역사를	-9.51158
▁통	-9.51162
전에	-9.51303
▁강원도	-9.51492
월에	-9.51535
▁변방의	-9.51552
▁이날	-9.51644
▁명나라	-9.51904
▁종이	-9.51922
▁병조에	-9.52028
▁책임을	-9.52036
하여야	-9.5209
하시어	-9.52092
▁맡은	-9.52185
▁벌을	-9.52227
▁여부를	-9.52267
▁인	-9.52306
▁차이	-9.52313
▁둔	-9.52457
▁예	-9.52472
척	-9.52524
각	-9.52546
▁유독	-9.52555
▁허	-9.52559
▁정승	-9.52623
후	-9.52669
삼	-9.52693
하였을	-9.52718
▁등과	-9.52789
경이	-9.52977
▁참	-9.52991
▁다섯	-9.53045
▁아니하여	-9.53049
▁홍문관이	-9.5313
▁있어야	-9.53153
▁치계하기를	-9.53163
▁일일이	-9.53189
▁개	-9.53321
▁아름다운	-9.53328
▁편안	-9.53364
포	-9.53407
오늘	-9.53444
▁난	-9.53516
▁청하여	-9.5362
▁경중	-9.53684
▁유시하기를	-9.53728
하더라도	-9.53809
▁마소서	-9.53831
▁모두가	-9.53831
였다	-9.53862
▁소견	-9.539
▁보는	-9.53908
▁말하라	-9.53954
▁옳	-9.53965
▁함이	-9.54002
▁음식	-9.54024
년이	-9.54046
▁교리	-9.54048
▁생각하건대	-9.54076
▁율	-9.54088
▁온당치	-9.54178
▁보내고	-9.54195
▁모아	-9.54268
▁것이나	-9.54343
▁절	-9.54415
▁거행하지	-9.54427
▁제도	-9.54457
▁이정	-9.54513
▁역	-9.54535
▁미치지	-9.54621
하겠는가	-9.54707
▁비밀	-9.54735
▁죽었다	-9.54747
▁변방	-9.54822
▁참작하여	-9.54905
▁변고	-9.54956
▁일본국	-9.54966
▁처음에는	-9.54967
들의	-9.55069
▁했습니다	-9.55104
▁국문하여	-9.55172
시킨	-9.55246
▁대궐	-9.55262
▁당연히	-9.55368
▁조종	-9.55441
▁순	-9.55445
▁신에게	-9.55506
▁시종	-9.55516
석을	-9.55697
이라도	-9.55785
▁올렸다	-9.55823
▁빈	-9.55932
▁분명히	-9.55933
▁의심	-9.55968
▁날에	-9.56017
▁여깁니다	-9.56019
생	-9.56044
▁조강에	-9.56072
▁지은	-9.5615
▁정상이	-9.5616
손	-9.56167
▁다름이	-9.56205
▁여기지	-9.56246
▁속에	-9.56263
▁잘못된	-9.56313
▁곳으로	-9.56373
▁조정이	-9.56429
▁목	-9.56433
▁의금부에서	-9.56439
▁관찰사로	-9.56588
▁형장	-9.5668
▁알았다고	-9.56734
행	-9.56818
▁어려우니	-9.56891
▁논할	-9.56907
지를	-9.56927
▁모르겠습니다	-9.57015
광	-9.57087
▁유학	-9.57089
릴	-9.57146
▁그렇지	-9.57351
일이	-9.57402
익	-9.5743
적	-9.57451
▁때에도	-9.57549
▁60	-9.57769
▁모르는	-9.57831
▁이름이	-9.57834
▁리	-9.57847
▁때가	-9.58045
▁까닭으로	-9.58074
▁생각이	-9.5812
▁집에서	-9.58129
▁보내지	-9.58145
▁와	-9.5817
▁지나친	-9.58277
▁제수하였다	-9.58352
▁사람됨이	-9.58363
▁해마다	-9.58364
▁한갓	-9.58447
▁심지어	-9.58613
매	-9.58784
▁전례가	-9.58889
회	-9.58985
▁바꾸어	-9.59023
▁않으므로	-9.59103
▁햇무리	-9.59188
려고	-9.59271
▁강을	-9.59275
▁마치자	-9.59323
▁관계된	-9.59341
창	-9.59384
▁마땅하다	-9.59385
▁내용을	-9.59387
▁문안	-9.5941
▁정부	-9.5947
▁홀로	-9.59572
▁추고	-9.59575
만이	-9.59707
이라는	-9.59794
▁놓아	-9.59821
▁아들이	-9.59847
▁조처	-9.60093
▁은전	-9.60107
▁나와서	-9.60118
했습니다	-9.60265
▁석을	-9.60283
▁직에	-9.60309
▁국가에서	-9.60326
국	-9.60332
▁합사하여	-9.60337
▁정원	-9.60403
▁한명회	-9.60479
▁있더라도	-9.60657
▁세상	-9.60667
함으로써	-9.60704
▁있었고	-9.60824
▁형세가	-9.60859
▁듯하니	-9.6088
▁칙서	-9.60894
하겠습니까	-9.6093
노	-9.60993
▁이달	-9.6104
▁우러러	-9.61114
▁도리가	-9.61141
▁올렸는데	-9.61239
▁대신들이	-9.61317
▁마음으로	-9.61391
▁안으로	-9.61397
▁버리고	-9.61411
▁했다	-9.61481
▁합당하지	-9.61528
▁생각하여	-9.61552
▁꼬리	-9.61564
▁엄중히	-9.61628
▁일렀다	-9.6163
▁왕	-9.61644
▁무엇이	-9.61668
▁곳에서	-9.61798
▁훈련	-9.61824
됩니다	-9.61895
▁뿐이다	-9.61902
▁허락	-9.61925
▁하교를	-9.61934
▁지나지	-9.61934
▁백성에게	-9.62262
▁재물	-9.62626
▁황제	-9.62636
향	-9.62653
하다고	-9.62709
▁없었으니	-9.62752
신의	-9.62803
▁논한	-9.62871
코	-9.63062
▁듣는	-9.63133
▁모여	-9.63142
▁물어	-9.63329
▁만든	-9.63346
▁유시	-9.63415
▁문득	-9.63421
▁11	-9.63491
좌	-9.63502
▁파직하고	-9.6351
▁말하고	-9.63614
▁근거	-9.63622
▁못하다	-9.63654
▁넉넉	-9.63698
▁품고	-9.63699
겸	-9.63748
▁옥당	-9.63931
▁봉	-9.63942
▁간혹	-9.63952
▁있던	-9.63965
▁달이	-9.63996
▁중요한	-9.64
▁조용	-9.64072
▁밖으로	-9.64139
▁악	-9.64139
태	-9.6418
▁처분	-9.64248
▁삼사	-9.64274
▁논	-9.64283
▁도사	-9.64297
▁근심	-9.64493
▁일인데	-9.64509
로부터	-9.64512
▁허락하였다	-9.64613
비	-9.6464
▁없던	-9.64766
▁아뢰는	-9.64821
▁말과	-9.6488
▁있었으므로	-9.64896
▁않는다고	-9.64934
▁뇌물	-9.65042
▁다스리	-9.65153
하였던	-9.65223
▁무리들이	-9.65317
부사	-9.65332
▁주기를	-9.65352
옥	-9.65359
▁파직하소서	-9.65412
▁논박	-9.65417
▁탄핵	-9.65465
▁부제학	-9.65621
▁수도	-9.65721
달	-9.65754
▁상하	-9.65783
▁명하였는데	-9.65813
▁무리가	-9.65823
▁죽을	-9.65922
▁피	-9.65928
▁대소	-9.65959
▁마련	-9.66076
▁추고하소서	-9.66095
▁자급을	-9.66157
▁밖에서	-9.66219
▁만들	-9.66232
배	-9.66259
언	-9.66322
▁단	-9.66356
▁멋대로	-9.66462
▁누차	-9.66486
해서는	-9.66534
초	-9.66556
▁어렵다	-9.66597
▁형세	-9.66631
▁원수	-9.66732
에서는	-9.66806
▁좌우	-9.66851
▁한성부	-9.6689
▁지난번에	-9.67013
▁폐	-9.6702
난	-9.67128
▁세워	-9.67147
▁가상	-9.67153
▁재	-9.67238
▁추고하라	-9.6725
▁보낼	-9.67275
▁물어서	-9.67339
▁길	-9.67349
▁사이	-9.67373
▁현	-9.67377
▁우박이	-9.67577
▁이조에서	-9.67601
▁돌	-9.67689
▁다스리지	-9.67696
▁들어갔는데	-9.67714
▁차지	-9.67908
▁땅에	-9.67974
통	-9.68034
▁행할	-9.68407
▁뒤로는	-9.68434
▁용서할	-9.68444
직	-9.68501
▁별로	-9.68717
▁어미	-9.68762
최	-9.68833
▁앞에	-9.68851
▁사사로운	-9.68902
▁없도록	-9.68943
▁남아	-9.68987
▁거둥하여	-9.69095
▁의해	-9.69383
▁포	-9.69429
▁있었기	-9.69435
▁일찍	-9.69471
▁결정	-9.69518
▁걱정	-9.69524
▁체모	-9.69569
▁경솔	-9.6961
▁받게	-9.69613
하시는	-9.69664
▁경연	-9.69669
▁의금부	-9.69714
▁적지	-9.69765
같이	-9.6984
▁방어	-9.69855
지만	-9.69861
▁받을	-9.69914
▁물러나	-9.70106
병	-9.70229
결	-9.70276
▁도감	-9.70388
▁영남	-9.70466
▁자와	-9.70489
하겠습니다	-9.70518
▁되는데	-9.70545
▁없었던	-9.70753
곤	-9.70921
▁머리를	-9.70926
▁많습니다	-9.70965
하시고	-9.7106
▁토산물을	-9.71127
▁민	-9.71133
▁제사	-9.71158
▁하기에	-9.71208
실	-9.71224
▁하사하였다	-9.71248
▁입시	-9.71272
▁것이요	-9.71278
▁면포	-9.71348
▁고신을	-9.71421
▁봄	-9.71472
▁아내	-9.71486
▁사유를	-9.7162
▁생원	-9.71632
▁조금이라	-9.71658
건	-9.71693
▁한때	-9.7176
▁성의	-9.71811
▁계획	-9.71865
스러운	-9.71906
흥	-9.71932
▁잇달아	-9.72043
파	-9.72149
▁아래에	-9.72171
▁세자	-9.72418
▁생각해	-9.72442
▁당한	-9.72451
▁임금에게	-9.72553
▁창	-9.7256
▁적당	-9.72617
▁호조에	-9.72709
▁호조에서	-9.72777
▁참여하지	-9.72788
▁자신이	-9.72815
▁별	-9.72817
▁수찬	-9.72873
▁함길도	-9.72893
록	-9.7296
▁생각으로는	-9.72962
▁아니한	-9.73006
하기도	-9.73086
▁입은	-9.73131
▁감당할	-9.73166
▁시행	-9.73166
▁오랑캐	-9.73219
▁점차	-9.73225
▁응당	-9.73231
▁모르겠다	-9.73315
▁남은	-9.73384
▁계문	-9.73397
▁대왕	-9.73471
▁것처럼	-9.73508
불	-9.73593
▁시행하게	-9.73618
지는	-9.73623
▁품처	-9.73649
▁않았기	-9.73693
▁지난해	-9.73709
▁유시하였다	-9.73741
▁굳게	-9.73755
▁서리	-9.73829
▁중지	-9.7385
▁관작을	-9.73883
▁의견	-9.73915
▁없었는데	-9.73948
으로부터	-9.73996
충	-9.74
▁어진	-9.74004
▁된다면	-9.74041
년에	-9.74057
▁의논할	-9.74097
▁날씨	-9.74111
▁존호를	-9.74137
▁받았으니	-9.74155
▁종친	-9.74158
▁경우는	-9.74165
▁약간	-9.74199
▁영사	-9.74226
기도	-9.74245
인은	-9.74345
▁인심	-9.74439
▁사간원에서	-9.74465
▁제도를	-9.74475
▁올리니	-9.74501
수록	-9.74508
감	-9.74604
▁아버지	-9.74723
▁요즈음	-9.74801
▁선전관	-9.74819
▁물	-9.74933
▁안에서	-9.74941
▁기한	-9.75002
▁거둥	-9.75004
▁승정원	-9.7501
▁종사	-9.75011
▁관원	-9.75177
▁행하는	-9.75181
▁선조	-9.75191
▁흰	-9.7536
▁근	-9.75376
▁원망	-9.75431
▁되었을	-9.75461
▁보통	-9.75503
▁환궁	-9.75504
▁사람으로서	-9.75584
▁그렇다면	-9.75588
▁가자	-9.75622
▁좌	-9.75626
▁비변사	-9.75759
▁내관	-9.7585
▁대사성으로	-9.75867
으나	-9.75963
▁서용	-9.76036
▁강하기를	-9.76178
길	-9.76187
▁옥사	-9.76227
▁돌아가	-9.76248
▁양식	-9.76327
▁놓고	-9.76357
▁궁	-9.76465
형	-9.76475
교	-9.76489
▁주라	-9.76595
▁국사	-9.76691
▁고칠	-9.76696
▁응	-9.7685
▁심정	-9.76923
▁죽게	-9.76951
▁목숨	-9.77046
▁실려	-9.77067
▁함경도	-9.77134
▁서쪽	-9.77155
▁많아	-9.77171
▁쓰	-9.77199
▁찾아	-9.77266
▁그치지	-9.77686
▁품	-9.77731
▁치	-9.77737
▁공경	-9.77742
▁돌아와	-9.77763
▁지휘	-9.77819
▁간절	-9.7783
▁시행하라	-9.7784
▁백관을	-9.77849
▁기강이	-9.77909
▁고사	-9.77926
▁배척	-9.7794
▁신칙	-9.77946
왕	-9.77962
▁꾀	-9.77994
▁얻어	-9.78018
▁나타났다	-9.78066
▁여긴다	-9.78104
▁의논해	-9.78119
▁같았다	-9.78215
▁죽음	-9.78259
▁본부	-9.78274
▁과거에	-9.78385
경에	-9.78429
▁더러	-9.78456
▁도에	-9.78549
▁바치는	-9.78665
▁고을에서	-9.78708
▁써	-9.78758
▁했으니	-9.78878
▁날짜를	-9.78967
▁내리지	-9.7897
▁바라는	-9.79031
▁빠져	-9.79184
▁지방에	-9.79206
되었으니	-9.79211
하였다고	-9.79267
▁옥	-9.79297
▁묘당으로	-9.79333
▁바에	-9.79424
▁의식	-9.79496
▁어떠한가	-9.7951
▁13	-9.79514
▁절목	-9.79516
▁이름	-9.79543
▁상소에	-9.79543
▁변경	-9.79807
▁대전	-9.79819
▁영상	-9.80187
수를	-9.80259
▁만드는	-9.80265
▁자의	-9.80292
▁사람들에게	-9.80297
▁완전	-9.80368
▁장사	-9.80406
▁사세	-9.80436
▁원컨대	-9.8049
▁상참	-9.80501
▁아우	-9.80514
▁외	-9.80661
▁사면	-9.80683
속	-9.80692
▁목사	-9.8078
▁어버이	-9.80832
▁예전	-9.80859
▁이르지	-9.80863
▁이로써	-9.80984
▁거리	-9.80992
▁해조에	-9.81006
▁마땅하겠습니다	-9.81188
▁교지	-9.81236
▁정배	-9.81269
▁체차	-9.81302
▁현감	-9.81378
▁영구	-9.81411
▁학문	-9.81419
▁군수	-9.81475
▁돌려	-9.81484
▁만에	-9.81505
▁벌써	-9.81516
▁옥사를	-9.81606
▁전지	-9.81615
에도	-9.8166
께서	-9.81704
▁국가에	-9.81711
▁기다려서	-9.81745
▁상고해	-9.81768
▁천하	-9.81783
대를	-9.81793
▁손	-9.81831
▁성품이	-9.81881
▁행동	-9.81885
▁두려워하여	-9.81926
▁도제조	-9.81945
철	-9.82162
▁살아	-9.82225
▁두려워	-9.823
▁교서	-9.82327
갈	-9.8234
▁하교하였다	-9.82408
▁친	-9.82499
▁헌부에서	-9.82512
▁있	-9.82607
▁사직하니	-9.82619
▁석방	-9.82732
시키는	-9.8281
▁죽인	-9.82865
▁다투어	-9.82894
▁나도	-9.82932
▁년	-9.82959
▁임명	-9.82964
▁내리기를	-9.82969
귀	-9.82971
▁기록하여	-9.8298
▁값을	-9.83076
추	-9.83083
▁공론이	-9.83267
▁상고	-9.83276
▁사례	-9.83335
▁천거	-9.83378
했을	-9.83405
했다고	-9.83436
▁있었으나	-9.83447
▁입을	-9.83452
▁의정부에	-9.83498
▁설치하여	-9.83505
▁않았으므로	-9.83526
▁죄에	-9.83616
저	-9.83661
▁가까이	-9.83696
사를	-9.83765
▁경연에서	-9.83779
춘	-9.83809
▁어렵게	-9.83874
▁요	-9.83926
▁추고하고	-9.83937
근래	-9.83955
▁외람되게	-9.83971
▁강하였다	-9.8402
▁입진	-9.84095
었고	-9.84129
▁왜적	-9.84195
▁이르기까지	-9.84268
▁곳은	-9.84313
▁도적	-9.84479
하실	-9.8453
▁이상의	-9.8455
경의	-9.84558
▁건	-9.84602
▁보게	-9.84639
▁사형	-9.84671
▁겨를이	-9.84752
▁시행하는	-9.84762
▁떠나	-9.84801
▁시사	-9.84819
▁곤장	-9.84838
▁답	-9.85097
▁관직에	-9.85136
▁물의가	-9.85168
▁보내게	-9.85172
▁이래로	-9.85184
갖	-9.85243
▁진휼	-9.85281
량	-9.85336
▁길에	-9.85348
▁입	-9.85371
▁흉악한	-9.85418
▁대략에	-9.85478
▁얻지	-9.85502
▁치계하였다	-9.8564
▁미안한	-9.85713
▁번이나	-9.85731
▁이른	-9.85739
▁바는	-9.85752
▁자에게	-9.85765
▁사실이	-9.85775
▁엄한	-9.85811
▁금부	-9.85816
▁것인지	-9.85876
▁보냈다	-9.85942
▁시험	-9.86049
▁나가서	-9.8608
▁비단	-9.86121
▁오게	-9.86131
▁실상	-9.86149
▁있은	-9.86174
▁아침	-9.86238
▁설치하고	-9.86257
▁없으면	-9.86301
▁형편	-9.8653
▁저들이	-9.86568
▁적은	-9.8657
▁어리석은	-9.86571
▁마	-9.86585
▁주장	-9.86756
▁승지가	-9.86767
▁하려고	-9.8683
▁청을	-9.86848
▁하늘에	-9.86938
▁비국이	-9.86996
▁삭제	-9.86998
▁말입니까	-9.87024
말로	-9.8703
▁이가	-9.87043
▁못했습니다	-9.87078
▁졸하였다	-9.87136
례를	-9.87146
▁신숙주	-9.87264
▁데서	-9.87283
▁풀어	-9.87316
이번	-9.87318
경은	-9.87575
▁각사	-9.87582
▁사실	-9.8765
▁되었고	-9.8765
▁가게	-9.87686
▁허적이	-9.87715
▁어디에	-9.87726
▁베풀어	-9.87734
▁문제	-9.87833
▁주의	-9.87872
▁후일	-9.87937
▁삼공	-9.87999
▁본조	-9.88005
▁까닭에	-9.88005
▁병조가	-9.8802
▁주어서	-9.88044
▁대신들에게	-9.88083
▁길이는	-9.88102
▁태	-9.88148
▁이제부터는	-9.882
채	-9.8822
▁왕세자	-9.88276
▁이조에	-9.88307
▁정도	-9.88326
▁곡식이	-9.88391
▁심지어는	-9.88435
▁제주	-9.88497
병조	-9.88525
▁사신에게	-9.88596
득	-9.88615
▁시행하지	-9.88683
▁아니겠습니까	-9.88692
▁당상관	-9.88825
▁이후	-9.88837
▁하늘이	-9.8884
▁남쪽	-9.88861
등	-9.88928
▁설치한	-9.88935
▁전라	-9.88976
▁걱정이	-9.8904
▁기운이	-9.8909
▁군	-9.89108
했기	-9.89134
분	-9.89169
▁타	-9.89295
▁극진	-9.89305
시키고	-9.89346
▁명백	-9.89358
규	-9.8943
▁마디	-9.89494
역	-9.89674
▁왜	-9.89754
▁부자	-9.89832
▁호남	-9.89837
▁광	-9.89846
▁사용	-9.89888
▁돌아왔다	-9.89892
▁있을까	-9.89892
▁욕	-9.89968
▁따르고	-9.90055
▁풍속	-9.90093
▁명령이	-9.90119
▁입시하였다	-9.90147
▁시행할	-9.90161
▁족	-9.90324
▁따를	-9.90362
자를	-9.90368
▁정치	-9.90385
▁지키는	-9.90394
▁겸하여	-9.90402
▁거행하게	-9.90414
▁서서	-9.90427
▁서장	-9.90437
▁이들	-9.90439
▁바치고	-9.90456
▁추국	-9.90461
▁너희들	-9.90508
▁바다	-9.90555
▁노비를	-9.90611
▁법으로	-9.90662
▁망	-9.90671
린	-9.90688
▁되었으며	-9.90718
우리	-9.9073
▁누구	-9.90835
▁정창손	-9.90861
▁간원	-9.90886
▁가운데에	-9.90988
▁부처	-9.91016
▁대군	-9.91041
▁그만둘	-9.91066
망	-9.91071
▁율이	-9.91115
▁가벼운	-9.91146
▁앞	-9.91194
▁못하겠다	-9.91229
▁출입	-9.91232
합	-9.9128
▁취	-9.9129
▁신칙하여	-9.91336
▁백관이	-9.91338
▁않다고	-9.91447
▁언관	-9.91531
들에게	-9.91554
▁사은	-9.91597
▁표	-9.91609
▁내리는	-9.91665
▁만하다	-9.9167
▁얼마나	-9.91681
▁안심하고	-9.91722
열	-9.91835
▁아침에	-9.91993
▁물정이	-9.9209
▁염려하여	-9.92159
▁범	-9.92234
▁뜻	-9.92261
▁거	-9.92327
▁낭관	-9.92412
▁추	-9.92419
▁잡	-9.92424
▁위해서	-9.92472
▁듯	-9.92551
▁진사	-9.92561
▁가하다	-9.92602
랑	-9.92646
▁살고	-9.92751
원이	-9.92794
르게	-9.92912
▁신중히	-9.92913
▁예전에	-9.92944
▁말하여	-9.93076
했다는	-9.93258
▁논의가	-9.93357
▁모양	-9.93379
▁경사	-9.93404
▁열어	-9.93415
▁쓰게	-9.93496
▁가을	-9.93503
인과	-9.93533
▁부제학으로	-9.93637
▁바치게	-9.93683
▁뜻에서	-9.93769
▁대궐에	-9.93773
▁행하지	-9.93784
▁역관	-9.93864
▁상신	-9.93864
▁진정	-9.93908
▁예조의	-9.93939
▁서울로	-9.9406
▁따르는	-9.9409
▁이것으로	-9.94201
▁경솔하게	-9.94225
▁위의	-9.94241
▁논의를	-9.94359
▁하는가	-9.94444
원을	-9.94449
▁군관	-9.94507
반	-9.94525
▁전조	-9.94641
▁믿을	-9.94647
▁실수	-9.94649
▁많아서	-9.94651
▁좋겠습니다	-9.94742
▁하였더니	-9.94803
▁통정대부	-9.94922
▁그러한	-9.9494
▁하고자	-9.94986
▁그대들	-9.95069
평	-9.95322
▁북	-9.95346
▁집안	-9.95366
▁저절	-9.9539
집	-9.95399
▁종묘에	-9.95433
▁올리게	-9.95454
▁사유	-9.95478
▁몸이	-9.95497
예	-9.95589
학	-9.95675
▁상사	-9.95702
▁천지	-9.9574
식	-9.95815
되었다	-9.95879
촌	-9.95891
▁내용은	-9.95903
▁미	-9.95926
▁묘	-9.95932
▁제도에	-9.95968
▁되자	-9.9597
▁설	-9.9598
▁당상과	-9.95989
▁당시에	-9.9601
▁임금은	-9.96061
▁수군	-9.9611
▁온당하지	-9.9613
▁평소	-9.96185
▁이해	-9.96205
▁두렵습니다	-9.96309
▁사직을	-9.96346
▁대단	-9.96355
▁많을	-9.96395
▁형조에	-9.96404
▁청하기를	-9.96407
하나	-9.96419
▁도감의	-9.96445
인들	-9.96504
▁똑같	-9.96513
▁않기	-9.96535
▁내년	-9.96555
▁옥당이	-9.96568
자는	-9.966
▁사인	-9.96622
▁생각에는	-9.96652
▁폐해	-9.96661
▁도내	-9.96678
▁충분	-9.96742
▁곡식	-9.96747
▁창고	-9.96769
▁대가	-9.96771
▁내렸는데	-9.96776
▁사리에	-9.96803
▁아래로	-9.9683
만은	-9.96861
본	-9.96871
▁쌀을	-9.96889
▁집이	-9.96941
▁밝게	-9.96953
▁행차	-9.96979
▁발	-9.97033
▁백성들에게	-9.97132
▁마련하여	-9.97146
숙	-9.97296
▁도감이	-9.97312
악	-9.97315
▁나에게	-9.97349
▁16	-9.97394
▁아직까지	-9.97402
▁가져다	-9.97416
피	-9.97436
궁	-9.97465
▁면할	-9.97469
▁찬	-9.97656
▁책	-9.97947
▁치고	-9.97993
▁파직시키소서	-9.98094
▁혹시라도	-9.98101
▁마땅하지	-9.98103
▁진달한	-9.98137
▁전에는	-9.98209
▁처리할	-9.98332
▁짓	-9.98336
▁진하	-9.98338
▁차출	-9.98368
▁좌랑으로	-9.98406
▁패	-9.98442
▁건너	-9.9847
▁일이라	-9.98475
▁들어가서	-9.98481
▁사기	-9.98499
▁태연	-9.98512
▁차례로	-9.98543
▁방비	-9.98553
변	-9.9858
▁충성	-9.98591
▁절도사	-9.98609
▁여기	-9.98699
▁자연	-9.9872
▁서경	-9.98732
▁모르고	-9.98817
▁물품을	-9.98864
▁어가	-9.98935
▁크고	-9.98977
▁기회	-9.98987
▁법은	-9.99067
▁내려서	-9.99074
▁지낸	-9.99124
▁여길	-9.99136
번	-9.99138
▁규정	-9.99224
▁판	-9.99226
▁이르게	-9.99368
▁의도	-9.99382
▁비변사에	-9.99384
래도	-9.99398
▁땅을	-9.99473
▁거짓	-9.995
▁것입니까	-9.99532
▁이르라	-9.99569
▁놀랍고	-9.99614
▁증세	-9.99679
▁내용으로	-9.99687
▁없겠는가	-9.99695
▁조선	-9.99705
▁귀양	-9.99721
▁유생들이	-9.99748
▁전적으로	-9.99781
▁너무나	-9.99833
▁문서를	-9.99884
▁다스릴	-9.99889
▁인물이	-9.99914
▁이것	-9.99956
▁말도	-9.99977
▁사자	-10.0003
▁옷	-10.0008
헌	-10.0013
▁같고	-10.0016
▁아래	-10.0017
▁그날	-10.0024
▁처리하게	-10.0025
▁깊은	-10.0034
▁사체에	-10.0035
▁것이었습니다	-10.0037
▁도승지로	-10.0041
약	-10.0043
▁하례를	-10.0043
▁어떻겠는가	-10.0047
으면	-10.0055
▁앉아	-10.0059
▁근본	-10.006
▁판부사	-10.006
▁왕자	-10.0063
▁의망	-10.0064
▁문을	-10.0066
▁많았다	-10.0067
▁직임에	-10.0072
▁통사	-10.0075
▁심하여	-10.0077
▁제수한	-10.0077
곡	-10.008
▁입어	-10.0089
되었는데	-10.0094
▁흉년	-10.0102
▁말씀	-10.0103
▁사판에서	-10.0118
▁중국에	-10.0133
▁응교로	-10.0135
▁많은데	-10.0137
▁앞에서	-10.0139
▁거두소서	-10.0145
▁거처	-10.0152
▁눈	-10.0152
▁지진이	-10.0162
▁바친	-10.0165
적인	-10.0166
▁때부터	-10.0167
▁때까지	-10.017
▁영원	-10.0171
에다	-10.0172
▁묻지	-10.0184
▁재변이	-10.019
▁바입니다	-10.0191
▁죄로	-10.0193
례	-10.0194
▁마시고	-10.0194
▁행하여	-10.0196
▁윤필상	-10.0197
▁뽑아서	-10.0211
▁받았는데	-10.0221
▁극력	-10.0222
수가	-10.0234
▁야인	-10.0234
▁아니할	-10.0236
▁담당	-10.0238
▁결과	-10.0242
▁그리	-10.0254
▁것으로써	-10.026
▁안치	-10.0262
▁의논해서	-10.0272
▁덕이	-10.0273
▁동지사	-10.0274
▁병마	-10.0278
▁얻은	-10.0281
▁무과	-10.0296
었으므로	-10.0298
▁수량	-10.0309
▁전해	-10.0311
▁아뢰었는데	-10.0312
울	-10.0316
▁끝에	-10.0323
▁곡	-10.0323
친	-10.0327
견	-10.0328
▁말하면	-10.0332
▁집으로	-10.0335
▁되겠는가	-10.0336
▁변이	-10.0336
날	-10.034
전의	-10.0342
▁좌승지	-10.0347
줄	-10.035
▁이르니	-10.0352
림	-10.0355
증	-10.0366
▁재앙	-10.037
▁시행하소서	-10.0377
▁사서	-10.0381
우의정	-10.0386
▁죄인을	-10.0388
▁않더라도	-10.0391
▁받아들이지	-10.0395
▁기필	-10.0395
▁재변	-10.0395
스	-10.0405
▁외에	-10.0412
▁거행할	-10.0416
▁하려는	-10.0429
환	-10.0429
▁본시	-10.0429
▁아니하니	-10.0431
▁보내라	-10.0432
▁가선대부	-10.0436
▁기다리지	-10.0439
침	-10.0443
▁강도	-10.0447
▁베	-10.0452
▁재해	-10.0452
▁약방에서	-10.0453
▁처음부터	-10.0456
▁눈이	-10.0457
▁상차하여	-10.0466
▁땅이	-10.0467
▁병조의	-10.047
▁소식	-10.0475
▁한편으로는	-10.0476
▁외방의	-10.0479
▁않았으며	-10.0482
▁체포	-10.0493
▁호조가	-10.0493
▁설치	-10.0505
▁좋을	-10.0517
▁다해	-10.0522
▁의논에	-10.0523
▁없지만	-10.053
▁글자	-10.0537
▁만들고	-10.054
▁것일	-10.0544
▁중외	-10.0544
▁하여야	-10.0554
▁대각	-10.0555
▁있는데도	-10.0557
▁효	-10.0568
▁논의	-10.0579
▁며칠	-10.058
▁여섯	-10.0606
▁옥에	-10.0613
▁헤아	-10.0614
▁대죄	-10.0614
▁내용이	-10.0619
▁글자를	-10.0623
▁지난날	-10.0624
근래에	-10.0626
▁보이	-10.0632
▁좌상	-10.0637
▁어머니	-10.0639
▁환수	-10.064
▁안의	-10.0655
▁증거	-10.066
▁승전을	-10.066
▁세운	-10.066
▁시행하도록	-10.0661
▁대부분	-10.0666
▁올릴	-10.0666
▁논하여	-10.0671
▁여자	-10.0673
▁유신	-10.0676
문을	-10.0678
▁거두고	-10.068
▁양이	-10.0688
▁하시니	-10.0688
▁될까	-10.0691
▁지위	-10.0691
▁생각하고	-10.0693
▁물에	-10.0699
▁읍	-10.0699
▁승복하지	-10.0702
▁상의하여	-10.0705
▁소대	-10.0705
▁큽니다	-10.0716
▁결단코	-10.0717
▁차지한	-10.0722
▁더하여	-10.0725
▁않으며	-10.0737
▁양사	-10.0743
▁북경에	-10.0745
▁뭇	-10.0745
▁일시에	-10.0749
발	-10.075
▁논계	-10.0751
▁기록	-10.0779
▁심합니다	-10.0779
▁좋지	-10.0781
▁관찰사에게	-10.0783
▁회계	-10.0788
허	-10.08
▁달리	-10.0804
▁사대부	-10.0818
▁진상	-10.0822
▁도신	-10.0827
▁필	-10.0829
져	-10.0831
▁때마다	-10.0833
▁분명하게	-10.084
▁고기를	-10.0846
▁대제학	-10.0846
▁후하게	-10.0851
▁다행히	-10.086
▁승	-10.0861
▁된다고	-10.0861
▁명의	-10.0863
▁공문	-10.0867
▁한창	-10.0873
성을	-10.0886
▁실어	-10.0888
풍	-10.0892
▁군신	-10.0894
부를	-10.0896
▁체임	-10.0897
▁거두	-10.0899
▁도망하여	-10.0909
▁정문에	-10.0911
▁물을	-10.0915
▁바른	-10.0915
▁안정	-10.0919
비록	-10.0923
▁부응교로	-10.0924
▁섬	-10.0925
껏	-10.0925
▁우려	-10.0926
▁믿고	-10.0931
▁녹봉	-10.0931
▁되겠습니까	-10.0932
▁감사와	-10.0935
▁자전	-10.0935
▁용	-10.0936
▁심하게	-10.0936
▁삼았는데	-10.0936
▁이전에	-10.0937
▁은밀	-10.0942
극히	-10.0947
▁법대로	-10.0948
▁행한	-10.0953
번에	-10.0956
▁노고	-10.096
▁못한다	-10.0967
▁쉽게	-10.0968
▁등급을	-10.0969
▁유지	-10.0972
▁문과	-10.0973
▁의논하는	-10.0981
▁못하였는데	-10.0983
사로	-10.0983
▁이야기	-10.0988
▁돌아갈	-10.0989
▁판윤으로	-10.0989
▁계책이	-10.0991
일을	-10.0992
▁방면	-10.0998
▁입직	-10.1007
▁없다면	-10.1014
▁주서	-10.1015
▁마구	-10.1023
▁특히	-10.1025
▁억울함	-10.1026
▁너	-10.1029
▁아뢸	-10.1031
▁정사가	-10.1032
▁들어와서	-10.1038
▁맞아	-10.104
▁무리를	-10.1044
립	-10.1045
▁국문하게	-10.1046
▁사사	-10.1059
▁왔는데	-10.106
▁팔	-10.1061
▁서둘러	-10.1064
▁수령으로	-10.1067
▁신하로서	-10.1071
▁처리하는	-10.1072
▁합당한	-10.1078
하시니	-10.1079
▁이르렀다	-10.1081
▁이내	-10.1081
▁자로	-10.1082
▁거조	-10.1087
▁벌	-10.1091
▁하다가	-10.1098
▁외람되	-10.1109
▁파면	-10.1109
▁용서	-10.1117
▁방도	-10.1118
▁정조	-10.1119
▁모시고	-10.1121
▁올라	-10.1122
▁봄에	-10.1126
▁추고하여	-10.1129
▁강화	-10.114
▁저들	-10.1141
▁사실대로	-10.1141
▁다하지	-10.1143
▁교	-10.1144
인의	-10.1146
▁대전에	-10.1149
▁조치	-10.1152
▁남을	-10.1153
▁친제	-10.1157
관이	-10.1157
독	-10.1161
▁이조가	-10.1164
▁시험을	-10.1174
고자	-10.1176
징	-10.1178
▁세상에	-10.1178
▁극	-10.1181
▁희	-10.1182
▁놀라고	-10.1187
정언	-10.1188
▁예로	-10.1196
관을	-10.1201
▁잃은	-10.1203
▁참여	-10.1203
▁상왕이	-10.1208
2	-10.1209
절	-10.1214
▁전부터	-10.1216
▁않고서	-10.1222
▁상황을	-10.1224
▁술	-10.1229
▁신문	-10.123
▁논하는	-10.1231
▁대신들	-10.1236
▁삼공이	-10.1239
▁가진	-10.1241
▁태조	-10.1242
▁우상	-10.1244
▁세우고	-10.1247
▁엄중	-10.1247
▁있지만	-10.125
▁네가	-10.1256
▁무사	-10.1257
▁삭탈	-10.1257
▁시위	-10.1259
▁의복	-10.1261
▁되게	-10.1268
▁간통	-10.1269
▁늙은	-10.1274
▁이제부터	-10.1277
▁수령들이	-10.128
▁편지	-10.128
▁뽑았다	-10.1282
▁이외에	-10.129
▁자에게는	-10.1293
▁천천	-10.1295
음	-10.1296
▁결단	-10.1304
인가	-10.131
▁변방에	-10.1312
축	-10.1314
▁난리	-10.1318
▁왜인	-10.1318
이기	-10.1324
▁훌륭한	-10.1327
▁감찰	-10.1328
▁제때	-10.1332
▁말미암아	-10.1335
▁제수하고	-10.1338
꺼	-10.134
▁정원에서	-10.1343
▁이웃	-10.1344
▁올리	-10.1345
▁처리하라	-10.1347
묘	-10.1347
▁준비	-10.1358
▁합	-10.1359
▁평소에	-10.1365
▁저녁에	-10.1367
▁음악을	-10.1367
▁옷을	-10.137
▁담	-10.1371
척쯤	-10.1379
▁유사	-10.1388
▁가부	-10.1388
▁하셨습니다	-10.139
▁않는다는	-10.1391
▁징계하지	-10.1391
▁일본	-10.1391
▁적용	-10.1393
▁동지	-10.1394
▁받들	-10.1396
▁하옵소서	-10.1399
▁개정하소서	-10.1399
▁구차하게	-10.1401
▁황제가	-10.1404
▁한재	-10.1408
▁처벌	-10.141
▁조사해	-10.1411
▁문관	-10.1411
▁비망기로	-10.1413
▁않았다고	-10.1416
▁무고	-10.1422
▁어쩔	-10.1423
▁아니겠는가	-10.1425
▁함으로써	-10.1426
▁밤낮으로	-10.1428
▁지고	-10.143
▁베풀	-10.143
천여	-10.1432
▁금하지	-10.1433
▁조회	-10.1434
▁주어야	-10.1437
▁영돈녕	-10.1442
▁앉아서	-10.1442
▁번갈아	-10.1445
1	-10.1447
▁지사	-10.1455
▁의리에	-10.1458
판	-10.1459
군수	-10.1465
▁부지런히	-10.1473
칠	-10.1475
▁우승지	-10.1477
▁충청	-10.1488
▁예문관	-10.1488
긴	-10.149
▁되도록	-10.1492
▁궁궐	-10.1494
▁가두고	-10.1497
▁하사	-10.1497
씨	-10.1497
▁대의	-10.1503
▁필을	-10.1511
▁살펴보고	-10.152
▁기우제	-10.152
▁손자	-10.1525
말	-10.1527
▁좌랑	-10.1531
▁베풀고	-10.1533
하러	-10.154
▁증	-10.1548
▁판관	-10.155
▁공공연	-10.1556
▁기강	-10.1557
▁전일의	-10.1558
▁토물	-10.1563
▁달라	-10.1563
처	-10.1566
정이	-10.1567
알았다	-10.1569
▁전문	-10.1572
▁잡은	-10.1573
▁삼을	-10.1579
▁죽이고	-10.1583
▁듣고서	-10.1584
▁곧장	-10.1587
▁많지	-10.159
작	-10.1592
▁시비를	-10.1598
▁소란	-10.1603
▁내지	-10.1605
▁하례	-10.1608
▁양전	-10.1609
▁누	-10.1613
▁계본	-10.1614
▁체직시켜	-10.1617
되었습니다	-10.1618
▁정랑으로	-10.1624
▁등에	-10.1625
▁환관	-10.1625
▁수령은	-10.1626
▁근심이	-10.1626
▁보여	-10.1631
극	-10.1632
▁국	-10.1636
▁않았을	-10.1638
▁공사	-10.1639
▁정하고	-10.1651
▁사무	-10.1655
▁자복하지	-10.1656
▁경차관	-10.1661
▁하유	-10.1679
▁이문	-10.1685
패	-10.1689
▁고통	-10.1695
▁시임	-10.1705
▁실록	-10.1709
▁편치	-10.1721
▁바르게	-10.1721
▁죄다	-10.1723
▁정랑	-10.1735
▁거행하는	-10.1738
▁청나라	-10.174
▁가자를	-10.1746
▁갔다	-10.1751
찬	-10.1752
▁무리	-10.1753
▁규례	-10.1753
▁이하의	-10.1754
전을	-10.1757
▁분수	-10.176
▁나라는	-10.1768
하기까지	-10.1769
▁진주	-10.1775
읍	-10.1778
▁의논한	-10.178
▁차자	-10.1784
▁죽는	-10.1785
▁잠	-10.1787
▁감독	-10.1788
▁없었고	-10.1792
▁눈물	-10.1793
▁놀라운	-10.1795
▁자들은	-10.1799
▁마음은	-10.1801
▁신도	-10.1805
▁중신	-10.1809
▁14	-10.1813
▁익히	-10.1822
▁차출하여	-10.1829
토	-10.1836
▁법	-10.1839
▁고치지	-10.1839
▁의논하라	-10.1843
▁책을	-10.1847
▁군자	-10.1848
▁접대	-10.185
▁미루어	-10.1852
▁성대한	-10.1853
▁재목	-10.186
▁조종조	-10.1864
좌의정	-10.1869
▁살피	-10.1871
더니	-10.1876
▁시급	-10.1878
▁불가하다	-10.1879
▁추문	-10.1882
훈	-10.1882
▁모두들	-10.1885
판관	-10.1886
▁짓는	-10.1895
하였더니	-10.1899
▁소요	-10.1908
냥	-10.1912
▁처치하여	-10.192
▁딸	-10.192
염	-10.1923
▁까닭이	-10.1926
▁주문	-10.1928
▁인정전에	-10.1932
▁잘못한	-10.1934
▁25	-10.194
시키소서	-10.1941
▁서장관	-10.1941
▁만합니다	-10.1945
▁할지라도	-10.1946
▁죽고	-10.1947
▁알아서	-10.1961
품에	-10.1963
▁처사	-10.1966
▁돌아와서	-10.1972
▁일로써	-10.1974
▁얼굴	-10.1975
▁요동	-10.1981
▁제멋대로	-10.1982
▁같은데	-10.1984
▁조율	-10.1986
▁동쪽	-10.1986
▁동부승지	-10.1999
▁해조	-10.1999
▁계사에	-10.2003
▁의금부가	-10.2014
▁정문	-10.2014
택	-10.2017
▁말하니	-10.2017
▁거짓으로	-10.2018
요즈음	-10.2021
▁본직	-10.2023
▁언로	-10.2024
리가	-10.2032
▁예의	-10.2033
▁조목	-10.2038
▁감하여	-10.2039
년을	-10.2039
▁매번	-10.2044
▁인정	-10.2048
▁들고	-10.2048
▁않도록	-10.2052
▁시독관	-10.2054
▁성명께서	-10.2062
▁평	-10.2069
▁데에서	-10.2069
▁의관	-10.2069
▁송시열	-10.2075
▁편안하게	-10.2089
지난번	-10.2089
▁그들로	-10.2093
▁취하여	-10.2093
물	-10.2094
▁진을	-10.2102
시켰다	-10.2107
▁양사의	-10.2111
▁황희	-10.2112
▁상서	-10.2126
▁기다리고	-10.2129
▁공주	-10.2132
▁소홀히	-10.2133
▁지금에	-10.2135
▁배가	-10.2135
▁염치	-10.2136
▁녹을	-10.2136
▁갖추	-10.2142
여러	-10.2143
▁교화	-10.2145
▁부교리	-10.2147
▁나올	-10.2149
▁드러나	-10.2152
▁치사	-10.2153
▁부역	-10.2154
성이	-10.2155
▁정성이	-10.2156
▁부족한	-10.2159
▁낱낱	-10.2159
▁대관	-10.2169
▁이기지	-10.2171
였습니다	-10.2175
▁일정	-10.2175
▁면하기	-10.2177
▁생각합니다	-10.2183
▁당해	-10.2191
▁정지하고	-10.2192
▁들을	-10.2196
▁조관	-10.2197
▁정사에	-10.2198
▁회	-10.2199
▁종실	-10.2207
▁예로부터	-10.2207
인에게	-10.2208
▁못하면	-10.2209
▁희정당에	-10.221
▁요사이	-10.2211
▁거주하는	-10.2215
▁해당합니다	-10.2219
▁사목	-10.2219
▁구제	-10.2226
▁수리	-10.2228
▁갑사	-10.2234
▁도신이	-10.2241
▁이기	-10.2241
▁거조가	-10.2244
제를	-10.2249
▁성지	-10.2254
편	-10.2258
▁짓고	-10.2258
▁아닌가	-10.2265
▁가자하고	-10.227
▁왔다	-10.2271
▁우부승지	-10.2272
▁관서	-10.2274
세가	-10.2275
▁상복	-10.2277
▁물건	-10.2282
▁이덕형	-10.2302
▁우악한	-10.2303
▁청하옵건대	-10.2305
▁보내서	-10.231
▁받아서	-10.2311
▁진달	-10.2317
▁신중	-10.2319
급	-10.2319
▁너희	-10.2321
▁경비	-10.2322
▁이후에	-10.2324
▁이성	-10.2324
▁십분	-10.2328
▁가리지	-10.2334
▁사위	-10.2335
중국	-10.2341
겠다	-10.2344
겠습니다	-10.2345
▁종사관	-10.2349
▁써야	-10.2349
어서	-10.2354
▁논핵	-10.2365
▁철	-10.2365
▁부원군	-10.2367
▁책봉	-10.2372
▁죽	-10.2374
▁판중추부사	-10.2375
▁전형	-10.2376
▁숙	-10.2378
임을	-10.2379
▁사서로	-10.2381
사의	-10.2385
▁쌓는	-10.2388
▁연유	-10.2388
▁나오게	-10.2389
▁면하지	-10.2391
▁어긋나는	-10.2396
▁고쳐서	-10.2399
▁중국에서	-10.2403
▁응시	-10.2409
▁쾌	-10.2411
▁상주	-10.2411
▁좌부승지	-10.2413
▁어린	-10.2413
폐	-10.2416
▁방도를	-10.2437
▁부응	-10.2441
▁결국	-10.2448
▁90	-10.245
▁경들은	-10.2454
사에	-10.2454
서야	-10.2456
▁신하들에게	-10.2458
▁문신	-10.2462
▁후세에	-10.2465
▁전과	-10.2467
설	-10.2478
▁물이	-10.2479
▁정해진	-10.248
▁등도	-10.248
▁필선으로	-10.2481
▁연계하여	-10.2482
▁논상	-10.2484
▁도절제사	-10.2485
▁방법을	-10.249
▁특별한	-10.249
죄인	-10.2493
▁북쪽	-10.2494
▁것으로서	-10.2501
▁대우하는	-10.2501
▁먹고	-10.2503
▁상소는	-10.2507
▁있기는	-10.2512
빈	-10.2512
▁절도사로	-10.2513
▁근일	-10.2523
▁칠	-10.2524
▁문무	-10.2526
▁많다	-10.2529
▁벼슬에	-10.2534
▁의주에	-10.2537
▁되었으므로	-10.2539
▁이러하였다	-10.2543
▁계하	-10.2545
▁음	-10.2552
▁관원은	-10.2556
색	-10.2561
▁합당할	-10.2568
▁졌다	-10.257
▁사랑	-10.257
▁일만	-10.2572
▁팔도	-10.2573
검	-10.2574
었으며	-10.2574
▁하려	-10.258
▁뜻밖에	-10.2581
▁유배	-10.2581
▁추천	-10.2587
▁않았던	-10.2587
▁주라고	-10.2592
▁삼는	-10.2593
▁들어서	-10.2594
▁기다렸다가	-10.2596
▁동부승지로	-10.2602
▁명에	-10.2603
▁가두어	-10.2607
현에	-10.2607
▁내리신	-10.2608
▁면직	-10.2612
▁그럴	-10.2612
▁모여서	-10.2616
▁터인데	-10.2617
▁살피게	-10.2618
▁적에는	-10.2622
▁헤아려서	-10.2627
▁모조	-10.2632
혜	-10.2635
이면	-10.2639
▁대신들과	-10.2639
▁대사	-10.2642
▁것이어서	-10.2642
▁두는	-10.2643
신을	-10.2646
▁여쭙	-10.2649
▁전교	-10.2653
▁의지	-10.2657
▁품계	-10.2658
▁공초하기를	-10.2659
▁사고	-10.2665
▁운	-10.2666
▁승진	-10.2671
▁홍응	-10.2673
▁것이겠습니까	-10.2679
▁18	-10.2679
▁끝이	-10.2682
▁약방	-10.2683
▁동료	-10.2686
분의	-10.2687
▁좋아하는	-10.2694
탄	-10.2697
▁힘쓰	-10.2698
▁살피고	-10.2707
이어서	-10.2707
▁올량합	-10.2708
▁부득이한	-10.2709
업	-10.2711
▁혼인	-10.2714
▁주강	-10.2715
▁결	-10.2719
▁만호	-10.2719
▁그냥	-10.2719
▁그에게	-10.2721
▁익	-10.2722
▁비국에서	-10.2722
▁금할	-10.2725
▁있는지	-10.2728
▁삼가지	-10.273
암	-10.2736
▁전부	-10.2737
▁진강	-10.2742
▁해주	-10.2743
▁그로	-10.2749
▁있도록	-10.2751
취	-10.2752
▁말해	-10.2752
▁중외에	-10.2755
▁임하여	-10.2761
▁체직하소서	-10.2777
▁접대하는	-10.2777
▁마치고	-10.2777
▁가운데서	-10.2783
▁날짜	-10.2784
▁총	-10.2787
▁맡아	-10.2787
▁춘당대에	-10.2788
▁사은사	-10.2793
▁승문원	-10.2795
▁놀라	-10.2802
▁돌아보지	-10.2802
▁도둑	-10.2803
▁정해	-10.2806
▁시대	-10.2808
▁되므로	-10.2812
▁왕래	-10.2823
이겠습니까	-10.283
▁터	-10.2832
▁살펴보	-10.2833
평안도	-10.2834
체	-10.2834
▁의심할	-10.2837
▁나오는	-10.284
▁관찰사가	-10.2851
▁허물이	-10.2854
▁못했으니	-10.2855
▁책임이	-10.2861
▁도망	-10.2865
▁제기	-10.2865
▁명하기를	-10.2869
자가	-10.2876
▁무겁게	-10.288
▁임시로	-10.288
▁없음	-10.2887
▁번개	-10.2888
▁원하건대	-10.289
▁계청	-10.2894
▁민간	-10.2894
▁있음을	-10.2901
▁하나는	-10.2905
▁하사하고	-10.2906
품으로	-10.2908
▁뿐이니	-10.2909
▁옳다고	-10.2913
손이	-10.2915
▁수십	-10.2918
▁예는	-10.292
▁되어서	-10.2922
▁호군	-10.2924
▁아닐	-10.2927
▁사양하지	-10.2938
련	-10.2945
▁심하니	-10.2947
▁빼앗아	-10.2948
▁장관	-10.2951
▁그것은	-10.2952
부의	-10.2954
▁든	-10.2955
▁몸에	-10.2967
▁막론하고	-10.2967
▁병든	-10.2968
출	-10.2969
▁청하지	-10.2977
▁불쌍	-10.298
▁헤아리지	-10.2983
▁염	-10.2989
▁일으켜	-10.2992
▁당상이	-10.2992
녀	-10.2997
▁돈	-10.3002
▁독	-10.3007
▁베풀었다	-10.3011
▁제수하라	-10.3012
▁혁파	-10.3015
▁발탁하여	-10.3017
▁초사	-10.3024
▁청하자	-10.3028
▁상전	-10.303
▁정시	-10.3031
이번에	-10.3034
▁막중한	-10.3035
▁대체	-10.3037
▁틈	-10.3042
▁붉은	-10.3045
▁가운데에서	-10.3046
▁가볍지	-10.3048
지평	-10.3051
▁민폐	-10.3059
▁해조에서	-10.3061
▁풀	-10.3061
▁논하고	-10.3065
▁체차하소서	-10.3065
▁관례	-10.3067
▁경성	-10.3071
▁제술	-10.3078
▁이하는	-10.3078
▁받았습니다	-10.3089
기까지	-10.309
▁짓이	-10.3091
▁술자리	-10.3091
한데	-10.3096
▁생각지	-10.3099
▁포상	-10.3102
일로	-10.311
▁놀랍습니다	-10.3111
▁내리	-10.3111
▁본조에서	-10.3116
▁종자	-10.3121
▁이수	-10.3133
▁거행하라	-10.3134
루	-10.3134
▁요즘	-10.3137
▁단자를	-10.314
▁무거운	-10.3141
류	-10.3143
▁권세	-10.3145
▁없겠습니까	-10.315
▁금지	-10.3155
▁돌아올	-10.3163
▁이원	-10.3165
▁걸	-10.3166
▁있어서도	-10.317
▁지위에	-10.317
했으나	-10.317
▁점을	-10.317
▁그윽	-10.3171
하기는	-10.3174
▁것보다	-10.3178
▁힘이	-10.3179
▁문서	-10.3182
▁만약에	-10.3187
▁잡고	-10.3188
▁행실이	-10.3189
▁영부사	-10.3192
▁공의	-10.3195
▁흩어져	-10.32
▁겨울	-10.3202
려는	-10.3203
▁정하는	-10.3209
▁맡고	-10.3211
▁내수사	-10.3211
▁정인지	-10.3225
▁삼게	-10.3227
▁까닭을	-10.3231
▁풍	-10.3233
▁세우는	-10.3234
전일에	-10.3237
▁등지에	-10.324
시고	-10.3247
▁처음으로	-10.325
항	-10.3257
▁더할	-10.3261
함	-10.3262
▁애	-10.3267
사가	-10.3269
▁연달아	-10.3283
▁언제	-10.3283
▁본도에	-10.3285
▁용납	-10.3286
▁23	-10.3289
▁있어도	-10.3289
▁평양	-10.3291
▁품계를	-10.3301
▁가뭄이	-10.3304
▁사당	-10.3304
▁못했다	-10.3305
▁보이는	-10.3306
▁영건	-10.3309
▁없애	-10.331
▁시기에	-10.3311
▁잊지	-10.3314
▁펴	-10.3316
▁헌부	-10.3318
▁시를	-10.3321
릉	-10.3321
호를	-10.3324
▁국경	-10.3324
▁관에	-10.3325
▁뒤에도	-10.3328
▁대접	-10.333
이요	-10.3332
▁하시고	-10.3337
적으로	-10.3341
▁바람에	-10.3342
▁문학으로	-10.3345
▁공무	-10.3346
벽	-10.3347
▁부수찬	-10.3349
었으나	-10.335
승지	-10.3353
▁떨어져	-10.3361
▁타서	-10.3361
소를	-10.3364
성군	-10.3365
▁지키고	-10.3367
▁너희들이	-10.3369
▁더욱이	-10.3374
▁의견이	-10.3379
▁늙고	-10.3384
▁바람이	-10.3388
▁고을은	-10.3388
▁바라옵건대	-10.339
▁휼전	-10.339
보를	-10.3391
▁심회	-10.3392
▁못하도록	-10.3395
▁폐단	-10.3396
▁일단	-10.3398
하다는	-10.3398
구를	-10.3399
▁칭호	-10.3404
▁베어	-10.3404
▁무신	-10.3406
▁보충	-10.3417
▁자들을	-10.3418
바	-10.342
▁북도	-10.3421
▁밝혀	-10.3421
현의	-10.3421
정을	-10.3423
▁백관	-10.3425
▁각도에	-10.3429
▁황해	-10.343
▁명망이	-10.3434
▁이로부터	-10.3436
▁있기에	-10.3437
▁숨기고	-10.344
▁구치관	-10.3442
▁대답	-10.3442
▁못하였고	-10.3445
▁면치	-10.3449
▁가벼이	-10.345
▁옳습니다	-10.3453
▁국왕	-10.3454
▁태백이	-10.3458
▁아니하면	-10.346
▁생	-10.3461
▁제거	-10.3465
▁사방	-10.3467
예조	-10.3468
▁등용	-10.3473
▁군량을	-10.3474
▁승지에게	-10.3475
▁어렵고	-10.3479
▁내릴	-10.348
▁원한	-10.3484
▁공부	-10.3487
▁되	-10.3489
▁외에는	-10.349
▁콩	-10.3497
▁곡절	-10.3499
이것은	-10.3501
▁정부에	-10.3502
▁같으면	-10.3508
▁노하여	-10.3508
▁사람인데	-10.3512
▁불가합니다	-10.3515
▁17	-10.3517
▁가뭄	-10.3521
▁돌아온	-10.3526
▁참형에	-10.3527
▁못할까	-10.3529
▁도움이	-10.3534
역적	-10.3542
▁두려워하지	-10.3547
대간	-10.355
▁가득	-10.3557
▁폐지	-10.3558
▁대행	-10.3559
▁아들을	-10.356
▁체	-10.3561
전라도	-10.3568
▁아니라고	-10.3574
▁만큼	-10.3575
이었는데	-10.3578
원은	-10.3583
라면	-10.3586
▁이극배	-10.3587
지가	-10.3591
▁만들어서	-10.3591
▁통렬	-10.3595
▁미안합니다	-10.3598
주는	-10.3599
▁합계	-10.3601
▁방해	-10.3604
▁물려	-10.3605
▁회복	-10.3606
▁치제	-10.3619
▁옛날에	-10.3623
▁자들	-10.3624
▁관리가	-10.3633
▁옳을	-10.3634
▁가을에	-10.3634
▁술과	-10.3636
이조	-10.3636
▁무재	-10.3641
▁무역	-10.3647
▁성상께서는	-10.3649
명은	-10.3649
▁정말	-10.365
▁않았으나	-10.365
▁묻	-10.3656
스럽게	-10.366
▁두세	-10.3664
▁먹을	-10.3666
▁첩	-10.3675
이겠는가	-10.3681
▁진퇴	-10.3683
▁이루지	-10.369
▁김재로가	-10.3692
옵니다	-10.3694
▁인사	-10.3698
▁선조의	-10.3698
▁제수하는	-10.3705
▁실제로	-10.371
▁직	-10.3713
▁부의	-10.372
장이	-10.3722
▁제일	-10.3723
▁이르고	-10.3724
▁사헌부에	-10.3725
▁여기에서	-10.3726
▁형제	-10.3731
외	-10.3733
▁마땅한	-10.3733
▁공초에	-10.3742
황해도	-10.3742
▁지급	-10.375
▁정리	-10.3755
▁입직한	-10.3757
▁들여	-10.3757
육	-10.376
▁상언	-10.3762
▁태종	-10.3768
▁맞이	-10.3772
▁세조	-10.3774
▁유수	-10.3775
▁서원	-10.3776
▁체면	-10.3778
갑	-10.3782
▁사치	-10.3786
▁전하는	-10.3794
할까	-10.38
▁경에게	-10.3802
▁땅	-10.3802
▁백성들은	-10.3803
▁사죄	-10.3807
에게서	-10.3809
▁비용	-10.381
▁이르는	-10.381
▁직분	-10.3813
▁명한	-10.3818
▁이유가	-10.3818
▁처단	-10.3821
▁구례	-10.3821
▁파직시키고	-10.3825
▁이튿날	-10.3826
▁고을이	-10.383
상의	-10.3835
거든	-10.3836
▁점	-10.3839
▁이상은	-10.3842
숭	-10.3843
▁이자	-10.3843
▁본다면	-10.3845
▁19	-10.3851
▁아니며	-10.3853
▁어찌할	-10.3854
▁견책	-10.3859
▁않음이	-10.3859
대에	-10.386
▁말한다	-10.3861
▁무함	-10.3861
▁패초	-10.3863
▁아니므로	-10.3863
▁내용에	-10.3864
▁넘어	-10.3866
전일	-10.3867
▁논하기를	-10.3872
개월	-10.3876
▁직책에	-10.3877
▁정하게	-10.388
▁처치할	-10.3893
▁대우	-10.3897
▁비방	-10.3898
▁여긴	-10.39
비가	-10.3902
▁전후로	-10.3912
▁봉안	-10.3913
▁것이겠는가	-10.3915
▁노사신	-10.3916
▁변명	-10.3924
▁추국하여	-10.3925
▁묵은	-10.3929
부에	-10.393
▁이끌고	-10.3933
▁지레	-10.3934
▁풍악	-10.3937
▁의거	-10.3937
▁물건이	-10.3938
▁보고서	-10.3942
▁드러난	-10.3946
▁이르렀습니다	-10.3947
▁착오	-10.3947
▁용렬한	-10.3948
▁살펴보니	-10.3949
▁보덕으로	-10.3953
▁불을	-10.3954
▁동시에	-10.3961
▁하신	-10.3962
▁번번	-10.3965
▁손을	-10.397
▁하였기	-10.3972
▁당연한	-10.3975
▁사정이	-10.3979
경을	-10.3979
▁제수하여	-10.398
▁원상	-10.3981
▁관장	-10.3982
▁어떠한	-10.3985
▁처자	-10.3985
▁종신	-10.3985
▁얻을	-10.3988
▁있었으며	-10.3989
▁보았는데	-10.3993
▁상서하여	-10.3998
▁물건은	-10.4003
▁설치하는	-10.4004
▁주인	-10.4005
▁불과	-10.4007
▁관사	-10.4009
▁어긋남이	-10.4009
품의	-10.4012
▁그만	-10.4016
▁전시	-10.4016
▁뽑는	-10.4016
▁시비	-10.4019
▁억울한	-10.4022
▁갖추고	-10.4028
맹	-10.4037
러	-10.4046
▁가슴	-10.4047
등을	-10.4047
▁그와	-10.4049
▁파견하여	-10.405
했고	-10.405
▁되기	-10.4051
▁아전	-10.4063
▁피혐	-10.4068
▁춘추	-10.4069
룡	-10.407
▁라고	-10.4083
▁응교	-10.4085
▁동안에	-10.4086
락	-10.4087
▁오래지	-10.4087
경상도	-10.4095
▁차자에	-10.4098
▁못하다고	-10.41
점	-10.4103
▁금년에	-10.4103
▁본도로	-10.4104
▁알아	-10.4108
▁별시	-10.4114
▁근신	-10.4115
▁부사로	-10.4116
▁급한	-10.412
▁인피	-10.4121
▁바치	-10.4124
▁왕후	-10.4125
▁허락하고	-10.4126
▁일제	-10.4135
섭	-10.4139
▁고치	-10.4144
▁간원에서	-10.4151
▁휴가	-10.4156
▁된다는	-10.4159
▁경기의	-10.4164
▁머리	-10.4167
▁출신	-10.4173
▁자로서	-10.4179
▁것이지	-10.4182
▁잡아서	-10.4182
▁갔다가	-10.4185
▁물었다	-10.4186
▁올해	-10.4191
▁의원	-10.4191
▁둔전	-10.4192
▁아문	-10.4193
녕	-10.4194
▁맨	-10.4196
▁붙여	-10.4199
다시	-10.42
▁했던	-10.4201
▁다스리고	-10.4203
▁왕래하는	-10.4205
▁미안	-10.421
▁재상이	-10.4215
▁높고	-10.422
▁욕되게	-10.4221
▁소금	-10.4224
▁수행	-10.4225
▁의혹	-10.4226
마땅히	-10.4228
▁합하여	-10.4229
▁않을까	-10.423
▁뭐	-10.423
였는데	-10.4231
▁말의	-10.4231
▁임용	-10.4232
▁맞추어	-10.4236
▁없어야	-10.4241
▁조서	-10.4241
▁사랑하는	-10.4245
▁그때에	-10.4248
▁소속	-10.425
▁광주	-10.425
▁잡는	-10.4251
▁명하였으니	-10.4253
▁않은데	-10.4257
만약	-10.4258
▁유순	-10.4259
▁보아도	-10.4263
▁구별	-10.4264
▁없	-10.4268
▁지역	-10.4271
새	-10.4273
조의	-10.4274
▁고하는	-10.4277
래	-10.4279
▁쳐서	-10.4283
▁해에	-10.4284
족	-10.4289
나라	-10.4289
올	-10.4291
▁군대를	-10.4295
▁고려	-10.4302
▁계본에	-10.4303
▁반역	-10.4304
▁자취	-10.4304
▁어기고	-10.4305
▁전교가	-10.4306
▁금부에	-10.4309
▁충	-10.4313
▁이경	-10.4314
▁변통	-10.4315
▁내시	-10.4319
▁비어	-10.4325
▁않는데	-10.4328
▁반복하여	-10.433
▁아비를	-10.4333
▁불법	-10.4336
▁다스려	-10.4344
탁	-10.4349
▁데다가	-10.4349
공신	-10.4351
▁보내야	-10.4352
법	-10.4363
▁괴수	-10.4367
▁이르렀는데	-10.4367
▁말라는	-10.4372
▁어려움	-10.4373
▁가하여	-10.4377
▁강무	-10.4381
씩	-10.4382
▁상피	-10.4382
▁상세	-10.4383
시어	-10.4383
▁합계하여	-10.4389
▁전례대로	-10.439
▁금후로는	-10.4391
▁뜻밖	-10.4392
▁길에서	-10.4394
▁나왔으니	-10.4399
▁들어온	-10.4401
▁본부에서	-10.4402
▁진달하고	-10.4403
▁정원은	-10.4404
대간이	-10.4407
▁정할	-10.4408
▁계달	-10.4408
▁치죄	-10.442
▁벼	-10.442
▁합니까	-10.4422
▁거기에	-10.4423
▁중이	-10.4424
▁삼복	-10.4425
능	-10.4425
▁일기	-10.4426
입	-10.4427
▁치료	-10.443
▁특진관	-10.4433
▁남에게	-10.4434
▁주었는데	-10.4435
▁의하면	-10.4442
▁돌아가게	-10.4444
▁정세	-10.4447
▁높이	-10.4448
▁차례나	-10.445
▁글에	-10.4454
▁묻고	-10.4455
▁수효	-10.4458
▁살펴보건대	-10.4458
▁비교	-10.4459
▁석강에	-10.4462
▁무방할	-10.4465
▁남방	-10.4469
▁자복	-10.4469
▁재결	-10.4472
▁있거든	-10.4474
상을	-10.4474
▁귀국	-10.448
▁거론	-10.4483
협	-10.4487
▁왔습니다	-10.449
▁요동에	-10.4494
▁시장	-10.4495
복을	-10.4502
▁이번에는	-10.4502
하자고	-10.4508
호조	-10.451
▁살게	-10.4513
▁의정	-10.4514
▁고을로	-10.4515
▁입계	-10.4517
▁사관이	-10.4517
▁올려서	-10.4518
▁굶주린	-10.452
▁바란다	-10.4521
▁효과	-10.4521
▁혼자	-10.4523
▁왕비	-10.4526
어야	-10.4527
▁송인명이	-10.4529
▁좌참찬	-10.453
책	-10.4533
▁왕세손	-10.4537
▁세자의	-10.4537
▁이사	-10.4539
▁이치	-10.4539
▁군사는	-10.454
▁소임	-10.4544
▁참여하여	-10.4545
▁벼슬이	-10.4549
▁서울과	-10.4553
▁경외	-10.4553
▁가산	-10.4554
▁방법이	-10.4555
▁문자	-10.4558
▁선온	-10.456
하옵니다	-10.4572
▁사람마다	-10.4574
3	-10.4579
▁힘껏	-10.4579
▁견디지	-10.4581
▁위엄	-10.4596
▁주었으니	-10.4598
▁올라가	-10.4599
▁경과	-10.4599
▁지체	-10.4603
▁남녀	-10.4604
▁내에	-10.4606
▁어미가	-10.4608
▁너그럽게	-10.461
▁원하는	-10.4611
▁형세상	-10.4615
▁한정	-10.4615
▁하유하였다	-10.4616
▁중궁	-10.4617
▁경작	-10.4617
▁병세	-10.4621
살	-10.4622
▁낙점	-10.4622
▁두려워하고	-10.4623
▁주상	-10.4623
▁시강원	-10.4628
음을	-10.4628
▁말아야	-10.4629
벌	-10.4631
▁하셨는데	-10.4635
▁주청	-10.4636
표	-10.4638
▁이치가	-10.4639
▁이인	-10.4642
▁기재	-10.4645
▁군부	-10.4647
▁같았고	-10.4647
▁본부에	-10.4648
▁먹	-10.4649
▁왜적이	-10.465
습	-10.465
▁극도에	-10.4651
▁전세	-10.4651
▁대간은	-10.4651
▁언	-10.4655
▁삭직	-10.4656
▁함경	-10.4661
▁윤대	-10.4663
▁낮에	-10.4663
▁경들	-10.4664
▁맡겨	-10.4666
▁시행하고	-10.4667
▁홍봉한이	-10.4669
금년	-10.4669
▁추고할	-10.467
▁할지	-10.4672
▁구원	-10.4673
▁예물	-10.4676
▁없는데도	-10.468
▁죽어	-10.4683
▁대마도	-10.4684
▁심문	-10.4687
▁들었다	-10.4688
▁들어간	-10.469
▁어리석고	-10.4691
▁유숙	-10.4693
전하께서	-10.4693
▁핑계	-10.4695
▁지난해에	-10.4703
▁바람	-10.4706
▁구제할	-10.4723
▁지나	-10.4724
▁기어	-10.4725
▁가만	-10.4725
위를	-10.4731
▁원통함을	-10.4734
▁두지	-10.4737
▁구구	-10.474
▁영중추부사	-10.4743
▁도감에	-10.4746
▁사정전에	-10.4746
▁대사성	-10.4748
▁때려	-10.4749
▁국청	-10.4752
▁밤이	-10.4752
▁본직에	-10.4753
▁수석을	-10.4756
▁하찮	-10.4766
▁조석	-10.4768
▁화가	-10.4769
▁올리지	-10.477
▁특명으로	-10.4771
▁군졸	-10.4774
▁빛깔	-10.4779
▁인피하고	-10.4782
▁화기	-10.4782
명과	-10.4784
참	-10.4788
▁전연	-10.4792
▁못해	-10.4794
▁아뢰자	-10.4798
도다	-10.4814
▁경리	-10.4815
▁계청하니	-10.4816
▁속이고	-10.4819
▁고발	-10.482
▁차임	-10.4822
▁일이므로	-10.4824
▁가리켜	-10.4825
▁작	-10.4827
리를	-10.4829
▁용렬하고	-10.4829
▁여러번	-10.483
▁임기	-10.4836
▁절대로	-10.4838
▁규례에	-10.484
▁손상	-10.4844
▁따위	-10.4845
께	-10.4845
▁재이	-10.4852
▁의사	-10.4856
▁하여도	-10.4856
▁돌려보내	-10.4857
▁다르니	-10.4857
들도	-10.4858
범	-10.486
▁매년	-10.4863
▁언급	-10.4865
▁국법	-10.4866
둘	-10.4867
▁적어	-10.4871
▁마리	-10.488
▁묘당에서	-10.4884
▁통하여	-10.4887
▁사명	-10.4892
▁유사로	-10.4894
▁치계	-10.4894
주부	-10.4894
▁법도	-10.4895
▁것이기	-10.49
▁이이첨	-10.4902
지난번에	-10.4905
▁애당초	-10.4906
▁장을	-10.4907
▁상례	-10.491
▁어서	-10.4912
▁않다가	-10.4914
▁때와	-10.4915
▁표문	-10.4915
▁있습니까	-10.4919
▁놓은	-10.4926
▁피해	-10.4926
▁역모	-10.4929
▁세금	-10.4929
▁옳은	-10.4933
▁기타	-10.4936
했었는데	-10.4936
▁바치니	-10.4938
▁적합하지	-10.4939
▁천둥	-10.4939
▁것이지만	-10.494
▁요청	-10.4949
▁바이다	-10.495
연히	-10.495
▁금령	-10.495
▁부장	-10.4956
▁나왔다	-10.496
▁사람이다	-10.4962
▁전교하셨습니다	-10.4967
▁게다	-10.4967
▁체직시키소서	-10.4968
▁골라	-10.4969
▁시상	-10.4969
선이	-10.4971
▁우연히	-10.4971
▁달려가	-10.4971
▁탄	-10.4972
▁바라	-10.4977
▁부묘	-10.498
▁않아야	-10.4981
▁풍년이	-10.4984
"	-10.4985
▁공사에	-10.4985
▁차라	-10.4987
▁절의	-10.4988
▁수용	-10.4991
▁고하지	-10.4993
▁재계	-10.4995
▁틀림없	-10.5001
장령	-10.5006
▁거두는	-10.5006
▁함	-10.5007
휘	-10.5007
▁김수	-10.5018
▁시작	-10.5026
▁알기	-10.5029
▁청하건대	-10.503
▁방자하게	-10.5035
▁27	-10.5036
▁소문	-10.5037
▁탓으로	-10.5044
지난	-10.5048
▁혜성이	-10.5054
▁첨사	-10.5056
▁슬픔	-10.5057
▁휘	-10.5057
▁참봉	-10.5063
든	-10.5068
▁불가	-10.5069
▁금하는	-10.5069
▁나아가니	-10.5072
▁불가한	-10.5073
▁전하였다	-10.5073
▁교대	-10.5073
▁수성	-10.5079
▁관련된	-10.5081
▁이러하니	-10.5082
낼	-10.5083
▁28	-10.5084
법을	-10.5085
▁육	-10.5087
▁헌부의	-10.5088
▁몸으로	-10.5089
▁척	-10.5095
▁예와	-10.5096
▁파출	-10.5098
▁한나라	-10.5103
▁경사를	-10.5104
▁옮기는	-10.5109
▁강상	-10.5113
▁모르	-10.5115
▁연석에서	-10.5116
▁송시열이	-10.5118
▁일어난	-10.5119
▁한편	-10.512
격	-10.5123
▁사주	-10.5123
▁농사가	-10.5125
▁뜰에	-10.5126
▁맞는	-10.5128
▁못하므로	-10.5133
▁원망이	-10.5138
▁조리	-10.5142
▁선왕께서	-10.5153
▁기다리는	-10.5156
▁들지	-10.5158
주를	-10.5159
이나마	-10.5161
▁파직하라	-10.5167
▁입지	-10.5171
선을	-10.5172
콩	-10.5172
▁그러	-10.5175
▁행사	-10.5184
▁없었으므로	-10.5191
▁묘당	-10.5199
일지라도	-10.5199
▁부인	-10.5201
▁인피하여	-10.5201
▁범연	-10.5212
▁소생	-10.5212
▁지신사	-10.5213
▁예문에	-10.5215
▁심할	-10.5218
납	-10.5219
▁사노	-10.5221
▁사냥	-10.5223
▁일체로	-10.5226
▁곽	-10.5234
▁신과	-10.5234
▁꾸며	-10.5234
▁신주를	-10.5235
▁송나라	-10.5235
▁유영경	-10.5235
▁명년	-10.5239
▁갇혀	-10.5239
▁재신	-10.5244
▁멀지	-10.5245
▁정식	-10.5247
▁모의	-10.5248
▁하직	-10.5251
▁왕명	-10.5258
▁장성	-10.5259
▁돌보지	-10.526
▁합사	-10.5265
▁양주	-10.5269
해도	-10.5274
▁각자	-10.5276
▁이상과	-10.5285
시는	-10.5287
군의	-10.5288
▁아내가	-10.5292
▁근일에	-10.5293
▁도망해	-10.5294
▁있었다고	-10.5296
▁정포	-10.5303
▁토벌	-10.5303
▁보내소서	-10.5303
▁고집	-10.5306
▁섬기는	-10.5313
▁곤란	-10.5315
충청도	-10.5316
▁데는	-10.5321
▁전후에	-10.5322
▁소인	-10.5329
▁일곱	-10.5337
▁바로잡	-10.534
▁형조의	-10.5341
완	-10.5343
▁전하여	-10.5344
▁기미	-10.5352
▁사헌부대사헌	-10.5353
▁이전	-10.5354
▁총애	-10.5355
▁이같이	-10.5355
▁변란	-10.5359
▁출납	-10.5359
▁차림으로	-10.537
▁마친	-10.5371
정은	-10.5373
▁견딜	-10.5386
▁여겨서	-10.5389
▁지내고	-10.5391
▁공도	-10.5395
▁구하는	-10.5397
▁인을	-10.5401
▁범하는	-10.5403
▁풍속이	-10.5404
경기	-10.5411
▁이외	-10.5411
▁수사	-10.5417
▁후회	-10.5418
▁아니었습니다	-10.5423
▁제향	-10.5424
▁위급한	-10.5426
▁한참	-10.5431
▁조참	-10.5431
수는	-10.5432
▁신민들	-10.5432
▁서북	-10.544
▁정광필	-10.5444
하느라	-10.5444
▁폐해가	-10.5444
▁예문	-10.5451
첨사	-10.5459
▁시관	-10.5459
▁아니나	-10.5469
▁것이오니	-10.547
▁시끄럽게	-10.547
▁넘	-10.5472
▁이광	-10.5476
▁김안로	-10.5477
▁않겠다	-10.5479
▁변괴	-10.5486
▁판결	-10.549
일은	-10.5491
▁안된다	-10.5495
▁수행하지	-10.55
▁유사가	-10.5501
지고	-10.5501
▁않으시니	-10.5503
▁유의	-10.5504
심을	-10.5506
총	-10.5512
▁어긴	-10.552
▁폐단은	-10.553
▁초기	-10.5533
▁보이고	-10.5533
▁고신	-10.5536
시키지	-10.5536
▁율문에	-10.5536
▁규례를	-10.5537
▁낸	-10.5537
▁전사	-10.5542
▁선정	-10.5548
▁위리	-10.5553
일찍이	-10.5553
었기	-10.5555
▁사람에	-10.5557
▁빈청에	-10.5558
담	-10.5559
▁가고	-10.5564
▁의논은	-10.5564
▁행하게	-10.5568
혼	-10.5571
▁받드는	-10.5573
▁아첨	-10.5574
▁쳤다	-10.5575
▁비난을	-10.5577
▁정계	-10.5577
▁인혐하고	-10.5578
돈	-10.558
▁겨울에	-10.5582
▁막을	-10.5585
▁한마디	-10.5586
▁감정	-10.5589
▁보인	-10.5589
▁용서하지	-10.559
▁시켜서	-10.559
▁이루어	-10.5592
▁혜택	-10.5593
묵	-10.5597
▁도와	-10.5601
▁쏘는	-10.5602
▁짓게	-10.5603
영이	-10.5603
▁숙직	-10.5606
▁제수된	-10.5606
▁전지하여	-10.5612
▁서울에서	-10.562
▁풍습	-10.5624
▁군사들이	-10.5626
▁해괴	-10.563
▁가령	-10.5631
▁추고하도록	-10.5652
▁이토록	-10.5656
▁칼을	-10.5663
▁법전에	-10.5663
▁않아도	-10.5665
▁등록	-10.5668
▁처하고	-10.5671
▁역마	-10.5672
▁강제로	-10.5673
▁사직하고	-10.5676
▁입는	-10.5679
▁봉진	-10.5681
▁유생을	-10.5683
▁좇	-10.5684
▁내금위	-10.5685
▁지내	-10.5686
▁앞뒤	-10.5688
▁죄줄	-10.5689
▁토지	-10.569
▁흥	-10.57
첩	-10.5701
▁무고한	-10.5706
▁축	-10.571
▁하서하기를	-10.5724
▁불충	-10.5726
인지	-10.5732
▁뜻과	-10.5732
▁내외	-10.5735
▁요행	-10.574
▁절차	-10.5741
▁조카	-10.5744
▁제문	-10.5751
육조	-10.5751
▁녹훈	-10.5752
▁고하고	-10.5753
▁입격	-10.5753
같은	-10.5754
▁24	-10.576
▁이하가	-10.5761
▁간사하고	-10.5766
▁이익이	-10.5768
▁경들이	-10.5768
▁기세	-10.5769
▁이상이	-10.5769
관은	-10.5769
▁칙사	-10.577
탕	-10.5775
▁장계에	-10.5777
▁것이라면	-10.5778
▁크기	-10.578
▁막는	-10.578
▁보전	-10.5781
화를	-10.5783
▁예절	-10.5788
▁합당합니다	-10.5792
▁도적이	-10.5794
▁강경	-10.5794
▁있었을	-10.5795
▁옮겨서	-10.5795
네	-10.5795
▁유생이	-10.5796
▁태묘에	-10.5796
▁아니었다	-10.5797
▁아니하는	-10.5801
▁운반	-10.5806
형조	-10.5809
▁출사하지	-10.581
▁알려	-10.5811
▁시강관	-10.5813
▁핑계로	-10.5818
▁인해서	-10.5818
▁현저	-10.5819
상이	-10.5823
▁물었더니	-10.5825
▁그릇	-10.5825
▁참여한	-10.5828
▁곡진	-10.583
▁송사	-10.5834
▁데에는	-10.5834
▁체통	-10.5835
▁육조	-10.5839
몽	-10.584
▁우참찬으로	-10.5841
원의	-10.5842
▁밝은	-10.5842
▁뛰어	-10.5844
▁하직하니	-10.5847
▁외방	-10.5857
▁충군	-10.5862
▁진위	-10.5863
▁추문하여	-10.5864
▁전날	-10.5866
▁접반사	-10.5874
▁상은	-10.5878
▁이영	-10.5883
북	-10.5884
▁밭	-10.5884
▁정하지	-10.5885
▁대신은	-10.5895
▁원자	-10.5896
▁쌓아	-10.5897
마저	-10.5898
▁장문	-10.5899
▁친국	-10.5899
▁오른	-10.5903
▁절로	-10.5904
막	-10.5909
▁시험하여	-10.5912
▁정자	-10.5914
▁성인	-10.5915
▁모화관에	-10.5915
▁폐할	-10.5916
▁참고	-10.5916
▁이르러서	-10.5917
▁위하는	-10.5918
▁위관	-10.5919
▁기대	-10.592
▁전주	-10.592
▁추가	-10.5921
▁충신	-10.5921
▁미진	-10.5922
▁계산하여	-10.5924
▁포장	-10.5925
있는	-10.5926
▁사람만	-10.5927
▁놀랍다	-10.5929
▁죽었으니	-10.593
▁거행하였다	-10.593
▁베푸는	-10.5935
▁바치지	-10.5942
서도	-10.5943
▁허실	-10.5943
▁상소가	-10.5945
▁참찬관	-10.5947
▁아니지만	-10.5948
▁도착하여	-10.5952
▁그칠	-10.596
▁거행하고	-10.5963
▁삼았으니	-10.5964
▁녹	-10.5965
▁본받아	-10.5966
▁행실	-10.5967
▁목장	-10.5968
▁황공하여	-10.5968
인데도	-10.597
▁공격	-10.5973
▁떼	-10.5983
▁수백	-10.5985
▁심하다	-10.5987
▁자제	-10.5989
▁군정	-10.5991
▁여전	-10.5994
▁초기에	-10.5996
영을	-10.5997
▁외방에서	-10.5998
▁종을	-10.5999
▁구제하는	-10.6001
간에	-10.6002
술	-10.6006
▁효유	-10.6009
▁듣고는	-10.6014
▁모욕	-10.602
▁상으로	-10.602
▁수령과	-10.602
▁대마주	-10.6022
▁갈아	-10.6023
▁정신	-10.6024
▁여론이	-10.6026
▁지어서	-10.603
▁밀	-10.6032
▁본원	-10.6034
▁충당	-10.6035
▁중의	-10.6038
▁지키게	-10.6038
▁진술	-10.604
▁대관이	-10.6041
▁같아서	-10.6052
▁승지들이	-10.6053
조에	-10.6054
▁선군	-10.6055
▁효도	-10.6055
▁제사에	-10.6057
▁잡지	-10.6059
▁꺼리는	-10.6063
▁권장	-10.6067
▁추고하라고	-10.6069
▁목욕	-10.607
▁뿐인데	-10.607
▁부탁	-10.6071
▁천둥이	-10.6077
군사	-10.608
▁들이라	-10.6081
▁잔	-10.6081
▁금부가	-10.6082
▁늦게	-10.6086
▁상중에	-10.6087
▁선발	-10.609
▁시행해야	-10.6091
▁성문	-10.6099
▁상제	-10.61
형을	-10.6105
▁거쳐	-10.6106
▁접견	-10.6107
▁두려워하는	-10.6109
▁수원	-10.6112
느냐	-10.6115
▁원접사	-10.6115
▁들이	-10.6115
하였었다	-10.6116
▁죄상	-10.6117
▁문의	-10.6119
▁추위	-10.6119
▁정월	-10.6125
치게	-10.6125
▁번씩	-10.6128
▁망령되	-10.613
▁이귀	-10.6132
▁부리는	-10.6133
▁대를	-10.6137
▁청하였으니	-10.614
▁연회를	-10.6141
▁작지	-10.6143
▁낮은	-10.6144
▁띠고	-10.6146
▁관문	-10.6146
▁도체찰사	-10.6148
▁고금	-10.6152
되게	-10.6152
진을	-10.6153
▁절도	-10.6153
▁왔으니	-10.6157
▁술잔	-10.6158
▁그러면	-10.6161
▁사신으로	-10.6162
▁포도	-10.6163
▁합격	-10.6164
▁기자헌	-10.6168
▁자식	-10.617
▁노여움	-10.6173
▁불이	-10.618
▁평상시	-10.618
▁실제	-10.6184
▁사이에서	-10.6189
▁관에서	-10.619
물을	-10.6194
▁물려서	-10.6198
▁비망기를	-10.6198
▁오고	-10.6199
▁피혐한	-10.6201
조를	-10.6205
▁족친	-10.6207
▁사족	-10.621
▁여덟	-10.6211
▁있었겠습니까	-10.6213
▁기뻐	-10.6216
▁출사하게	-10.6222
▁불가하다고	-10.6222
▁배나	-10.6227
▁잃고	-10.6229
▁망령된	-10.6229
▁박홍도	-10.6235
▁종친과	-10.6235
▁도원수	-10.6238
▁모아서	-10.6239
▁안주	-10.6239
▁얼음이	-10.624
▁근자에	-10.6243
▁담장	-10.6244
▁골라서	-10.6246
▁칭	-10.6248
▁상소하였다	-10.6253
▁청탁	-10.6255
▁없애고	-10.6258
▁대부	-10.626
▁인신	-10.6261
삭	-10.6265
▁분주	-10.6267
▁내리어	-10.6275
▁격	-10.6276
▁죄명	-10.6277
▁김수항	-10.6278
▁범죄	-10.6281
▁그곳	-10.629
정의	-10.629
▁21	-10.6297
▁면제	-10.6298
▁고치는	-10.6301
▁않자	-10.6301
▁염려하지	-10.6303
▁택하여	-10.6303
▁않았다는	-10.631
▁처리해야	-10.6311
▁액수	-10.6316
▁소문이	-10.6319
▁나아가지	-10.6322
▁답하지	-10.6327
▁정태화가	-10.6329
▁추핵	-10.633
▁깨닫지	-10.6341
▁논죄	-10.6342
▁관대	-10.6344
▁생각하는	-10.6347
▁상당	-10.6347
▁기와	-10.6349
▁결정하겠다	-10.6349
▁판의금부사로	-10.635
▁애석하게	-10.6351
▁축문을	-10.6355
▁후에는	-10.6357
▁관원들이	-10.636
▁묻는	-10.6364
▁추수	-10.6366
▁지내는	-10.6367
▁역사	-10.6368
▁지켜	-10.6369
▁금군	-10.6371
동이	-10.6373
▁못하기	-10.6374
▁호조의	-10.6374
▁아내를	-10.6376
▁양사에서	-10.6377
▁모양이	-10.6378
▁내리면서	-10.638
▁붙잡아	-10.6388
했어야	-10.6392
▁아름답게	-10.6392
▁거절	-10.6395
▁양계	-10.6396
령을	-10.6397
▁감당	-10.6398
▁예관	-10.6406
▁전송	-10.641
▁문묘에	-10.642
▁옛사람이	-10.6422
▁호소	-10.6427
▁달무리	-10.6428
개를	-10.6434
▁해조가	-10.6436
▁끝	-10.6436
▁차서	-10.6438
▁적발하여	-10.6443
연을	-10.6444
▁아뢰었으니	-10.6447
▁봉사	-10.6449
▁이하에게	-10.6449
▁성교	-10.645
▁보이지	-10.6451
들과	-10.6454
▁되었으나	-10.6454
▁바와	-10.6455
▁아뢰어라	-10.646
▁주니	-10.6462
별	-10.6466
▁나왔는데	-10.6467
▁우찬성	-10.6469
▁생각하기를	-10.6472
▁의논하고	-10.6472
▁윤인	-10.6474
▁형추	-10.6485
▁어진이	-10.6486
▁승지와	-10.6488
▁보아서	-10.6489
▁관학	-10.6489
엄	-10.6489
▁말로써	-10.649
▁봉조하	-10.6493
▁정밀	-10.6495
▁겪은	-10.6502
▁왔을	-10.6502
▁낳	-10.6502
▁태만	-10.6504
▁같다면	-10.6505
▁완	-10.6508
로운	-10.6508
▁빛이	-10.6509
▁온전	-10.6512
▁뜰에서	-10.6512
▁따져	-10.6513
▁22	-10.6513
▁근시	-10.6514
되었고	-10.6519
▁경내	-10.6519
▁방금	-10.6521
▁고의	-10.6524
▁들었는데	-10.6526
▁개성부	-10.6526
▁내용	-10.6533
▁그때의	-10.6536
▁체차하고	-10.6537
시니	-10.6537
▁좋아	-10.6538
▁맡길	-10.6539
▁죽었는데	-10.6542
▁기도	-10.6543
▁홍윤성	-10.6544
▁고하기를	-10.6544
▁신민	-10.655
병사	-10.655
감사	-10.655
▁입시한	-10.6556
데도	-10.6556
▁과장	-10.6558
▁합당치	-10.6558
▁금단	-10.6559
▁입계하니	-10.6563
원임	-10.6564
▁임금과	-10.6565
▁부도	-10.6567
▁은총	-10.6568
▁신정	-10.657
▁부정	-10.6571
▁부임	-10.6576
▁밑에	-10.6576
▁시행한	-10.6578
▁나간	-10.658
▁글이	-10.6581
▁관청	-10.6582
▁노인	-10.6585
스럽습니다	-10.6585
▁명하니	-10.6588
▁사정	-10.659
▁공사가	-10.659
▁있겠느냐	-10.6595
▁비변사에서	-10.6596
가며	-10.6598
▁논하였으나	-10.6599
▁곁에	-10.661
▁각종	-10.6611
▁기쁘게	-10.6613
▁전한	-10.6613
▁터이니	-10.6616
▁시행하여	-10.6619
내관	-10.6622
▁헛되	-10.6625
▁텅	-10.663
▁하유하여	-10.6631
▁주먹	-10.6631
▁제왕	-10.6631
▁뒤따라	-10.6632
▁마땅치	-10.6633
▁감해	-10.6634
▁말한다면	-10.6634
▁일이라고	-10.6643
▁조항	-10.6651
겠느냐	-10.6652
▁출	-10.6653
▁탄식	-10.6656
▁안될	-10.6661
▁뽑	-10.6668
▁승복	-10.667
▁속이는	-10.667
▁김유	-10.6674
▁동생	-10.6678
▁이외에는	-10.6679
▁찬성	-10.669
▁쇄환	-10.6695
▁구성	-10.6705
▁왜인이	-10.6707
▁사리를	-10.6708
▁빙자하여	-10.6709
▁독촉	-10.6709
▁낼	-10.671
▁좌찬성	-10.671
▁다음에야	-10.6712
▁징수	-10.6712
▁수치	-10.6713
▁처리하겠다	-10.6714
애	-10.6715
당상	-10.6716
▁하셨으니	-10.6716
▁태평	-10.6718
었던	-10.6719
▁대대로	-10.672
▁정신이	-10.6722
▁수레	-10.6725
▁미안하다	-10.6727
▁이상에게	-10.6729
▁진달하니	-10.6733
▁문안하였다	-10.6738
▁청대하여	-10.6738
해질	-10.674
▁싣고	-10.6744
▁없었으며	-10.6745
▁적당한	-10.6746
▁사조하니	-10.6747
▁제조가	-10.6748
▁못하였으므로	-10.6752
시켰으니	-10.6754
▁속으로	-10.6757
▁인물을	-10.6762
지지	-10.6769
▁허다한	-10.6773
▁고찰	-10.6775
만호	-10.6776
▁하겠으나	-10.6779
▁나갈	-10.678
▁식	-10.6781
▁저녁	-10.6782
지라도	-10.6783
▁도망한	-10.6787
▁상언하기를	-10.6788
▁체차하라	-10.6788
▁돌아가는	-10.6792
▁사문	-10.6797
▁그리하라	-10.6797
▁조사가	-10.6799
▁대해서도	-10.6807
▁시험해	-10.6811
▁분간	-10.6813
스레	-10.6819
▁상차하기를	-10.6822
▁장관이	-10.6824
▁졸곡	-10.6826
▁보았더니	-10.6826
▁위로하고	-10.6835
▁사직하는	-10.6836
▁뿐더러	-10.6839
▁하령하기를	-10.684
▁김종서	-10.684
▁행위	-10.6843
▁내리니	-10.6844
▁권도	-10.6844
하셨으니	-10.6851
성은	-10.6857
▁법전	-10.6859
▁이틀	-10.6862
▁시정	-10.6872
▁적어서	-10.6879
했다가	-10.6885
▁선비들이	-10.6886
▁이행	-10.6887
▁신하에게	-10.6898
▁형편이	-10.6905
▁성질이	-10.6909
▁무신년	-10.6911
▁상호군	-10.6914
▁경회루	-10.6917
▁34	-10.6921
▁본사	-10.6921
▁연습	-10.6924
▁처분이	-10.6926
▁나오	-10.6933
▁넣	-10.6934
부정	-10.6935
▁세력	-10.6936
▁부윤	-10.6936
▁짐승	-10.6937
▁으뜸	-10.6938
물이	-10.6939
▁검토관	-10.6942
▁가지가	-10.6945
▁막고	-10.6945
▁버려	-10.6949
▁군문	-10.695
▁입게	-10.6951
▁병조로	-10.6953
▁다음날	-10.6953
▁이천	-10.6953
▁하인	-10.6959
▁회답	-10.6961
▁의장	-10.6961
보는	-10.6962
▁청했는데	-10.6965
▁병선	-10.6966
억	-10.6967
▁임명하여	-10.6973
▁지아비	-10.6974
▁싶지	-10.6981
▁간관	-10.6984
▁삼성	-10.6986
▁죄주기를	-10.6988
▁식량을	-10.6988
▁일어나서	-10.6989
중에	-10.6989
▁했으나	-10.6993
▁않으나	-10.6993
▁일개	-10.6994
▁돌아갔다	-10.6995
▁자리에서	-10.6995
진이	-10.6996
오는	-10.6996
해지고	-10.7001
▁무시하고	-10.7008
▁도에서	-10.7018
▁내게	-10.7021
▁연좌	-10.7022
▁행차에	-10.7026
▁설사	-10.7031
나의	-10.7032
전라	-10.7033
▁탑전에서	-10.7034
▁병사로	-10.7036
▁대책	-10.7039
어사	-10.7039
지도	-10.704
▁새로운	-10.7041
▁못함	-10.7042
▁규찰	-10.7044
일의	-10.7045
▁형문	-10.7046
하겠다고	-10.7049
▁장형	-10.7049
▁무너진	-10.7051
▁시취	-10.7054
▁중도에	-10.7054
▁급급	-10.7055
▁신구	-10.7057
▁남김없	-10.7057
▁다소	-10.7064
됨이	-10.7065
▁이진	-10.7067
▁계하하였다	-10.7069
▁판윤	-10.7069
▁청주	-10.7074
▁연이어	-10.7075
▁용서하여	-10.7076
▁하는데도	-10.7078
▁시골	-10.7088
▁우레	-10.7091
▁냥	-10.7092
▁허적	-10.7093
▁근심하고	-10.7095
▁들어갈	-10.7096
오니	-10.7096
여서	-10.7098
▁밥	-10.71
에게도	-10.71
군을	-10.7103
▁대간과	-10.7108
보가	-10.7111
▁맞	-10.7114
▁악한	-10.7117
▁살면서	-10.7119
▁나은	-10.7119
▁봉심	-10.712
▁인구	-10.7121
▁성실	-10.7123
▁보존	-10.7124
▁사제	-10.7126
▁끝난	-10.713
▁토	-10.713
▁조경	-10.7131
▁향과	-10.7131
▁여기니	-10.7135
하여서	-10.7135
▁강론	-10.714
▁후세	-10.7143
▁풍습이	-10.7143
▁한계	-10.7149
▁직무에	-10.715
두를	-10.7151
명의	-10.7151
▁화친	-10.7152
포를	-10.7153
▁입시하여	-10.7154
▁삼공에게	-10.7155
▁집경당에	-10.7155
▁섬에	-10.7157
▁연명	-10.7158
필과	-10.7158
▁상소로	-10.716
▁구경	-10.7162
▁차관	-10.7162
소에	-10.7163
▁급	-10.7163
▁전임	-10.7165
▁가정	-10.7165
▁당나라	-10.7166
▁사태	-10.7169
▁제수할	-10.717
▁나가지	-10.7171
▁개차	-10.7171
▁전달	-10.7172
▁이세	-10.7172
▁제학으로	-10.7175
낭청	-10.7177
▁사직에	-10.7177
▁부려	-10.7178
▁동래	-10.7187
▁간절한	-10.719
▁연해	-10.7191
▁작헌례	-10.7192
▁예전대로	-10.7193
▁도리는	-10.7198
▁안개	-10.7205
▁방어하는	-10.7205
▁인군	-10.7206
▁삼으라	-10.7208
▁인도하여	-10.7211
▁다스리소서	-10.7212
▁기쁨	-10.7214
▁바깥	-10.7214
▁좌참찬으로	-10.7214
▁구휼	-10.7215
▁없었기	-10.7215
▁거관	-10.7215
▁먹는	-10.7217
하였지만	-10.7217
▁후일에	-10.722
▁너의	-10.7221
▁창덕궁	-10.7222
거니와	-10.7223
▁이러	-10.7224
▁분수에	-10.7225
▁형률	-10.7226
기만	-10.7226
▁허락하여	-10.7229
▁차대	-10.7232
▁쏘아	-10.7232
품을	-10.7235
▁일들을	-10.7235
▁가져다가	-10.7237
▁국문하는	-10.7237
▁나무	-10.7237
▁체직되었다	-10.7239
하오니	-10.724
▁김수항이	-10.724
▁연주	-10.724
▁첫	-10.7244
▁맞게	-10.7248
▁구례에	-10.7255
▁않다는	-10.7258
▁오늘날에	-10.7259
▁보기에	-10.7259
▁상소한	-10.7262
▁사방에	-10.7265
▁잃게	-10.7268
▁정지하였다	-10.7268
▁명기	-10.727
▁듯이	-10.7271
▁대하여는	-10.7271
▁거행해야	-10.7276
▁비답하였다	-10.7277
▁절도에	-10.7278
▁섭행	-10.7279
하고서	-10.7281
▁조상	-10.7281
▁이항복	-10.7283
▁아랫사람	-10.7286
▁부끄러워	-10.7286
▁말이다	-10.7287
▁양녕	-10.7288
▁죄악	-10.7291
▁군병을	-10.7292
미를	-10.7297
▁마을	-10.7299
호가	-10.7301
▁올려보내	-10.7307
▁묘당에	-10.7309
했으므로	-10.7309
▁들었습니다	-10.7312
▁분노	-10.7314
▁함은	-10.7318
스러워	-10.7322
▁파직한	-10.7322
▁이상을	-10.7324
그대	-10.7324
▁강원	-10.7327
▁늦출	-10.7327
▁26	-10.7332
▁주기	-10.7335
져서	-10.7338
▁등으로	-10.7339
▁본조에	-10.734
▁궐	-10.734
듣건대	-10.7341
▁실망	-10.7342
▁않는가	-10.7343
▁행장	-10.7345
▁이여	-10.7349
▁미칠	-10.7349
▁구황	-10.7349
▁경사에	-10.7353
▁겸임	-10.7353
▁군인	-10.7353
▁민간에	-10.7354
▁공론에	-10.7356
▁성절사	-10.7356
에만	-10.7356
▁돌려주	-10.7358
▁방법으로	-10.7361
▁사직하기를	-10.7362
▁열고	-10.7364
▁이지	-10.7365
졌다	-10.7366
▁말하였으니	-10.7366
▁절차를	-10.7369
▁받아야	-10.7371
▁범하여	-10.7371
▁닦	-10.7373
▁못한다면	-10.7373
▁성덕	-10.7373
▁칭찬	-10.7375
▁조현명이	-10.7376
▁경연관	-10.7377
▁절반	-10.7378
▁이양	-10.7378
▁받아들이는	-10.7379
왜	-10.7379
▁보답	-10.7384
▁재주와	-10.7384
▁진달하여	-10.7385
▁예관으로	-10.7386
▁이곳에	-10.7389
▁주관	-10.7391
▁극도	-10.7394
명이나	-10.7397
▁중에는	-10.7399
▁자취가	-10.74
▁행행	-10.7401
▁아니하였으니	-10.7403
▁말하였는데	-10.7403
▁통정	-10.7403
▁대에	-10.7407
▁많았습니다	-10.7408
▁무너져	-10.7412
▁도주	-10.7416
▁죄주	-10.7418
▁조강	-10.7419
현령	-10.7419
▁괴이하게	-10.742
▁헌관	-10.7423
▁적당하지	-10.7423
▁충정	-10.7425
나는	-10.7425
▁나중에	-10.7426
▁재능이	-10.743
▁주부	-10.7433
▁가난한	-10.7434
▁옥체	-10.7435
놓고	-10.7436
▁곤	-10.7438
▁비국에	-10.7442
▁첩을	-10.7444
▁대죄하지	-10.7444
▁수직	-10.7447
▁선정신	-10.7448
▁기민	-10.7457
▁그러자	-10.7458
▁급제	-10.7463
▁맞이하는	-10.7467
▁약원	-10.7468
▁많다고	-10.7477
▁매일	-10.7479
▁연후에	-10.7482
▁연로	-10.7484
▁군병	-10.7488
▁것인데도	-10.7489
▁인피하였다	-10.7491
▁이목	-10.7492
▁길일	-10.7492
세에	-10.7493
▁방법	-10.7493
▁받들지	-10.7494
섬	-10.7494
▁이렇게까지	-10.7494
▁도모	-10.7495
▁생활	-10.7496
▁전교에	-10.7503
▁대신으로	-10.7504
권을	-10.7505
▁본관	-10.7505
하매	-10.7508
▁차지하고	-10.7509
▁바르지	-10.7511
혁	-10.7511
▁공사는	-10.7514
▁출발	-10.7515
주가	-10.7518
▁세울	-10.7519
▁장만	-10.7523
▁아래로는	-10.7524
균	-10.7524
▁보호	-10.7529
▁나쁜	-10.753
▁삼은	-10.7531
▁관사의	-10.7532
▁정거	-10.7534
▁요동으로	-10.7539
▁동궁	-10.7541
렬	-10.7541
▁그렇다고	-10.7542
▁삼사가	-10.7542
참판	-10.7543
▁존호	-10.7545
▁갓	-10.7546
적이	-10.755
▁창성	-10.7551
▁곡물	-10.7552
▁무예	-10.7552
▁내고	-10.7554
성상	-10.7554
▁신임	-10.7556
▁생각은	-10.756
▁초계	-10.7563
손은	-10.7564
윤허한다	-10.7566
▁거둘	-10.7571
▁생기	-10.7573
성의	-10.7575
▁사용하는	-10.7576
▁공의를	-10.7584
▁도는	-10.7585
▁방수	-10.7586
▁마땅한데	-10.7588
▁폐단에	-10.7592
▁기근이	-10.7592
있게	-10.7593
▁정이	-10.7593
▁파직하여	-10.7595
▁이름은	-10.7595
생이	-10.7596
▁제학	-10.7596
▁그른	-10.7599
▁듯한데	-10.7603
▁하유하라	-10.7604
▁오늘에	-10.7606
▁기생	-10.7606
▁도청	-10.7608
▁대례	-10.761
▁빌	-10.761
▁정전	-10.7611
▁기한이	-10.7611
▁한심	-10.7611
▁보냈는데	-10.7612
▁경중이	-10.7614
▁하문	-10.7615
▁신자	-10.762
▁관원으로	-10.7626
▁바치었	-10.7626
▁훈	-10.7629
▁버리	-10.7629
▁정하소서	-10.7631
▁기운	-10.7632
▁폐조	-10.7634
▁직책이	-10.7634
▁벗	-10.7637
▁두목	-10.7638
▁바라고	-10.7639
▁소원	-10.7639
▁연후에야	-10.7639
▁도움	-10.7646
▁그들에게	-10.7648
▁젊은	-10.7652
관으로	-10.7653
▁가족	-10.7654
▁장인	-10.7655
▁일반	-10.766
▁하나하나	-10.766
▁아닌데도	-10.7661
하기로	-10.7663
▁이래	-10.7665
하신다면	-10.7666
되기를	-10.7667
▁정승이	-10.7671
▁불경	-10.7671
▁자에	-10.7673
▁약속	-10.7676
▁이용	-10.768
본도	-10.7682
요사이	-10.7691
▁제배	-10.7691
▁옳고	-10.7693
▁문초	-10.7693
▁신하는	-10.7694
▁사연을	-10.7695
▁학문에	-10.7696
▁헌부에	-10.7697
▁변장	-10.77
▁무지개	-10.77
▁계품	-10.7701
하심이	-10.7703
▁도둑질	-10.7705
▁임시	-10.7707
▁부모를	-10.7707
▁우리들이	-10.771
▁이같은	-10.771
▁하여서	-10.7712
▁복호	-10.7713
▁두려운	-10.7714
대왕	-10.7715
▁지냈다	-10.7715
▁직부전시	-10.7715
▁오랜	-10.7716
▁설행	-10.7718
▁달에	-10.7721
▁산성	-10.7722
▁자전께서	-10.7724
▁사람에게는	-10.7737
▁색승지	-10.7737
▁아뢰었습니다	-10.7738
▁연계하니	-10.7739
▁못한다고	-10.774
▁쏘	-10.7741
▁이문하여	-10.7741
▁때때	-10.7742
▁하나를	-10.7743
▁정철	-10.7745
▁만세	-10.7748
▁바이니	-10.7751
▁이들은	-10.7756
▁기다린	-10.7756
군이	-10.7758
▁누군	-10.7759
▁지역에	-10.7762
노라	-10.7767
▁사양하고	-10.7771
▁엄격	-10.7773
▁포수	-10.7774
▁적에게	-10.7777
▁못함이	-10.7778
▁물으라	-10.7778
▁연명으로	-10.7779
▁감시	-10.7783
▁조문	-10.7783
▁어려워	-10.7784
▁휘호	-10.7786
▁제외하고	-10.7787
▁없겠습니다	-10.7792
▁표류	-10.7794
▁되돌려	-10.7795
▁이조판서	-10.7795
▁군기를	-10.7796
▁안됩니다	-10.7796
▁질	-10.7797
▁당하면	-10.7798
▁지나치다	-10.7799
▁제급	-10.7801
▁잊고	-10.7803
이지만	-10.7805
진의	-10.7807
▁사형에	-10.781
강원도	-10.7813
▁각신	-10.7813
▁왕의	-10.7817
▁승진시켜	-10.7817
▁호위	-10.7818
▁돈을	-10.7821
▁내리시어	-10.7821
▁학문이	-10.7821
▁고한	-10.7822
▁위장	-10.7824
▁후손	-10.7825
제조	-10.7826
▁보수	-10.7826
▁선비들	-10.7827
▁들어오지	-10.783
▁말미암은	-10.7831
▁다르다	-10.7831
▁율대로	-10.7834
▁권장하는	-10.7834
▁지방에서	-10.7836
석과	-10.7837
▁낫지	-10.7837
▁군기	-10.7839
▁들어가는	-10.784
▁심희수	-10.7841
▁요구	-10.7842
▁전시에	-10.7844
▁기르는	-10.7847
현을	-10.7848
▁직위	-10.785
▁신설	-10.785
▁율문	-10.7851
▁신하들은	-10.7851
수의	-10.7857
▁의례	-10.7857
▁이들이	-10.7859
▁집행	-10.7859
▁적임자	-10.7862
▁데로	-10.7863
▁염려되니	-10.7863
▁분부하여	-10.7863
▁민생	-10.7864
▁정하였다	-10.7865
시켜야	-10.7871
▁나무를	-10.7871
▁파견	-10.7873
▁수금	-10.7875
▁근본이	-10.7876
▁이조의	-10.7882
▁원망하는	-10.7883
▁장리	-10.7883
▁통쾌	-10.7883
▁45	-10.7886
▁관직	-10.7893
▁지나간	-10.7894
▁하루에	-10.7895
▁시일	-10.7899
릅니다	-10.79
▁의심스러운	-10.7901
문이	-10.7901
▁자식이	-10.7904
홍문관	-10.7904
▁이덕형이	-10.7905
▁도가	-10.7906
▁예장	-10.7906
▁끼어	-10.7908
▁죽지	-10.7915
▁군사와	-10.7917
▁지나도록	-10.7917
▁편리	-10.7917
▁속에서	-10.7919
부원군	-10.792
▁천리	-10.7921
▁모함	-10.7923
▁대답하지	-10.7923
▁많았는데	-10.7927
시를	-10.7928
▁교형에	-10.793
▁통분	-10.7931
▁못해서	-10.7932
▁소속된	-10.7932
▁평안도의	-10.7933
▁성종	-10.7934
▁공물을	-10.7935
▁참작해서	-10.7935
▁행동이	-10.7937
▁주자	-10.7938
▁긴요한	-10.7941
▁갖춘	-10.7943
▁걸쳐	-10.795
영의정	-10.7952
▁당상의	-10.7955
▁용서해	-10.7956
▁따르게	-10.7958
▁자세하게	-10.796
▁거주	-10.7962
▁시권	-10.7964
▁관원에게	-10.7965
▁삼사에서	-10.7966
▁외직에	-10.7968
▁습관	-10.7968
되었으므로	-10.7968
▁공경하고	-10.7971
돌	-10.7972
남이	-10.7973
▁논계한	-10.7977
▁군민	-10.798
▁동반	-10.798
▁두었다가	-10.798
▁쉬	-10.7984
▁아이	-10.7984
▁타당	-10.7985
▁유생들	-10.7986
▁소견하고	-10.7988
▁별장	-10.7989
▁송사를	-10.7992
▁최복	-10.7993
▁유시하여	-10.7996
▁행례	-10.7998
▁기사	-10.8006
▁쌓고	-10.8011
▁여겼습니다	-10.8011
▁물러갔습니다	-10.8011
▁따지지	-10.8015
▁불에	-10.8018
▁쇠	-10.8023
잠	-10.8024
▁돌보아	-10.8024
▁것이었는데	-10.8025
▁돌아가서	-10.8026
▁청할	-10.8027
이었습니다	-10.8028
▁따라야	-10.8029
▁빠짐	-10.8032
▁정인홍	-10.8033
▁발생	-10.8034
▁우참찬	-10.8034
▁원임	-10.8035
▁행하기	-10.8036
▁호령	-10.8037
비를	-10.8037
▁간신	-10.8038
심이	-10.8039
▁법인데	-10.8039
▁낮	-10.8043
▁사람이니	-10.8045
▁송준길	-10.8046
▁병조판서	-10.8048
석이	-10.8048
▁아문에	-10.805
▁정태화	-10.805
▁서명	-10.8054
▁듯하나	-10.8055
▁미천한	-10.8057
종이	-10.8057
▁성취	-10.8058
척을	-10.8075
▁비난	-10.8077
▁재가	-10.808
만한	-10.8082
▁근무	-10.8083
▁염려된다	-10.8084
▁일으킨	-10.8084
▁오시에	-10.8084
▁물러갔다	-10.8089
▁수송	-10.8096
▁아홉	-10.8097
▁즉위한	-10.8098
▁화살을	-10.8104
▁하였지만	-10.8105
▁진상하는	-10.8109
▁합격한	-10.8111
▁뿐이고	-10.8115
시로	-10.8117
▁늦지	-10.8119
▁더군다나	-10.8119
▁틈타	-10.8119
▁싸	-10.8121
▁낙	-10.8121
▁사양	-10.8122
▁옮기고	-10.8125
▁엄숙	-10.8127
칙	-10.8136
▁집사	-10.814
▁있었겠는가	-10.8141
▁경계하고	-10.8144
▁진작	-10.8144
▁본주	-10.8145
▁전배	-10.8145
▁태백성	-10.8148
▁절개	-10.8148
▁부름	-10.815
▁봉상시	-10.8153
▁얻는	-10.8156
▁갖고	-10.816
▁바쳐	-10.816
▁국문하라	-10.816
사와	-10.8161
▁망극한	-10.8162
▁배향	-10.8163
▁없더라도	-10.8164
▁다를	-10.8164
▁핑계하고	-10.8164
▁구하여	-10.8165
▁정죄	-10.8172
▁헤아리기	-10.8176
▁베를	-10.8177
▁정병	-10.8178
▁자손	-10.8178
▁하다	-10.818
▁환곡	-10.8186
▁사간원대사간	-10.8187
▁궐문	-10.8189
▁사건	-10.8193
문에	-10.8194
음이	-10.8198
▁긴급한	-10.8199
내일	-10.82
▁처지	-10.8204
▁염려스럽습니다	-10.8207
▁폐기	-10.821
▁낭청이	-10.821
▁징계하는	-10.8211
▁의논하니	-10.8212
▁인용하여	-10.8215
죽	-10.8216
▁품은	-10.822
▁굶어	-10.8225
▁못했는데	-10.8225
거늘	-10.8226
▁다스려야	-10.823
▁외람된	-10.8231
▁원종	-10.8233
▁같아	-10.8239
▁술에	-10.824
▁산릉	-10.8242
▁어긋난	-10.8245
간의	-10.8248
목을	-10.825
▁사천	-10.8257
▁처결	-10.8259
▁민망	-10.8261
▁번이	-10.8262
▁그곳에	-10.8265
▁육조의	-10.8266
함으로	-10.8266
▁거가	-10.8267
인으로	-10.8267
▁만나면	-10.8268
▁질병이	-10.8269
▁거리낌없	-10.8272
▁이보	-10.8272
▁떠날	-10.8272
▁부임한	-10.8273
▁조정에서는	-10.8276
했었다	-10.8277
▁주었습니다	-10.828
▁수축	-10.828
대신이	-10.8281
도감	-10.8282
▁판서에	-10.8282
▁사건을	-10.8283
▁좋아하지	-10.8286
▁판서가	-10.8286
▁행공	-10.8293
▁천자	-10.8294
▁관계되니	-10.8294
▁통하지	-10.8296
▁띠	-10.8298
▁공정	-10.8299
▁그르다고	-10.8301
▁단자	-10.8301
▁녹용	-10.8304
▁박승종	-10.8307
▁구름	-10.8308
▁이광좌가	-10.8311
▁수천	-10.8313
▁섞여	-10.8316
길이	-10.8316
▁많으므로	-10.8316
하지만	-10.8318
▁한림	-10.8324
함길도	-10.8326
진은	-10.8326
참의	-10.8328
▁고례	-10.8331
▁중간에	-10.8331
▁독촉하여	-10.8332
▁등지	-10.8334
▁죄주지	-10.8334
▁뽑고	-10.8339
▁것임	-10.8343
▁조성	-10.8345
▁자헌대부	-10.8346
▁토의	-10.8351
▁사인으로	-10.8352
▁감동	-10.8352
무과	-10.8356
▁전유	-10.8356
▁남편	-10.8357
근을	-10.836
▁군량	-10.836
▁지킬	-10.836
▁뛰어난	-10.8361
▁비하여	-10.8364
영은	-10.8369
잡	-10.8369
▁오면	-10.837
▁속인	-10.8371
▁만나서	-10.8372
▁싶다	-10.8372
▁남구만	-10.8372
▁잡혀	-10.8372
▁시작하여	-10.8373
▁연변	-10.8377
▁돈유	-10.8378
▁평안도에	-10.8378
▁복상	-10.8379
▁값이	-10.8381
▁미편합니다	-10.8382
▁내렸으니	-10.8384
▁공초한	-10.8384
▁고명	-10.8385
▁권점	-10.8387
▁박세채	-10.8387
병을	-10.8388
▁알타리	-10.8388
찰방	-10.8389
▁행차가	-10.8392
▁찰방	-10.8396
▁검	-10.8399
▁종사에	-10.84
▁강독	-10.84
▁먹지	-10.8403
▁좋아하고	-10.8405
뿐만	-10.841
▁진무	-10.8413
▁세상에서	-10.8416
▁그저	-10.8416
▁알고서	-10.8417
▁동료가	-10.8421
▁얻기	-10.8422
▁시골에	-10.8424
▁소중	-10.8425
▁배에	-10.8426
▁끼고	-10.8427
▁밝히고	-10.8428
▁방책	-10.8429
▁만들었으니	-10.8429
하기만	-10.8429
▁이치에	-10.8431
▁능에	-10.8433
▁되어서는	-10.8433
▁제가	-10.8434
▁돌아오는	-10.8437
▁성묘	-10.8437
▁좀	-10.844
▁생각하니	-10.8442
▁자자	-10.8443
▁엄하지	-10.8446
▁백관들이	-10.8447
헌납	-10.845
▁조련	-10.8451
▁재량	-10.8451
모든	-10.8451
▁공궤	-10.8451
장은	-10.8454
▁추고하는	-10.8455
▁명분	-10.846
▁맡았	-10.8462
▁여름	-10.8465
▁장소	-10.8468
▁떨어진	-10.8473
▁이전의	-10.8478
전은	-10.8483
▁흉	-10.8488
▁나가는	-10.8494
▁빈궁	-10.8495
▁설령	-10.8496
▁인한	-10.8496
▁조종조에서	-10.8499
▁강계	-10.8502
▁드리	-10.8504
쳐	-10.8504
듯이	-10.8505
▁주사	-10.8505
▁유성	-10.8506
▁자라	-10.8507
하셨습니다	-10.8508
▁성대	-10.8509
에서부터	-10.8511
▁서쪽으로	-10.8513
▁나갔다	-10.8513
▁기다릴	-10.8516
▁아름답지	-10.8518
▁주선	-10.8519
▁56	-10.852
▁검열	-10.8521
▁설서로	-10.8525
▁수효를	-10.8526
▁병사가	-10.853
했으며	-10.853
▁안장	-10.853
▁마지	-10.8533
▁잡게	-10.8533
군으로	-10.8537
거리	-10.8539
▁사람입니다	-10.8542
▁시호	-10.8543
▁환자	-10.8546
▁승지는	-10.8547
으소서	-10.8548
▁이원익	-10.8548
▁도정	-10.855
▁허술	-10.855
▁총제	-10.855
▁선유	-10.8556
기로	-10.8558
▁수색	-10.856
▁사소	-10.8561
▁나아갈	-10.8562
▁복제	-10.8563
▁백성들로	-10.8564
걸	-10.8567
▁육경	-10.8567
입니까	-10.8571
▁남곤	-10.8571
▁기다리게	-10.8577
▁정온	-10.8578
▁첩정에	-10.858
▁지공	-10.8583
▁근원	-10.8585
▁직숙	-10.8585
▁세우	-10.8587
▁복이	-10.8588
▁맹	-10.8589
▁유지를	-10.859
▁나국	-10.8592
▁재앙이	-10.8592
필씩을	-10.8594
▁핵실	-10.8594
▁이재	-10.8598
▁문형	-10.8603
▁행해야	-10.8604
▁상납	-10.8605
▁향하여	-10.8605
▁싶은	-10.8605
▁암행	-10.8606
▁봉하여	-10.8609
▁상가	-10.8609
▁시행되지	-10.8613
황제	-10.8613
▁준다면	-10.8613
▁감격	-10.8614
▁관원과	-10.8615
▁신들도	-10.8617
▁타당하지	-10.862
하였는데도	-10.8623
하셔야	-10.8625
▁뜰	-10.8626
▁경력	-10.8628
▁정상은	-10.8629
▁믿지	-10.863
▁얻게	-10.863
▁양인	-10.863
만여	-10.8631
▁시재	-10.8633
우가	-10.8637
▁나타나	-10.8638
▁유사에게	-10.8638
▁드러내	-10.864
주의	-10.864
▁사부	-10.8645
▁방물을	-10.8647
▁시행하기	-10.8648
▁비루	-10.8649
▁알겠습니까	-10.8651
▁자궁	-10.8652
▁정청	-10.8653
▁바로잡는	-10.8655
▁인이	-10.8657
▁홍수	-10.8659
▁어지럽	-10.8662
일에는	-10.8663
▁그르다	-10.8669
▁춘	-10.8671
▁이계	-10.8671
▁장계로	-10.8673
▁형적	-10.8673
▁탈	-10.8675
▁정부에서	-10.8675
▁묻게	-10.8678
▁미시에	-10.868
▁막대한	-10.8681
당한	-10.8681
대저	-10.8683
▁여부는	-10.8683
▁책망	-10.8683
율	-10.8684
▁반포	-10.8685
▁숭상	-10.8688
▁고문	-10.8689
▁위조	-10.8696
▁동요	-10.87
▁남도	-10.87
▁재삼	-10.8701
▁고치고	-10.8701
▁근처에	-10.8702
▁당상으로	-10.8702
▁겉으로	-10.8708
둔	-10.8708
▁숨어	-10.8711
▁견해	-10.8712
▁궁중에	-10.8712
수사	-10.8715
▁망령되게	-10.8719
▁식자들	-10.872
▁부족하여	-10.8721
진사	-10.8725
▁파직하였다	-10.8726
조차	-10.8727
▁하루아침	-10.8728
▁사직하였으나	-10.8728
이기는	-10.8729
▁장원	-10.8729
▁김질	-10.8732
▁보고한	-10.8733
▁왕법	-10.8736
▁종묘의	-10.8737
▁인피한	-10.8739
▁이세좌	-10.8741
▁흠	-10.8745
▁정벌	-10.8747
▁세자에게	-10.8748
▁못하는데	-10.8754
▁재능	-10.8755
▁도관찰사	-10.8758
▁행하였는데	-10.8761
▁정지할	-10.8761
▁의계	-10.8763
▁일으키는	-10.8764
▁분의	-10.8764
▁당하였으니	-10.8764
▁버릇	-10.8764
▁바루	-10.8764
▁굴	-10.8766
▁초사에	-10.8767
▁엄중한	-10.8767
▁잃지	-10.8768
▁호랑이	-10.8768
받은	-10.8772
대가	-10.8774
렴	-10.8774
▁이명	-10.8776
▁돌아오지	-10.8776
▁소재	-10.8777
▁논하니	-10.8785
▁인삼	-10.8791
▁선정전에	-10.8791
▁종묘와	-10.8792
▁탐욕	-10.8796
▁때문이	-10.8796
형이	-10.8796
▁경원	-10.8797
▁이준	-10.88
▁보도록	-10.8802
듯	-10.8802
▁달을	-10.8807
▁소학	-10.8808
▁끌어	-10.881
▁성복	-10.881
▁수령에	-10.8811
▁적간	-10.8813
▁빌건대	-10.8814
엽	-10.8817
▁흉악하고	-10.8821
▁생각하면	-10.8821
하시기를	-10.8822
▁교체	-10.8828
▁물러가서	-10.8828
▁집은	-10.8829
▁하연	-10.883
▁것인	-10.8833
▁냥을	-10.8834
▁정형	-10.8835
▁갖가지	-10.8837
▁뻔뻔스럽게	-10.8837
량을	-10.8839
느라	-10.884
▁흡족	-10.8842
▁이항	-10.8843
▁소송	-10.8846
▁억울하게	-10.8846
▁과죄	-10.8847
▁저화	-10.8849
▁역사에	-10.8849
▁타는	-10.8851
▁돌아오게	-10.8852
▁처리하지	-10.8854
▁복주	-10.8856
▁종정국	-10.8857
▁세월이	-10.8863
▁일인	-10.8866
▁옳겠다	-10.8866
▁법입니다	-10.8868
▁변방으로	-10.8868
▁출사시키	-10.8871
되기	-10.8873
▁선후	-10.8874
▁사복시	-10.8877
▁방목	-10.8878
▁성혼	-10.8878
▁거론하지	-10.8879
척이	-10.888
▁의논하였다	-10.888
영의	-10.8881
▁숙위	-10.8881
▁지목	-10.8885
▁자손이	-10.8885
낸	-10.8886
▁분명합니다	-10.8886
▁지시	-10.8889
▁사헌부지평	-10.889
▁관원들	-10.8892
▁매를	-10.8894
첨	-10.89
▁어디	-10.8904
▁바꾸는	-10.8904
▁들어가지	-10.8905
▁연고	-10.8907
▁애써	-10.8907
▁김제남	-10.8908
▁천거한	-10.8911
▁허균	-10.8913
▁일어나고	-10.8914
▁맡게	-10.8917
차자를	-10.8922
▁징	-10.8925
▁들어오게	-10.8926
▁건의	-10.8929
▁유관	-10.8931
▁되기를	-10.8931
▁학	-10.8932
▁갔는데	-10.8936
▁간언	-10.8937
▁수교	-10.894
▁차관이	-10.8943
▁적고	-10.8945
▁짐	-10.8947
▁추국하는	-10.8947
▁모를	-10.895
▁간쟁	-10.8951
▁눈으로	-10.8954
▁어떠하겠는가	-10.8955
▁기다리	-10.8957
▁조짐	-10.8959
▁서신	-10.8961
자고	-10.8964
방에	-10.8964
▁그러다가	-10.8964
▁호서	-10.8968
▁소명	-10.897
▁간략하게	-10.897
록을	-10.8971
▁논의에	-10.8972
▁금방	-10.8973
▁검은	-10.8974
▁분별	-10.8974
도사	-10.8974
▁알면서도	-10.8976
▁보고하여	-10.8976
▁태평관에	-10.8977
▁표리	-10.8977
▁저지른	-10.8978
에까지	-10.8979
▁기구	-10.898
▁사냥을	-10.898
▁재신들	-10.8983
▁죄수들	-10.8983
도승지	-10.8986
▁부족	-10.8987
▁두었다	-10.8989
▁취품	-10.8989
▁소가	-10.899
▁빛	-10.899
▁남쪽으로	-10.8991
▁않음	-10.8992
▁직제학	-10.8993
마한	-10.8994
▁민간에서	-10.9002
한성부	-10.9003
▁삼아야	-10.9005
▁캐	-10.9005
▁추문할	-10.9006
▁권유	-10.9009
▁보라	-10.9009
▁임명하였다	-10.9015
년이나	-10.9016
▁벌이	-10.9016
▁힘쓰고	-10.9016
▁주며	-10.9019
▁더하고	-10.902
▁장황	-10.9021
답	-10.9021
▁옛사람	-10.9022
▁걸어	-10.9023
▁최항	-10.9024
▁바꾸	-10.9025
▁잠깐	-10.9025
▁감면	-10.9026
▁단속	-10.9027
▁기복	-10.9029
▁전최	-10.903
▁해사로	-10.903
▁일컫고	-10.9035
▁무려	-10.9042
▁김정	-10.9044
▁생긴	-10.9045
▁성은	-10.905
▁살인	-10.905
▁생각한다	-10.9051
▁핑계하여	-10.9055
▁용렬하여	-10.9057
▁어렵다고	-10.906
▁대언	-10.906
▁접	-10.9061
▁드문	-10.9065
▁조심	-10.9068
▁설치할	-10.907
▁계문하여	-10.9072
▁마련해	-10.9074
▁때문이었습니다	-10.9074
▁성준	-10.9075
하였었는데	-10.9076
집의	-10.9077
▁소회	-10.9078
▁추증	-10.908
▁바칠	-10.9084
▁주면	-10.9086
▁제독	-10.9086
▁가납	-10.9087
▁가리	-10.9089
▁지척	-10.9091
▁불가할	-10.9093
▁대간에게	-10.9097
▁여종	-10.9098
▁감하고	-10.9099
▁상경	-10.91
▁피할	-10.9102
군에	-10.9104
▁삼남	-10.9105
▁김상헌	-10.9105
▁흙	-10.9106
▁국상	-10.9107
▁하교한	-10.9107
▁공물	-10.9108
▁떠나지	-10.9109
▁차대하였다	-10.9109
현이	-10.9115
▁일행	-10.9116
장의	-10.9118
▁두려워서	-10.9118
▁가례	-10.912
▁김진	-10.912
▁탓	-10.912
▁되겠습니다	-10.9124
관의	-10.9124
▁거사	-10.9125
▁방자	-10.9127
▁넓고	-10.9131
▁경주	-10.9132
▁원통하	-10.9133
▁연일	-10.9134
▁거애	-10.914
▁정국	-10.9143
▁해청	-10.9144
▁잔을	-10.9146
공조	-10.9147
▁신상	-10.9148
▁몸둘	-10.9148
▁윤두수	-10.9148
▁민가	-10.9151
▁지낼	-10.9152
▁명칭	-10.9153
▁예대로	-10.9156
▁벽	-10.9157
▁우두머리	-10.9159
▁영정	-10.9159
▁끼치는	-10.9167
▁딴	-10.917
▁생업	-10.917
▁찾아서	-10.917
▁뿌리	-10.9173
▁말만	-10.9174
▁사적	-10.9176
▁일이었다	-10.9179
▁은택	-10.918
▁좋다	-10.9183
▁첩의	-10.9189
▁겁	-10.919
▁듣게	-10.9191
▁효성	-10.9192
▁부방	-10.9193
▁추문하지	-10.9194
▁김재로	-10.9195
대사헌	-10.9197
▁고르지	-10.9197
▁구실	-10.92
▁본도에서	-10.9201
▁고루	-10.9201
▁권면	-10.9202
▁알도록	-10.9204
▁천사가	-10.9207
▁친척	-10.9208
▁우부승지로	-10.9208
▁이현	-10.9209
▁사류	-10.9209
▁방방	-10.9215
▁빠진	-10.9217
▁무리는	-10.9219
▁내려보내	-10.922
▁졸하니	-10.9222
▁올적합	-10.9223
▁강상에	-10.9228
▁하윤	-10.9231
옛날	-10.9231
남은	-10.9232
▁함흥	-10.9233
해져	-10.9234
▁말에서	-10.9235
알	-10.9239
▁이숙	-10.9243
세를	-10.9246
▁본국의	-10.925
▁지친	-10.9251
▁두게	-10.9254
륜	-10.9255
▁조그	-10.9258
▁취할	-10.9259
▁사시	-10.9261
▁관리들이	-10.9261
▁윤호	-10.9263
▁실시	-10.9265
▁쉽지	-10.9265
▁털끝만큼	-10.9265
▁상왕	-10.9268
하시	-10.9269
▁들었으니	-10.9269
▁비추어	-10.9269
▁않은가	-10.9269
▁무리들을	-10.927
이달	-10.9274
▁걸려	-10.9275
▁이희	-10.9276
▁소견이	-10.9276
▁우리들	-10.9277
▁소나무	-10.9279
수령	-10.9281
▁모양을	-10.9281
▁있었다면	-10.9281
▁도둑이	-10.9282
▁영접	-10.9282
▁탐	-10.9283
▁비는	-10.9285
▁서전	-10.9288
▁성이	-10.9289
▁마음과	-10.9291
▁받았고	-10.9292
우를	-10.9293
▁새벽에	-10.9293
▁청하였습니다	-10.9293
▁글씨	-10.9294
▁방자한	-10.9295
건을	-10.9297
▁포로	-10.9299
▁철거	-10.9299
▁미치게	-10.93
▁거두기를	-10.9301
▁상에	-10.9301
▁도목	-10.9302
▁교정	-10.9306
▁배신	-10.9307
▁보름	-10.9308
▁주상께서	-10.9309
느니	-10.9311
르	-10.9311
쯤	-10.9311
▁뒷	-10.9312
▁붙	-10.9315
▁일으킬	-10.9316
▁하늘가로	-10.9317
▁조짐이	-10.9317
▁했기	-10.9319
▁무명	-10.9328
▁치적	-10.9328
▁소복	-10.9332
▁근거할	-10.9334
▁견	-10.9338
▁전관	-10.9338
▁숙배	-10.9343
천군	-10.9346
▁수재	-10.9347
▁이종	-10.935
▁물리	-10.935
▁암	-10.9355
▁덮어	-10.9357
▁근년	-10.9359
▁이구	-10.9363
▁내의	-10.9364
▁끝나자	-10.9364
▁손수	-10.9365
중이	-10.9367
▁발탁	-10.9368
▁검열로	-10.9369
▁월대에	-10.9371
그렇다면	-10.9373
▁말하더라도	-10.9377
▁저물	-10.9379
▁판의금	-10.9379
▁후한	-10.9381
▁이윤	-10.9382
▁순찰사	-10.9383
▁지탱	-10.9384
▁인정전	-10.9385
▁체포하여	-10.9386
▁젊어서	-10.9388
보낼	-10.9388
▁없사오니	-10.9388
▁백성으로	-10.9388
▁부르	-10.9389
▁충주	-10.939
▁위세	-10.9391
▁관아	-10.9393
찰	-10.9395
▁사건이	-10.9396
▁못했던	-10.9396
▁핑계대고	-10.9397
▁같을	-10.9402
▁옮기	-10.9405
▁관직이	-10.9408
▁드러났으니	-10.9413
▁머물	-10.9415
▁대답하였다	-10.9415
▁거칠고	-10.9417
▁시체	-10.9424
사직	-10.9424
▁넣어	-10.9426
내어	-10.9426
▁서거정	-10.943
▁숨	-10.9433
▁관작	-10.9436
▁죽이는	-10.9437
▁이중	-10.9437
흠	-10.9439
▁논계하였으나	-10.9441
▁경악	-10.9443
▁대장으로	-10.9445
▁추쇄	-10.9449
▁동참	-10.945
▁상식	-10.9451
▁이곳	-10.9453
▁말씀이	-10.9453
문의	-10.9454
▁향리	-10.9456
▁대질	-10.946
▁기르	-10.9461
▁송영	-10.9463
▁견고	-10.9464
▁개성	-10.9464
▁죽으니	-10.9464
▁안숭선	-10.9467
▁두어서	-10.9468
▁내리게	-10.9468
▁천재	-10.9469
▁사시에	-10.9469
뿐입니다	-10.9472
▁문란	-10.9472
혹	-10.9473
▁해명	-10.9475
▁대명	-10.9476
▁직사	-10.9477
▁호송	-10.9479
▁명은	-10.9479
관에	-10.948
▁이만	-10.9483
▁상정	-10.9483
▁매매	-10.9484
웅	-10.9485
▁고생	-10.9486
▁색낭청	-10.9487
▁거친	-10.9488
▁생길	-10.9496
▁수령들	-10.9498
▁당하고	-10.9503
▁아름다움	-10.9508
▁의거해서	-10.9509
됨	-10.9512
사관	-10.9512
▁경현당에	-10.9513
▁중추	-10.9513
▁어째서	-10.9514
제가	-10.9514
▁사대	-10.9517
▁장례	-10.9518
▁어기는	-10.9519
직을	-10.9524
구가	-10.9526
우찬성	-10.9527
▁노략질	-10.953
▁신역	-10.953
▁즐겨	-10.9531
▁되며	-10.9532
▁바인데	-10.9533
▁시행하라고	-10.954
▁감당하	-10.9541
▁회령	-10.9542
▁사헌부장령	-10.9544
▁구타	-10.9549
▁예사	-10.955
어찌	-10.9551
▁응하지	-10.9552
▁재직	-10.9552
▁논의하여	-10.9553
▁조칙	-10.9554
▁일어났다	-10.9557
▁대마주태수	-10.9562
▁맞고	-10.9562
▁중시	-10.9563
▁검찰	-10.9563
▁사직의	-10.9564
▁동원	-10.9564
▁작년	-10.9564
▁연향	-10.9569
▁신원	-10.9569
식을	-10.9572
▁맞은	-10.9573
밖에	-10.9573
▁기록한	-10.9575
▁쫓아	-10.9576
▁성균관에	-10.958
▁급제를	-10.9581
▁궁중	-10.9582
▁사학	-10.9584
시에	-10.9584
▁죽어도	-10.9587
▁총명	-10.959
▁군무	-10.9591
▁들어오는	-10.9591
대부	-10.9591
원군	-10.9592
▁발론	-10.9592
▁김영	-10.9594
▁능침	-10.9595
존	-10.9598
▁치는	-10.96
순이	-10.9601
▁보였다	-10.9602
▁더없	-10.9604
▁마땅하다고	-10.9604
▁앓고	-10.9604
▁거자	-10.9606
▁인물	-10.9606
▁수령에게	-10.9606
엔	-10.9607
▁명예	-10.961
▁천하에	-10.9612
▁남자	-10.9612
▁철저히	-10.9616
▁조신	-10.9617
▁앞장서	-10.9617
▁절제	-10.9618
▁간곡	-10.9619
▁신축년	-10.962
▁임진년	-10.962
▁중하니	-10.9621
▁부쳐	-10.9624
론	-10.9628
▁주인을	-10.9628
하였는가	-10.963
▁내버려	-10.9632
▁대각에	-10.9635
▁부당하다	-10.9635
▁배로	-10.9637
▁동궁이	-10.9637
▁있사오니	-10.9637
▁계신	-10.964
▁과실을	-10.964
▁말았습니다	-10.964
▁들으면	-10.9644
▁삭출	-10.9647
▁관문에	-10.9648
▁의심하여	-10.9649
▁공경하는	-10.9649
▁차사원	-10.9649
▁정수	-10.9649
▁민정중	-10.9653
▁좌우에	-10.9654
▁욕심	-10.9657
▁오부	-10.966
었을	-10.966
▁대내에	-10.9661
▁받으니	-10.9663
▁중임	-10.9664
▁구차스럽게	-10.9664
▁장계하기를	-10.9665
▁고향으로	-10.9665
▁붕당	-10.9665
▁후에야	-10.9665
▁면포를	-10.9666
타	-10.9667
▁김구	-10.9667
▁빚	-10.9669
▁저지	-10.9671
▁길주	-10.9671
▁역사가	-10.9672
료	-10.9675
▁자손을	-10.9675
▁병환이	-10.9676
▁허위	-10.9677
▁도성에	-10.9679
▁순행	-10.9682
▁하였던	-10.9683
▁피차	-10.9684
▁진찰	-10.9687
▁옮길	-10.9687
▁논평하기를	-10.9688
셨으니	-10.9689
산에	-10.969
하셨는데	-10.9693
▁드물	-10.9694
▁올라오	-10.9696
▁못했기	-10.9699
▁힘입어	-10.9702
▁관복	-10.9702
▁보장	-10.9707
▁간에	-10.9708
▁추고하게	-10.9708
▁위급	-10.9709
▁병부	-10.9711
▁거리낌	-10.9713
▁좇았다	-10.9713
▁잡아들여	-10.9713
▁퇴	-10.9714
▁좌부승지로	-10.9714
소의	-10.9715
▁변변치	-10.9716
▁방물	-10.9717
▁동료들이	-10.9717
▁밝히	-10.9717
▁파하였다	-10.9719
▁어사가	-10.9722
▁사령	-10.973
▁고사에	-10.9731
▁가니	-10.9732
▁비루한	-10.9733
▁친족	-10.9734
▁기용	-10.9736
▁세도	-10.9737
▁유생들을	-10.9738
▁입에	-10.9742
▁딸을	-10.9744
대장	-10.9745
전이	-10.975
▁남이	-10.9752
▁시체를	-10.9753
▁정주	-10.9756
▁맡기	-10.9759
▁추고하기	-10.9759
▁취한	-10.9762
▁역임	-10.9765
▁훈도	-10.9766
▁허가	-10.9766
▁어렵지	-10.9773
았습니다	-10.9774
상께서	-10.9775
▁말미	-10.9776
▁송순	-10.9777
상은	-10.9779
▁근년에	-10.9779
▁지방으로	-10.978
▁머물게	-10.978
▁부마	-10.9781
▁반복해	-10.9782
하시기	-10.9785
▁보탬이	-10.9789
▁옥당에서	-10.979
▁동정	-10.9792
결을	-10.98
▁비축	-10.98
했었습니다	-10.98
▁버릴	-10.9801
▁나면	-10.9808
문은	-10.981
▁은자	-10.981
▁의거해	-10.9813
▁아뢰었던	-10.9816
▁부당한	-10.9817
▁잃었	-10.9818
▁총호사	-10.9819
▁29	-10.982
▁이병모	-10.9822
▁칭탁하고	-10.9824
▁개의	-10.9827
오늘날	-10.9828
▁본국	-10.9831
▁않았다면	-10.9837
▁깊고	-10.9841
▁없었으나	-10.9841
▁더한	-10.9842
▁부끄럽게	-10.9842
▁흉서	-10.9846
▁치우치	-10.9846
▁공적	-10.9846
▁마음속으로	-10.9846
▁가리킨	-10.9848
▁소위	-10.9849
▁경략	-10.9849
▁찾아내어	-10.9853
▁미쳐	-10.9854
▁파하고	-10.986
▁썼다	-10.9861
▁죽기	-10.9862
▁서계에	-10.9862
▁맹자	-10.9864
병이	-10.9865
▁못하며	-10.9865
▁삼도	-10.9867
▁좋아하여	-10.9867
▁하시는	-10.9868
▁중용	-10.9871
▁드는	-10.9875
▁오례의에	-10.9877
▁여지	-10.988
▁괴	-10.9882
▁문안하니	-10.9886
▁알겠는가	-10.9887
▁졸	-10.9889
▁곳인데	-10.989
▁승정원이	-10.9891
▁같으나	-10.9893
▁포폄	-10.9893
▁삼으소서	-10.9893
▁도망쳐	-10.9897
공이	-10.9897
▁논란	-10.9898
▁입에서	-10.9899
▁가기	-10.9902
▁석방하라	-10.9904
▁임의로	-10.9905
노사신	-10.9907
▁준비하여	-10.9907
▁삼아서	-10.9909
액	-10.9911
▁공역	-10.9911
▁몰라	-10.9911
▁둘째	-10.9915
▁지키	-10.9918
▁모인	-10.9919
▁더욱더	-10.9919
▁북방	-10.9919
▁해당되는	-10.9919
▁바로잡아	-10.9922
▁희생	-10.9924
▁요행히	-10.9926
▁알라	-10.9929
▁보고하지	-10.9931
▁빌어	-10.9934
▁모이	-10.9938
겠다고	-10.994
▁김일경	-10.9941
▁품정	-10.9942
▁일시	-10.9942
▁전조에	-10.9943
▁오르	-10.9945
▁어려서	-10.9947
▁비상한	-10.9948
▁이르자	-10.9949
▁성조	-10.9955
▁스승	-10.9955
▁얼	-10.9956
▁소방	-10.9958
▁천호	-10.9959
일부터	-10.9959
▁협	-10.9962
▁제외하고는	-10.9967
무를	-10.9967
▁좌도	-10.9968
▁압록강	-10.9972
▁청렴	-10.9973
접	-10.9976
▁비전주	-10.9976
▁예조판서	-10.9977
▁평상시에	-10.9979
금이	-10.9982
윤호	-10.9983
▁형률에	-10.9985
▁도목정	-10.9986
▁인의	-10.9987
▁변장이	-10.999
▁문장	-10.9992
▁치서하기를	-10.9996
▁낭자	-10.9997
▁동방	-10.9998
▁대간에서	-10.9998
▁납부	-10.9999
▁초래	-11
▁풍년	-11.0001
▁조태구	-11.0002
▁말기를	-11.0003
▁신명	-11.0003
▁지도	-11.0004
▁서책	-11.0005
▁짝이	-11.0007
▁조세를	-11.0008
▁형조가	-11.0011
▁착용	-11.0012
▁난을	-11.0014
▁태도	-11.0015
▁관사에	-11.0016
▁사실은	-11.0017
▁윗사람	-11.002
▁적발	-11.0025
▁제물	-11.0027
▁이완	-11.0028
▁날조	-11.0029
▁문사	-11.0029
▁병에	-11.0032
▁수교에	-11.0033
▁청정	-11.0034
▁청렴하고	-11.0038
▁저장	-11.004
▁남지	-11.004
▁깨끗이	-11.004
▁추국을	-11.0042
▁까닭은	-11.0043
▁전조에서	-11.0044
▁흑	-11.0044
▁도착한	-11.0049
▁빌려	-11.005
▁그지없습니다	-11.005
▁틈이	-11.006
▁금고	-11.0061
▁재산을	-11.0065
▁일전에	-11.0066
▁대학	-11.0066
▁서궁	-11.0067
▁물의	-11.0069
▁직명	-11.007
▁듣기에	-11.007
▁김국광	-11.0072
▁경중에	-11.0073
▁기계	-11.0075
만큼	-11.0075
▁어떠하리까	-11.0075
▁수상	-11.0077
▁것이야	-11.0079
▁"1.	-11.0081
근일	-11.0084
▁일이라면	-11.009
▁비답에	-11.0092
▁보내니	-11.0097
▁화살	-11.0099
▁대강	-11.01
조가	-11.0102
▁통제사	-11.0102
▁유자광	-11.0102
▁내려가	-11.0103
▁때문이니	-11.0104
▁고변	-11.0104
▁물리치고	-11.0111
▁편에	-11.0114
▁강변	-11.0116
▁명초하여	-11.0118
▁죄인이	-11.0118
▁윤휴	-11.0119
▁어려움이	-11.0119
▁이르면	-11.0122
▁근처	-11.0125
▁동서	-11.0126
▁장래	-11.0126
▁사직소	-11.0127
▁범하고	-11.0128
▁조섭	-11.013
▁대호군	-11.0133
▁홍언필	-11.0135
▁윤은보	-11.0136
▁맞이하고	-11.0137
▁이배	-11.0141
한명회	-11.0141
▁신숙주가	-11.0142
▁내는	-11.0144
▁무관	-11.0146
▁지조	-11.0147
▁과실이	-11.0151
계를	-11.0153
▁닫고	-11.0154
방의	-11.0159
▁당상은	-11.016
▁놀라게	-11.016
▁피폐	-11.0164
▁마련한	-11.0167
▁지키지	-11.0168
▁필요한	-11.0171
대신	-11.0177
▁유격	-11.0177
▁내보내	-11.0179
▁납	-11.018
▁적몰	-11.0181
▁바꿀	-11.0181
▁지적	-11.0182
▁까닭없	-11.0184
▁죽었습니다	-11.0184
▁초상	-11.0184
▁저자	-11.0185
▁힐문	-11.0185
▁간사	-11.0185
▁반열	-11.0186
▁인도	-11.0187
▁다리	-11.019
▁짓지	-11.0193
▁편의	-11.0194
▁아들은	-11.0194
편을	-11.0197
▁기록할	-11.0198
▁보임	-11.0199
▁결장	-11.0201
▁양정	-11.0207
▁의논도	-11.0207
데다가	-11.0208
▁구해	-11.021
▁식년	-11.0211
▁인주	-11.0213
▁입학	-11.0214
▁평생	-11.0215
▁우연한	-11.0215
▁고찰하여	-11.0216
▁빈전에	-11.0218
▁야인이	-11.0219
▁묵	-11.0219
▁호칭	-11.022
▁합당	-11.022
▁수습	-11.0221
▁재임	-11.0221
▁상언하여	-11.0222
▁유서	-11.0223
▁임진	-11.0224
개월이	-11.0224
▁받아들이	-11.0225
▁양호	-11.0225
률	-11.0225
▁생기는	-11.0226
▁대관의	-11.0231
▁중군	-11.0232
▁인견	-11.0232
▁선위사	-11.0232
▁김개	-11.0234
▁흘러	-11.0234
▁않았는가	-11.0235
▁지경	-11.024
▁양도	-11.0241
▁탁	-11.0241
▁사림	-11.0241
산이	-11.0243
▁이집	-11.0245
▁힘	-11.0247
▁천만	-11.0247
▁사람들로	-11.0248
▁천청	-11.0248
▁활쏘기를	-11.0248
▁유시하였으니	-11.0249
▁가합니다	-11.025
▁동지중추부사로	-11.0252
품이	-11.0257
창의	-11.0258
▁진실	-11.026
▁서용하라	-11.026
▁물은	-11.0261
▁원망하고	-11.0262
▁정사에서	-11.0264
▁영선	-11.0265
▁흉역	-11.0267
▁들어오	-11.0269
▁합계하기를	-11.0269
하시면	-11.0271
▁택	-11.0274
▁사행	-11.0274
▁조석문	-11.0274
▁불어	-11.0278
▁생각한	-11.0282
▁갔을	-11.0282
▁차례를	-11.0283
▁원경하	-11.0283
▁군율	-11.0283
▁몰아	-11.0283
▁정유	-11.0284
▁국문하지	-11.0284
▁심리	-11.0285
▁이시수	-11.0287
▁여기어	-11.0287
▁얻고	-11.0288
▁따르소서	-11.0289
▁사로잡	-11.0289
▁외의	-11.029
▁예단	-11.029
▁내리소서	-11.0291
▁무덤	-11.0291
▁맑	-11.0294
볼	-11.0297
▁가자한	-11.0303
▁물론이	-11.0305
▁이무	-11.0308
▁살해	-11.0309
▁노비로	-11.0311
▁진구	-11.0312
▁나타났는데	-11.0316
▁이우	-11.0317
▁병들어	-11.0318
▁숨겨	-11.032
▁방문	-11.0321
창이	-11.0324
▁못하나	-11.0324
▁익명서	-11.0325
▁봉양	-11.0326
▁익숙	-11.0327
▁차고	-11.0327
▁진헌	-11.0331
▁부음	-11.0331
▁사퇴하지	-11.0331
▁근거없	-11.0332
▁어긋나	-11.0333
▁체직하고	-11.0334
▁조제	-11.0336
우는	-11.0339
▁삼군	-11.034
현은	-11.0341
▁인혐	-11.0342
하를	-11.0342
▁별감	-11.0343
▁아니어서	-11.0344
진에	-11.0344
▁장마	-11.0347
규를	-11.0348
▁생각에	-11.0355
▁하삼도	-11.0355
위에	-11.0358
▁관례에	-11.0358
▁아니합니다	-11.0359
▁조하	-11.036
도내	-11.0362
▁채워	-11.0365
▁참배	-11.0365
▁많기	-11.0369
▁민심	-11.0371
▁개유	-11.0376
▁붓	-11.0376
▁하늘과	-11.0378
▁근정전에	-11.0385
▁취사	-11.0385
▁헛	-11.0385
황해	-11.0387
▁사간원정언	-11.0389
▁너그러	-11.039
▁중도	-11.0391
▁손에	-11.0392
▁교활한	-11.0393
씨가	-11.0393
산의	-11.0395
▁숭정전	-11.0398
▁공천	-11.0399
▁창고에	-11.04
▁궁인	-11.0401
▁폐지할	-11.0402
▁신료들	-11.0404
▁흠이	-11.0406
▁아뢰	-11.0408
▁멀고	-11.0409
청컨대	-11.0412
▁위유	-11.0416
▁돌아간	-11.0418
▁보리	-11.0419
▁강이	-11.042
▁수량이	-11.042
▁도형	-11.0422
▁비밀리	-11.0423
동을	-11.0423
▁더러운	-11.0428
부가	-11.0429
▁토벌하는	-11.0429
▁분변	-11.043
▁돌아보건대	-11.043
▁파직시켜	-11.043
▁기약이	-11.0439
▁수정	-11.0445
▁사옹원	-11.0449
▁김기	-11.045
▁비워	-11.045
▁망설이	-11.0451
▁따질	-11.0451
▁소홀	-11.0452
레	-11.0457
▁듯하여	-11.0462
▁음모	-11.0462
▁갑절	-11.0464
▁음식물	-11.0466
절도사	-11.0467
▁무너지고	-11.0472
▁율로	-11.0473
▁신용개	-11.0475
▁전장	-11.0476
▁생각할	-11.0477
▁굽어	-11.0479
▁달아나	-11.0481
▁국문하고	-11.0482
▁무리들	-11.0482
▁사변이	-11.0484
▁고하여	-11.0484
▁받든	-11.0484
▁겸사복	-11.0484
▁보기	-11.0485
▁사람됨	-11.0486
▁여악	-11.0487
▁귀신	-11.0495
▁선택하여	-11.0497
십	-11.0498
▁올라와	-11.0502
▁체차를	-11.0504
▁바랄	-11.0506
▁일어날	-11.0506
▁대체에	-11.0507
▁같았습니다	-11.0507
▁대단한	-11.0507
▁비용이	-11.0507
▁장죄	-11.0508
▁무식한	-11.0509
▁하교하여	-11.051
▁못하다는	-11.0512
▁모시	-11.0515
▁막기	-11.0516
졌으니	-11.0516
부와	-11.0517
▁피로	-11.0519
▁저축	-11.0525
▁헌의	-11.0526
▁조운	-11.0527
골	-11.0528
▁했다고	-11.0528
▁체찰사	-11.0532
▁거취	-11.0534
▁불편	-11.0536
▁내리며	-11.0538
▁게을리	-11.0538
▁종일	-11.0542
▁다례	-11.0543
▁소환	-11.0545
▁간청	-11.0547
▁진언	-11.0548
시켰는데	-11.0549
▁전수	-11.055
민이	-11.0554
▁소결	-11.0562
▁김치인이	-11.0567
▁빼앗고	-11.0568
▁되었는데도	-11.0568
▁도신에게	-11.0571
▁시위하는	-11.0573
▁이산	-11.0574
▁임사홍	-11.0575
▁즉위	-11.0576
선은	-11.0577
▁대인	-11.0577
▁글로	-11.0578
▁까닭	-11.0579
▁치계하여	-11.058
▁이승	-11.0583
▁청대	-11.0584
▁아니라면	-11.0584
▁황신	-11.0585
▁주달	-11.0586
▁기꺼이	-11.0589
▁사복	-11.0589
▁곳에는	-11.0592
▁내사	-11.0594
▁보았습니다	-11.0596
▁의논하지	-11.0598
▁국문하기를	-11.0601
▁한정하여	-11.0602
▁종사를	-11.0602
▁말아서	-11.0603
▁수호	-11.0603
▁머물렀다	-11.0603
▁태상왕이	-11.0604
▁없기에	-11.0607
▁명했다	-11.0613
모두	-11.0614
▁착실	-11.0614
▁가하지	-11.0614
▁더위	-11.0616
▁실상이	-11.0616
▁간택	-11.0617
▁편안하지	-11.0618
▁달라서	-11.0618
▁사람인	-11.0622
▁관리들	-11.0622
▁황수신	-11.0624
▁풍조	-11.0625
▁하오니	-11.0627
▁강구	-11.0628
▁부사직	-11.0628
▁베껴	-11.0629
짓	-11.0629
▁희미하게	-11.063
▁연기	-11.0633
▁종으로	-11.0634
▁금부에서	-11.0635
▁김상	-11.0637
▁두렵다	-11.0637
▁대군이	-11.0638
되었으나	-11.0639
▁파방	-11.0639
▁가상하다	-11.0641
▁군주	-11.0645
곡을	-11.0647
대사간	-11.0648
▁이룰	-11.0649
▁심정이	-11.0649
▁직부	-11.065
▁황주	-11.0651
▁긴요하지	-11.0653
▁가지로	-11.0661
▁훔쳐	-11.0663
▁당장	-11.0663
▁금년에는	-11.0666
▁위임	-11.0671
▁했고	-11.0671
▁천망	-11.0672
▁않습니까	-11.0672
디	-11.0672
▁전알	-11.0672
▁돌아보며	-11.0673
▁병폐	-11.0674
해져서	-11.0679
산군	-11.0689
▁다행	-11.0692
▁뚜렷	-11.0693
▁마음에서	-11.0693
▁혼	-11.0694
▁처형	-11.0695
명에게	-11.0699
▁이식	-11.07
▁갇힌	-11.07
▁십	-11.0701
▁원정	-11.0702
▁애초에	-11.0702
▁탐욕스럽고	-11.0703
▁한단	-11.0704
▁상께서는	-11.0705
▁사신과	-11.0705
▁팔도에	-11.0706
▁진시에	-11.0709
▁이호민	-11.071
▁사용할	-11.0712
▁잉임	-11.0712
▁서반	-11.0713
▁들어올	-11.0714
만으로	-11.0715
▁파직시킬	-11.0715
▁사리	-11.0718
▁그만두고	-11.0722
롱	-11.0724
사는	-11.0724
▁축하	-11.0726
팔	-11.0728
▁사나운	-11.0728
▁여겼는데	-11.0729
▁도신으로	-11.0734
▁논계를	-11.0734
▁잡을	-11.0737
겠지만	-11.0743
▁군적	-11.0744
▁간직	-11.0745
▁가사	-11.0747
▁침범	-11.0754
▁국문하소서	-11.0757
▁별다른	-11.0757
▁맞이하여	-11.0757
▁알아내	-11.0758
함과	-11.0758
▁하였을	-11.076
위의	-11.076
▁나가게	-11.076
▁조율하여	-11.0763
▁단단	-11.0764
지라	-11.0765
▁정박	-11.0769
▁배례	-11.077
▁부응교	-11.078
▁정청에	-11.078
▁이정귀	-11.0781
▁역적들	-11.0784
▁나타난	-11.0785
▁강릉	-11.0785
▁가져오	-11.0787
명에	-11.0788
▁예식	-11.0791
▁나주	-11.0793
▁식견이	-11.0797
▁조광조	-11.0797
▁가자하였다	-11.0798
▁시원	-11.0801
▁속전	-11.0802
▁중국군	-11.0802
적을	-11.0805
▁딸이	-11.0811
▁쓰기	-11.0815
▁중사	-11.0817
▁정역	-11.0817
▁농	-11.0819
▁받아들여	-11.082
▁좌우에게	-11.0821
▁거행하기	-11.0821
▁떠들썩	-11.0822
▁제조로	-11.0823
▁정통	-11.0823
▁참석	-11.0824
▁때도	-11.0824
▁어질고	-11.0825
▁들어왔다	-11.0828
▁이르	-11.0828
▁징발하여	-11.0835
▁사변	-11.0837
붕	-11.0839
안에	-11.0841
▁버젓	-11.0841
▁어두운	-11.0842
▁대동	-11.0842
충청	-11.0842
▁노성	-11.0842
▁마땅	-11.0844
든지	-11.0845
▁적합한	-11.0845
▁인가	-11.0848
뢰	-11.085
품은	-11.0852
▁분명하지	-11.0853
▁허락할	-11.0853
▁이경석	-11.0853
낙	-11.0854
▁면제해	-11.0855
▁하기도	-11.0856
▁헌	-11.0858
▁대중	-11.086
▁참소	-11.0861
▁문학	-11.0863
사간	-11.0865
▁평정	-11.0868
해진	-11.0875
▁소상	-11.0875
되면	-11.0881
▁종성	-11.0884
▁규	-11.0886
▁담제	-11.0887
▁장단	-11.0888
▁당하관	-11.0889
▁유자	-11.089
▁보태	-11.0896
▁새롭	-11.0898
책을	-11.0899
▁노래	-11.0901
▁깊	-11.0904
▁싫어	-11.091
▁대가를	-11.091
▁소비	-11.0911
▁고기	-11.0912
노비	-11.0913
▁위판	-11.0914
량이	-11.0915
▁이극돈	-11.0916
▁신공	-11.0917
▁입대	-11.0918
▁피하지	-11.092
▁버려두고	-11.092
▁끼치	-11.0922
▁살피는	-11.0924
▁간하는	-11.0926
▁갑	-11.0927
▁싸가지고	-11.0927
▁완성	-11.0929
▁차도	-11.093
▁증직	-11.0933
▁여염	-11.0933
▁끊	-11.0934
▁보일	-11.0934
▁부득이하여	-11.0935
▁민정	-11.0936
점을	-11.0937
부로	-11.0938
▁얽어	-11.0938
▁계청한	-11.0941
▁다하고	-11.0941
▁세우지	-11.0942
▁미친	-11.0951
▁천인	-11.0951
▁기일을	-11.0951
▁항	-11.0955
▁어떠합니까	-11.0956
▁도감에서	-11.0958
▁능한	-11.0958
▁가히	-11.0958
이었고	-11.0959
▁울	-11.096
▁제방	-11.0961
▁박원형	-11.0964
▁얻어서	-11.0967
▁처녀	-11.0967
▁신시에	-11.0968
▁일이나	-11.0973
화가	-11.0975
▁바로잡지	-11.0975
▁걱정하는	-11.098
▁대례를	-11.0982
▁신경	-11.0982
▁다물고	-11.0985
▁호조로	-11.0985
▁꾸며서	-11.0987
▁회수	-11.0987
▁사찰	-11.0988
▁못하겠는가	-11.0989
▁도착	-11.099
▁법이니	-11.0991
▁무시	-11.0991
▁년이	-11.0992
▁차정	-11.0992
▁정도로	-11.0992
▁부산	-11.0993
▁기약	-11.0993
▁하유하기를	-11.0995
▁세워서	-11.0996
▁이유로써	-11.0996
▁사모	-11.1002
중의	-11.1002
▁김희	-11.1002
▁다할	-11.1008
▁벗고	-11.1008
5	-11.1009
▁경관	-11.101
▁위태롭	-11.1012
▁낭관이	-11.1016
에서도	-11.1016
4	-11.1017
▁황보인	-11.1019
▁농간	-11.1019
휴	-11.1019
▁강맹경	-11.1019
▁낫	-11.1021
▁중도에서	-11.1021
부러	-11.1021
▁우승지로	-11.1021
▁구호	-11.1022
▁추국할	-11.1024
▁우윤으로	-11.1024
맥	-11.1028
재가	-11.1029
▁맺	-11.1031
▁마시	-11.1031
▁객사	-11.1035
질을	-11.1038
▁곳이니	-11.1043
▁지당합니다	-11.1043
▁올라온	-11.1045
▁포목	-11.1045
▁당할	-11.1046
▁같기	-11.1048
▁결탁하여	-11.105
▁소에	-11.1056
생은	-11.1059
▁소망	-11.106
▁데도	-11.1062
▁상번	-11.1063
▁버리는	-11.1063
▁거행한	-11.1066
▁사목에	-11.1069
▁위인이	-11.1071
▁부끄러운	-11.1072
▁나누어서	-11.1072
▁형제가	-11.1073
▁차임하여	-11.1073
▁빈청에서	-11.1077
▁김창집	-11.1078
욱	-11.1078
▁덜	-11.1079
▁부녀	-11.1079
▁김상로가	-11.1079
▁대계를	-11.1081
▁방백	-11.1083
▁줄이고	-11.1085
이라면	-11.1089
▁어서로	-11.1089
버린	-11.109
▁환후	-11.1092
형은	-11.1093
▁학교	-11.1093
▁편리한	-11.1094
▁주인이	-11.1095
▁참여하게	-11.1095
명으로	-11.1097
성상께서	-11.1097
▁견감	-11.1099
▁이주	-11.1099
▁비유	-11.11
▁드러났습니다	-11.1101
▁이럴	-11.1103
▁장물	-11.1105
정사	-11.1106
▁언사	-11.1112
▁업	-11.1113
▁판부	-11.1115
▁승전	-11.1115
▁점검	-11.1116
▁직임은	-11.1117
▁곤수	-11.1117
▁번에	-11.112
▁상격	-11.1122
아서	-11.1122
▁관동	-11.1127
▁남짓	-11.113
▁보고는	-11.1131
▁갖추지	-11.1133
▁차견	-11.1133
6	-11.1134
▁상처	-11.1134
▁세초	-11.1134
▁중국인	-11.1135
▁찬선	-11.1137
가하다	-11.1138
▁어유소	-11.1139
▁분명한	-11.1142
▁이원익이	-11.1143
▁봉입	-11.1146
▁약원에서	-11.1151
▁초시	-11.1153
▁입거	-11.1154
▁남근	-11.1154
▁지적하여	-11.1155
▁전지에	-11.1158
▁피하여	-11.1158
▁의금부로	-11.1159
▁입참	-11.116
8	-11.1162
▁당상에	-11.1165
▁직언	-11.1165
▁천한	-11.1167
지난해	-11.1167
▁굽혀	-11.1168
▁문소전	-11.1171
었지만	-11.1174
▁주벌	-11.1174
▁되었다가	-11.1175
밀	-11.1175
▁하던	-11.1175
▁붙이	-11.1177
▁동궁의	-11.1179
▁격려	-11.1179
▁운기	-11.118
▁않았	-11.1181
▁공사의	-11.1184
▁나문하여	-11.1184
▁탄일	-11.1185
▁수비	-11.1187
▁분개	-11.1187
▁나문	-11.1187
▁힘쓰지	-11.119
▁가르치	-11.1192
▁선비들의	-11.1193
익이	-11.1195
손의	-11.1195
▁조태억	-11.1197
강이	-11.1198
▁질병	-11.1199
▁김익	-11.1203
▁병력	-11.1203
▁첫째	-11.1206
좌찬성	-11.121
▁나랏일	-11.1214
▁상하게	-11.1215
▁목면	-11.1216
▁오라	-11.1217
▁개탄	-11.1218
장과	-11.1218
▁우후	-11.122
▁향축	-11.1221
▁재촉	-11.1223
▁슬퍼	-11.1225
덕이	-11.123
▁누워	-11.1231
▁마필	-11.1232
▁가두었다	-11.1234
▁고소	-11.1234
▁쾌하게	-11.1234
▁출사하여	-11.1235
사오니	-11.1237
▁진연	-11.1238
▁특명	-11.124
▁실직을	-11.1243
▁말하였습니다	-11.1244
▁처가	-11.1246
▁말입니다	-11.1246
▁농사철	-11.1247
▁계속하여	-11.1248
▁군기시	-11.1248
▁중관	-11.1249
▁안동	-11.125
▁의복을	-11.1251
▁조사해서	-11.1251
▁춘추관	-11.1251
▁김약로	-11.1252
▁기록하지	-11.1252
▁찬배	-11.1253
▁김경	-11.1254
▁판서를	-11.1255
▁거둔	-11.1257
▁돌아보고	-11.1258
▁지성으로	-11.1259
▁직함	-11.126
▁임원준	-11.1265
▁들어가게	-11.1267
▁들이지	-11.1268
▁가할	-11.1269
▁사조	-11.1271
▁탄핵하여	-11.1275
▁왜구	-11.1275
▁아아	-11.1276
▁이귀가	-11.1277
▁민덕남	-11.128
▁공평	-11.128
경차관	-11.1281
▁한탄	-11.1284
▁세종	-11.1285
▁도사가	-11.1286
▁가엾	-11.1286
▁경상도관찰사	-11.1287
▁저쪽	-11.1288
▁숙부	-11.1288
▁양성	-11.1289
▁이동	-11.129
▁실지로	-11.1292
▁경상좌도	-11.1292
▁다스린	-11.1293
▁선왕조	-11.1293
▁돌아	-11.1294
▁김순	-11.1294
▁들이도록	-11.1294
▁사냥하는	-11.1299
▁모시는	-11.1301
▁의리상	-11.1301
▁어려운데	-11.1303
▁얼음	-11.1304
▁파는	-11.1305
▁이르렀	-11.1306
▁슬픈	-11.1307
▁기억	-11.131
먹	-11.131
▁그다지	-11.1311
▁하교에	-11.1312
▁참판에	-11.1313
▁전고에	-11.1314
▁파척	-11.1317
낭관	-11.1318
▁원주	-11.1318
▁형편없	-11.132
▁사정에	-11.1321
▁이송	-11.1322
▁꿇어앉아	-11.1322
▁배정	-11.1324
▁이변	-11.1326
되니	-11.1327
▁버린	-11.1327
▁후원에	-11.1331
▁규정이	-11.1334
▁중간에서	-11.1337
▁훗날	-11.134
▁통해	-11.1342
▁대장이	-11.1342
▁명주	-11.1346
각도	-11.1347
▁임명하는	-11.1348
▁사람들과	-11.1349
▁예사로	-11.1351
▁체차하도록	-11.1352
▁정고	-11.1355
▁긴	-11.1356
▁옥사에	-11.1356
만일	-11.1359
▁성심	-11.1362
▁받고서	-11.1364
▁공초에서	-11.1367
▁선물	-11.1367
▁물론하고	-11.1368
▁재궁	-11.1368
▁진휼하는	-11.1368
▁회의	-11.1369
▁직책은	-11.1371
▁착한	-11.1371
▁양곡	-11.1372
▁끼	-11.1373
▁이경억	-11.1374
▁들이게	-11.1376
▁인피하니	-11.1377
사온데	-11.1378
근이	-11.1378
▁잘못이다	-11.1378
▁징수하는	-11.1379
▁구차	-11.138
▁전선	-11.1383
▁빈객	-11.1385
▁하거나	-11.1386
▁올라오게	-11.1386
▁부호군	-11.1386
▁펴지	-11.1388
하의	-11.1389
주지	-11.1389
▁자행	-11.139
▁연전에	-11.1395
▁잃는	-11.1396
▁안팎	-11.1397
▁읽고	-11.1397
▁부끄러움	-11.1398
▁효시	-11.1399
▁교만	-11.14
지와	-11.14
▁해사	-11.1401
▁편하게	-11.1402
▁감죄	-11.1403
▁윤인경	-11.1407
▁사용하지	-11.1408
▁궐내에	-11.141
▁하고서	-11.1411
동의	-11.1411
▁국왕이	-11.1411
▁당상관이	-11.1413
들로	-11.1413
▁문제는	-11.1414
▁처하여	-11.1415
▁수복	-11.1416
▁우도	-11.1417
▁않으면서	-11.1418
▁못하였기	-11.1421
▁내치	-11.1424
▁닦고	-11.1424
▁실효	-11.1424
▁서찰	-11.1429
▁싶어	-11.1431
▁중대하니	-11.1432
▁경내에	-11.1432
▁박건	-11.1432
▁행하도록	-11.1432
말을	-11.1433
▁글자는	-11.1436
근일에	-11.1436
▁벼슬길에	-11.1438
▁그릇된	-11.1438
▁남원	-11.1438
▁가져	-11.1438
▁환수할	-11.1441
▁명망	-11.1442
▁정문형	-11.1446
▁부임하지	-11.1447
▁회보	-11.1448
후가	-11.1448
▁싫어하여	-11.1449
▁미워하여	-11.145
▁나오고	-11.1451
▁성심으로	-11.1451
▁무렵에	-11.1455
하였으면	-11.1456
▁무사를	-11.1456
▁입었으니	-11.146
▁오두인	-11.1463
경상	-11.1466
▁두렵	-11.1467
▁거짓말	-11.1469
▁영돈녕부사	-11.147
▁전하께	-11.1472
▁영상이	-11.1473
유생	-11.1475
하였	-11.148
▁좇아	-11.1481
세였다	-11.1481
▁전번에	-11.1482
▁합니다만	-11.1483
▁선대	-11.1485
신들은	-11.1488
▁귀양보내	-11.149
▁정호	-11.1491
▁결안	-11.1492
▁영광	-11.1492
▁방도에	-11.1493
▁간악한	-11.1494
▁과격	-11.1495
▁받았으므로	-11.1495
▁일이고	-11.1496
▁현석규	-11.1502
▁해이	-11.1505
▁왕은	-11.151
▁구사	-11.1513
▁사람이나	-11.1513
▁체모에	-11.1513
▁젖	-11.1515
▁해사에	-11.1516
▁불구하고	-11.1518
▁있느냐	-11.1519
▁겨를	-11.152
▁중하여	-11.152
▁서인	-11.1523
▁우애	-11.1525
▁했을	-11.1526
▁문에	-11.1527
원과	-11.153
▁은덕	-11.1534
▁백관들	-11.1536
▁평양에	-11.1544
군은	-11.1548
쪼	-11.1549
▁보답하는	-11.1554
필은	-11.1554
▁떼어	-11.1555
▁알현	-11.1556
▁사후	-11.1557
▁흉모	-11.1558
▁양쪽	-11.1558
▁혁파하고	-11.1558
▁하신다면	-11.1558
▁경기도	-11.1559
▁논한다면	-11.1561
▁간통한	-11.1562
▁저축이	-11.1563
▁추안을	-11.1566
▁도배	-11.1566
▁윤자운	-11.1566
▁기일이	-11.1567
▁알리지	-11.1569
▁상사가	-11.1569
▁김류가	-11.157
▁훌륭	-11.1571
▁성덕에	-11.1571
▁포위	-11.1571
▁말하게	-11.1572
▁남구만이	-11.1573
통사	-11.1573
▁읽어	-11.1573
▁지중추부사	-11.1574
▁사퇴	-11.1576
▁강구하여	-11.1579
▁여겨집니다	-11.1581
▁너그러이	-11.1581
▁의식과	-11.1584
▁받도록	-11.1586
▁도내에	-11.1586
▁계복	-11.1586
▁주되	-11.1588
▁길로	-11.1588
▁모자	-11.1589
▁평안도관찰사	-11.159
력	-11.1591
▁시각	-11.1592
▁추국하게	-11.1595
▁파직하라고	-11.1595
시킨다면	-11.1596
▁급하게	-11.1597
▁후사	-11.1597
포에	-11.1601
▁상교	-11.1602
▁잃어	-11.1603
▁잊	-11.1607
▁사우	-11.1608
▁보인다	-11.1609
▁마음속에	-11.1609
▁누누	-11.161
윤이	-11.161
도감의	-11.1611
▁과오	-11.1611
▁기근	-11.1612
▁글은	-11.1612
▁첩으로	-11.1614
▁되었다고	-11.1615
▁못하더라도	-11.1616
▁김호	-11.1616
▁들어가고	-11.1618
▁연좌된	-11.1619
▁강서	-11.1619
▁베고	-11.1626
졌는데	-11.1626
▁충원	-11.1628
▁김석주	-11.1629
리에	-11.1629
▁계청하여	-11.1634
▁지방을	-11.1634
▁정으로	-11.1639
▁남겨	-11.1639
▁법령	-11.164
▁배척한	-11.1644
신다면	-11.1644
▁갑옷	-11.1645
▁공급	-11.1646
▁천거하여	-11.1647
▁추관	-11.1647
▁익사	-11.1649
▁속공	-11.1652
▁금부로	-11.1655
▁관방	-11.1656
수와	-11.1656
▁침해	-11.1657
▁맞았다	-11.1657
▁받아들였다	-11.1658
▁이관	-11.166
▁명목	-11.1664
▁종정성	-11.1669
▁책보	-11.167
▁다행이겠습니다	-11.1672
공주	-11.1672
▁올렸으니	-11.1673
▁말들이	-11.1674
▁녹사	-11.1674
▁굶주림	-11.1677
대의	-11.1678
▁오래되었습니다	-11.1678
▁별제	-11.168
▁통보	-11.168
▁한하여	-11.1681
▁사피하지	-11.1682
▁미워	-11.1683
▁형전을	-11.1683
교를	-11.1687
▁힘쓰는	-11.1689
▁절제사	-11.1691
▁절박한	-11.1692
▁입었다	-11.1692
▁면려	-11.1695
▁상진	-11.1697
▁선조에서	-11.1697
▁잡물을	-11.1697
▁한강	-11.1698
▁책문	-11.1701
았으니	-11.1702
▁인민	-11.1702
▁모릅니다	-11.1704
▁했었다	-11.1705
▁전강	-11.1706
▁천명	-11.1706
▁민진원이	-11.1708
▁절수	-11.1708
▁적으니	-11.171
▁서얼	-11.171
생을	-11.1711
▁사용하여	-11.1711
▁예로써	-11.1711
지마는	-11.1713
▁간행	-11.1716
▁적들이	-11.1717
▁실행	-11.1718
▁정침	-11.1719
▁수납	-11.1722
모를	-11.1724
신과	-11.1725
▁회자	-11.1725
▁우의정으로	-11.1726
▁자인데	-11.1726
▁영릉	-11.1727
전에는	-11.1728
▁책자	-11.1729
▁성절	-11.1729
▁외방으로	-11.1732
▁낭패	-11.1733
▁불러들여	-11.1734
▁나지	-11.1734
▁군사들	-11.1737
달라고	-11.1737
▁화재	-11.1738
문과	-11.1739
▁설치하지	-11.174
▁관상감	-11.1744
▁이해하지	-11.1744
▁지나서	-11.1745
▁듯한	-11.1745
▁보관	-11.1745
▁정괄	-11.1745
▁상황이	-11.1746
국가에서	-11.1747
▁시험에	-11.1747
▁비해	-11.1748
▁선발하여	-11.1754
▁혼란	-11.1754
▁사전	-11.1755
▁기병	-11.1759
▁참찬	-11.1763
▁출입하는	-11.1765
▁전원	-11.1765
▁공은	-11.1768
▁유사에	-11.1768
▁가죽	-11.177
▁사역원	-11.177
▁죽었고	-11.177
▁받았으나	-11.1771
하셔서	-11.1775
▁천총	-11.1778
▁황효원	-11.178
▁짐작하여	-11.1781
▁군사들을	-11.1781
궤	-11.1783
▁하사한	-11.1786
▁쉽사	-11.1796
▁사실에	-11.1796
▁붙어	-11.1796
▁죄악이	-11.1797
▁비위	-11.1797
▁천전	-11.1798
▁호패	-11.1799
▁사과	-11.1799
▁왕래하면서	-11.1801
준은	-11.1803
평안	-11.1805
▁영장	-11.1805
▁세력이	-11.1807
▁큰일	-11.1808
▁은전이	-11.1812
▁대신하여	-11.1815
▁의심하고	-11.1815
▁이이첨이	-11.1816
▁홍봉한	-11.1816
▁어세겸	-11.1819
중을	-11.1819
▁금하고	-11.182
▁받기	-11.182
▁꾸짖	-11.1822
윤필상	-11.1824
▁계사로	-11.1826
왔습니다	-11.1827
▁다투는	-11.1827
▁관가	-11.1828
▁청했으나	-11.183
▁유정	-11.1831
▁줄이	-11.1832
▁장순손	-11.1833
▁지극	-11.1833
▁구애되어	-11.1833
▁예우	-11.1833
구나	-11.1834
▁인피하였는데	-11.1837
호는	-11.1838
▁서적	-11.1839
▁도첩	-11.184
하였다면	-11.1841
▁가마	-11.1843
▁권한	-11.1843
▁만물	-11.1844
▁일어나는	-11.1844
▁친림하여	-11.1846
복이	-11.1846
는데도	-11.185
기와	-11.185
▁혼자서	-11.1853
▁조세	-11.1853
▁음관	-11.1854
▁법규	-11.1855
▁이극증	-11.1856
▁맹세	-11.1856
▁새벽	-11.1856
옹주	-11.1858
▁바꿔	-11.1859
▁판의금으로	-11.186
▁노추	-11.1861
▁자식을	-11.1862
▁군마	-11.1864
▁죽일	-11.1864
▁양남	-11.1864
▁득	-11.1865
▁양서	-11.1865
경과	-11.1866
▁오래되어	-11.1866
▁정녕	-11.1869
관과	-11.1869
▁홍주	-11.1871
▁화곡	-11.1871
▁올라오지	-11.1873
▁이남	-11.1875
▁살필	-11.1875
▁가자하라	-11.1876
▁사람이라	-11.1878
▁높이고	-11.1878
▁회사	-11.1881
농	-11.1885
장으로	-11.1886
▁생명	-11.1889
▁하필	-11.1889
▁끊이지	-11.189
▁김창집이	-11.1893
▁도총부	-11.1897
▁신문하여	-11.1898
▁윤개	-11.1898
하가	-11.1903
▁대론	-11.1904
▁이직	-11.1904
▁못하였으나	-11.1905
대신의	-11.1908
▁밑에서	-11.1908
▁인원	-11.1911
▁물자	-11.1911
제주	-11.1915
▁반정	-11.1915
▁윤필상이	-11.1915
▁공상	-11.1917
▁우리에게	-11.1919
▁읽게	-11.1922
금을	-11.1922
▁썼으니	-11.1922
▁토죄	-11.1925
으면서	-11.1926
▁예부에	-11.1926
▁찍	-11.1927
▁교훈	-11.1928
▁궤	-11.193
▁부지런하고	-11.1933
해가	-11.1933
시켰습니다	-11.1935
▁인륜	-11.1937
▁상사에	-11.1939
▁복구	-11.194
▁나타나지	-11.194
활	-11.1941
▁보고하기를	-11.1941
▁교외에	-11.1943
▁제신	-11.1943
▁왔으므로	-11.1945
▁숙마	-11.1947
▁기후	-11.1951
▁적들	-11.1952
익을	-11.1957
▁나왔습니다	-11.1958
▁걱정하고	-11.1958
▁구언	-11.196
▁죄안	-11.1962
▁이이명이	-11.1963
첩을	-11.1963
▁박씨	-11.1963
▁상소에서	-11.1964
▁이공	-11.1966
▁우대하는	-11.1969
곽	-11.197
▁일인가	-11.1971
▁지급하게	-11.1972
▁객성이	-11.1975
▁끌고	-11.1976
▁사임	-11.1977
질이	-11.1978
▁구전	-11.1979
략	-11.198
▁요구하는	-11.1982
▁그르친	-11.1985
▁명령하여	-11.1985
▁현령	-11.1987
▁수리하는	-11.1987
▁왕복	-11.1988
▁의지하여	-11.1989
▁허락한	-11.199
▁쓰기를	-11.1992
▁정지하는	-11.1994
▁윤순	-11.1999
▁군액	-11.1999
▁명소하여	-11.2
청에	-11.2
▁면대하여	-11.2003
방을	-11.2006
▁식량	-11.2008
▁김성	-11.2009
▁준엄	-11.2011
좌참찬	-11.2014
▁아니하므로	-11.2015
▁누설	-11.2018
▁서연	-11.2019
▁추국청이	-11.2019
▁바쳤는데	-11.202
▁양사에	-11.2021
▁침략	-11.2022
▁했다는	-11.2024
▁정직	-11.2024
▁무단	-11.2024
자마자	-11.2025
▁기록되어	-11.2025
▁개혁	-11.2026
▁참석하지	-11.2031
하느냐	-11.2033
▁않으시고	-11.2033
▁일삼고	-11.2037
▁칭하고	-11.2039
▁나라와	-11.2039
괴	-11.2039
▁사항	-11.204
▁맡아서	-11.2041
▁대기	-11.2041
▁원통한	-11.2042
었다고	-11.2043
▁박승종이	-11.2044
▁저번에	-11.2044
▁무리들은	-11.2045
▁산천	-11.2046
▁헐	-11.2046
▁사랑하고	-11.2049
▁방납	-11.2051
▁지내지	-11.2051
와서	-11.2052
칭	-11.2052
▁만난	-11.2054
보의	-11.2056
동은	-11.2058
▁좋다고	-11.2058
▁내리라	-11.2059
▁끝나지	-11.2059
예문관	-11.2059
▁지리	-11.2061
▁정장	-11.2063
▁진전	-11.2065
▁단속하지	-11.2066
▁비호	-11.2066
▁신주	-11.2066
▁누이	-11.2067
▁오래된	-11.2068
▁겸직	-11.2068
▁제독이	-11.2068
▁감선	-11.207
제는	-11.2074
▁추숭	-11.2075
▁대상	-11.2077
▁차례대로	-11.2077
▁감영	-11.2078
▁지내게	-11.2079
윤허하지	-11.208
▁막아	-11.208
워	-11.2081
하려면	-11.2081
▁멀리서	-11.2081
▁돌이켜	-11.2082
▁무장	-11.2082
▁귀양보내고	-11.2086
▁했었는데	-11.2089
▁자녀	-11.209
등으로	-11.209
▁느	-11.2091
▁상태	-11.2091
▁유명	-11.2093
▁경우에	-11.2093
▁보낸다면	-11.2093
우상	-11.2094
▁황공하게	-11.2096
▁극심	-11.2097
▁참작	-11.2098
했는데도	-11.2098
▁보이게	-11.2099
▁초에	-11.2099
▁쪽으로	-11.2101
▁합당하다	-11.2101
▁쓴다	-11.2102
▁권진	-11.2104
▁일마다	-11.2104
▁전결	-11.2105
▁감역관	-11.2106
역에	-11.2106
씩을	-11.2108
▁닫	-11.2109
▁대비전	-11.2109
▁돈독	-11.211
▁장려	-11.2111
▁윤방	-11.2115
강을	-11.2116
▁아니하였는데	-11.2118
▁때리고	-11.2118
▁노력	-11.2119
▁호조판서	-11.2119
▁뿐이	-11.212
▁일삼아	-11.2121
▁기일	-11.2124
▁사단	-11.2126
▁표신	-11.2127
▁구경하고	-11.2127
이상	-11.2129
▁보잘것없는	-11.213
▁접견하였다	-11.2132
▁김승경	-11.2133
▁김주	-11.2134
▁친행	-11.2139
▁어의	-11.2139
▁계교	-11.2139
▁부를	-11.214
▁돌아오	-11.2145
▁궁전	-11.2146
▁밝지	-11.2146
▁선사	-11.2147
▁같으므로	-11.2147
▁내리셨습니다	-11.2147
▁파직하는	-11.2148
▁운반하는	-11.215
▁옛날에는	-11.215
▁대제	-11.215
▁아첨하여	-11.2152
하면서도	-11.2154
▁수령으로서	-11.2155
▁삼으니	-11.2156
▁그뒤	-11.2159
▁청하므로	-11.216
▁연계	-11.216
▁극에	-11.2162
생의	-11.2163
▁효자	-11.2163
▁성현	-11.2165
▁친경	-11.2167
▁그만두	-11.2169
▁주신	-11.2169
▁내의원	-11.2169
▁조치를	-11.2171
별로	-11.2173
▁실상은	-11.2175
▁동료들	-11.2177
큰	-11.2177
▁일컫는	-11.2179
▁삼가고	-11.218
▁김씨	-11.2182
▁죄인들	-11.2182
▁외람	-11.2182
▁허용	-11.2183
▁적음	-11.2183
▁본받	-11.2184
▁인마	-11.2185
▁삼대	-11.2186
▁항복	-11.2188
제의	-11.2189
사헌부	-11.2191
▁구분	-11.2193
▁탕제	-11.2195
▁방어사	-11.2195
시키도록	-11.2196
첨정	-11.2199
되자	-11.22
▁원훈	-11.2201
▁김응기	-11.2201
▁태수	-11.2202
▁썩	-11.2203
▁살려	-11.2205
▁올라와서	-11.2208
왔다	-11.2208
장에	-11.2209
▁관계되므로	-11.2212
▁마땅하나	-11.2212
▁신위	-11.2214
달이	-11.2214
집니다	-11.2215
▁선척	-11.2215
▁동쪽에	-11.2218
▁금오	-11.2219
부는	-11.2221
▁장수와	-11.2222
▁어떠한지	-11.2224
▁오례의	-11.2225
손을	-11.2226
▁구름이	-11.2226
▁축성	-11.2226
▁체직하라	-11.2226
▁대정	-11.2227
▁안에는	-11.223
▁진소	-11.223
석은	-11.2231
▁절에	-11.2234
▁상대	-11.2234
▁출척	-11.2235
▁통행	-11.2237
▁태학	-11.2241
정에	-11.2242
▁떳떳	-11.2244
▁김석	-11.2245
지에	-11.2245
▁반사	-11.2247
▁우악	-11.2247
▁도당	-11.2248
▁보내면	-11.2248
▁배치	-11.2248
▁높이는	-11.2248
령이	-11.2249
▁취재	-11.2251
▁상송포	-11.2251
▁적자	-11.2258
▁제도는	-11.2259
▁조부	-11.2262
▁수확	-11.2262
▁학생	-11.2265
▁형조판서로	-11.2265
▁말단	-11.2268
호군	-11.227
▁보내기를	-11.2271
순을	-11.2272
▁약방이	-11.2275
▁놀랄	-11.2277
▁납시었다	-11.2278
▁들이는	-11.2279
▁꾸짖고	-11.228
▁불러다	-11.2288
▁진하하는	-11.2291
▁존	-11.2296
▁성주	-11.2306
▁각도에서	-11.2307
▁적도	-11.2308
요즘	-11.2309
이극배	-11.2309
▁꽤	-11.231
▁부리고	-11.2311
▁있었지만	-11.2311
▁부당합니다	-11.2311
▁노비는	-11.2312
▁승서	-11.2314
▁일로서	-11.2314
▁장막	-11.2315
▁다들	-11.2319
▁문안하고	-11.2319
▁김상용	-11.232
▁병자년	-11.2321
▁압송	-11.2323
▁밤중에	-11.2324
▁무인	-11.2325
▁태묘의	-11.2327
▁의미	-11.233
▁집현전	-11.233
▁금치	-11.233
▁뒷사람	-11.2333
▁지을	-11.2333
되었으며	-11.2333
▁기다리라	-11.2334
준이	-11.2334
▁가선	-11.2339
졸	-11.2341
▁덕에	-11.2342
▁모습	-11.2344
▁흔단	-11.2345
▁몸받아	-11.2345
▁합문	-11.2345
▁급제한	-11.2348
▁국사에	-11.2349
되었기	-11.235
▁버림	-11.2351
▁꾸	-11.2352
▁해유	-11.2352
▁되었	-11.2353
▁것이라는	-11.2355
▁없어질	-11.2358
증이	-11.236
악을	-11.236
▁소청	-11.2363
▁돈독히	-11.2365
▁뭇사람	-11.237
▁성상소	-11.237
▁어영	-11.2371
▁이제까지	-11.2373
잔	-11.2374
색이었다	-11.2375
▁이서	-11.2375
▁기우	-11.2376
▁멈추고	-11.2377
▁전보다	-11.2377
▁직임이	-11.2377
▁물어보니	-11.2378
▁터무니없	-11.238
▁들여보내	-11.2381
▁허통	-11.2381
▁직장	-11.2381
▁습진	-11.2381
▁즉위하신	-11.2382
▁처치한	-11.2382
길을	-11.2383
▁따르도록	-11.2383
▁삭제하고	-11.2384
▁체직시킬	-11.2388
▁그지없	-11.2392
▁결단하여	-11.2392
▁조수	-11.2393
▁박정길	-11.2395
▁더해	-11.2398
▁힘써야	-11.24
▁위협	-11.2401
▁가야	-11.2401
▁인원을	-11.2401
▁의해서	-11.2401
▁서용하는	-11.2402
역을	-11.2402
▁사실과	-11.2403
▁서계하기를	-11.2404
▁고향에	-11.2406
▁종전	-11.2407
▁굶주리는	-11.2407
▁모르겠으나	-11.2409
▁개를	-11.2411
▁김계	-11.2415
▁지나는	-11.2415
▁출발하여	-11.2416
▁봉행	-11.2418
▁돌아가고	-11.2418
▁이장	-11.2419
▁개간	-11.2419
▁미곡을	-11.242
▁회부	-11.242
▁33	-11.2425
▁각처	-11.2426
▁석과	-11.2427
▁불행하게	-11.2429
▁미워하는	-11.2431
▁호종	-11.2433
▁천성이	-11.2434
▁사의에	-11.2436
▁비국당상	-11.2436
태수	-11.2439
▁부지	-11.2439
▁서용할	-11.244
대군	-11.244
복은	-11.244
▁올렸으나	-11.2443
▁일대	-11.2443
▁사폐	-11.2444
▁당하게	-11.2445
▁저버리지	-11.2446
▁송준길이	-11.2449
▁제사의	-11.245
▁경기관찰사	-11.2451
▁구임	-11.2453
▁소치	-11.2453
▁미안하니	-11.2454
나마	-11.2455
민을	-11.2455
▁같게	-11.2456
▁일러	-11.2458
▁결말	-11.2461
▁박사	-11.2463
▁품지	-11.2463
까지는	-11.2463
▁보기를	-11.2467
▁지혜	-11.2468
람	-11.2469
▁멈추	-11.247
▁생겨	-11.2472
▁묶어	-11.2476
▁쌓은	-11.2476
▁음양	-11.2478
▁소자	-11.248
▁이리하여	-11.2482
▁파직시켰다	-11.2483
번으로	-11.2484
▁사지에	-11.2484
▁송인명	-11.2486
▁하옵니다	-11.2486
▁사건은	-11.2486
▁계하한	-11.2489
▁체직시키고	-11.2489
▁김수동	-11.249
정원	-11.2491
▁불행히	-11.2494
▁새겨	-11.2495
▁보고자	-11.2499
에게만	-11.2499
▁동궁에	-11.2504
▁답한	-11.2505
▁이끌어	-11.2505
▁복명	-11.2506
▁폐하고	-11.2506
▁사당에	-11.2508
▁금지하는	-11.251
동지	-11.251
▁준행	-11.251
신에게	-11.2511
▁정조사	-11.2512
▁게첩	-11.2512
▁수종	-11.2512
▁윤음	-11.2512
▁염려스럽다	-11.2513
▁돌이	-11.2515
종은	-11.2517
▁부리	-11.2517
▁사양하니	-11.2517
▁호피	-11.2519
초를	-11.2521
▁이순	-11.2522
▁개인	-11.2523
리라	-11.2525
너는	-11.2526
주고	-11.253
▁갔으니	-11.2532
되었던	-11.2532
▁손상이	-11.2536
▁김수흥	-11.2537
▁진계	-11.2537
▁미곡	-11.2542
▁상의원	-11.2545
우참찬	-11.2545
▁계시니	-11.2546
▁죽여	-11.2547
▁일들은	-11.2547
▁발각되어	-11.2548
▁힘써서	-11.2549
성균관	-11.255
▁상관이	-11.2551
▁살펴보면	-11.2552
▁매달	-11.2552
▁인종	-11.2553
▁풍헌	-11.2553
▁불효	-11.2554
▁전쟁	-11.2558
▁유생들에게	-11.2559
▁김윤	-11.2564
▁참혹한	-11.2565
▁칭송	-11.2566
▁쪽	-11.2567
▁내려주	-11.2567
▁붙이고	-11.2567
▁바로잡을	-11.257
▁것이기에	-11.2572
▁부합	-11.2573
▁이만주	-11.2573
▁실정이	-11.2574
▁유념	-11.2574
▁다스려서	-11.2574
▁갈고	-11.2576
▁경복궁에	-11.2578
▁방송	-11.258
▁수양	-11.2583
충이	-11.2585
▁장의	-11.2586
▁인피하기를	-11.2586
▁말하기	-11.2586
▁씻어	-11.2587
▁발인	-11.2587
▁난신	-11.2588
▁물품	-11.259
▁복직	-11.2593
▁막혀	-11.2594
▁오기를	-11.2594
▁이산해	-11.2594
룡이	-11.2599
▁사촌	-11.2601
▁사망한	-11.2603
▁보고하게	-11.2603
▁장자	-11.2604
▁한찬남이	-11.2606
▁말감	-11.2606
▁조계	-11.2607
겨	-11.2607
▁북경에서	-11.2607
▁물리치	-11.2608
▁비게	-11.2608
▁죄목	-11.2609
▁알리는	-11.2612
▁빼앗는	-11.2612
▁천사	-11.2612
▁경상도에	-11.2613
▁현인	-11.2613
▁여겼기	-11.2615
▁범하였다	-11.2622
▁본의	-11.2624
▁이조참의로	-11.2624
▁애매한	-11.2628
▁육진	-11.2631
▁이석	-11.2633
▁옥사는	-11.2635
▁경도	-11.2635
착	-11.2635
▁단연	-11.2635
▁나아가게	-11.2635
▁도독	-11.2636
▁찾아내	-11.2636
▁제반	-11.2638
▁을사년	-11.2639
▁장구	-11.2641
▁일컬어	-11.2641
▁반을	-11.2642
▁민정중이	-11.2644
▁올라올	-11.2646
▁같았는데	-11.2646
▁드리고	-11.2646
▁칙사가	-11.2648
▁전라도에	-11.2648
▁아들로서	-11.265
▁윤기	-11.265
▁상인	-11.2652
▁뜻대로	-11.2653
▁드나들	-11.2653
▁종실이	-11.2654
▁올렸	-11.2655
▁보냈으니	-11.2656
▁곳과	-11.2656
▁가하고	-11.2658
▁진제	-11.2659
▁왜선	-11.266
▁중앙	-11.2661
▁이제야	-11.2661
▁첨	-11.2661
시켜서	-11.2662
▁윤임	-11.2663
▁부린	-11.2666
▁한성부에서	-11.2667
▁박장원	-11.2673
▁채제공	-11.2673
▁집안에	-11.2673
▁막지	-11.2673
▁연회	-11.2675
▁수색하여	-11.2676
▁달려가서	-11.2679
▁직사에	-11.268
▁피혐하지	-11.268
▁계책은	-11.2681
▁삼지	-11.2681
▁놀라움	-11.2683
▁효유하여	-11.2683
▁연경에	-11.2693
▁색	-11.2693
▁한찬남	-11.2694
▁자수	-11.2694
▁조금만	-11.2695
▁태거	-11.2695
스러움	-11.2696
▁못한다는	-11.2696
▁정하라	-11.2698
▁윤원형	-11.2698
인들이	-11.2701
▁진출	-11.2701
▁대내로	-11.2702
▁차비	-11.2703
▁이선	-11.2706
▁했지만	-11.2706
▁하십니까	-11.2709
▁추운	-11.271
▁뒤폐단	-11.2713
▁흔쾌	-11.2713
▁하룻밤	-11.2713
▁관청에	-11.2714
▁주둔	-11.2716
▁밝혀서	-11.2718
▁모르니	-11.2719
▁유교	-11.2721
▁망궐례	-11.2721
▁정소	-11.2721
▁규모	-11.2721
▁그후	-11.2722
▁보내었다	-11.2722
▁언책	-11.2723
▁이씨	-11.2723
강원	-11.2724
으	-11.2729
▁공정한	-11.2729
▁찍어	-11.273
▁만들었다	-11.2731
▁심사	-11.2732
▁온당할	-11.2732
▁확실히	-11.2733
▁파종	-11.2735
▁국고	-11.2736
▁추장	-11.2736
▁왜인들이	-11.2738
▁윤허하고	-11.2738
순은	-11.274
▁대비전에	-11.274
▁순찰	-11.2745
▁고묘	-11.2748
▁기생을	-11.2748
▁아니기	-11.275
▁변무	-11.2751
▁시관이	-11.2751
졌습니다	-11.2751
▁크다	-11.2752
겠다는	-11.2756
▁입법	-11.2756
▁섬멸	-11.2756
▁살피라	-11.2758
▁형옥	-11.2758
▁깊어	-11.2759
버리고	-11.276
▁위치	-11.276
▁모른다	-11.2762
▁구절	-11.2763
▁열거	-11.2765
▁전파	-11.2766
▁지니고	-11.2766
▁좌승지로	-11.2766
▁괴로움을	-11.2768
▁공으로	-11.2768
▁군데	-11.2768
▁시전	-11.2768
▁면복을	-11.2769
▁알리	-11.2771
▁듯하고	-11.2771
▁끝나기	-11.2772
▁감격하여	-11.2777
▁유경	-11.2777
▁여부에	-11.2777
▁본래부터	-11.2777
▁기가	-11.278
▁부르는	-11.2781
▁있으면서도	-11.2781
▁통의	-11.2782
▁참여하였다	-11.2782
▁이간	-11.2782
▁당직	-11.2784
▁일이며	-11.2786
▁이준경	-11.2786
▁사사로움	-11.2786
▁예관에게	-11.2787
간이	-11.2788
▁사심	-11.2788
▁관찰사와	-11.2789
▁탐오	-11.279
▁머물고	-11.2791
▁전함	-11.2793
▁거행하여	-11.2794
▁죄와	-11.2794
▁신만	-11.2795
9	-11.2796
▁정배하라	-11.2796
▁김수흥이	-11.2799
▁이부	-11.2799
▁원통	-11.2799
▁비석	-11.2802
▁않다면	-11.2804
▁비답이	-11.2804
▁낭청은	-11.2804
급을	-11.2806
▁김전	-11.2806
▁한쪽	-11.2807
▁억제	-11.281
▁들인	-11.2811
▁죄입니다	-11.2811
▁이르러서도	-11.2814
▁차례에	-11.2815
▁불안	-11.2816
▁알성	-11.2819
▁용납되지	-11.2819
▁상소문	-11.2819
▁일어났	-11.282
▁특별	-11.2821
▁문외	-11.2822
▁이첨	-11.2822
절제사	-11.2822
▁보방	-11.2823
▁대역	-11.2823
▁제후	-11.2824
▁유성룡	-11.2824
▁정식으로	-11.2824
▁노적	-11.2826
▁국청에서	-11.2826
▁군자감	-11.2827
▁것들	-11.2827
▁내리기	-11.283
▁경복궁	-11.283
죄	-11.283
▁만하니	-11.2831
▁사진	-11.2832
▁논열	-11.2834
국의	-11.2835
▁데다	-11.2836
▁원인	-11.2837
▁흔적이	-11.2838
▁창덕궁에	-11.284
▁검교	-11.284
▁구료	-11.2841
▁기다려야	-11.2842
▁장정	-11.2843
▁승전색	-11.2848
▁죽었다고	-11.2849
궐	-11.2849
▁통신사	-11.285
▁영안도	-11.2851
▁여주	-11.2853
단을	-11.2854
▁대접하는	-11.2854
▁관반	-11.2855
편치	-11.2855
▁군대	-11.2858
▁중대	-11.2858
렸	-11.2859
▁조현명	-11.2861
갑사	-11.2862
▁이르도록	-11.2862
▁돌아가기	-11.2863
▁모래	-11.2864
▁후궁	-11.2865
▁낭	-11.2868
▁잘하는	-11.2868
▁출송	-11.2869
▁마감	-11.2869
례가	-11.287
▁안다	-11.287
▁상고하니	-11.2873
▁면주	-11.2876
▁쳐	-11.2876
▁대궐로	-11.2878
▁죄없	-11.2879
▁분부하라	-11.288
▁끊어	-11.288
▁대왕대비	-11.288
▁자헌	-11.2881
▁결정하여	-11.2883
▁기색이	-11.2883
▁관소에	-11.2885
▁듯싶습니다	-11.2886
▁살피건대	-11.2886
▁가두	-11.2886
▁정속	-11.2888
▁일들이	-11.2888
▁춘방	-11.289
네가	-11.289
▁보려고	-11.2891
▁강등	-11.2894
▁참여할	-11.2896
▁갔습니다	-11.2897
▁입계하여	-11.2898
▁검거	-11.2899
군관	-11.29
▁학업	-11.2902
▁원기	-11.2902
▁분분	-11.2903
유를	-11.2904
▁의절	-11.2905
▁조그만	-11.2905
▁그름	-11.2907
▁하서	-11.2908
▁참예	-11.2909
▁교묘하게	-11.2911
▁잔치에	-11.2911
▁요역	-11.2912
월부터	-11.2912
▁조치하여	-11.2913
▁추고하지	-11.2916
▁감독하여	-11.2918
▁임명하고	-11.292
▁묵묵	-11.2921
▁동료들과	-11.2922
▁죽였으니	-11.2922
▁계집종	-11.2923
비의	-11.2923
그렇게	-11.2925
▁대학연의	-11.2927
▁복계	-11.2931
▁군역	-11.2931
▁경상우도	-11.2931
▁보냈습니다	-11.2932
▁뛰어나	-11.2932
무가	-11.2932
▁마땅함	-11.2932
▁발을	-11.2933
▁몰수	-11.2933
▁이돈	-11.2933
▁자백	-11.2935
▁준하여	-11.2935
▁선혜청	-11.2936
▁감탄	-11.2936
▁드러내어	-11.2942
▁점고	-11.2944
▁엄금	-11.2944
▁길복을	-11.2945
▁결정하는	-11.2945
▁논하였는데	-11.2946
▁은혜에	-11.2947
▁곧은	-11.2948
▁철수	-11.2949
▁취하는	-11.295
▁구휼하는	-11.2951
▁자나	-11.2952
▁한치형	-11.2952
▁가물	-11.2954
▁마주	-11.2954
▁의심이	-11.2954
▁권대운	-11.2954
▁하겠지만	-11.2955
▁미안할	-11.2956
했더니	-11.2956
▁도감으로	-11.2957
▁자입니다	-11.2959
단자를	-11.2962
별감	-11.2962
▁무과에	-11.2963
▁부표	-11.2965
▁신장	-11.2966
▁단정	-11.2966
▁하시어	-11.2968
▁비와	-11.2969
▁허락하는	-11.297
▁삭탈하고	-11.2971
▁보필	-11.2972
▁이시언	-11.2972
관에게	-11.2973
▁선공감	-11.2973
▁일으키고	-11.2974
▁지경이	-11.2976
▁쌓여	-11.2976
▁유현	-11.2978
▁제수하였으니	-11.2981
▁이증	-11.2983
▁저주	-11.2984
▁초안	-11.2984
▁교사	-11.2985
▁이종성	-11.2986
▁끼친	-11.2988
▁김자	-11.2989
▁사람씩	-11.299
▁대신으로서	-11.2991
▁두려우니	-11.2991
▁적색이었다	-11.2993
▁문묘	-11.2995
▁자만	-11.2996
▁전진	-11.2997
▁섬으로	-11.2997
▁재화	-11.2999
▁작년에	-11.2999
리는	-11.3
▁별단	-11.3001
▁궁가	-11.3001
▁거두지	-11.3001
▁떠난	-11.3004
겠으며	-11.3005
▁오니	-11.3005
▁범하였으니	-11.3006
▁통곡	-11.3006
받아	-11.3007
▁분명	-11.3011
▁기년	-11.3016
▁열흘	-11.3017
왕의	-11.3017
▁배릉	-11.3017
▁박문수	-11.3019
▁농사에	-11.302
▁이언	-11.3021
▁고발한	-11.3022
▁대략은	-11.3022
▁발송	-11.3023
되었다고	-11.3024
▁가도록	-11.3026
▁후원	-11.3026
▁외부	-11.3026
▁신료	-11.3027
▁없앨	-11.3027
▁상고하건대	-11.3027
▁관하여	-11.3029
▁행해지지	-11.3031
▁사람이라도	-11.3031
의정부	-11.3031
▁가둔	-11.3033
▁조속	-11.3034
▁편리할	-11.3034
▁자질	-11.3035
▁흉년에	-11.3036
녹	-11.3036
▁명하시어	-11.3037
▁이루게	-11.3038
성부원군	-11.3041
필이	-11.3041
▁건주위	-11.3042
▁맹사성	-11.3043
▁돈으로	-11.3044
▁여성제	-11.3045
▁이항복이	-11.3045
▁경조	-11.3046
▁본토	-11.3051
▁미혹	-11.3052
▁이루어진	-11.3052
▁어쩌	-11.3054
▁숭상하고	-11.3059
청의	-11.306
▁싶습니다	-11.3062
▁가정대부	-11.3062
▁편의에	-11.3063
그렇다	-11.3063
▁토목	-11.3063
▁꾸민	-11.3063
▁견주어	-11.3067
▁면제하고	-11.3069
안을	-11.307
▁남곤이	-11.3071
▁생각하시어	-11.3071
▁귀양보내는	-11.3072
▁물어보라	-11.3072
▁경계하는	-11.3074
▁김근사	-11.3074
의금부	-11.3076
▁계산	-11.3079
▁불고	-11.3079
▁본궁	-11.308
▁윤증	-11.3081
▁있습니다만	-11.3084
▁남이공	-11.3084
▁본국에서	-11.3085
▁기축년	-11.3085
▁없습니다만	-11.3087
▁돌아가지	-11.309
▁이속	-11.3093
▁피혐하는	-11.3096
▁논의는	-11.3102
▁웅	-11.3104
▁만류	-11.3105
▁됨	-11.3105
▁봉작	-11.3106
▁뛰어넘어	-11.3106
▁박엽	-11.3107
▁이득	-11.3109
▁자급	-11.3111
▁측은	-11.3112
▁상벌	-11.3112
▁돌아오기	-11.3113
▁화평	-11.3115
▁왕대비	-11.312
▁만하다고	-11.3122
▁중죄	-11.3124
▁이봉	-11.3124
▁않으려고	-11.3125
흔	-11.3128
▁시신	-11.3135
▁효종	-11.3138
▁이시	-11.3139
▁영동	-11.3143
▁귀양가	-11.3143
▁노루	-11.3144
▁임금께서	-11.3147
▁단천	-11.3147
▁원소	-11.3148
▁침입	-11.3148
▁등제	-11.315
▁궁시	-11.315
▁타일러	-11.3151
▁면대	-11.3152
나무	-11.3153
▁하리	-11.3155
▁가릴	-11.3155
▁덮	-11.3155
▁올리라	-11.3157
▁윤휴가	-11.3158
▁가면	-11.316
세자가	-11.3163
▁유무	-11.3167
하거든	-11.3169
▁섞어	-11.3169
▁힘쓸	-11.3169
▁해로울	-11.317
▁돌아오니	-11.3172
렸다	-11.3174
▁있기를	-11.3174
▁이렇듯	-11.3175
▁인접	-11.3176
▁지대	-11.3176
▁권지	-11.3177
▁진어	-11.3178
▁처신	-11.3182
▁듣	-11.3184
▁융	-11.3185
▁황송	-11.3187
▁장교	-11.3188
▁김류	-11.3189
▁조전	-11.3192
▁심상하게	-11.3193
▁정경세	-11.3193
북도	-11.3194
가지고	-11.3199
▁타이르	-11.3199
▁시골로	-11.32
▁소신	-11.3201
▁거만	-11.3202
▁친구	-11.3204
▁사수	-11.3205
▁앞질러	-11.3205
▁어긋납니	-11.3205
▁허성	-11.3207
당초에	-11.3209
▁드러나지	-11.321
▁여느	-11.3213
왕이	-11.3213
▁죄주는	-11.3213
▁여기며	-11.3214
▁배척하여	-11.3214
▁문정공	-11.3214
▁부제조	-11.3215
▁날에는	-11.3215
김상	-11.3215
남의	-11.3215
▁가망이	-11.3218
▁못했을	-11.3218
직장	-11.3218
▁상황	-11.3219
▁성세	-11.3221
▁북관	-11.3222
▁병기를	-11.3223
인이었다	-11.3224
▁장유	-11.3225
▁하서하여	-11.3225
유가	-11.3225
▁노모	-11.3227
▁동지중추부사	-11.3229
▁기예	-11.3231
▁노릇	-11.3232
▁유감	-11.3232
▁간수	-11.3237
셔야	-11.3237
▁강순	-11.3238
▁일국	-11.3238
▁도적질	-11.324
▁처리하기	-11.3241
▁방비하는	-11.3241
▁즐겁	-11.3241
▁조복양	-11.3241
▁숨길	-11.3242
▁만났는데	-11.3243
▁백성과	-11.3243
▁강력	-11.3243
▁끌어대어	-11.3244
▁대내에서	-11.3248
▁동조	-11.3248
당초	-11.325
▁숭	-11.3254
▁상서하였는데	-11.3254
▁지당하다	-11.3255
▁김만기	-11.3256
▁중한데	-11.3258
▁유도	-11.3261
▁집과	-11.3263
▁계단	-11.3265
▁묻어	-11.3268
▁입번	-11.3268
▁가을이	-11.3269
▁청하였고	-11.3271
▁삭	-11.3274
▁정도에	-11.3275
세자	-11.3276
▁정사하니	-11.3276
▁논사	-11.3277
▁서필원	-11.3277
▁성적	-11.3277
▁얻었다	-11.3283
▁허락해	-11.3283
▁제주에	-11.3285
▁싸움	-11.3285
▁물었는데	-11.3286
▁지적한	-11.3288
홍응	-11.3291
▁대고	-11.3292
▁따르겠다	-11.3292
▁진시	-11.3294
였으니	-11.3294
버려	-11.3295
▁감기	-11.3295
▁동안이나	-11.3296
▁협박	-11.3297
량은	-11.3298
▁처치하지	-11.3298
▁기사년	-11.3301
▁여인	-11.3302
▁부근	-11.3302
▁계사는	-11.3309
▁참고하여	-11.3309
▁나란히	-11.3314
▁참부대시	-11.3314
▁집안에서	-11.3315
▁않았지만	-11.3315
▁제사지내	-11.332
▁아픈	-11.332
▁선위	-11.332
▁허조	-11.3326
▁진보	-11.3327
▁해괴한	-11.333
▁여러날	-11.333
▁정려	-11.3331
▁연안	-11.3331
▁추국하라	-11.3333
▁첨지	-11.3334
▁공훈	-11.3336
▁김인	-11.3336
▁공의에	-11.3337
▁이루고	-11.3337
종의	-11.3338
▁관장하는	-11.3339
▁구차히	-11.334
▁하교는	-11.3343
▁일기주	-11.3349
▁잘못은	-11.3349
▁위안	-11.3351
▁형조로	-11.3352
▁꺼려	-11.3355
▁빈전	-11.3356
선전관	-11.3356
▁부른	-11.336
▁관하	-11.336
규가	-11.3361
▁군사들에게	-11.3361
▁영조	-11.3361
▁배척하는	-11.3362
▁일식	-11.3362
▁계책으로	-11.3362
▁호소하는	-11.3363
▁여론	-11.3365
▁사피	-11.3365
▁이조참판으로	-11.3365
▁세상이	-11.3369
▁불시	-11.337
▁당하였다	-11.3372
7	-11.3372
▁예전부터	-11.3373
▁모른	-11.3376
▁안위	-11.3376
▁먹이	-11.3377
▁주나라	-11.3377
▁강정	-11.3384
▁옮기게	-11.3384
▁발명	-11.3385
▁쓸데없는	-11.3387
▁부서	-11.3388
▁여름에	-11.3389
▁명하셨습니다	-11.339
▁정지하라	-11.339
▁사직서	-11.3391
▁사역	-11.3393
▁명성	-11.3394
▁의망하여	-11.3396
혈	-11.3397
명이고	-11.3398
▁김중	-11.3399
▁벗어나지	-11.3399
▁아룀	-11.3401
례에	-11.3401
청을	-11.3403
▁일이었습니다	-11.3404
갓	-11.3405
▁권세가	-11.3406
▁참지로	-11.3409
성에서	-11.341
▁숭상하는	-11.3413
▁나장	-11.3415
▁청하기	-11.3416
▁정지하기를	-11.3418
▁의한	-11.3419
힌	-11.342
▁유문	-11.3423
▁많았으니	-11.3424
▁기전	-11.3424
▁실지	-11.3425
▁험	-11.3425
▁면천	-11.3426
▁괴이한	-11.3427
▁부끄럽고	-11.3428
▁청에	-11.3428
▁있거나	-11.343
▁홍문관에서	-11.3431
▁것까지	-11.3433
▁가형	-11.3434
▁지급하여	-11.3435
▁야인들이	-11.3436
▁홍여순	-11.3436
▁향사	-11.3436
▁작성	-11.3438
▁고장	-11.3439
▁나갔	-11.3439
▁과감	-11.344
▁탐오한	-11.3441
▁왕래할	-11.3441
▁주본	-11.3441
▁죽자	-11.3441
▁유정현	-11.3441
▁강하고	-11.3444
옥당	-11.3444
▁귀순	-11.3445
했지만	-11.3446
▁뽑은	-11.3446
▁관가에	-11.345
▁형편에	-11.3451
▁정관	-11.3453
▁화포	-11.3455
▁도사로	-11.3456
▁행행하여	-11.3459
▁신으로	-11.346
▁도리로	-11.3461
▁숭정대부	-11.3461
▁답답	-11.3462
▁돌아왔는데	-11.3462
▁살기	-11.3463
영남	-11.3463
▁논의할	-11.3464
▁유근	-11.3465
▁번거롭고	-11.3468
▁계승	-11.3469
▁낭비	-11.3469
▁취소	-11.347
▁기울여	-11.3471
▁정탐	-11.3472
▁대하는	-11.3473
▁적장	-11.3473
▁순변사	-11.3473
▁홍문관에	-11.3473
▁유봉휘	-11.3475
▁올랐다	-11.3477
▁아첨하	-11.3478
관찰사	-11.3479
▁더럽	-11.3479
▁시대에	-11.348
▁책례	-11.348
▁옳겠습니다	-11.3481
▁진소하여	-11.3483
▁별시위	-11.3488
▁윤형	-11.3489
▁닦아	-11.3489
▁버리지	-11.349
▁지역이	-11.349
하옵소서	-11.349
▁넘지	-11.3495
▁정릉	-11.3496
▁이리저리	-11.3498
▁무지한	-11.3498
▁처첩	-11.3499
▁손으로	-11.35
흡	-11.3501
▁피하고	-11.3503
▁넉넉하지	-11.3505
▁순서	-11.3506
▁관계되지	-11.3507
▁행이	-11.3509
▁수령들을	-11.351
▁맞을	-11.3513
▁만들지	-11.3514
▁성명이	-11.3514
융	-11.3514
▁출근	-11.3517
▁박종	-11.3519
▁인원이	-11.352
▁모집	-11.3521
▁옹주	-11.3522
터	-11.3524
▁성인이	-11.3524
즙	-11.3526
▁계달하지	-11.3528
▁다하는	-11.3529
▁최석정이	-11.3529
▁아끼는	-11.353
▁징계하여	-11.353
▁존중	-11.3531
▁훈신	-11.3531
▁남용익	-11.3533
▁폐가	-11.3533
▁어려우므로	-11.3535
▁무궁한	-11.3536
▁잃었으니	-11.3537
▁중들	-11.3537
객	-11.3537
셔서	-11.3541
▁하번	-11.3541
▁거치지	-11.3541
위가	-11.3543
성으로	-11.3545
▁혁파하여	-11.3545
▁태상왕	-11.3545
▁적에도	-11.3545
▁홍명하가	-11.3547
▁고찰해	-11.3547
▁사슴	-11.3547
▁운송	-11.3553
름	-11.356
▁사양하는	-11.3561
겠으나	-11.3563
환이	-11.3567
▁고성	-11.3567
▁나아와	-11.3571
▁같	-11.3571
▁심환지	-11.3572
익은	-11.358
▁아니더라도	-11.358
▁보나	-11.3582
▁연좌되어	-11.3582
▁삼았습니다	-11.3583
▁역적이	-11.3587
국가	-11.3589
▁인망이	-11.359
▁추대	-11.3591
▁미쳐서	-11.3592
어도	-11.3594
▁이북	-11.3595
겠으니	-11.3596
▁기한으로	-11.3597
▁운명	-11.3597
▁인정과	-11.36
▁격식	-11.36
준을	-11.3601
▁이철견	-11.3602
현감으로	-11.3604
것	-11.3604
▁수급	-11.3606
원에	-11.3607
▁담을	-11.3607
▁캐어	-11.3611
▁천둥과	-11.3612
▁약탈	-11.3612
▁지나가	-11.3618
근자에	-11.3619
▁다니는	-11.362
▁어질지	-11.3621
▁호구	-11.3622
▁사랑하여	-11.3622
▁놀이	-11.3623
▁경유	-11.3623
▁상서하기를	-11.3623
▁한응인	-11.3627
▁봉해	-11.3627
▁아랫사람들	-11.3631
▁받았	-11.3632
▁이덕	-11.3632
밤	-11.3632
▁박순	-11.3633
▁김감	-11.3635
▁김상철이	-11.364
▁하였었다	-11.364
▁서장관으로	-11.3641
▁처치하기를	-11.3642
▁그림	-11.3645
▁북청	-11.3645
스럽고	-11.3645
▁거꾸	-11.3647
▁거느린	-11.3647
▁칸	-11.3653
▁차차	-11.3653
▁조사한	-11.3654
▁죽어서	-11.3655
▁언어	-11.3655
▁다음달	-11.3655
정과	-11.3656
▁관대한	-11.3657
▁전교한	-11.3657
▁거느리	-11.3657
일까지	-11.3657
▁내국에서	-11.3657
▁삼년상	-11.3659
▁빼앗	-11.3661
▁호서의	-11.3662
▁승직	-11.3664
▁태종께서	-11.3664
전과	-11.3664
산성	-11.3664
▁편리하게	-11.3665
▁한심스럽	-11.3666
▁인산	-11.3666
▁원로	-11.3668
푼	-11.3671
▁공격하는	-11.3674
▁마포	-11.3677
▁논계하여	-11.368
▁소용이	-11.3681
▁아니었는데	-11.3685
▁따름입니다	-11.3686
▁주관하는	-11.3687
하겠느냐	-11.3687
▁차송	-11.3688
▁종부시	-11.3689
▁의지하고	-11.3689
▁전대	-11.369
▁서계하라	-11.3691
욕	-11.3692
▁벗어나	-11.3692
곧	-11.3694
▁춤	-11.3697
▁붙인	-11.3697
▁준수	-11.3698
▁처참	-11.3699
▁절약	-11.37
▁사건에	-11.3701
▁채용	-11.3703
▁교만하고	-11.3704
▁내전	-11.3709
대는	-11.3709
▁세조께서	-11.3709
패를	-11.3711
▁진영	-11.3711
▁동쪽으로	-11.3713
▁절차는	-11.3713
▁있었는데도	-11.3714
▁조종조에	-11.3716
▁정법	-11.3716
▁조심하고	-11.3719
▁도읍	-11.372
▁소매	-11.3721
▁내수사에	-11.3721
▁오래입니다	-11.3723
▁김여	-11.3723
▁칙유	-11.3724
▁의병	-11.3726
▁따르	-11.3726
▁품질	-11.3727
▁열무	-11.3727
▁근을	-11.3729
▁되어야	-11.373
▁접대할	-11.3731
▁보살피	-11.3732
▁계실	-11.3733
▁간교한	-11.3733
▁원근	-11.3733
▁사물	-11.3735
이수	-11.3735
▁추탈	-11.3736
▁명성이	-11.3737
▁이황	-11.3739
치는	-11.3742
▁윤지선	-11.3742
이런	-11.3743
▁소유	-11.3744
였고	-11.3746
▁재촉하여	-11.3748
▁무너지	-11.3748
▁문서에	-11.3748
▁겁탈	-11.3754
▁몰라서	-11.3754
▁접때	-11.3756
등은	-11.3757
▁장선징	-11.3758
▁김좌명	-11.3759
힐	-11.3759
▁용맹	-11.3759
▁진달하지	-11.376
▁빛깔이었	-11.3761
▁무역하는	-11.3761
▁군상	-11.3763
▁부응하라	-11.3767
▁마땅하니	-11.3768
▁홍달손	-11.3768
▁조화	-11.3768
▁원의	-11.377
▁세월	-11.3771
▁탐문	-11.3771
▁중전	-11.3771
▁길은	-11.3772
▁겸손	-11.3773
▁칼	-11.3774
▁신진	-11.3777
▁군사에게	-11.3777
▁석방하였다	-11.378
▁비지	-11.378
▁삭제하소서	-11.378
▁나누	-11.3781
▁두려워할	-11.3781
눌	-11.3781
▁두었으니	-11.3782
▁본의가	-11.3785
▁절하고	-11.3785
▁합쳐	-11.3785
▁예관이	-11.3787
국가가	-11.3789
▁선택	-11.3789
▁진달하기를	-11.379
▁나오기	-11.3791
▁고향	-11.3792
▁바닥	-11.3796
▁못했다는	-11.3799
▁근심하는	-11.3802
▁석방하여	-11.3803
▁행회	-11.3804
▁취직	-11.3806
▁알맞게	-11.3807
▁조말생	-11.3808
▁보더라도	-11.381
▁준다	-11.381
른	-11.3811
▁공손히	-11.3811
▁채제공이	-11.3812
민은	-11.3812
예로부터	-11.3812
▁품질이	-11.3813
▁추궁	-11.3813
▁이단	-11.3813
▁시간	-11.3813
▁그지없다	-11.3814
▁나인	-11.3815
▁대신하였다	-11.3816
▁이충	-11.3816
▁김치인	-11.3816
▁떠	-11.3819
▁구경하였다	-11.3819
▁열지	-11.3819
▁제사지내는	-11.3821
▁황엄	-11.3821
▁관계되어	-11.3824
▁유임	-11.3827
▁동가	-11.3827
▁속일	-11.3828
▁죽음에	-11.3831
▁평산	-11.3835
혀	-11.3836
▁어둡고	-11.3837
▁군량이	-11.3838
▁출처	-11.3839
▁물러	-11.3839
▁도서	-11.384
▁민유중	-11.3841
식이	-11.3841
▁있었다는	-11.3842
▁정표	-11.3842
▁까닭입니다	-11.3843
▁이시애	-11.3844
▁변란이	-11.3846
▁북경으로	-11.3847
리고	-11.3847
▁사특한	-11.3848
몰래	-11.3848
▁유념하겠다	-11.3849
▁세도가	-11.385
▁발설	-11.385
▁속여	-11.3851
▁높여	-11.3852
▁용서하는	-11.3855
▁없어지	-11.3855
▁그러는	-11.3857
▁총융사	-11.3862
▁의견은	-11.3862
▁통한	-11.3862
▁내려갈	-11.3863
▁일이겠습니까	-11.3864
▁받아들인	-11.3865
▁의논대로	-11.3866
운이	-11.3868
▁화합	-11.387
▁서쪽에	-11.387
▁심한데	-11.387
▁어떠	-11.3872
우도	-11.3875
▁색리	-11.3875
가면서	-11.3875
▁독서	-11.3876
▁민진원	-11.3876
빙	-11.3876
▁교자	-11.3877
▁폐출	-11.3877
올해	-11.3878
▁기력이	-11.3879
▁늦추	-11.3879
▁확실	-11.3879
▁붙여서	-11.3879
▁드리는	-11.388
▁묘소	-11.3884
▁법이다	-11.3885
▁불가하니	-11.3888
▁관노	-11.3889
▁부여	-11.3889
평양	-11.3889
▁합격자	-11.389
지난날	-11.3891
▁선천	-11.3892
▁보여야	-11.3895
▁거론하여	-11.3897
▁기거	-11.3897
▁답하고	-11.3898
▁혜	-11.3899
▁노복	-11.3899
▁뒷날에	-11.3903
▁여역이	-11.3904
▁결정한	-11.3904
핵	-11.3904
▁있기도	-11.3905
▁곤궁한	-11.3906
▁늙어서	-11.3906
▁삼수	-11.3907
▁약재	-11.391
▁표피	-11.3911
▁밝고	-11.3914
▁받드니	-11.3915
▁올바른	-11.3915
이정	-11.3915
▁견줄	-11.3915
▁사라졌다	-11.3916
▁호가	-11.3916
▁책임은	-11.3918
▁정선	-11.3918
▁박정	-11.3919
▁종류	-11.3919
▁제공	-11.392
▁할까	-11.392
▁유가	-11.3921
▁넓히	-11.3921
양이	-11.3924
▁정광필이	-11.3925
▁죽이지	-11.3926
간을	-11.3926
▁공자	-11.3926
자와	-11.3927
▁윤상	-11.393
▁공장	-11.3931
▁특이한	-11.3932
▁이숭원	-11.3932
▁받기를	-11.3933
▁언관이	-11.3933
▁요망한	-11.3934
벌을	-11.3934
▁정하였으니	-11.3935
백에	-11.3936
▁반인	-11.3937
▁기둥	-11.3939
▁바로잡고	-11.3941
▁권력	-11.3943
▁해의	-11.3944
▁박원종	-11.3948
▁부세	-11.3948
▁장기	-11.3949
▁충실	-11.395
▁뒤부터	-11.395
라서	-11.3953
▁즉각	-11.3954
▁통분해	-11.3954
▁흉적	-11.3955
▁시세	-11.3955
▁위로하는	-11.3956
▁끼칠	-11.3957
▁구류	-11.3957
▁하시면	-11.3958
▁상에게	-11.3959
▁압슬형	-11.396
▁불평	-11.3962
▁위로해	-11.3963
▁강하다가	-11.3966
▁우마	-11.3969
▁주서로	-11.397
명이었다	-11.397
▁첨가	-11.3971
▁도태	-11.3977
▁겹쳐	-11.3977
▁미치는	-11.3979
▁적절	-11.3979
▁예법	-11.3981
새로	-11.3982
▁천신	-11.3984
▁군대가	-11.3986
▁허종	-11.3986
▁금법	-11.3986
▁다스리기를	-11.3986
▁휘하	-11.3987
▁체직되어	-11.3987
▁기록하고	-11.3988
▁정결	-11.3989
▁곳입니다	-11.399
▁썼는데	-11.3992
▁중합니다	-11.3993
▁쌍	-11.3993
▁울분	-11.3993
▁의논하라고	-11.3993
▁금지하지	-11.3993
▁그전	-11.3994
▁존경	-11.3994
▁정지화	-11.3995
▁속바치게	-11.3995
▁명나라에	-11.3997
겸이	-11.3997
▁먹은	-11.4
▁결정할	-11.4
면포	-11.4001
▁폐습	-11.4001
불을	-11.4001
▁커서	-11.4002
▁곡식은	-11.4003
▁국시	-11.4003
▁정구	-11.4005
▁여역	-11.4007
▁같다고	-11.4009
▁데까지	-11.401
▁정해야	-11.401
▁아들로	-11.401
▁간사함	-11.4011
하리라	-11.4013
▁모집하여	-11.4013
산에서	-11.4015
▁보덕	-11.4016
▁제술을	-11.4017
▁기일에	-11.4019
▁정종	-11.402
▁여유	-11.4021
▁인정전에서	-11.4022
전에서	-11.4022
마를	-11.4022
▁적과	-11.4024
▁장사들	-11.4025
▁소식이	-11.4025
부장	-11.4026
산은	-11.4027
▁고을과	-11.4028
▁하비	-11.4028
▁박재	-11.4028
▁서지	-11.4029
▁활쏘기	-11.4031
▁일일	-11.4031
▁박세당	-11.4033
▁장악원	-11.4033
▁걸린	-11.4033
▁일까지	-11.4034
았는데	-11.4036
▁후로	-11.4037
▁내려간	-11.4039
▁민심이	-11.4039
▁이파	-11.4039
▁피해가	-11.404
자로	-11.4042
▁온편하지	-11.4042
▁드	-11.4042
▁기준	-11.4042
▁후설	-11.4043
▁신칙하라	-11.4044
▁조야	-11.4044
▁공효	-11.4045
▁실패	-11.4047
▁신민이	-11.4048
▁강한	-11.4049
▁황정욱	-11.4051
대전	-11.4055
▁위로하여	-11.4056
셨습니다	-11.4059
▁인척	-11.4061
행이	-11.4062
▁각사에	-11.4062
▁들이고	-11.4063
▁못하였다고	-11.4063
▁군국의	-11.4064
▁추조	-11.4065
▁소속시키	-11.4065
▁이형	-11.4066
▁고친	-11.4066
▁임무는	-11.4066
▁왜인을	-11.4068
될까	-11.4069
▁넘기	-11.4069
▁하나라도	-11.4069
▁이르렀고	-11.407
▁장계하였다	-11.4072
광주	-11.4072
덕을	-11.4073
▁명초	-11.4074
▁귀양보냈다	-11.4077
▁보고하였다	-11.4078
▁이길	-11.4078
겸은	-11.4078
▁행하였으니	-11.408
▁보낸다	-11.408
▁징발	-11.4082
해주	-11.4082
▁매어	-11.4082
▁쟁집	-11.4084
▁하유하는	-11.4084
▁뻔뻔	-11.4084
▁와서는	-11.4085
▁이건명	-11.4085
▁가자하여	-11.4085
▁해치는	-11.4086
데다	-11.4087
왔는데	-11.4088
▁진달하였는데	-11.4088
▁과시	-11.4088
▁난언	-11.4089
하였는지	-11.409
▁약물	-11.4091
▁가르침	-11.4091
▁옛날에도	-11.4093
▁압	-11.4095
임금이	-11.4095
▁비슷	-11.4096
▁차자로	-11.4098
▁넓은	-11.4098
▁길러	-11.4099
▁체차하라고	-11.4101
▁여쭈어	-11.4103
▁본사에	-11.4105
▁따랐	-11.4105
▁악공	-11.4105
▁정비	-11.4105
▁시강	-11.4106
▁유래가	-11.4107
▁관계로	-11.4108
▁재숙	-11.4108
▁사헌부와	-11.4114
▁독실	-11.4114
▁정창연	-11.4114
▁부친	-11.4115
▁군사로	-11.4115
▁옳겠는가	-11.4116
▁유치	-11.4116
▁없었을	-11.4117
▁아니요	-11.4118
▁임명된	-11.412
▁박은	-11.412
▁한들	-11.412
▁의리는	-11.4121
▁지었다	-11.4123
▁유격이	-11.4125
▁애석	-11.4126
다니	-11.4128
▁관계된다	-11.4128
▁사전에	-11.4129
▁용모	-11.413
▁권진이	-11.413
▁대조	-11.4132
▁별좌	-11.4132
▁이승소	-11.4133
▁분부에	-11.4133
▁부류	-11.4134
▁지영	-11.4134
▁정실	-11.4134
▁내렸고	-11.4135
▁대국	-11.4138
▁호인	-11.4139
▁아니하였습니다	-11.414
▁태자	-11.4142
▁옛일	-11.4142
▁황상	-11.4142
▁용인	-11.4143
▁밝히는	-11.4144
▁아뢰어서	-11.4144
▁조처할	-11.4147
▁믿음	-11.4149
▁않지만	-11.4149
▁허비	-11.415
▁놀라지	-11.415
▁명정전	-11.4152
▁도둑질한	-11.4153
▁어긋나고	-11.4153
▁느슨	-11.4154
▁나왔을	-11.4155
▁국휼	-11.4157
▁남편을	-11.4157
종을	-11.4157
▁의망한	-11.4158
▁채우	-11.416
▁향교	-11.416
▁한계희	-11.4161
▁혁파할	-11.4162
▁응하여	-11.4162
재상	-11.4163
▁하였	-11.4165
▁놓	-11.4165
▁정파	-11.4166
▁산릉에	-11.4166
▁초하루	-11.4166
▁풍문	-11.417
▁지급하고	-11.4171
▁공정하지	-11.4171
▁고집하여	-11.4171
▁민망하고	-11.4177
▁일신	-11.4179
▁팔아	-11.418
▁상달	-11.4181
▁모으고	-11.4181
▁전체	-11.4181
▁적실	-11.4182
▁임건	-11.4184
팽	-11.4186
▁전한으로	-11.4187
남을	-11.4188
▁내구마	-11.4189
▁민생이	-11.419
▁재상들	-11.419
때	-11.419
공을	-11.419
▁백색이었다	-11.4191
▁나이에	-11.4193
▁강희맹	-11.4198
▁짐을	-11.42
▁연속	-11.4201
▁사망	-11.4202
▁계문하였다	-11.4204
▁좌윤으로	-11.4204
창을	-11.4206
▁형편입니다	-11.4206
▁나무가	-11.4208
▁찾아가	-11.4209
▁대인이	-11.4209
▁자원에	-11.4213
▁줄여서	-11.4214
▁무기	-11.4214
▁때문인가	-11.4217
▁검칙	-11.4217
▁체직하기	-11.4218
▁재실	-11.4221
▁이민	-11.4224
▁진의	-11.4225
▁위태로운	-11.4226
▁맡기고	-11.4227
▁두렵고	-11.4228
▁말하면서	-11.4229
▁천창성	-11.4229
▁죽었으므로	-11.423
▁못하오니	-11.4231
▁계청하였으나	-11.4234
▁경작하는	-11.4234
▁변론	-11.4235
▁천도	-11.4235
▁빈번	-11.4235
▁사람이라고	-11.4236
▁의창	-11.4237
▁오기	-11.4238
▁속하게	-11.4238
▁계청하기를	-11.4242
▁백의	-11.4242
▁등지에서	-11.4243
▁질문	-11.4243
▁해면	-11.4244
▁취하고	-11.4245
▁좌상이	-11.4245
▁노자	-11.4251
▁조심하여	-11.4252
되었을	-11.4255
▁본부가	-11.4256
▁것인지를	-11.4257
▁도모하여	-11.4258
▁최관	-11.4258
▁좌의정으로	-11.4259
▁전자에	-11.426
▁국문에	-11.4263
▁관아에	-11.4265
▁산릉의	-11.4267
성과	-11.4267
▁윤집	-11.4268
▁의리로	-11.4268
▁동료에게	-11.4268
▁인민들	-11.427
▁형조판서	-11.4272
▁일이겠는가	-11.4273
▁알았습니다	-11.4274
▁사배	-11.4275
▁타당할	-11.4277
▁미쳐서는	-11.4277
▁지급하는	-11.4278
▁늙어	-11.4281
▁말들	-11.4283
▁조례	-11.4284
▁취하지	-11.4285
더욱	-11.4286
▁논단	-11.4286
▁정원으로	-11.4291
▁불측한	-11.4292
▁김휘	-11.4292
▁번상	-11.4292
▁못한데	-11.4293
▁제언	-11.4294
▁기무	-11.4296
▁경유하여	-11.4297
▁정계하였다	-11.4297
▁궁금	-11.4297
▁조사하는	-11.4297
▁조준	-11.4298
▁적용하여	-11.4298
▁응제	-11.4299
▁습	-11.43
▁해당하는	-11.43
지로	-11.4302
▁만포	-11.4302
▁되어도	-11.4303
▁주청사	-11.4305
▁한가지	-11.4306
▁기간	-11.4308
▁중상	-11.4309
▁작위	-11.4312
▁발표	-11.4312
▁알았으니	-11.4314
▁논하였다	-11.4314
▁분간하여	-11.4315
▁이상진	-11.4316
▁벗어	-11.4316
▁이태좌	-11.4316
▁고하니	-11.4317
▁밑	-11.4317
▁일수	-11.4319
▁죽여야	-11.4319
▁경서를	-11.432
▁이상인	-11.4322
▁소행이	-11.4328
▁예궐하여	-11.4332
▁돕는	-11.4332
▁혜택이	-11.4334
▁이바지	-11.4334
▁들기	-11.4334
▁온천에	-11.4335
▁일이기	-11.4335
▁서장에	-11.4336
▁허균이	-11.4336
▁민호	-11.4337
▁세자와	-11.4338
▁조형	-11.4339
▁준례	-11.4339
▁추론	-11.4339
▁두라	-11.4347
▁핵문	-11.4348
랴	-11.4349
▁수고롭게	-11.4349
▁이방	-11.4349
국이	-11.435
▁훈련원	-11.435
▁전조가	-11.435
▁당연합니다	-11.4352
▁간음	-11.4352
▁믿는	-11.4352
▁탕감	-11.4353
회를	-11.4354
▁면유	-11.4355
▁참여하는	-11.4357
▁융복	-11.4357
▁옥중에서	-11.4357
▁없지마는	-11.4361
▁역대	-11.4361
▁잡아오게	-11.4362
▁돌리고	-11.4364
▁변경에	-11.4367
▁공격하여	-11.4368
▁윤지	-11.4369
▁밝히지	-11.4369
▁벼슬길	-11.4369
▁땅은	-11.4369
▁미포	-11.4371
▁분경	-11.4372
▁아들인데	-11.4372
수원	-11.4373
▁제목을	-11.4374
▁호적	-11.4374
▁본받을	-11.4374
▁인정에	-11.4375
▁살해한	-11.4376
▁이예	-11.4376
▁편안한	-11.4377
▁예빈시	-11.4377
▁올해에	-11.4379
▁침탈	-11.4381
▁의거할	-11.4382
▁서사	-11.4383
▁넘겨	-11.4385
▁진에	-11.4386
▁관리는	-11.4386
▁지났으니	-11.439
▁짐작	-11.4391
▁끼치고	-11.4392
▁사흘	-11.4392
▁그전대로	-11.4392
▁종기	-11.4393
▁기상이	-11.4395
▁물어보고	-11.4396
▁산림	-11.4397
▁폭	-11.4397
▁특지	-11.4398
▁육선을	-11.4401
▁소는	-11.4403
▁애매	-11.4403
▁시녀	-11.4403
옹	-11.4403
탈	-11.4405
쌀	-11.4405
▁그만두지	-11.4405
▁미치	-11.4406
▁사절	-11.4406
▁있을지라도	-11.4408
▁당연하다	-11.4408
▁영수	-11.4409
▁물리쳐	-11.4411
▁마을에	-11.4412
▁기롱	-11.4413
▁꾀하여	-11.4417
▁떠나는	-11.4417
▁것뿐이	-11.4417
▁이조로	-11.4418
함경도	-11.4418
방금	-11.4419
▁천심	-11.442
▁당하는	-11.442
▁정성과	-11.4423
▁갈라	-11.4427
▁안치한	-11.4428
▁과실	-11.4428
▁온편	-11.443
사신	-11.4432
량의	-11.4432
▁청하면서	-11.4432
▁판사	-11.4433
문으로	-11.4434
▁상시	-11.4435
굴	-11.4436
▁항시	-11.4437
▁꺼리지	-11.4437
▁놀랍기	-11.4437
▁원종공신	-11.4439
▁택일	-11.4439
▁군공	-11.444
▁반성	-11.444
▁듣기	-11.444
▁강홍립	-11.4441
▁늦추어	-11.4442
▁향해	-11.4444
▁사지	-11.4444
▁답서	-11.4445
의주	-11.4446
▁자급이	-11.4449
▁폐지하고	-11.445
상에	-11.4453
▁대내	-11.4453
▁훈국	-11.4456
▁감군	-11.4456
▁살아서	-11.4456
▁봉서	-11.4456
▁"3	-11.4457
▁이룩	-11.4457
▁세자는	-11.4457
▁지방관	-11.4458
▁위와	-11.4461
▁양민	-11.4462
▁진격	-11.4462
▁방어에	-11.4464
▁접견할	-11.4465
▁자원하는	-11.4466
연은	-11.4466
▁당하였는데	-11.4467
▁이경석이	-11.4468
▁동궁에게	-11.4469
▁신보	-11.4471
▁젊고	-11.4471
▁기쁜	-11.4471
▁위아래	-11.4472
▁파직만	-11.4472
▁언급한	-11.4472
▁누리	-11.4472
▁잘못입니다	-11.4472
▁궁벽	-11.4473
▁저녁으로	-11.4473
▁78	-11.4475
▁말았으니	-11.4476
▁영흥	-11.4477
▁내려가서	-11.4477
▁조종께서	-11.4478
▁인출	-11.4479
▁튼튼	-11.4481
▁봉행하지	-11.4486
▁사업	-11.4486
했는지	-11.4487
▁옛적에	-11.4488
▁무함한	-11.449
▁뜸	-11.449
▁모반	-11.449
▁판하	-11.449
▁나랏일이	-11.4491
▁운반해	-11.4491
▁쌀로	-11.4493
▁헌수	-11.4493
▁회례	-11.4494
▁자처	-11.4494
▁측량	-11.4494
▁사적으로	-11.4495
▁전하에게	-11.4496
▁가르치는	-11.4497
시키게	-11.4499
▁자리로	-11.45
▁없어졌다	-11.4502
▁박문수가	-11.4502
동에	-11.4503
뿐이	-11.4505
▁평시에	-11.4505
이어	-11.4508
▁정론	-11.4508
▁작고	-11.4509
▁않으려	-11.451
▁알아야	-11.4511
하겠으니	-11.4512
▁맞힌	-11.4513
▁성품	-11.4514
▁베풀었는데	-11.4517
▁법식	-11.4519
▁공제	-11.452
▁하겠는데	-11.452
▁놀라서	-11.4521
▁인연하여	-11.4526
▁개수	-11.4527
▁업무	-11.4528
▁교수	-11.4529
휼	-11.453
▁고하	-11.453
▁정지한	-11.4532
▁반찬	-11.4532
▁부의로	-11.4532
▁여기기	-11.4536
▁근정전	-11.4537
▁양식이	-11.4538
▁경성에	-11.4539
었	-11.454
▁기자헌이	-11.454
▁경계할	-11.4542
▁생산되는	-11.4543
시키라	-11.4545
▁강관	-11.4545
▁꾸짖어	-11.4546
후를	-11.4547
▁여진	-11.4549
▁가는데	-11.455
▁일이지만	-11.455
▁논쟁	-11.4554
▁토관	-11.4557
▁박상	-11.4559
▁자랑	-11.456
▁모자라는	-11.4561
▁수령들은	-11.4561
▁상관	-11.4561
개가	-11.4564
하였음	-11.4565
읍에	-11.4565
▁사로잡아	-11.4566
▁정령	-11.4566
▁굶주리고	-11.4566
▁권장하고	-11.4567
▁않았는데도	-11.4567
▁묘시에	-11.4569
현에서	-11.4569
▁많았고	-11.457
▁심양에	-11.4571
▁요양	-11.4572
▁간관이	-11.4574
▁용도	-11.4575
께서는	-11.4576
▁논죄하지	-11.4582
▁남기	-11.4582
조는	-11.4587
▁궁성	-11.4588
▁홍중보	-11.4589
▁무당	-11.459
▁증가	-11.4591
▁주시기	-11.4592
건은	-11.4592
▁자라도	-11.4592
▁듣고도	-11.4593
▁찔러	-11.4595
▁받아들일	-11.4597
▁대문	-11.4597
▁생각하옵건대	-11.4598
▁자성	-11.4598
▁먹여	-11.4598
강의	-11.4598
▁중종	-11.4599
종친	-11.4599
▁형상을	-11.46
▁꾀한	-11.4602
▁혈기	-11.4603
▁전직	-11.4606
▁처리하여	-11.4607
▁추문하는	-11.461
▁마련하는	-11.4612
▁특지로	-11.4613
▁유계	-11.4618
▁급박	-11.4621
▁사민	-11.4621
▁품관	-11.4622
▁경시	-11.4623
▁인견하여	-11.4624
▁당상관과	-11.4627
▁정사는	-11.4628
▁용서하고	-11.4631
▁신씨	-11.4631
희를	-11.4631
▁조발	-11.4634
▁했으며	-11.4635
임이	-11.4635
▁부끄러움이	-11.4635
▁처리한	-11.4635
▁인자	-11.4635
▁계모	-11.4635
▁국문하였다	-11.4636
▁쌓인	-11.4636
백성	-11.4637
▁남북	-11.4638
▁갖추어지지	-11.4639
▁않았었다	-11.4641
▁장신	-11.4641
금부	-11.4642
▁사연	-11.4642
▁따르기	-11.4644
▁아뢰었기	-11.4646
▁전토	-11.4646
▁저의	-11.4646
▁좋습니다	-11.4648
언이	-11.4648
▁윤봉이	-11.465
▁기묘년	-11.465
▁자상	-11.4651
▁신상이	-11.4653
▁성종께서	-11.4654
▁못했다고	-11.4655
합니까	-11.4655
년간	-11.4656
▁옛말에	-11.4658
▁갑산	-11.4659
▁구제하기	-11.466
▁이병	-11.4664
▁족속	-11.4664
▁헐뜯	-11.4665
▁말대로	-11.4665
▁보상	-11.4667
산을	-11.4667
▁들여오	-11.4668
하였사오니	-11.4668
▁언급하지	-11.4668
▁권균	-11.467
▁내조	-11.467
▁하였었는데	-11.467
▁말며	-11.467
▁외척	-11.4674
경력	-11.4674
▁진향	-11.4676
▁많았으므로	-11.4678
▁위험	-11.4678
▁머물면서	-11.468
▁경략이	-11.4681
▁빛나	-11.4681
▁상차	-11.4681
▁뵈	-11.4684
▁숨기지	-11.4685
▁벌여	-11.4686
▁두려움	-11.4687
▁이극균	-11.4688
▁성사	-11.4688
▁피혐할	-11.4688
감찰	-11.469
▁훈계	-11.4691
▁헌사에서	-11.4692
▁앓	-11.4692
▁통하는	-11.4693
시키기	-11.4693
▁것이온데	-11.4694
▁계문한	-11.4695
▁펼	-11.4695
▁천추사	-11.4699
▁교서관	-11.4699
▁행궁	-11.4702
▁저포	-11.4703
▁부형	-11.4703
▁태묘	-11.4704
▁뒤쫓아	-11.4705
▁늘어	-11.4705
▁추문하게	-11.4705
▁어린아이	-11.4706
▁심유	-11.4706
▁전염병이	-11.4707
▁없을까	-11.4709
▁맡을	-11.471
▁성후	-11.4713
▁염려하는	-11.4715
전으로	-11.4718
▁도량이	-11.4719
▁연호	-11.472
▁베푸니	-11.472
차자	-11.472
▁합당하겠습니다	-11.4721
▁조정으로	-11.4722
▁본국에	-11.4722
▁김원	-11.4723
▁정존겸	-11.4725
▁어두워	-11.4726
▁파직시킨	-11.4727
▁만들었습니다	-11.4728
▁선처	-11.4728
▁바뀌	-11.473
▁천안	-11.473
▁치제하게	-11.473
야만	-11.4731
▁안정되지	-11.4731
▁예궐	-11.4734
▁정부가	-11.4735
▁부르고	-11.4738
▁움직	-11.4738
▁사장	-11.474
▁김해	-11.474
주서	-11.4741
선의	-11.4742
▁기술	-11.4742
▁명하시고	-11.4744
▁예기	-11.4744
직에	-11.4745
▁때인데	-11.4746
법이	-11.4748
해를	-11.475
▁필선	-11.4751
▁조공	-11.4757
삼사	-11.4757
▁유순정	-11.4759
▁북병사	-11.476
▁떠도는	-11.4763
▁착	-11.4763
대간은	-11.4763
▁크니	-11.4764
▁명하셨는데	-11.4765
▁법의	-11.4766
▁남들	-11.4766
▁변통하는	-11.4767
▁줄여	-11.4768
▁권우	-11.4769
▁곤궁	-11.4769
▁성과	-11.477
▁이담	-11.477
▁개차하소서	-11.4771
▁실농	-11.4771
▁놓아주	-11.4771
▁35	-11.4773
▁한량	-11.4773
▁유진	-11.4773
▁부지런	-11.4774
▁무시한	-11.4774
정승	-11.4775
▁화약	-11.4776
▁양성지	-11.4778
▁추고해야	-11.4779
▁도량	-11.4779
▁김연	-11.478
연이	-11.4781
▁엄정	-11.4782
▁홍낙성	-11.4782
▁가포	-11.4783
▁간심	-11.4785
▁전담	-11.4785
▁제장	-11.4786
▁보내온	-11.4787
▁우박	-11.479
▁국조	-11.4793
녹사	-11.4798
▁홍명하	-11.4799
▁징계하고	-11.4799
투	-11.4801
▁자기들	-11.4802
▁임명한	-11.4803
▁무역해	-11.4803
사에서	-11.4804
▁읽는	-11.4804
▁이르렀으나	-11.4805
▁극심한	-11.4807
▁제거하고	-11.4809
▁양종	-11.481
▁고금에	-11.4811
▁배우지	-11.4811
▁난역	-11.4812
▁달린	-11.4812
▁이홍로	-11.4815
▁쉬운	-11.4815
촉	-11.4815
▁금은	-11.4815
▁대개는	-11.4817
▁패초하여	-11.4819
▁주조	-11.4819
▁안되어	-11.482
▁입시하라	-11.4821
▁체통이	-11.4826
▁민사	-11.4828
▁옮긴	-11.4829
▁유희분	-11.4831
▁굶주려	-11.4831
▁다름없	-11.4831
두고	-11.4831
▁섬겨	-11.4831
▁참작해	-11.4832
▁허조가	-11.4834
주어	-11.4835
▁무상	-11.4837
▁도진무	-11.4839
▁술이	-11.4839
▁주역	-11.4841
▁군문에	-11.4841
▁배척하고	-11.4845
▁썼습니다	-11.4846
▁시험삼아	-11.4847
▁목숨이	-11.4847
▁강백년	-11.4848
▁문답	-11.4848
▁바다에	-11.4849
▁문종	-11.4849
▁책응	-11.485
▁이계동	-11.485
▁잘못하여	-11.4851
▁내리었다	-11.4852
▁산이	-11.4852
▁내용이었다	-11.4857
이원	-11.4857
▁왕위	-11.4857
▁농민	-11.4859
▁진배	-11.4861
지니	-11.4861
▁좌우에서	-11.4862
▁매월	-11.4865
▁교관	-11.4866
▁죽였다	-11.4866
▁그치	-11.4866
▁제정	-11.4867
▁났다	-11.4869
▁정동	-11.4869
자급을	-11.4872
▁분부하기를	-11.4872
▁불과한	-11.4875
▁신하와	-11.4877
▁북쪽으로	-11.4879
▁소인이	-11.488
▁도망가	-11.4881
▁대비께서	-11.4883
▁기로	-11.4884
▁정치화	-11.4886
▁황후	-11.4887
▁주장하는	-11.4887
▁푸른	-11.4889
▁소신이	-11.4889
▁일어나지	-11.4891
▁소사	-11.4893
▁경재	-11.4894
▁역적과	-11.4895
▁핵실하여	-11.4896
▁궐내	-11.4896
▁이조좌랑으로	-11.4896
▁돌보	-11.4906
▁만세에	-11.4907
▁화목	-11.4907
▁김용	-11.4911
▁중지하고	-11.4916
▁중화	-11.4916
▁못하고서	-11.4918
▁들어주	-11.4918
▁최유원	-11.492
건이	-11.492
▁충의	-11.4922
▁옛날부터	-11.4922
▁법사	-11.4923
▁울산	-11.4923
재추	-11.4926
냐	-11.4929
▁뒤로부터	-11.493
▁나로	-11.4932
▁주면서	-11.4933
▁때문인데	-11.4933
▁세우게	-11.4933
▁왕부	-11.4934
▁거룩	-11.4936
▁의논하겠다	-11.4937
▁조정과	-11.4938
▁마치지	-11.4943
이온데	-11.4946
▁영좌	-11.4946
산현감	-11.4947
▁정배하였다	-11.4947
▁치성	-11.4947
▁무방하다	-11.4948
▁묘호	-11.495
▁전대로	-11.4951
▁기록된	-11.4951
▁만들기	-11.4952
▁건원릉	-11.4959
▁소행	-11.4959
▁출납하는	-11.496
▁논핵한	-11.4961
▁가르쳐	-11.4963
각에	-11.4963
▁명사	-11.4965
▁대간들이	-11.4965
▁탐학	-11.4966
▁경계하여	-11.4967
▁치부	-11.4968
▁교묘	-11.4968
▁절실	-11.4969
▁석강	-11.4971
▁연중에서	-11.4975
▁염려되어	-11.4975
▁이룬	-11.4975
▁압니다	-11.4976
▁지세	-11.4976
▁본원에서	-11.4977
세의	-11.4979
▁심이지	-11.4979
▁이변이	-11.498
▁체아직	-11.4982
▁알겠다	-11.4984
▁고쳐야	-11.4984
▁나아오	-11.4985
궁에	-11.4987
▁저버린	-11.4988
▁사직하였다	-11.4988
▁흔히	-11.4989
▁조진	-11.499
빈의	-11.499
▁임금께	-11.4996
▁가면서	-11.4998
▁유언	-11.4999
▁장수에게	-11.5
▁파직된	-11.5
공의	-11.5
▁최호	-11.5001
▁풀이	-11.5001
▁김치	-11.5001
▁충청도관찰사	-11.5002
▁태만한	-11.5006
▁직위에	-11.5006
▁제사하는	-11.5008
▁강호	-11.5008
▁김상로	-11.5008
▁공공	-11.5011
양군	-11.5013
▁아부	-11.5013
▁윤휘	-11.5013
스러울	-11.5017
▁쌓을	-11.5018
▁힐책	-11.5018
▁없거니와	-11.5018
▁치욕	-11.5018
▁급속	-11.5019
▁자정전에	-11.502
▁포흠	-11.5021
▁해임	-11.5023
▁움직이지	-11.5024
▁땅에서	-11.5025
▁물어보	-11.5028
윤은	-11.5029
순의	-11.503
▁복명하였다	-11.5031
▁흉년으로	-11.5033
▁이극균이	-11.5033
▁재추	-11.5033
▁혐의할	-11.5034
▁둘러	-11.5034
▁저버리고	-11.5034
전하	-11.5035
▁통사를	-11.5035
▁부당하게	-11.5036
▁열성	-11.5036
▁심복	-11.5036
▁자질로	-11.5037
▁줄이는	-11.5038
▁그만두게	-11.5038
▁진신	-11.5041
▁업신여기는	-11.5043
▁중국과	-11.5045
▁정도가	-11.5046
▁개정하기를	-11.5046
▁입안	-11.5046
▁죄도	-11.5047
▁육조에	-11.5048
▁임인년	-11.5049
▁북로	-11.505
▁아니함이	-11.505
▁종재	-11.5051
▁재력	-11.5051
▁통탄	-11.5053
▁인혐하여	-11.5054
▁대간에	-11.5054
▁병화	-11.5055
▁했더니	-11.5056
▁황제께서	-11.5057
▁무례	-11.5066
▁불리	-11.5066
▁김석주가	-11.5069
▁모면	-11.5069
▁화재가	-11.5069
▁핍박	-11.507
▁나아가고	-11.5071
▁멀어서	-11.5072
▁태감	-11.5074
▁낮추어	-11.5075
▁받	-11.5075
너희들은	-11.5076
▁승도	-11.5077
▁시급한	-11.5078
▁안은	-11.5079
평군	-11.508
▁침몰	-11.5084
▁형벌이	-11.5086
▁교외에서	-11.5086
호와	-11.5086
▁미수	-11.5089
▁성상께	-11.5093
▁수일	-11.5094
▁대리	-11.5096
▁허락한다	-11.5096
▁진설	-11.5099
▁즐기	-11.5099
▁당상관으로	-11.5102
▁궁중에서	-11.5102
▁식량이	-11.5103
▁꼬투리	-11.5104
▁어떨까	-11.5104
▁어루만져	-11.5104
▁신흠	-11.5105
▁여는	-11.5106
▁기뻐하여	-11.5108
▁주었으며	-11.5109
▁어기	-11.5111
▁뜻으로써	-11.5111
▁주었고	-11.5112
▁입으로	-11.5112
▁윤선거	-11.5115
▁이덕수	-11.5115
▁사주하여	-11.5115
▁예방	-11.5115
▁용사	-11.5118
뇌	-11.5118
▁조사할	-11.5121
▁항식으로	-11.5122
집을	-11.5122
▁불행하여	-11.5122
▁뜻입니다	-11.5122
▁산에	-11.5123
▁도모하는	-11.5123
▁경영	-11.5123
석의	-11.5124
▁도와주	-11.5124
▁자전이	-11.5125
▁삼척	-11.5128
사람을	-11.5128
▁식견	-11.5132
▁본원에	-11.5132
▁관서로	-11.5134
▁않았으면	-11.5135
▁현명한	-11.5136
들일	-11.5137
▁원합니다	-11.5138
▁아래서	-11.5143
▁이염	-11.5144
▁따른다	-11.5145
▁당번	-11.5145
▁윤양	-11.5146
▁심경	-11.5147
▁원하옵건대	-11.5148
▁주례	-11.5149
▁남한	-11.515
▁정제	-11.515
▁왼쪽	-11.5153
▁김이	-11.5153
▁들었을	-11.5154
종묘	-11.5155
▁보아야	-11.5156
▁반복	-11.5156
▁이이명	-11.5156
▁빙	-11.5157
▁윤강	-11.516
▁장사지내	-11.5162
▁임명할	-11.5163
▁경기에	-11.5163
▁붙잡	-11.5163
▁교지에	-11.5164
▁배종	-11.5164
▁형이	-11.5166
▁편할	-11.5167
▁정석	-11.5167
▁판의금부사	-11.517
▁받고도	-11.517
▁사표	-11.5172
▁가축	-11.5173
유격	-11.5173
▁가리고	-11.5173
▁죄과	-11.5176
▁정해서	-11.5176
서반	-11.5176
▁대비하는	-11.5178
▁여러가지	-11.5179
▁서성	-11.5181
▁입장	-11.5181
▁파수	-11.5182
▁동원하여	-11.5182
▁자라면	-11.5182
▁이유청	-11.5184
▁윤길	-11.5184
▁명단	-11.5188
▁끌	-11.5188
▁어긋날	-11.5192
▁이이가	-11.5192
▁납입	-11.5192
▁벗어난	-11.5193
▁주고받	-11.5193
▁명소	-11.5196
▁행하려	-11.5199
▁김세	-11.52
▁비호하는	-11.52
▁사형수	-11.5201
▁정초	-11.5202
▁감하게	-11.5205
▁맡기는	-11.5206
속에	-11.5207
▁쓴다면	-11.5207
▁추핵하여	-11.5211
▁민력	-11.5213
▁집안이	-11.5214
▁사대부들	-11.5218
경성	-11.5218
▁없었다고	-11.5219
▁과중	-11.5219
▁영변	-11.5225
▁관이	-11.5228
황제가	-11.523
▁이단하	-11.5231
▁고강	-11.5234
▁권감	-11.5236
▁유형	-11.5237
▁위망	-11.5238
▁아뢰기	-11.524
▁하느냐	-11.5241
▁성석린	-11.5242
▁정자각	-11.5242
▁징병	-11.5243
▁보고하고	-11.5243
▁베푼	-11.5244
▁전하게	-11.5245
▁사세상	-11.5248
▁논핵하기를	-11.5251
▁못했고	-11.5251
▁관군	-11.5252
▁육조에서	-11.5252
▁앓아	-11.5252
▁표를	-11.5252
이오니	-11.5254
▁내왕	-11.5256
▁피하는	-11.5256
▁권경우	-11.5256
했다면	-11.5257
▁채택	-11.5259
▁불교	-11.5261
▁부덕한	-11.5262
▁획급	-11.5262
소에서	-11.5264
▁순천	-11.5264
▁용이	-11.5264
▁바닷가	-11.5265
▁계사가	-11.5268
▁어려워서	-11.5268
▁신개	-11.5269
공은	-11.5272
▁종군	-11.5273
▁흩어	-11.5275
▁왕실	-11.5276
▁서종태	-11.5278
▁무뢰한	-11.528
▁거제	-11.5281
▁전하고	-11.5281
▁집터	-11.5281
천호	-11.5282
▁불사	-11.5289
▁연계하고	-11.5289
▁책임	-11.529
▁모화관에서	-11.5291
▁들어줄	-11.5291
▁소망에	-11.5292
▁부상	-11.5293
▁간여	-11.5294
▁이정원	-11.5298
▁목사로	-11.5298
▁가난	-11.5298
▁청하였으므로	-11.5299
▁훼손	-11.53
▁풀어주	-11.53
▁왕자가	-11.5301
▁아파	-11.5302
▁체제	-11.5302
▁매기	-11.5303
▁길가	-11.5304
▁누구나	-11.5304
▁무성	-11.5304
▁참지	-11.5306
▁세웠다	-11.5307
▁공인	-11.5308
제에	-11.5309
▁유시하라	-11.5309
▁이의신	-11.531
▁목책	-11.5313
▁역옥	-11.5314
▁삼공과	-11.5315
▁오시	-11.5316
▁고상	-11.5316
▁설명	-11.5317
▁옥당에	-11.532
▁탁지	-11.532
례는	-11.5321
▁옆에	-11.5322
▁지났는데	-11.5324
장수	-11.5324
졌으므로	-11.5324
▁정경	-11.5324
▁이정영	-11.5326
▁비웃었다	-11.5327
▁지났는데도	-11.5327
▁봉심하고	-11.5327
▁능욕	-11.5327
▁조처하는	-11.5329
▁수문장	-11.5329
▁첨정	-11.533
위장	-11.5333
▁곁	-11.5334
▁구애하지	-11.5336
찬을	-11.5336
▁면복	-11.5337
▁고질적	-11.5338
▁이용하여	-11.5338
분을	-11.5339
▁뜻하지	-11.534
▁당하	-11.5341
▁편리하고	-11.5341
▁척리	-11.5342
▁갔던	-11.5343
▁놀	-11.5343
▁바라보고	-11.5344
▁음사	-11.5344
▁사론이	-11.5345
▁치보	-11.5345
▁종중추고	-11.5346
▁옮기지	-11.5346
▁보겠다	-11.5348
▁떠났다	-11.5349
▁연구	-11.5349
▁탄핵하는	-11.535
▁밤낮	-11.535
▁이현영	-11.5351
▁진고	-11.5351
▁알아보	-11.5351
▁일인지	-11.5352
도절제사	-11.5352
▁합치	-11.5353
▁계자	-11.5353
▁아들과	-11.5357
환을	-11.5358
▁침학	-11.536
▁부사를	-11.5361
▁법제	-11.5362
▁구타하여	-11.5362
▁접견하고	-11.5362
▁법률	-11.5364
죄를	-11.5366
▁용천	-11.5367
▁고심	-11.5368
▁훔친	-11.5369
▁이윽고	-11.5369
▁뽑힌	-11.537
▁만분	-11.5371
▁이유는	-11.5373
▁양녀	-11.5374
▁한결같지	-11.5376
▁계달한	-11.5376
▁못됩니다	-11.5377
▁실화	-11.5378
▁업신여기고	-11.5379
창은	-11.5379
▁복역	-11.5381
▁출제	-11.5381
▁못하겠습니까	-11.5382
▁심해지고	-11.5384
▁미두	-11.5386
▁권대운이	-11.5386
▁품계에	-11.5387
방이	-11.5388
▁만족	-11.539
▁하윤이	-11.5391
▁해와	-11.5392
▁민희	-11.5392
갔다	-11.5396
후의	-11.5398
▁황금	-11.5398
▁들어갔	-11.54
▁침범하여	-11.54
일과	-11.5403
▁처지에	-11.5405
▁김시	-11.5405
▁세자빈	-11.5406
성에	-11.5406
▁수릉관	-11.5406
▁연소한	-11.5408
▁경사로	-11.541
▁통문	-11.541
강은	-11.541
▁하소연	-11.5411
▁얻었으니	-11.5415
▁조치가	-11.5416
재와	-11.5418
▁사액	-11.5418
▁유수로	-11.5419
날씨	-11.542
▁문병	-11.542
▁뽑을	-11.5422
▁가소서	-11.5422
▁하시	-11.5422
▁심연원	-11.5424
▁기별	-11.5424
▁완만	-11.5424
▁준례에	-11.5425
▁콩을	-11.5425
▁김질간	-11.5427
▁나타나고	-11.5428
정자	-11.5429
▁야인들	-11.5432
▁감회	-11.5433
▁꺼내	-11.5434
▁관사에서	-11.5435
▁진청	-11.5435
▁문제에	-11.5435
▁중흥	-11.5436
▁뼈	-11.5437
▁대간으로	-11.5437
▁금표	-11.5443
▁다행한	-11.5443
▁국왕에게	-11.5444
▁본읍	-11.5444
▁청구	-11.5444
▁수라	-11.5447
▁조항에	-11.5447
▁관찰	-11.5452
▁덜어	-11.5452
▁장오	-11.5453
▁노사신이	-11.5455
▁촌	-11.5456
▁결원이	-11.5456
▁알려서	-11.5456
▁편부를	-11.5457
▁통틀어	-11.5459
▁승선	-11.546
▁김선	-11.5461
▁대성	-11.5462
▁정지하여	-11.5462
▁송일	-11.5463
▁67	-11.5463
▁옛부터	-11.5464
▁시간이	-11.5464
▁사송	-11.5464
▁타고난	-11.5465
▁야인을	-11.5465
▁함을	-11.5466
▁퍼져	-11.5467
▁때로	-11.5467
▁장식	-11.5469
▁첩이	-11.547
▁복색	-11.5471
▁이유태	-11.5473
▁영이	-11.5473
▁물건으로	-11.5474
▁정성으로	-11.5474
▁복수	-11.5475
지게	-11.5476
▁함양	-11.5477
▁세자로	-11.5477
▁그려	-11.5478
들어	-11.548
▁약한	-11.5481
▁엄격하게	-11.5481
▁섬을	-11.5482
▁매장	-11.5482
▁안집	-11.5482
▁이은상	-11.5483
▁추문하라	-11.5489
▁기신	-11.5492
▁체포한	-11.5493
▁보내주	-11.5499
▁모자라	-11.5499
▁채취	-11.55
▁북쪽에	-11.5501
▁논집	-11.5502
▁두어야	-11.5504
▁참대시	-11.5505
▁불가하지	-11.5505
▁단죄	-11.5506
▁황공함	-11.5507
▁조태채	-11.5507
▁빼	-11.5508
▁응하는	-11.5509
강화	-11.551
▁친근	-11.551
되었다가	-11.5511
▁연한	-11.5511
▁대점	-11.5511
▁삼는다면	-11.5512
▁유구국	-11.5513
▁모곡	-11.5513
▁손방	-11.5514
▁머무르게	-11.5515
▁위차	-11.5516
▁탕척	-11.5516
▁적게	-11.5519
▁보여주	-11.5519
▁나갔다가	-11.5521
▁시행하였다	-11.5521
▁서계한	-11.5523
▁송도	-11.5523
▁부채	-11.5524
▁충의위	-11.5525
▁표현	-11.5528
▁복심	-11.553
▁집행하는	-11.5531
▁해이해져	-11.5533
▁버려두	-11.5534
▁체직하여	-11.5535
▁작상	-11.5536
▁하자고	-11.5539
▁노비와	-11.5539
▁지나가는	-11.5539
▁배설	-11.5539
뿐	-11.5543
▁존숭	-11.5546
▁보전할	-11.5547
▁추문하고	-11.5547
▁생각이나	-11.5548
▁보내기	-11.5548
▁민진후가	-11.555
▁지냈는데	-11.555
▁손님	-11.555
▁하셨다	-11.555
▁있겠으며	-11.5551
▁사졸	-11.5553
▁가문	-11.5554
▁감군이	-11.5554
▁잡인	-11.5555
▁유고	-11.5555
▁움	-11.5555
▁원역	-11.5556
▁정돈	-11.5556
▁우대	-11.5557
▁졌는데	-11.5557
▁뜻이다	-11.556
▁축조	-11.5561
▁만들었는데	-11.5561
▁공적이	-11.5562
▁구할	-11.5564
▁제사는	-11.5564
▁좌기	-11.5564
▁첩보	-11.5564
▁오늘부터	-11.5565
▁조가에서	-11.5566
▁일어나게	-11.5566
상소를	-11.5566
▁이안	-11.5567
▁성공	-11.5567
▁이밖에	-11.5568
▁긴요	-11.5572
룡은	-11.5574
▁검소	-11.5574
통을	-11.5575
▁깎아	-11.5575
▁던져	-11.5575
진달한	-11.5576
▁박대	-11.5577
▁출사한	-11.5577
▁본현	-11.5577
사람	-11.5577
▁시호는	-11.5578
▁지나치다고	-11.558
▁진선	-11.558
다른	-11.5582
▁이비	-11.5582
▁주려고	-11.5583
▁후대	-11.5583
▁급하지	-11.5585
▁눈에	-11.5585
▁생사	-11.5586
▁익선관	-11.5586
흘	-11.5586
▁눈물이	-11.5587
▁이탁	-11.5587
해지는	-11.5587
▁맞이할	-11.5588
▁치도	-11.5588
▁물으면	-11.5589
▁자이니	-11.559
▁급제하여	-11.559
박사	-11.5591
▁논계하고	-11.5591
▁모른다고	-11.5592
▁보이라	-11.5592
▁탕평	-11.5592
▁하나가	-11.5593
▁오도일	-11.5594
▁대임	-11.5596
▁봉교	-11.5597
▁절목에	-11.5598
▁최규서	-11.56
▁문신을	-11.5601
▁관계됩니다	-11.5603
▁버릇이	-11.5604
▁좌목	-11.5604
소로	-11.5604
실에	-11.5605
▁불과합니다	-11.5605
도체찰사	-11.5605
▁보병	-11.5607
인이고	-11.5608
▁옷감	-11.5608
▁복종	-11.5609
▁추형	-11.561
궁의	-11.5611
▁정축년	-11.5611
▁힘입	-11.5613
사오나	-11.5614
▁묻자	-11.5617
▁감하는	-11.5618
▁재기	-11.562
마리	-11.562
▁너비	-11.5621
▁이만수	-11.5623
▁소의	-11.5624
▁빌붙어	-11.5624
▁방도는	-11.5624
▁국기	-11.5624
▁교제	-11.5625
▁천장	-11.5625
▁정인홍이	-11.5626
▁병졸	-11.5627
▁잔폐	-11.5629
▁홍문록	-11.563
▁인품이	-11.5631
▁장릉	-11.5632
심회	-11.5632
▁금석	-11.5635
▁난처	-11.5635
▁선수	-11.5635
▁창경궁	-11.5636
▁편당	-11.5636
▁취해	-11.5637
▁상언하였다	-11.5639
▁간절하고	-11.564
▁징험	-11.5642
▁아문에서	-11.5642
▁울면서	-11.5643
▁유활	-11.5643
김수	-11.5644
▁선포	-11.5646
▁소치입니다	-11.5647
주에	-11.5649
▁물력이	-11.565
▁배사	-11.565
▁평일에	-11.5651
▁인간	-11.5651
▁주장한	-11.5651
▁경모궁에	-11.5652
▁간략	-11.5653
▁의망할	-11.5653
▁담당한	-11.5653
▁신사	-11.5653
포의	-11.5653
▁시해	-11.5655
▁추격	-11.5657
▁저하께서	-11.5657
▁한확	-11.5658
▁이어받아	-11.5658
▁한둘이	-11.5659
▁말하였으나	-11.5659
▁낮고	-11.5659
▁개정하지	-11.566
▁오랑캐들	-11.5661
변이	-11.5663
▁보답할	-11.5664
▁양자	-11.5665
호남	-11.5665
▁여정	-11.5666
▁엄하고	-11.5667
▁배알	-11.5668
▁개성부에	-11.5669
▁싸워	-11.5671
▁보내어서	-11.5672
▁받아들이고	-11.5673
▁사직하였는데	-11.5675
▁탄생	-11.5676
쪽	-11.5676
▁제왕이	-11.5677
▁잡기	-11.5677
▁경덕궁	-11.5678
▁수선	-11.568
▁이상한	-11.5681
▁없어져	-11.5681
▁부족함	-11.5683
▁빛깔이	-11.5686
▁보호하는	-11.5687
▁있었	-11.5688
▁소임이	-11.5688
▁거자들	-11.5688
▁사욕	-11.5691
▁아니한다	-11.5691
▁의논하였더니	-11.5692
▁대축	-11.5693
▁공척	-11.5695
▁죄책	-11.5696
▁이발	-11.5696
▁하문하기를	-11.5697
▁편안케	-11.5697
▁최윤덕	-11.5698
곳	-11.5698
▁그치고	-11.5699
▁때리	-11.57
▁차례씩	-11.5702
하에	-11.5702
▁금천	-11.5705
▁혈	-11.5706
▁생민	-11.5708
▁연회에	-11.5709
▁모후	-11.5711
▁죄명이	-11.5713
▁돌아가니	-11.5714
▁사용하고	-11.5715
▁관작이	-11.5716
▁가자하는	-11.5717
▁곡림	-11.5717
▁인조	-11.5717
▁언론	-11.5719
▁요동에서	-11.572
▁김종수	-11.5721
▁하옥	-11.5721
▁먹어	-11.5721
▁주시고	-11.5721
▁서용하고	-11.5724
▁추고만	-11.5725
▁김육	-11.5725
▁맑은	-11.5726
▁품지하여	-11.5726
▁상해	-11.5727
▁열읍	-11.5731
▁뒤섞여	-11.5734
▁가한	-11.5735
▁걸음	-11.5735
▁공사로	-11.5735
▁정탈	-11.5737
▁논계하지	-11.5741
▁거상	-11.5741
▁종사하는	-11.5741
▁사헌부대사헌으로	-11.5743
형제	-11.5743
▁경자년	-11.5745
▁해부	-11.5745
▁못된다	-11.5747
▁제관	-11.5747
▁통지	-11.5748
필씩	-11.5751
▁이일상	-11.5751
▁바탕으로	-11.5752
▁백관과	-11.5754
▁정연	-11.5755
▁역사는	-11.5755
▁수만	-11.5756
▁금령이	-11.5756
▁가난하여	-11.5757
▁비웃	-11.5758
내에	-11.576
령의	-11.5764
이성	-11.5764
▁군정이	-11.5764
▁서용하여	-11.5767
▁아니하며	-11.5767
먼저	-11.5768
▁명과	-11.577
▁표창	-11.577
▁유보	-11.5771
▁사비	-11.5771
▁조헌	-11.5775
▁조계상	-11.5775
▁청백	-11.5775
▁것이냐	-11.5777
▁물화	-11.5779
▁울타리	-11.578
▁않겠습니다	-11.5781
▁면하고	-11.5782
▁이만성	-11.5784
개의	-11.5785
▁연줄	-11.5785
▁달갑	-11.5786
감을	-11.5788
▁듯하므로	-11.5788
▁올리자	-11.5788
▁문과에	-11.5788
▁물건들	-11.5789
▁도피	-11.579
▁절목이	-11.5791
▁추위에	-11.5791
▁자기에게	-11.5793
▁풍성	-11.5794
▁경모궁	-11.5794
▁형체	-11.5796
▁나아	-11.5797
▁노공필	-11.5799
▁의주부윤	-11.5803
▁내렸	-11.5804
▁하사하라	-11.5805
▁신사년	-11.5805
▁보려	-11.5812
▁유한	-11.5812
▁분배	-11.5812
▁입직하는	-11.5813
▁조리하고	-11.5814
정으로	-11.5814
▁전배하고	-11.5815
▁신령	-11.5819
▁있겠습니다	-11.5825
▁등용하는	-11.5827
▁현혹	-11.5828
▁석방하고	-11.5828
▁가리키는	-11.5828
▁조총	-11.5828
▁비옵건대	-11.5828
▁파괴	-11.5828
▁분묘	-11.5828
▁둘레	-11.5829
금년에	-11.5831
▁줄로	-11.5831
▁근실	-11.5832
▁자문에	-11.5838
하노라	-11.5839
편에	-11.584
▁병기	-11.5841
▁되는지	-11.5842
▁의녀	-11.5842
▁상도	-11.5842
▁풍채	-11.5843
▁만들도록	-11.5843
▁사장을	-11.5844
▁올라오라	-11.5845
▁초피	-11.5849
▁경신년	-11.5849
▁이날에	-11.5849
명나라	-11.5849
▁이목을	-11.585
▁습성	-11.5852
▁진헌하는	-11.5853
운을	-11.5856
▁엊그제	-11.5856
▁삼가서	-11.5858
▁사람이면	-11.5859
▁정원용	-11.5861
도총부	-11.5861
▁점유	-11.5861
▁형상이	-11.5862
▁속여서	-11.5863
▁소모	-11.5864
▁죄상이	-11.5866
▁박열	-11.5868
▁순종	-11.5868
▁금산	-11.5869
▁종량	-11.5869
▁친밀	-11.587
▁예조판서로	-11.5873
▁많게	-11.5874
▁밤새도록	-11.5874
▁양심합에	-11.5874
▁지닌	-11.5874
▁용납하지	-11.5874
▁올랐으니	-11.5875
▁해직	-11.5875
▁김우	-11.5875
▁있었는가	-11.5875
▁전복	-11.5875
였던	-11.5876
▁봉납	-11.5876
▁시폐	-11.5878
▁풍정	-11.588
▁유영	-11.588
▁연화문에	-11.588
▁의심하지	-11.5881
▁맡겨서	-11.5881
▁세밀	-11.5882
▁김하	-11.5883
▁개시	-11.5883
▁최진	-11.5884
▁주야	-11.5884
▁형신하여	-11.5886
부에서	-11.5886
▁지중추부사로	-11.5886
▁부정한	-11.5887
▁김상철	-11.5888
▁장부	-11.5889
▁아랫사람들이	-11.589
▁태평한	-11.5891
▁명백한	-11.5892
▁진법	-11.5893
▁연대	-11.5894
▁주전	-11.5899
▁그중에	-11.5899
▁구주	-11.5903
▁조항은	-11.5904
▁무엇으로	-11.5905
경원	-11.5906
▁윤번	-11.5907
▁체아	-11.5908
▁구원하지	-11.5911
▁문정	-11.5913
▁홍식	-11.5917
▁한데	-11.5918
▁막차에	-11.5919
▁없음이	-11.5921
▁채유후	-11.5922
▁근고에	-11.5922
▁환도	-11.5923
▁외손	-11.5923
▁모살	-11.5925
▁가다가	-11.5925
▁곁에서	-11.5925
▁엿보아	-11.5926
하더니	-11.5927
▁음흉하고	-11.5929
▁채우고	-11.5929
▁주악	-11.5929
▁성토	-11.593
▁미세	-11.5931
된다	-11.5931
▁대처	-11.5931
▁탕	-11.5934
▁환시	-11.5934
▁전할	-11.5934
▁일이어서	-11.5935
▁체득하여	-11.5935
▁심상규	-11.5935
▁소소	-11.5936
▁학식이	-11.5939
▁이하와	-11.594
▁전보	-11.5941
▁대제학으로	-11.5942
▁군영	-11.5942
▁야대	-11.5943
중은	-11.5943
▁서운	-11.5944
▁추후	-11.5946
▁봉화	-11.5946
▁없으면서	-11.5947
▁의심하는	-11.5948
▁말까지	-11.5949
▁복시	-11.5949
▁아내와	-11.595
▁파서	-11.5953
▁개조	-11.5953
갑산	-11.5953
▁이연	-11.5953
▁한성부에	-11.5956
▁성효	-11.5957
▁불편한	-11.5959
▁하나로	-11.596
▁최명길이	-11.5963
▁남이성	-11.5964
▁파직시키는	-11.5965
▁오시수	-11.5965
▁진성	-11.5967
낱	-11.5968
▁제복	-11.5969
▁이루어지지	-11.5969
▁까닭인가	-11.5969
▁하정	-11.5971
▁중궁이	-11.5972
▁난처한	-11.5972
▁가끔	-11.5972
▁사사로	-11.5974
▁녹공	-11.5974
호의	-11.5975
▁인원수	-11.5975
▁강연	-11.5976
▁천변	-11.5976
▁조문명	-11.5976
▁친한	-11.5977
왕은	-11.5978
▁옮겨다	-11.5978
▁추천한	-11.5979
▁조연	-11.5979
▁정지하라고	-11.598
▁돼지	-11.5982
▁지영하였다	-11.5982
▁이명식	-11.5983
▁좌천	-11.5985
▁무상한	-11.5986
유의	-11.5989
룡을	-11.5991
▁박신	-11.5992
▁수재가	-11.5992
▁도절제사에게	-11.5994
▁갑절이	-11.5995
▁반포하는	-11.5996
▁고요	-11.5997
▁염초	-11.5997
▁허후	-11.5999
▁불가함	-11.6
별좌	-11.6
▁값으로	-11.6001
▁전곡	-11.6002
병조판서	-11.6002
▁힘쓰라	-11.6003
▁교대시	-11.6004
▁께서	-11.6005
▁장군	-11.6006
▁조상우	-11.6006
▁저들은	-11.6007
▁권남	-11.6008
▁정무	-11.6008
▁잡역	-11.6008
▁비치	-11.6009
▁노야	-11.601
▁다스리라	-11.6011
빈을	-11.6013
▁쌀이	-11.6013
▁절조	-11.6014
▁윤회	-11.6015
▁봄이	-11.6015
▁찾지	-11.6016
▁여기서	-11.6017
▁지당하십니다	-11.6017
▁월봉	-11.6017
▁섬돌	-11.6017
▁때문일	-11.6019
▁표시	-11.6019
▁근친	-11.6019
▁심상	-11.6022
▁내렸습니다	-11.6022
▁왜란	-11.6023
▁좋게	-11.6025
▁정분	-11.6027
▁비평	-11.6028
▁대군을	-11.6029
▁국정	-11.6029
시키	-11.6029
▁머무는	-11.6029
▁경건	-11.6031
▁한산	-11.6034
▁유생에게	-11.6037
▁가두게	-11.6038
▁바꾸지	-11.604
▁명으로	-11.6041
▁본사에서	-11.6042
▁혼전	-11.6042
▁범인	-11.6045
▁이복	-11.6045
▁예입니다	-11.6045
인에	-11.6046
▁관의	-11.6046
▁비난이	-11.6049
▁유신이	-11.6049
▁분명하다	-11.6052
▁상기	-11.6052
▁변화	-11.6053
▁이홍주	-11.6053
▁없었	-11.6055
▁강물	-11.6055
▁추문한	-11.6055
▁태만하여	-11.6058
▁홍우	-11.6059
▁표리를	-11.606
▁이응	-11.6061
▁이롭게	-11.6064
▁자질구레한	-11.6064
▁거절하고	-11.6064
▁올립니다	-11.6065
▁조급	-11.6065
▁이르렀으므로	-11.6065
▁깨우쳐	-11.6066
▁교동	-11.6066
▁내리시니	-11.6066
▁헌원성	-11.6067
▁서정	-11.6068
▁사은하는	-11.6068
▁정홍순	-11.6069
▁즐거워	-11.6072
▁양천	-11.6072
▁시에	-11.6072
▁연산	-11.6073
▁한심한	-11.6074
▁궁관	-11.6074
▁김식	-11.6077
▁긴급	-11.6077
▁모방하여	-11.6078
▁과인	-11.608
▁왕씨	-11.6084
▁웃	-11.6085
▁손방으로	-11.6086
▁신하로	-11.6087
▁관할	-11.6088
▁이익상	-11.6088
▁답하였는데	-11.6089
▁군인을	-11.609
▁관청에서	-11.6091
▁정승에게	-11.6091
▁종친들	-11.6092
▁천문	-11.6094
▁같기에	-11.6095
빈이	-11.6095
▁조처하라	-11.6096
▁계달하라	-11.6096
▁죄인은	-11.6098
해부로	-11.6098
배를	-11.6099
▁들여보내는	-11.61
▁피살	-11.6101
▁설을	-11.6103
▁몽	-11.6103
▁흥정당에	-11.6105
▁들에	-11.6108
▁간원에	-11.611
▁눌러	-11.6112
▁전하기를	-11.6112
▁리에	-11.6113
일전에	-11.6113
뜻	-11.6113
▁흘리며	-11.6114
▁어디에서	-11.6114
▁재간이	-11.6116
▁똑같은	-11.6117
▁징토	-11.6118
▁월산대군	-11.6119
▁완급	-11.6119
▁간통하여	-11.612
▁내년에	-11.6121
이종	-11.6121
▁도중에	-11.6121
▁원점	-11.6121
▁일삼	-11.6122
▁베는	-11.6122
치고	-11.6124
▁남양	-11.6125
▁서명응	-11.6125
▁왕래하며	-11.6125
▁어지러	-11.6125
▁선릉	-11.6125
▁해석	-11.6126
▁오래되었으니	-11.6127
▁조상경	-11.6128
▁경동	-11.6128
▁나아가는	-11.6128
▁제용감	-11.6128
▁물리치는	-11.6129
▁제조와	-11.613
▁공술	-11.613
▁최석정	-11.6133
▁본받지	-11.6134
▁물품은	-11.6134
▁총병	-11.6134
승정원	-11.6134
▁장가들	-11.6135
논	-11.6135
▁베풀지	-11.6136
▁흉도	-11.6138
구는	-11.6138
▁장수들	-11.6139
▁자격	-11.614
▁한가한	-11.614
▁들었기	-11.6141
▁경창	-11.6141
▁거두어서	-11.6142
▁품의	-11.6142
열이	-11.6143
▁소장에	-11.6143
▁정씨	-11.6144
따를	-11.6145
▁보내면서	-11.6149
▁정적이	-11.6149
▁동료들에게	-11.615
▁내려진	-11.6151
▁엄폐	-11.6153
렸습니다	-11.6154
적의	-11.6154
▁전번	-11.6155
▁땅으로	-11.6155
▁병영	-11.6156
▁조리하여	-11.6156
▁소리로	-11.6161
옥이	-11.6162
▁근심하여	-11.6162
▁번거로운	-11.6162
▁되었던	-11.6162
절을	-11.6163
▁권정례로	-11.6163
▁삼았	-11.6165
▁김흥경	-11.6165
▁마찬가지	-11.6165
▁일시적	-11.6166
▁기탄없	-11.6166
▁정숙	-11.6167
▁휴척	-11.6167
▁심하지	-11.6169
▁안되니	-11.617
▁어기지	-11.6172
▁본영	-11.6175
▁백정	-11.6176
▁판단	-11.6177
▁기록하는	-11.6178
▁못하자	-11.618
▁춘궁	-11.6182
▁불렀다	-11.6182
▁공조판서로	-11.6182
▁자원	-11.6183
▁각읍	-11.6184
▁조위	-11.6185
▁동료와	-11.6185
목이	-11.6185
▁이름만	-11.6186
▁피곤	-11.6186
▁이언적	-11.6187
▁운운	-11.6187
▁복병	-11.6188
▁방자하고	-11.6191
▁각사에서	-11.6191
▁조사의	-11.6192
▁대변	-11.6193
▁부관	-11.6193
▁생계	-11.6193
▁임금도	-11.6193
강계	-11.6194
▁걱정하여	-11.6195
▁마찬가지로	-11.6195
▁당부	-11.6196
▁아랫사람이	-11.6197
▁농사일	-11.6198
▁애통	-11.6199
▁금주	-11.6201
▁사인이	-11.6202
▁윤리	-11.6202
판서	-11.6202
▁순금사에	-11.6203
▁배소로	-11.6203
▁역변	-11.6204
▁문무과	-11.6205
▁도주가	-11.6206
▁사핵	-11.6207
하였기에	-11.6208
▁변에	-11.6209
▁은연중	-11.6209
▁가까우니	-11.6209
▁함길도도절제사	-11.621
▁축출	-11.621
▁내려온	-11.621
김경	-11.6211
▁처해야	-11.6213
▁화의	-11.6214
▁착실하게	-11.6215
▁급료	-11.6215
▁도구	-11.6216
▁경보	-11.6216
▁부락	-11.6217
▁민가가	-11.622
▁당했으니	-11.622
▁귀양간	-11.6221
▁이조참판	-11.6224
인에게는	-11.6225
▁은미	-11.6226
▁등서	-11.6228
▁호령이	-11.623
▁상등	-11.6231
▁순시	-11.6232
직이	-11.6232
▁예도	-11.6232
▁회시에	-11.6233
▁소굴	-11.6233
▁여연	-11.6233
▁권간	-11.6236
▁허욱	-11.6237
▁요리	-11.6237
▁습속	-11.6238
▁영문	-11.6241
좋다	-11.6242
▁유망	-11.6242
▁해로움이	-11.6242
옳다	-11.6244
▁군포	-11.6244
▁전라도관찰사	-11.6244
▁허술한	-11.6246
나무를	-11.6247
▁간흉	-11.6247
▁김재	-11.6247
▁처자는	-11.6249
개와	-11.6251
미가	-11.6251
보와	-11.6251
우선	-11.6253
▁유인	-11.6254
▁일가	-11.6255
금은	-11.6256
▁과녁	-11.6258
▁규장각	-11.6258
▁총괄	-11.6258
▁김명원	-11.6262
▁지우	-11.6262
▁두고서	-11.6264
▁나오면	-11.6265
▁대응	-11.6266
▁장만이	-11.6266
▁때면	-11.6266
시면	-11.6267
상으로	-11.6268
▁급무	-11.6273
그대들	-11.6273
▁못하였으며	-11.6275
▁참상	-11.6275
릉의	-11.6277
▁받으면	-11.6278
했	-11.6279
▁기망	-11.6281
▁회양	-11.6282
▁하등	-11.6282
▁몸가짐	-11.6283
▁처소	-11.6283
희가	-11.6284
▁투	-11.6284
▁끝나	-11.6284
▁천거하는	-11.6287
▁귀가	-11.6287
▁각진	-11.6289
▁호조와	-11.6289
▁희롱	-11.6292
▁친림	-11.6293
로서는	-11.6294
▁예측	-11.6295
▁걸어서	-11.6296
▁계책에	-11.6298
▁거처하는	-11.6298
▁강현	-11.6298
▁외관	-11.6299
혐	-11.6303
▁최기	-11.6304
▁다스림	-11.6304
▁평민	-11.6305
▁체면이	-11.6306
▁나가고	-11.6307
▁들었다고	-11.6307
▁오준	-11.6308
▁문권	-11.6309
▁강진	-11.6309
▁잡아들이	-11.6312
▁화란	-11.6312
▁박홍구	-11.6312
사직하지	-11.6313
▁장수들이	-11.6314
▁발생한	-11.6314
▁시좌	-11.6314
▁영녕전	-11.6315
▁신만이	-11.6315
▁바리	-11.6316
▁우거	-11.6316
▁현관	-11.6317
실록	-11.6317
▁인쇄	-11.6319
▁되었기	-11.632
▁논집하지	-11.632
▁유경종	-11.632
▁물망	-11.6322
▁유식	-11.6322
졌	-11.6324
▁기록해	-11.6325
▁조처해야	-11.6329
▁하사하는	-11.6329
▁피혐하여	-11.6331
▁나왔고	-11.6331
▁남편이	-11.6332
▁어긋나지	-11.6332
▁값	-11.6332
▁형방	-11.6332
▁이른다	-11.6336
위에서	-11.6337
▁탄식이	-11.6338
▁이병상	-11.6339
▁이명덕	-11.6339
▁손상되	-11.634
▁동성	-11.634
하였겠는가	-11.634
▁시일이	-11.6341
시키려	-11.6341
▁홍섬	-11.6341
▁몰려	-11.6342
성준	-11.6346
▁전답	-11.6348
▁항식	-11.6349
▁유상	-11.6349
▁강에	-11.6349
▁면세	-11.635
▁민전	-11.635
▁상황에서	-11.6351
▁계품하여	-11.6352
▁떨	-11.6355
▁숙종	-11.6356
▁못하였을	-11.6356
▁행궁에	-11.6356
▁홍진	-11.6357
▁헐뜯고	-11.6358
▁놀랍게	-11.6359
▁포구	-11.6362
▁서명선	-11.6363
▁황태자	-11.6364
▁두었는데	-11.6364
▁지켜야	-11.6366
도감이	-11.6366
▁공갈	-11.6368
▁규정에	-11.6368
상교	-11.6368
▁세종께서	-11.6369
▁정준	-11.6369
▁석이	-11.6369
▁감응	-11.637
▁살펴야	-11.6374
▁기풍	-11.6374
▁직제학으로	-11.6375
▁억	-11.6375
일간	-11.6376
▁정광성	-11.6378
▁부인이	-11.6379
▁어전	-11.6381
▁극형에	-11.6381
▁장지	-11.6382
▁관련	-11.6382
▁방지	-11.6383
▁추문해야	-11.6384
▁공법	-11.6385
쳤다	-11.6388
▁심지원	-11.6389
▁쥐	-11.6389
▁병은	-11.639
▁고집하지	-11.6392
▁배정하여	-11.6392
▁분발	-11.6393
▁득실	-11.6395
▁배표	-11.6397
▁정유년	-11.6399
▁건방	-11.6399
▁보복	-11.6399
▁준엄한	-11.6399
▁이천보가	-11.64
▁접견하는	-11.64
▁불가함이	-11.6401
▁추열	-11.6402
▁씨	-11.6404
▁김보	-11.6408
▁불안한	-11.6408
▁들었으므로	-11.641
▁깨끗	-11.6414
▁이일	-11.6415
▁정기	-11.6415
▁원손	-11.6415
▁을해년	-11.6417
▁돌리지	-11.6417
▁체척	-11.6418
▁대구	-11.6419
▁압사	-11.642
▁정배한	-11.642
▁특	-11.642
▁텐데	-11.6421
▁박동량	-11.6423
흑	-11.6423
▁함문	-11.6424
▁종친이	-11.6425
▁시행함	-11.6426
▁운수	-11.6426
▁당해서	-11.6426
▁계시는	-11.6427
▁오정위	-11.6428
▁급선무	-11.6428
▁장무	-11.6429
▁선현	-11.643
▁문관으로	-11.6431
▁상실	-11.6431
▁정희	-11.6434
▁건강	-11.6437
▁통촉	-11.6442
▁이철	-11.6446
▁기뻐하고	-11.6448
▁사약	-11.6449
▁역군	-11.6449
시종	-11.6451
▁성준이	-11.6454
▁늦은	-11.6455
▁염려할	-11.6455
▁진장	-11.6456
▁위문	-11.6457
행을	-11.6458
▁국구	-11.6458
▁청리	-11.6458
▁윤계겸	-11.6459
▁날은	-11.6459
▁닦는	-11.646
▁바탕	-11.6461
▁강명	-11.6461
▁당파	-11.6462
▁등급	-11.6463
▁정예	-11.6463
▁남쪽에	-11.6463
무관	-11.6465
▁시조	-11.6469
▁안변	-11.6471
▁칭탁하여	-11.6472
▁적병이	-11.6474
버렸다	-11.6475
▁은근	-11.6475
무는	-11.6479
등에	-11.648
▁품어	-11.6481
▁거둥하였다	-11.6482
▁거동	-11.6483
침이	-11.6483
▁허항	-11.6483
▁서간	-11.6485
▁그쳤다	-11.6486
▁김자점	-11.6486
이현	-11.6486
▁안현	-11.6486
법에	-11.6486
▁문인	-11.6487
▁아님이	-11.6487
세자의	-11.6487
▁가량	-11.6489
▁빈청	-11.6489
▁타위	-11.6489
▁운반하여	-11.6491
우의	-11.6492
▁며칠이	-11.6493
▁호초	-11.6494
▁음악	-11.6494
▁백사	-11.6495
▁치게	-11.6495
▁주에	-11.6496
▁일본에	-11.6497
▁지목하여	-11.6498
▁사관에게	-11.6499
▁대내전	-11.65
▁잊을	-11.6501
▁관사로	-11.6504
▁말았다	-11.6505
▁지정	-11.6506
▁옥책	-11.6506
▁엄밀	-11.6507
▁찬수	-11.6507
▁구애	-11.6508
▁모르겠는가	-11.6509
▁큰소리	-11.6509
홍이	-11.651
▁감축	-11.651
▁결단하지	-11.651
▁항목	-11.6513
▁명호	-11.6514
▁사단이	-11.6514
민의	-11.6515
▁머뭇거리	-11.6516
▁성비	-11.6517
▁죽으면	-11.6518
▁김종	-11.6519
▁물고	-11.6519
▁선임	-11.6519
▁지난달	-11.652
▁배반	-11.652
▁제거하는	-11.6521
▁하유하였으니	-11.6521
▁규례입니다	-11.6521
과거	-11.6522
▁대여	-11.6523
▁명부	-11.6524
▁처의	-11.6524
▁덕은	-11.6525
▁이옥	-11.6527
▁윤선도	-11.6527
▁남보다	-11.6528
▁염려한	-11.6528
▁들었고	-11.6529
▁대신들은	-11.6531
차례	-11.6532
▁생각해서	-11.6533
▁주문사	-11.6533
▁자손에게	-11.6535
▁겉	-11.6535
▁시중	-11.6535
▁윤급	-11.6537
▁위독	-11.6539
▁채단	-11.6539
▁사국	-11.6542
▁화성	-11.6542
▁자까지	-11.6543
사천	-11.6544
▁고변한	-11.6544
▁구제해	-11.6545
▁중신이	-11.6546
▁환수하기	-11.6546
▁하사하여	-11.6547
밤에	-11.6547
▁함에	-11.6547
▁동래부사	-11.655
▁넘어서	-11.6553
▁생포	-11.6554
▁싸움에	-11.6555
였으므로	-11.6556
▁치른	-11.6556
▁같았으니	-11.6557
▁다른데	-11.6557
▁정립	-11.6557
▁아득	-11.6558
참봉	-11.6559
▁징수하여	-11.656
▁강학	-11.6561
▁지나치지	-11.6561
오지	-11.6563
▁박지	-11.6563
▁구제하지	-11.6564
▁파주	-11.6564
왜인	-11.6564
▁중건	-11.6564
▁조식	-11.6564
이라서	-11.6566
▁부족하니	-11.6566
▁간방	-11.6568
▁납시어	-11.6568
▁36	-11.6568
▁있지마는	-11.6569
유수	-11.6571
▁갖추어서	-11.6572
▁박영	-11.6579
▁미움	-11.6581
▁초시에	-11.6581
▁되겠다	-11.6581
▁태형	-11.6582
▁책망할	-11.6582
▁노한	-11.6582
▁당여	-11.6582
▁실수한	-11.6582
하였겠습니까	-11.6582
▁머무르고	-11.6586
▁실례	-11.6586
▁내리자	-11.6587
▁출사할	-11.6587
▁계획이	-11.6587
▁공역이	-11.6588
▁모의한	-11.6588
▁호위하는	-11.659
▁아뢰어야	-11.659
▁재상에게	-11.6591
현으로	-11.6591
▁부고	-11.6592
▁당상에게	-11.6592
▁상선	-11.6594
상소	-11.6595
음으로써	-11.6595
▁파하여	-11.6596
▁직질	-11.6596
▁논하면서	-11.6597
▁충훈부	-11.6597
▁주인에게	-11.6599
▁사용한	-11.6599
▁대마도에	-11.6601
▁상당한	-11.6603
▁근수	-11.6605
▁정사룡	-11.6605
▁마련하지	-11.6606
유지	-11.6607
▁낭청으로	-11.6608
▁않음으로써	-11.6609
▁못했으므로	-11.6609
▁지중추원사	-11.6611
▁줄기	-11.6612
▁개국	-11.6615
▁능력	-11.6615
▁종성직	-11.6616
▁강원도의	-11.6617
본을	-11.6618
▁돕게	-11.6618
▁명령에	-11.6619
▁아내는	-11.662
▁가감	-11.6621
▁황정	-11.6623
▁대론이	-11.6623
▁조원	-11.6624
▁주장이	-11.6624
받았다	-11.6624
▁홍숙	-11.6625
▁명정전에	-11.6626
▁시키고	-11.6626
려면	-11.6627
▁자리는	-11.6627
▁우상이	-11.6628
▁이대로	-11.6628
▁머물려	-11.663
하였더라도	-11.663
▁문구	-11.663
▁효험이	-11.6631
이제부터	-11.6631
▁조심하지	-11.6631
▁기울	-11.6633
▁정윤	-11.6633
형의	-11.6634
철이	-11.6634
▁잘못되었다	-11.6636
▁해송	-11.6636
▁관원으로서	-11.6637
▁상황에	-11.6639
▁생활이	-11.6639
철을	-11.6641
▁과차	-11.6644
령은	-11.6645
▁합계한	-11.6648
▁승정원으로	-11.6648
▁때이니	-11.6649
▁조사하고	-11.665
▁습의	-11.6651
▁윤봉	-11.6651
조사	-11.6652
▁성수	-11.6654
선왕	-11.6657
▁그렇기	-11.6657
▁조원기	-11.6657
▁만났으니	-11.6658
▁때나	-11.6658
▁속한	-11.666
▁차하	-11.666
▁김상복	-11.6661
쇄	-11.6662
▁인명을	-11.6662
▁현부	-11.6662
▁이상으로	-11.6662
▁항거	-11.6663
▁큰비	-11.6663
▁품달	-11.6665
▁줄일	-11.6667
▁만한데	-11.6667
▁거두시고	-11.6668
▁진달하는	-11.667
내의	-11.6671
▁출입하면서	-11.6672
▁윤선	-11.6675
텐데	-11.6677
▁입계하였다	-11.6677
▁김종직	-11.6678
▁문서는	-11.6678
▁부사정	-11.6682
▁영락	-11.6683
▁유홍	-11.6684
▁유철	-11.6685
▁법률에	-11.6685
▁충청도에	-11.6688
▁송창	-11.6691
▁희망	-11.6691
▁습관이	-11.6691
▁손해	-11.6692
동부승지	-11.6692
▁넘쳐	-11.6693
▁궁궐에	-11.6697
▁남는	-11.6697
▁비상	-11.6698
▁꿈	-11.67
▁도달	-11.67
▁없어지고	-11.6701
▁상국	-11.6702
▁인부	-11.6704
▁지었는데	-11.6706
▁기쁘다	-11.6708
▁짐바리	-11.6708
▁시끄러운	-11.6708
▁있겠으나	-11.6709
▁수리하지	-11.6709
▁당론	-11.6709
▁가닥	-11.671
▁보였는데	-11.6713
지금은	-11.6714
▁숨김	-11.6715
▁청홍도	-11.6716
▁설행하여	-11.6717
옛	-11.6721
▁박치의	-11.6721
▁신칙하고	-11.6721
▁선성	-11.6721
▁나오니	-11.6722
▁정대	-11.6722
▁유신에게	-11.6722
▁이징	-11.6723
▁배제	-11.6724
▁승려	-11.6724
▁후사가	-11.6724
▁석상에서	-11.6725
▁숭정	-11.6725
▁잡아오	-11.6726
▁봉군	-11.6727
▁서연관	-11.6728
▁접반관	-11.6729
절목	-11.6733
▁갖	-11.6734
▁김덕	-11.6734
▁단속하여	-11.6736
▁사려	-11.6736
▁자세	-11.6737
▁전별	-11.6737
▁말아	-11.6737
▁지성	-11.6737
▁신포	-11.6738
▁청하였기	-11.6739
▁임해군	-11.6741
▁서게	-11.6741
▁등대	-11.6741
▁해치고	-11.6742
폭	-11.6743
▁32	-11.6743
비변사	-11.6744
▁유익	-11.6745
▁조익	-11.6747
▁준직	-11.6747
▁민암	-11.6747
▁발언	-11.6748
▁소용	-11.675
▁박숭질	-11.6752
▁환급	-11.6752
▁경력이	-11.6753
▁극성	-11.6755
▁조장	-11.6755
▁꾸지람	-11.6759
▁쌓게	-11.6759
▁흉측한	-11.6759
▁조목조목	-11.6759
뿐이다	-11.676
▁어지러운	-11.676
구와	-11.6761
▁폐하지	-11.6762
▁관계됨이	-11.6762
었는가	-11.6762
▁징조가	-11.6762
▁급재	-11.6764
▁정배하고	-11.6764
▁영의정으로	-11.6765
▁지키면서	-11.6765
▁왔다가	-11.6765
▁구하기	-11.6765
▁계해년	-11.6767
이광	-11.6767
▁한광회	-11.6768
▁초수	-11.6769
▁그렇다	-11.677
▁소와	-11.6771
▁구제하고	-11.6772
▁싫어하는	-11.6774
▁물고기	-11.6774
복의	-11.6776
▁형편없는	-11.6776
▁맡	-11.6777
▁비국으로	-11.6777
▁완결	-11.6778
▁잡물	-11.6778
▁사알	-11.6779
▁가볍고	-11.6779
▁조섭하는	-11.6781
▁흉악	-11.6782
명인데	-11.6783
▁부과	-11.6783
▁비답에서	-11.6785
▁올리기	-11.6786
▁편찬	-11.6791
▁논계할	-11.6792
▁보내되	-11.6792
▁즉	-11.6793
너희들이	-11.6793
▁호차	-11.6794
▁결정하지	-11.6795
▁안쪽	-11.6795
▁귀한	-11.6796
▁연례	-11.6801
갔습니다	-11.6804
청이	-11.6804
▁더하는	-11.6804
▁침구	-11.6806
▁실직	-11.6807
▁차출하는	-11.6809
▁즐거움	-11.6811
▁익히지	-11.6811
▁사로잡혀	-11.6811
▁이혼	-11.6812
▁아전이	-11.6812
▁놀라워	-11.6814
길은	-11.6815
▁목성	-11.6815
▁윤심	-11.6815
▁정현조	-11.6816
▁노예	-11.6817
▁효령대군	-11.6819
▁토지를	-11.682
▁부분	-11.6821
관으로서	-11.6823
▁작미	-11.6823
▁나타내	-11.6825
▁오르고	-11.6825
▁가리어	-11.6826
흉	-11.6829
▁입구	-11.6831
▁아니하였고	-11.6833
▁의뢰	-11.6835
▁가도	-11.6836
▁본심	-11.6836
▁아부하여	-11.6837
▁호오	-11.6838
졌고	-11.684
▁그저께	-11.6841
▁대교로	-11.6842
▁헤아리고	-11.6845
▁알리고	-11.6846
▁장옥	-11.6847
▁풍수	-11.6851
▁인군이	-11.6852
받는	-11.6852
▁진나라	-11.6852
▁깨	-11.6853
립이	-11.6855
지휘	-11.6856
▁비답하고	-11.6856
▁해괴하고	-11.6857
▁인정이	-11.6857
▁졸한	-11.6857
▁지킨	-11.6858
▁열람	-11.6859
▁현신	-11.6861
▁짧은	-11.6862
▁나아갔는데	-11.6864
▁안부	-11.6865
▁다르	-11.6867
▁바람과	-11.6868
▁중로에서	-11.6868
▁체직시켰다	-11.687
본부	-11.6871
▁대각에서	-11.6872
▁비웃음	-11.6873
▁강변에	-11.6873
▁사오	-11.6874
▁한익모	-11.6878
▁홀	-11.6878
▁증여	-11.6878
▁당상관에	-11.688
▁노직	-11.6881
▁승복한	-11.6881
▁정치에	-11.6881
▁친시	-11.6881
▁추문하소서	-11.6882
▁아님	-11.6882
주와	-11.6883
▁석물	-11.6885
▁도총제	-11.6887
▁황해도에	-11.6889
▁책봉하는	-11.6889
▁심하고	-11.689
옛날에	-11.6898
▁반은	-11.6898
▁전적	-11.6898
내금위	-11.69
한치형	-11.6901
▁성숙	-11.6901
홍윤성	-11.6902
▁매질	-11.6903
▁거둥하는	-11.6903
▁포의	-11.6903
▁문안하는	-11.6903
▁뭇사람들	-11.6904
▁의주로	-11.6905
▁신하들과	-11.6905
▁곤방	-11.6905
▁토죄하는	-11.6906
▁지급해	-11.6906
▁방자하여	-11.6906
▁번거로	-11.6906
▁계목	-11.6907
▁군졸이	-11.6907
▁떠돌	-11.6909
▁유혁연	-11.691
▁기색	-11.6911
▁돌보는	-11.6911
▁사모하는	-11.6912
▁되는가	-11.6912
▁올라가서	-11.6912
▁중추원부사	-11.6912
▁다르겠는가	-11.6916
▁관망	-11.6916
▁이찬	-11.6917
▁실형	-11.6917
▁관가에서	-11.692
▁장부에	-11.6921
무사	-11.6921
▁족하	-11.6922
▁이천보	-11.6922
▁양반	-11.6922
▁숭상하여	-11.6924
▁탐지	-11.6925
▁근만	-11.6925
▁당을	-11.6927
▁전좌	-11.6927
▁내주	-11.6927
▁않으셨	-11.6931
▁과부	-11.6931
▁좌윤	-11.6931
묘에	-11.6934
승을	-11.6934
▁선조께서	-11.6935
봄	-11.6935
▁임영대군	-11.6936
▁매부	-11.6937
▁폐하여	-11.6938
▁억측	-11.6938
▁시학	-11.6938
▁정탁	-11.694
서원	-11.6941
▁이위경	-11.6942
▁김대래	-11.6943
▁의논하기	-11.6944
▁경전	-11.6945
▁조보	-11.6945
▁진술한	-11.6946
▁빙고	-11.6949
탐	-11.6949
하였도다	-11.6949
▁시가	-11.695
▁생도	-11.6951
▁철원	-11.6951
▁곳이므로	-11.6952
밭	-11.6952
▁구워	-11.6954
▁이승손	-11.6954
▁배양	-11.6956
▁논계하기를	-11.6956
정문형	-11.6957
▁한성부로	-11.6959
▁문신으로	-11.6959
▁지급하라	-11.696
▁아룀에	-11.696
▁궤장	-11.6961
▁모르겠습니다만	-11.6961
▁통달	-11.6962
▁결단할	-11.6963
▁갑자년	-11.6965
▁예종	-11.6967
▁괴롭게	-11.6967
▁빠른	-11.6967
▁도타이	-11.6967
▁다니면서	-11.6968
▁성궁	-11.6968
▁최연	-11.6969
▁추후에	-11.6969
▁소용되는	-11.697
▁평안도절도사	-11.697
▁전가사변	-11.697
▁늙은이	-11.6971
▁지극합니다	-11.6972
▁확정	-11.6972
색이	-11.6972
▁피하기	-11.6973
▁예절에	-11.6974
▁구처	-11.6974
말이	-11.6975
▁대령	-11.6975
주사	-11.6977
▁폐주	-11.6978
▁유성룡이	-11.6978
▁끊임없	-11.6978
▁제수받	-11.6982
▁입었는데	-11.6986
▁손실	-11.6986
▁이계전	-11.6986
▁지방이	-11.6987
▁따르기를	-11.6987
▁마음씀이	-11.6987
명씩	-11.6988
▁대거	-11.6989
▁고르	-11.699
▁정직한	-11.6991
▁기찰	-11.6991
▁나날	-11.6992
▁형조와	-11.6993
▁불복	-11.6995
▁육전에	-11.6996
▁군인들	-11.6996
▁감영에	-11.6997
▁읍성	-11.6998
▁남용	-11.6998
▁은혜와	-11.6999
▁동전	-11.6999
▁철산	-11.7
솔	-11.7002
▁최석항	-11.7003
▁모화관	-11.7004
▁전송하였다	-11.7007
▁주워	-11.7007
였으며	-11.7008
▁내어서	-11.701
월이	-11.701
▁구신	-11.7011
▁따	-11.7012
규는	-11.7013
▁병권	-11.7014
▁처리하고	-11.7014
▁진주사	-11.7014
▁어리	-11.7018
▁가깝지	-11.702
▁순조롭	-11.702
▁허위로	-11.702
▁출신한	-11.702
▁고시	-11.7023
▁피난	-11.7024
▁청했다	-11.7025
▁할아버지	-11.7025
▁답변	-11.7026
▁그전에	-11.7026
▁점에	-11.7026
▁한효순	-11.7027
▁홍서봉	-11.7027
▁최수	-11.7027
▁정군	-11.7027
▁바라니	-11.7028
▁의물	-11.7029
▁불행	-11.7029
▁적중	-11.703
▁드릴	-11.7031
▁원두표	-11.7032
▁수록	-11.7032
▁중수	-11.7032
동과	-11.7032
▁안다고	-11.7033
▁제례	-11.7033
▁원상에게	-11.7035
▁조모	-11.7036
▁험한	-11.7037
▁중추원	-11.704
▁자손은	-11.7043
▁올리면서	-11.7043
▁혼조	-11.7044
▁한계미	-11.7045
▁패망	-11.7045
▁드러나는	-11.7046
▁정서	-11.7046
▁하순	-11.7048
▁보우	-11.705
▁몰	-11.705
▁군졸들	-11.7051
▁임박	-11.7053
▁바꾸고	-11.7055
▁보좌	-11.7056
▁처치하라	-11.7057
▁삭탈하여	-11.706
▁백세	-11.7061
▁초시를	-11.7062
▁신계	-11.7066
▁안윤덕	-11.7066
▁해방	-11.7066
▁해당하고	-11.7067
▁번독	-11.7068
▁묘에	-11.7069
▁계제	-11.7069
사람이	-11.707
▁윤사흔	-11.707
▁두터운	-11.7072
▁구선복	-11.7072
▁첫번째	-11.7073
으로서는	-11.7073
▁많으며	-11.7073
▁없겠으나	-11.7073
▁등처에	-11.7073
▁김응서	-11.7074
▁무방합니다	-11.7074
▁옛것	-11.7075
굉	-11.7075
▁밀양	-11.7076
▁조각	-11.7076
되어야	-11.7078
▁엄명	-11.7078
▁말하자면	-11.7078
▁병들게	-11.708
▁강습	-11.7083
▁있겠다	-11.7084
▁중하고	-11.7087
▁"2	-11.7088
▁정하였는데	-11.7088
▁정처	-11.7089
포만호	-11.709
▁요량하여	-11.7091
▁조치할	-11.7092
삼공	-11.7095
▁들어갔다가	-11.7097
▁일월	-11.7097
▁홍치중	-11.7098
▁잘라	-11.7098
▁김극성	-11.7099
우후	-11.7099
수찬	-11.7099
▁법령이	-11.7101
▁의논해야	-11.7101
▁시키는	-11.7102
▁고령군	-11.7102
▁문이	-11.7103
▁유리	-11.7104
▁부녀자	-11.7106
▁유방	-11.7107
▁번성	-11.7107
▁잇	-11.7112
▁않았겠습니까	-11.7116
▁죄상은	-11.7116
▁근신하지	-11.7116
▁모친	-11.7118
▁병환	-11.7118
▁제어	-11.7119
▁주군	-11.712
▁격렬	-11.712
설을	-11.7121
해야만	-11.7122
으라	-11.7124
▁안치하고	-11.7124
▁태종이	-11.7125
▁꾀하는	-11.7126
▁빠뜨린	-11.7126
▁갑술년	-11.7126
▁건널	-11.7126
▁아뢰겠습니다	-11.7126
▁막힌	-11.7127
▁의율	-11.7127
▁신회	-11.7127
부령	-11.7128
▁고쳤다	-11.7128
▁중들이	-11.713
▁따름이다	-11.7133
▁인용	-11.7134
▁개장	-11.7137
▁박종우	-11.7137
▁풍해도	-11.7138
해는	-11.7138
▁자인	-11.714
승이	-11.7141
▁끝없는	-11.7142
▁조선에	-11.7142
▁공신이	-11.7142
▁유상운	-11.7143
▁민생들	-11.7143
▁이합	-11.7143
▁망극	-11.7148
▁극변에	-11.7149
▁구하지	-11.7149
▁첨지중추원사로	-11.7149
▁관해	-11.715
▁습속이	-11.7152
▁주상이	-11.7152
▁신승선	-11.7154
▁장례원	-11.7154
끔	-11.7155
▁편한	-11.7155
하랴	-11.7156
▁이화	-11.7156
▁의아	-11.7156
▁품의하여	-11.7157
▁이어받	-11.7157
▁되지만	-11.7159
▁하겠으니	-11.716
▁개정하여	-11.716
▁이민적	-11.7161
사옵니다	-11.7161
▁잃을	-11.7161
▁수응	-11.7162
▁될지	-11.7163
▁역리	-11.7163
▁조발하여	-11.7164
▁뿐이었다	-11.7165
쌍	-11.7165
▁대적	-11.7165
▁받았기	-11.7167
버릴	-11.7168
▁논박하여	-11.7168
▁조지서	-11.7169
▁얼굴로	-11.7169
▁별이	-11.717
▁비방이	-11.7171
▁저축한	-11.7171
▁왜노	-11.7173
▁병신년	-11.7174
대와	-11.7174
▁연유한	-11.7174
▁제수하지	-11.7175
▁윤씨	-11.7176
▁소동	-11.7176
전부터	-11.7178
▁은혜로	-11.7178
▁국청에	-11.7178
▁있으랴	-11.7178
▁홍만용	-11.7179
▁밝힐	-11.7179
▁뵙고	-11.7179
▁명분이	-11.7179
▁정전에	-11.7179
▁물러갈	-11.718
▁기다렸는데	-11.7181
▁때마침	-11.7181
▁진도	-11.7182
▁소속시켜	-11.7182
곡이	-11.7182
▁이광좌	-11.7183
▁아프다	-11.7183
▁가자는	-11.7185
▁초관	-11.7186
▁김지남	-11.7187
하오나	-11.7187
군문	-11.7189
▁온양	-11.719
▁도모한	-11.719
▁재상들이	-11.7192
받	-11.7193
▁괴이	-11.7194
▁영속	-11.7198
▁처단할	-11.7198
▁육상궁에	-11.7199
▁못되어	-11.72
▁서자	-11.7201
▁봉입하지	-11.7201
정부	-11.7202
▁흉계	-11.7203
▁근밀한	-11.7205
▁고례에	-11.7205
▁예모	-11.7206
▁우윤	-11.7208
▁자신에게	-11.7208
▁회피	-11.7209
▁공해	-11.7209
▁앓는	-11.721
▁경흥	-11.7212
▁있자	-11.7214
▁간단	-11.7214
▁김만중	-11.7215
▁시험하게	-11.7215
▁정은	-11.7216
▁곤란한	-11.7217
▁하였다면	-11.7219
▁이완이	-11.722
▁정인	-11.722
▁마련하고	-11.722
으신	-11.7221
▁꼴	-11.7221
▁달렸	-11.7222
▁석방할	-11.7222
▁구별하여	-11.7224
▁서방	-11.7225
▁발생하여	-11.7227
▁모신	-11.7231
▁등처	-11.7232
호에	-11.7233
▁숨긴	-11.7234
▁다르므로	-11.7234
▁벼슬살이	-11.7234
▁않았더라도	-11.7235
▁형관	-11.7235
조종	-11.7235
▁정상에	-11.7236
▁유사의	-11.7236
▁인경궁	-11.7237
▁사관은	-11.7237
▁자기와	-11.7239
▁조경이	-11.7239
하여서는	-11.7239
▁이규령	-11.7239
▁파척하소서	-11.7241
▁우군	-11.7241
검을	-11.7241
▁천조	-11.7242
▁받았다고	-11.7242
▁연소	-11.7242
▁부경	-11.7242
▁김징	-11.7244
청에서	-11.7244
▁본군	-11.7246
▁이효	-11.7247
▁주저	-11.7249
▁삼고자	-11.725
▁허목	-11.7252
▁찾아보	-11.7254
▁병란	-11.7259
▁홍귀달	-11.7259
▁의식이	-11.7261
▁윤은로	-11.7262
▁얻었	-11.7263
▁소관	-11.7263
▁자손들	-11.7264
▁과중한	-11.7265
▁신임을	-11.7267
▁왕위에	-11.7267
경까지	-11.7267
▁기르고	-11.7268
▁유창	-11.7269
하셨다	-11.727
▁마무리	-11.727
리와	-11.7274
▁한성	-11.7275
▁중간	-11.7277
▁영합	-11.7277
▁아비와	-11.7279
▁친영	-11.7279
▁재상과	-11.7279
▁불안하게	-11.7281
십니까	-11.7281
▁설립	-11.7281
▁이홍	-11.7281
▁초야	-11.7281
▁금하여	-11.7282
▁바로잡으	-11.7283
하였거나	-11.7286
▁애초	-11.7286
▁답습	-11.7287
▁다방면	-11.7287
▁지경연	-11.7287
▁길흉	-11.7288
▁가옥	-11.7288
▁전공	-11.7289
▁정지시키	-11.729
▁간인	-11.729
▁건립	-11.7291
▁처하는	-11.7293
▁들어왔는데	-11.7294
▁하향	-11.7294
서리	-11.7295
▁윤승훈	-11.7295
끼리	-11.7296
▁성화	-11.7296
▁정순붕	-11.7297
▁김좌명이	-11.7297
▁무오년	-11.7298
▁제읍	-11.73
▁버티고	-11.7301
었는지	-11.7301
▁왕래한	-11.7301
▁성세창	-11.7301
김시	-11.7302
했으면	-11.7302
▁정책	-11.7304
▁상고해서	-11.7305
▁칭하여	-11.7306
이명	-11.7306
▁원각사	-11.7307
▁정례	-11.7309
▁병사에게	-11.731
▁진하사	-11.7311
▁꺼려서	-11.7312
▁청한다	-11.7313
시킴으로써	-11.7314
▁종부시에서	-11.7316
▁다해야	-11.7317
▁방종	-11.7317
▁홍치중이	-11.7318
▁그들과	-11.732
주소서	-11.732
▁고유	-11.7321
▁당연	-11.7322
▁무리와	-11.7325
▁영남에	-11.7325
▁치르	-11.7325
부터는	-11.7328
글	-11.7328
▁무리로	-11.7328
▁아이들	-11.7328
▁의정부가	-11.7329
▁본의에	-11.7332
수군	-11.7332
▁연장	-11.7332
▁시문	-11.7333
▁봉심한	-11.7333
▁적합	-11.7333
▁시험하고	-11.7333
▁등극	-11.7334
▁부실	-11.7335
스러움이	-11.7335
▁교생	-11.7339
▁부령	-11.7341
▁이따금	-11.7341
하였사온데	-11.7342
▁체포하게	-11.7342
정시	-11.7344
▁하교하시기를	-11.7344
▁삼사에	-11.7345
▁반대	-11.7346
▁만일에	-11.7346
▁들어보지	-11.7347
▁슬프다	-11.7347
▁도와서	-11.7348
▁의논하였는데	-11.7349
▁다투	-11.7351
▁추향	-11.7352
▁부릴	-11.7352
영과	-11.7354
어진	-11.7355
▁최천건	-11.7356
▁성희안	-11.7356
▁궐정에서	-11.7358
▁논의한	-11.7359
▁심재	-11.736
▁구문	-11.736
▁양양	-11.7361
▁나타나는	-11.7362
▁두둔	-11.7363
▁수사로	-11.7363
▁개연	-11.7367
▁황제에게	-11.7367
▁싸우다가	-11.7368
▁의약	-11.7368
▁내승	-11.7368
▁이빈	-11.7369
내는	-11.7372
▁없어진	-11.7373
▁감옥에	-11.7373
▁문제로	-11.7374
▁이경여	-11.7374
▁야인에게	-11.7376
▁응답	-11.7377
▁가을까지	-11.7378
았으나	-11.7381
▁추안	-11.7382
▁금일	-11.7382
승문원	-11.7383
역의	-11.7383
▁수렴	-11.7385
▁원한이	-11.7386
▁이목이	-11.7386
▁역모에	-11.7386
▁녹명	-11.7387
▁추천하여	-11.7387
▁왕지	-11.7388
▁것만으로	-11.7389
원으로	-11.7391
앞으로	-11.7392
휘가	-11.7393
▁사성	-11.7393
▁가하는	-11.7394
▁명정	-11.7396
▁살피시어	-11.7398
▁조가	-11.7398
▁보았으니	-11.7399
▁치란	-11.7404
▁보태어	-11.7405
▁신경진	-11.7406
▁전옥서	-11.7409
▁심수현	-11.7411
▁기만	-11.7412
▁회시	-11.7412
▁무너뜨리	-11.7413
▁봉안하고	-11.7413
▁모은	-11.7413
▁불초한	-11.7415
▁연차	-11.7415
▁이감	-11.7417
▁힘으로	-11.7418
▁교유	-11.7422
▁도중에서	-11.7422
▁적습니다	-11.7423
▁수작	-11.7423
▁주강하여	-11.7425
▁책은	-11.7426
퇴	-11.7426
▁다르고	-11.7427
▁겸대	-11.7429
▁말했다	-11.7429
법은	-11.7432
▁막게	-11.7433
▁고부	-11.7434
▁나라로	-11.7434
▁역에	-11.7437
▁변명하는	-11.7438
▁입계한	-11.7438
▁착용하고	-11.7438
▁산관	-11.7439
▁이정신	-11.7439
▁써넣	-11.7441
▁제수하였는데	-11.7443
앞서	-11.7446
▁참형	-11.7446
▁거리에	-11.7447
▁노정	-11.7447
▁전전	-11.7448
림을	-11.7448
▁벼슬한	-11.745
▁잗단	-11.7451
▁그렇지만	-11.7453
▁소치이니	-11.7455
▁김남중	-11.7457
▁인솔하고	-11.7458
▁임무에	-11.7459
▁동북면	-11.7459
▁국체	-11.7459
▁알면서	-11.7459
▁겸관	-11.746
▁이덕숭	-11.746
진과	-11.746
▁못하지만	-11.7461
▁내놓	-11.7462
놓	-11.7463
▁윤삼빙	-11.7464
▁탄핵한	-11.7465
▁전말	-11.7466
▁보양	-11.7466
▁사섬시	-11.7468
▁경계에	-11.7468
▁백저포	-11.7468
▁덕성	-11.7469
▁이경휘	-11.7469
▁최명길	-11.7469
▁배반하고	-11.747
▁환상	-11.747
하시며	-11.7473
▁김효	-11.7474
▁논계하니	-11.7477
▁칼로	-11.7478
▁아뢰었고	-11.7478
봉사	-11.7479
▁후환	-11.7479
▁구관	-11.7479
▁잡았다	-11.748
▁벌은	-11.7481
▁고조	-11.7481
▁이쪽	-11.7481
압	-11.7483
▁사마	-11.7484
▁당일	-11.7486
▁허황	-11.7486
▁금수	-11.7487
▁헐어	-11.7488
▁좁은	-11.7493
▁균등	-11.7494
▁쫓아내	-11.7495
▁얻었다고	-11.7498
심합니다	-11.7499
▁적체	-11.75
▁성헌	-11.7501
▁조지	-11.7502
▁주민	-11.7504
립니다	-11.7505
▁않던	-11.7506
▁육지로	-11.7507
▁면전에서	-11.7507
▁좋겠는가	-11.7507
▁나왔으므로	-11.7508
▁조관빈	-11.7509
▁미치니	-11.751
▁징치	-11.7511
▁태반이	-11.7511
▁노여움이	-11.7513
▁한효원	-11.7514
▁계축년	-11.7514
▁쇄마	-11.7514
▁아무개	-11.7514
▁관무재	-11.7516
▁이사명	-11.7516
습니까	-11.7517
▁치재	-11.7517
▁노산군	-11.7518
▁고치기	-11.7518
▁경기감사	-11.7518
스러우니	-11.7519
▁온다면	-11.7519
▁권건	-11.7522
▁수행하는	-11.7522
▁보도	-11.7522
▁유둔	-11.7523
▁방어를	-11.7523
▁쓰려고	-11.7523
▁시약청	-11.7524
▁올리라고	-11.7525
▁감당하기	-11.7525
주태수	-11.7526
▁아는데	-11.7527
▁신명규	-11.7527
▁그러하다	-11.7528
행하겠습니다	-11.7529
화는	-11.7535
▁유자광이	-11.7537
▁주둔하고	-11.7537
▁명하였으나	-11.7538
▁저사	-11.7539
▁은사	-11.754
▁광망	-11.7542
▁백관은	-11.7545
▁식물을	-11.7545
▁공신에	-11.7546
▁역로가	-11.7548
▁인민이	-11.7548
▁야대에	-11.7548
강무	-11.7549
드릴	-11.7551
진주	-11.7551
▁기상	-11.7551
▁전계인	-11.7552
▁이창신	-11.7552
▁방도로	-11.7554
▁하인들	-11.7555
▁상례로	-11.7555
▁등등	-11.7556
▁올라오는	-11.7557
▁조복을	-11.7559
▁살지	-11.7559
▁가리는	-11.756
▁청해	-11.756
▁갑진년	-11.7562
▁돈화문	-11.7562
▁장악	-11.7562
▁있사온데	-11.7563
▁멸망	-11.7563
▁얻었는데	-11.7566
▁사람보다	-11.7566
▁미미	-11.7568
▁자칭	-11.7568
▁이계손	-11.7568
▁대통	-11.7569
▁들어왔	-11.7569
▁병과	-11.7572
▁패전	-11.7573
▁번져	-11.7573
▁해당됩니다	-11.7574
▁갑오년	-11.7574
째	-11.7575
▁조수익	-11.7575
▁감독하는	-11.7576
▁비교하여	-11.7578
▁다스리기	-11.758
▁재배	-11.758
▁많으면	-11.758
▁태상	-11.7581
▁은대	-11.7581
▁당습	-11.7582
▁임상원	-11.7583
▁이장곤	-11.7583
▁이의현	-11.7583
▁이종성이	-11.7583
▁주위	-11.7586
종사관	-11.7587
교리	-11.759
▁펴는	-11.7592
▁봉교로	-11.7593
▁김양택	-11.7595
▁호종한	-11.7596
▁혹독한	-11.7597
▁청이	-11.7599
▁면제하여	-11.7601
현과	-11.7602
하다면	-11.7602
빛	-11.7606
▁못하면서	-11.7606
▁북도에	-11.7608
▁구속	-11.7608
셨	-11.7608
▁모르지	-11.7611
▁공홍도	-11.7611
시키라고	-11.7611
▁정성은	-11.7613
▁변하여	-11.7614
▁김한	-11.7614
▁대어	-11.7615
았으며	-11.7616
▁끌어들인	-11.7618
▁격쟁	-11.7618
▁함경북도	-11.7618
▁돌아볼	-11.7618
▁포획	-11.762
근은	-11.7621
▁점은	-11.7622
사위	-11.7623
발을	-11.7623
▁천변이	-11.7624
수에	-11.7624
▁군향	-11.7624
▁이것으로써	-11.7625
▁재목이	-11.7626
▁당인	-11.7626
▁전교하신	-11.7627
▁하실	-11.7627
▁차자는	-11.7627
▁바꾼	-11.7627
습을	-11.7627
시킨다	-11.7628
▁안당	-11.7628
▁문책	-11.7629
▁적선	-11.7629
▁만나지	-11.763
▁동향	-11.7631
▁숨기는	-11.7631
▁연사	-11.7631
긍	-11.7632
▁구의강	-11.7632
▁신료들이	-11.7632
▁상언한	-11.7634
▁계시	-11.7634
계사	-11.7636
▁깨닫	-11.7637
태를	-11.7638
등의	-11.7638
▁마련해서	-11.7638
조와	-11.7638
▁내관이	-11.764
▁옛터	-11.7642
백관	-11.7642
▁묘소에	-11.7645
▁거짓이	-11.7646
▁금위영	-11.7647
▁자책	-11.7649
▁전계한	-11.7649
▁점수	-11.7649
▁바꾸어서	-11.7649
▁무사들	-11.765
▁박경	-11.765
▁손순효	-11.7652
이경	-11.7652
자리를	-11.7652
번이	-11.7653
식은	-11.7655
▁체차시키	-11.7655
▁이르러서야	-11.7656
▁세손	-11.766
▁문밖에	-11.7662
▁한편으로	-11.7662
▁변고에	-11.7666
▁전례로	-11.7669
▁표류하여	-11.7669
▁본청	-11.7669
▁나왔다고	-11.7672
▁물러간	-11.7673
▁나름대로	-11.7674
▁지냈으니	-11.7674
▁모셔	-11.7674
▁경고	-11.7675
▁허리	-11.7676
획	-11.7677
▁섭	-11.7677
▁주장하여	-11.7678
▁명하셨으니	-11.7678
▁전념	-11.7679
▁수호군	-11.7679
▁승진하여	-11.7679
▁구애받지	-11.7679
▁쓰면	-11.768
▁일어났는데	-11.768
▁복계하기를	-11.768
▁신들에게	-11.7681
▁입었습니다	-11.7683
▁명하시니	-11.7683
▁벽제	-11.7684
에게까지	-11.7684
▁성종조	-11.7685
▁김진귀	-11.7686
▁불경한	-11.7686
▁생각됩니다	-11.7686
▁사친	-11.7688
▁권율	-11.7688
▁파발	-11.7688
▁새기	-11.7689
▁속죄	-11.7691
▁것이었으니	-11.7691
▁세월만	-11.7693
▁내리라고	-11.7693
▁제자	-11.7693
▁결실	-11.7695
▁몰랐다	-11.7695
▁자료로	-11.7695
▁폐단과	-11.7696
▁판서와	-11.7697
▁저물어	-11.7697
▁정중	-11.7698
▁숭정전에	-11.77
▁어찌해야	-11.77
▁벌목	-11.77
▁임어하여	-11.7701
▁계략	-11.7702
▁타일러서	-11.7702
▁비망기에	-11.7704
▁국옥	-11.7705
▁지극하다	-11.7706
▁나가니	-11.7707
▁북정	-11.7708
▁되기에	-11.7711
▁차인	-11.7711
▁조옥	-11.7711
▁공박	-11.7712
▁중궁전	-11.7713
▁뇌물로	-11.7714
▁용서하기	-11.7715
▁자초	-11.7716
▁나열	-11.7716
▁황충이	-11.7717
예조판서	-11.7721
이조판서	-11.7721
경들이	-11.7722
▁슬	-11.7724
봉이	-11.7725
▁메	-11.7727
▁지경에까지	-11.7727
▁기대에	-11.7727
▁수개	-11.7727
▁대답할	-11.773
▁웃음거리	-11.773
▁호수	-11.773
▁영안도관찰사	-11.773
▁저들에게	-11.7731
놓은	-11.7731
▁요속	-11.7731
▁월령	-11.7732
▁어려우나	-11.7732
▁찬축	-11.7733
▁건강이	-11.7733
시의	-11.7733
▁포용하	-11.7733
마리를	-11.7733
▁황폐	-11.7734
▁다행이	-11.7734
▁낭청과	-11.7734
▁무리에게	-11.7734
▁정석오	-11.7735
▁부탁하여	-11.7735
▁유모	-11.7736
▁봉족	-11.7736
▁잡범	-11.7737
▁묘당이	-11.7738
▁갈리	-11.7739
▁체포하지	-11.774
▁지붕	-11.774
▁문의하여	-11.774
▁생존	-11.7741
▁체직된	-11.7742
▁기한에	-11.7745
▁진달하였다	-11.7746
낭	-11.7746
▁권반	-11.7747
▁헌장	-11.7747
▁본받는	-11.775
▁청하였으며	-11.775
▁개만	-11.7751
▁황급	-11.7751
▁승리	-11.7751
▁서민	-11.7752
▁대간들	-11.7752
▁학술이	-11.7754
▁앙	-11.7755
▁이철보	-11.7756
▁풍도	-11.7756
▁버렸다	-11.7756
▁줄만	-11.7757
▁않았음	-11.7759
통이	-11.7762
▁지탱하기	-11.7764
▁시험하는	-11.7764
▁털	-11.7767
▁난잡	-11.7767
▁하리에게	-11.7767
국을	-11.777
▁벽동	-11.777
▁무역하여	-11.7771
▁자리만	-11.7772
▁국문한	-11.7774
▁효수	-11.7777
▁싹	-11.7777
▁부처한	-11.7779
▁융성	-11.778
▁왜인에게	-11.778
▁잘못이라고	-11.7781
▁기절	-11.7782
▁정성에서	-11.7784
▁영위	-11.7785
▁불의	-11.7785
▁못된	-11.7785
▁묘사	-11.7785
▁생업에	-11.7786
▁이극	-11.7787
▁뒷폐단	-11.7787
▁믿기	-11.7787
▁해롭지	-11.7787
▁새끼	-11.7788
▁이순신	-11.7788
▁사귀	-11.7789
▁혜성	-11.779
▁종전에	-11.7791
▁신묘년	-11.7791
▁고양	-11.7791
▁방에	-11.7791
▁회포	-11.7792
▁무엇인가	-11.7792
▁넘치는	-11.7792
▁친속	-11.7792
▁돌릴	-11.7793
▁방법에	-11.7793
▁풀고	-11.7794
▁덧붙여	-11.7796
▁시초	-11.7796
서울	-11.7797
▁입역	-11.7798
▁다음으로	-11.7799
▁정흠지	-11.7799
사간원	-11.7799
▁궐내에서	-11.78
▁원성이	-11.78
▁상신이	-11.78
냥을	-11.7801
▁38	-11.7802
▁급급하여	-11.7802
▁이징옥	-11.7802
▁긴급하지	-11.7802
갔는데	-11.7803
▁그러하니	-11.7804
▁지키기	-11.7805
▁헤아리	-11.7805
▁권농	-11.7805
▁동참한	-11.7806
▁체대	-11.7807
▁관찰사에	-11.7807
▁바로잡아야	-11.7807
▁검시	-11.7807
환은	-11.7808
▁도임한	-11.7808
▁하였겠습니까	-11.781
▁소격서	-11.7811
▁장난	-11.7812
실의	-11.7812
▁흘리	-11.7812
▁옛날과	-11.7813
▁첨지중추원사	-11.7814
▁마시는	-11.7815
▁몸가짐이	-11.7815
▁관리에게	-11.7815
하온데	-11.7816
▁제기하여	-11.7816
▁효령	-11.7817
산과	-11.7819
▁김귀	-11.7819
▁봉안하는	-11.7819
▁위급함	-11.782
▁깨끗한	-11.7821
선조	-11.7821
▁봉사손	-11.7822
▁박수	-11.7823
▁대왕께서	-11.7824
▁수어	-11.7827
▁아내에게	-11.7828
▁박연	-11.7828
▁권과	-11.7828
▁대답한	-11.7829
▁어렵	-11.783
▁김사	-11.7831
▁성임	-11.7831
▁성격이	-11.7832
▁옥후	-11.7833
▁횡행	-11.7833
칸	-11.7835
▁사패	-11.7836
▁정권	-11.7836
▁심열	-11.7837
▁물어본	-11.7837
▁이곳에서	-11.7838
▁때문인	-11.7838
▁가지는	-11.7843
▁예부에서	-11.7843
▁김상성	-11.7844
▁굽는	-11.7844
▁아닙니까	-11.7844
▁통훈대부	-11.7844
▁내리면	-11.7845
▁휴식	-11.7845
▁전제	-11.7846
▁외로운	-11.7846
▁위함이었다	-11.7847
▁누락된	-11.7849
▁겸양	-11.7849
보내	-11.7849
▁생각으로	-11.7852
▁조정립	-11.7852
▁홍원	-11.7854
▁무어라	-11.7858
▁공조판서	-11.7859
▁막히고	-11.786
▁상언에	-11.7861
▁장청	-11.7861
▁청했던	-11.7865
▁아뢰면서	-11.7865
시키려는	-11.7865
▁두서	-11.7867
▁쓰라	-11.7867
▁곳곳	-11.7867
▁상상	-11.7868
▁말하자	-11.7869
▁주관하게	-11.7871
▁제향에	-11.7871
▁잉임시키	-11.7873
▁논척	-11.7874
▁아경	-11.7874
양의	-11.7875
▁이해가	-11.7877
▁이광덕	-11.7877
▁위협하여	-11.7878
▁종사와	-11.7878
▁역로	-11.7879
▁수상이	-11.7879
제사	-11.788
▁건너가	-11.7881
▁일관	-11.7881
▁임어	-11.7881
앙	-11.7884
▁복계하여	-11.7885
▁국경에	-11.7886
▁더럽히고	-11.789
영상	-11.7891
▁심상한	-11.7891
▁짐이	-11.7891
누	-11.7892
▁동지중추원사	-11.7892
▁글자로	-11.7894
▁경종	-11.7894
▁반포하여	-11.7895
▁군직에	-11.7895
년으로	-11.7896
▁옷이	-11.7896
▁다르기	-11.7898
▁적신	-11.7899
▁치계하라	-11.7899
별시위	-11.7899
▁읽은	-11.7902
▁외딴	-11.7902
▁서호수	-11.7902
▁김만균	-11.7902
호조판서	-11.7902
▁명년에	-11.7902
▁봉록	-11.7903
▁잠저	-11.7903
▁못하겠으니	-11.7904
▁내렸으나	-11.7904
훈련	-11.7904
였	-11.7904
▁이헌국	-11.7905
▁바치므로	-11.7906
▁당도	-11.7906
▁혁파하지	-11.7907
▁민원	-11.7909
▁맡긴	-11.7911
▁백관에게	-11.7911
▁부족하다	-11.7913
▁옳으니	-11.7913
▁서종태가	-11.7914
▁성에	-11.7914
▁채우는	-11.7915
▁조종조로부터	-11.7916
▁논의하는	-11.7917
단에	-11.7917
▁박이서	-11.7918
▁정우량	-11.7918
▁초고	-11.7918
▁아끼	-11.7919
▁조적	-11.7921
▁숙마를	-11.7923
▁상소하고	-11.7923
▁악역	-11.7924
▁좌사간	-11.7925
▁늙	-11.7925
▁김득	-11.7926
▁유척기	-11.7926
▁여항	-11.7926
▁내려야	-11.7927
▁차비문	-11.7927
대고	-11.7928
▁복색을	-11.7929
▁영천	-11.7931
술을	-11.7932
▁무반	-11.7933
훈도	-11.7937
▁구차한	-11.7938
▁잔약한	-11.7939
▁아닌지	-11.7939
▁기초	-11.794
▁고명을	-11.794
▁개정하라	-11.7941
▁구습	-11.7942
▁사방에서	-11.7943
▁연신	-11.7946
▁치며	-11.7946
▁어렵기	-11.7947
이었을	-11.7948
▁제한	-11.7949
▁파척하라	-11.7949
▁절대	-11.795
▁다니	-11.795
▁존엄	-11.7951
▁천금	-11.7954
▁절박	-11.7954
▁중론	-11.7954
▁구제하여	-11.7954
▁변계량	-11.7954
▁조방장	-11.7955
▁홍우원	-11.7956
▁났	-11.7957
▁부귀	-11.7957
▁김응	-11.7958
지금부터	-11.7958
▁판결사	-11.7958
시기를	-11.7959
▁활쏘는	-11.7959
▁주다례	-11.796
▁인책	-11.7961
▁동철	-11.7961
▁퇴각	-11.7962
▁역승	-11.7962
▁전옥	-11.7963
▁상례에	-11.7966
야인	-11.7966
▁불만	-11.7968
▁학문은	-11.7969
▁경하	-11.7969
▁백호	-11.7969
▁임시하여	-11.797
▁일족	-11.7973
▁자들에게	-11.7973
▁망제	-11.7973
▁강가에	-11.7974
▁중비	-11.7976
▁주시니	-11.7977
▁추잡	-11.7979
▁화살에	-11.7982
▁밀부	-11.7982
경연	-11.7983
▁차지하여	-11.7983
귀가	-11.7983
▁예비	-11.7984
▁어용	-11.7985
양을	-11.7986
[...]
